alignas(8) const unsigned char g_model[] = {
  0x20, 0x00, 0x00, 0x00, 0x54, 0x46, 0x4c, 0x33, 0x00, 0x00, 0x00, 0x00,
  0x14, 0x00, 0x20, 0x00, 0x04, 0x00, 0x08, 0x00, 0x0c, 0x00, 0x10, 0x00,
  0x14, 0x00, 0x00, 0x00, 0x18, 0x00, 0x1c, 0x00, 0x14, 0x00, 0x00, 0x00,
  0x03, 0x00, 0x00, 0x00, 0xd4, 0x1f, 0x00, 0x00, 0x80, 0x17, 0x00, 0x00,
  0x68, 0x17, 0x00, 0x00, 0xb8, 0x00, 0x00, 0x00, 0x80, 0x00, 0x00, 0x00,
  0x04, 0x00, 0x00, 0x00, 0x01, 0x00, 0x00, 0x00, 0x10, 0x00, 0x00, 0x00,
  0x00, 0x00, 0x0a, 0x00, 0x10, 0x00, 0x04, 0x00, 0x08, 0x00, 0x0c, 0x00,
  0x0a, 0x00, 0x00, 0x00, 0x40, 0x00, 0x00, 0x00, 0x1c, 0x00, 0x00, 0x00,
  0x04, 0x00, 0x00, 0x00, 0x0f, 0x00, 0x00, 0x00, 0x73, 0x65, 0x72, 0x76,
  0x69, 0x6e, 0x67, 0x5f, 0x64, 0x65, 0x66, 0x61, 0x75, 0x6c, 0x74, 0x00,
  0x01, 0x00, 0x00, 0x00, 0x04, 0x00, 0x00, 0x00, 0xc0, 0xff, 0xff, 0xff,
  0x08, 0x00, 0x00, 0x00, 0x12, 0x00, 0x00, 0x00, 0x07, 0x00, 0x00, 0x00,
  0x64, 0x65, 0x6e, 0x73, 0x65, 0x5f, 0x35, 0x00, 0x01, 0x00, 0x00, 0x00,
  0x04, 0x00, 0x00, 0x00, 0x62, 0xe9, 0xff, 0xff, 0x04, 0x00, 0x00, 0x00,
  0x0b, 0x00, 0x00, 0x00, 0x64, 0x65, 0x6e, 0x73, 0x65, 0x5f, 0x69, 0x6e,
  0x70, 0x75, 0x74, 0x00, 0x01, 0x00, 0x00, 0x00, 0x0c, 0x00, 0x00, 0x00,
  0x08, 0x00, 0x0c, 0x00, 0x04, 0x00, 0x08, 0x00, 0x08, 0x00, 0x00, 0x00,
  0x08, 0x00, 0x00, 0x00, 0x14, 0x00, 0x00, 0x00, 0x13, 0x00, 0x00, 0x00,
  0x6d, 0x69, 0x6e, 0x5f, 0x72, 0x75, 0x6e, 0x74, 0x69, 0x6d, 0x65, 0x5f,
  0x76, 0x65, 0x72, 0x73, 0x69, 0x6f, 0x6e, 0x00, 0x15, 0x00, 0x00, 0x00,
  0x9c, 0x16, 0x00, 0x00, 0x88, 0x16, 0x00, 0x00, 0x4c, 0x16, 0x00, 0x00,
  0xb8, 0x15, 0x00, 0x00, 0x74, 0x15, 0x00, 0x00, 0x50, 0x15, 0x00, 0x00,
  0x0c, 0x15, 0x00, 0x00, 0x78, 0x14, 0x00, 0x00, 0xb4, 0x0f, 0x00, 0x00,
  0xf0, 0x0a, 0x00, 0x00, 0x8c, 0x0a, 0x00, 0x00, 0x28, 0x0a, 0x00, 0x00,
  0x64, 0x05, 0x00, 0x00, 0xa0, 0x00, 0x00, 0x00, 0x94, 0x00, 0x00, 0x00,
  0x80, 0x00, 0x00, 0x00, 0x6c, 0x00, 0x00, 0x00, 0x58, 0x00, 0x00, 0x00,
  0x44, 0x00, 0x00, 0x00, 0x30, 0x00, 0x00, 0x00, 0x04, 0x00, 0x00, 0x00,
  0x06, 0xea, 0xff, 0xff, 0x04, 0x00, 0x00, 0x00, 0x10, 0x00, 0x00, 0x00,
  0x31, 0x2e, 0x35, 0x2e, 0x30, 0x00, 0x00, 0x00, 0x00, 0x00, 0x00, 0x00,
  0x00, 0x00, 0x00, 0x00, 0x00, 0x00, 0x00, 0x00, 0x00, 0x00, 0x00, 0x00,
  0x00, 0x00, 0x00, 0x00, 0xa8, 0xe1, 0xff, 0xff, 0x00, 0x00, 0x00, 0x00,
  0x00, 0x00, 0x00, 0x00, 0x00, 0x00, 0x00, 0x00, 0xb8, 0xe1, 0xff, 0xff,
  0x00, 0x00, 0x00, 0x00, 0x00, 0x00, 0x00, 0x00, 0x00, 0x00, 0x00, 0x00,
  0xc8, 0xe1, 0xff, 0xff, 0x00, 0x00, 0x00, 0x00, 0x00, 0x00, 0x00, 0x00,
  0x00, 0x00, 0x00, 0x00, 0xd8, 0xe1, 0xff, 0xff, 0x00, 0x00, 0x00, 0x00,
  0x00, 0x00, 0x00, 0x00, 0x00, 0x00, 0x00, 0x00, 0xe8, 0xe1, 0xff, 0xff,
  0x00, 0x00, 0x00, 0x00, 0x00, 0x00, 0x00, 0x00, 0x00, 0x00, 0x00, 0x00,
  0xf8, 0xe1, 0xff, 0xff, 0x00, 0x00, 0x00, 0x00, 0x86, 0xea, 0xff, 0xff,
  0x04, 0x00, 0x00, 0x00, 0xb0, 0x04, 0x00, 0x00, 0x20, 0xab, 0xce, 0xbd,
  0x04, 0x5e, 0xe6, 0x3d, 0xed, 0x75, 0xb9, 0xbe, 0xf5, 0x58, 0x9a, 0xbd,
  0x0c, 0xf4, 0x84, 0xbd, 0x56, 0x35, 0x40, 0xbe, 0xf5, 0x2d, 0xed, 0x3e,
  0x00, 0x3e, 0x28, 0x3e, 0xf4, 0xb1, 0x98, 0x3e, 0xbc, 0xfc, 0x72, 0x3e,
  0x83, 0x87, 0x94, 0xbe, 0x71, 0xfb, 0x9e, 0x3e, 0x78, 0x32, 0xbd, 0x3e,
  0x3f, 0x1c, 0xc6, 0x3e, 0x42, 0x7b, 0x5d, 0x3d, 0xe0, 0xab, 0x2e, 0xbc,
  0x60, 0x51, 0x4f, 0x3e, 0xf5, 0x8c, 0xa0, 0xbd, 0x1e, 0xdd, 0x4f, 0xbe,
  0x4e, 0xe4, 0x7f, 0xbe, 0x31, 0xfd, 0xa6, 0xbc, 0xa5, 0x44, 0xa1, 0x3e,
  0xc4, 0x62, 0xf4, 0xbd, 0x62, 0x43, 0xc8, 0x3c, 0xf9, 0x21, 0xf6, 0x3c,
  0x8e, 0xec, 0x97, 0xbe, 0x44, 0xc2, 0x85, 0x3e, 0x38, 0x1d, 0x2c, 0x3e,
  0x30, 0xb6, 0x52, 0xbe, 0x98, 0x76, 0xde, 0x3d, 0x8c, 0x8b, 0x2c, 0x3e,
  0xb0, 0x36, 0xfd, 0xbc, 0x18, 0x89, 0x63, 0x3d, 0x95, 0xe8, 0xec, 0x3e,
  0x6c, 0xf3, 0x71, 0xbe, 0xb9, 0x1b, 0xb8, 0x3e, 0xd0, 0x17, 0x04, 0xbd,
  0x70, 0x48, 0x30, 0x3e, 0x88, 0xa0, 0x6b, 0xbe, 0x5b, 0x5d, 0x75, 0x3c,
  0x6f, 0x27, 0xb0, 0xbe, 0xb2, 0xaa, 0xb1, 0x3e, 0x29, 0x5d, 0x96, 0x3e,
  0xc9, 0x31, 0x7e, 0x3e, 0xb6, 0x53, 0x1c, 0x3e, 0xa6, 0x83, 0xa2, 0xbe,
  0x0a, 0x39, 0xaf, 0xbe, 0x1d, 0x20, 0x5d, 0x3c, 0xc7, 0xe1, 0x7e, 0x3e,
  0x1e, 0xcc, 0xac, 0xbe, 0x28, 0xc4, 0x8b, 0x3e, 0xf8, 0xb5, 0x24, 0x3e,
  0xdb, 0xac, 0xaf, 0xbc, 0x54, 0x78, 0x23, 0x3e, 0x8d, 0xd5, 0x2b, 0x3e,
  0xfe, 0x36, 0xb4, 0xbc, 0x82, 0x58, 0xa9, 0xbe, 0x4d, 0x35, 0x2c, 0xbe,
  0xfe, 0x39, 0x09, 0x3f, 0x10, 0xe0, 0x63, 0xbe, 0x70, 0x63, 0xa5, 0xbc,
  0xb2, 0xea, 0xb3, 0xbe, 0x87, 0x74, 0x05, 0x3e, 0x37, 0xf4, 0x16, 0x3e,
  0x78, 0xc4, 0xb6, 0x3e, 0xa6, 0x48, 0xd5, 0x3d, 0x61, 0x71, 0x77, 0xbe,
  0x74, 0x41, 0xa1, 0xbe, 0x92, 0xa4, 0x53, 0xbe, 0xbf, 0x82, 0xc9, 0x3d,
  0xcc, 0x34, 0x06, 0x3e, 0x57, 0x73, 0xb7, 0xbe, 0x02, 0x26, 0xf5, 0x3d,
  0xb3, 0xa6, 0x68, 0x3e, 0xb7, 0x00, 0x2f, 0x3e, 0x40, 0x6e, 0x20, 0x3c,
  0xe0, 0x73, 0x28, 0x3e, 0x14, 0x61, 0x3c, 0x3e, 0xb4, 0x89, 0x6b, 0xbe,
  0x2c, 0xb1, 0x1f, 0x3e, 0xda, 0xe7, 0x63, 0xbe, 0x30, 0x9e, 0xbb, 0x3e,
  0x67, 0x98, 0x05, 0xbe, 0xe7, 0x8f, 0x1b, 0xbe, 0x2d, 0xf1, 0x94, 0xbe,
  0xf1, 0xc1, 0x3f, 0xbd, 0x8e, 0x7f, 0xbb, 0xbe, 0x15, 0xb0, 0xb7, 0xbe,
  0x16, 0x35, 0x9e, 0x3e, 0x6f, 0xf4, 0xf2, 0xbd, 0x00, 0xc1, 0x05, 0x3c,
  0x00, 0x28, 0x51, 0x3e, 0x94, 0x6f, 0x2a, 0xbd, 0xb1, 0x99, 0x49, 0xbe,
  0x90, 0xc8, 0xa7, 0x3e, 0xc6, 0x52, 0x83, 0xbe, 0x5c, 0x05, 0xf9, 0xbc,
  0x58, 0x22, 0x5c, 0xbd, 0xac, 0x68, 0x97, 0xbd, 0x6c, 0xc1, 0x99, 0xbc,
  0xd8, 0x18, 0x57, 0x3e, 0x44, 0x8c, 0x7b, 0xbd, 0x99, 0x48, 0x15, 0x3e,
  0x00, 0x15, 0x7b, 0xbe, 0x5b, 0x37, 0x26, 0x3e, 0x8d, 0x32, 0x95, 0xbe,
  0xe0, 0x2d, 0x58, 0xbc, 0x4e, 0xb8, 0x83, 0x3d, 0xce, 0xed, 0x77, 0xbe,
  0x73, 0x30, 0x0c, 0xbe, 0x1d, 0xf5, 0x1f, 0x3e, 0x5a, 0xbf, 0x01, 0x3f,
  0xb8, 0x6b, 0xcb, 0xbe, 0x4e, 0xb5, 0x79, 0x3d, 0xeb, 0xfc, 0x62, 0xbe,
  0x89, 0x1e, 0x21, 0xbe, 0x30, 0x93, 0xbd, 0xbd, 0x20, 0x49, 0x5a, 0x3e,
  0xd8, 0xce, 0x0f, 0x3e, 0x8d, 0xae, 0x20, 0x3e, 0x73, 0xb7, 0xb9, 0xbe,
  0xfc, 0xbe, 0x7d, 0x3e, 0x24, 0x9b, 0x6c, 0xbe, 0x1d, 0x2d, 0xa2, 0x3e,
  0x0e, 0xb1, 0x82, 0x3e, 0x25, 0x81, 0xba, 0x3c, 0x96, 0x1e, 0xa2, 0x3d,
  0x78, 0xea, 0x69, 0x3e, 0x10, 0x08, 0xbd, 0xbd, 0xed, 0xf9, 0x2f, 0xbe,
  0xca, 0x00, 0xb0, 0xbe, 0x1e, 0xfd, 0x22, 0x3c, 0xff, 0xd1, 0x76, 0x3e,
  0x9b, 0x1f, 0xf3, 0xbd, 0x8f, 0x08, 0x5b, 0xbe, 0x80, 0x80, 0xf5, 0x3d,
  0x98, 0x4c, 0x24, 0x3e, 0x2e, 0xcc, 0x6c, 0x3c, 0x34, 0x69, 0x5a, 0x3e,
  0x2f, 0x1f, 0xed, 0xbd, 0x95, 0xd9, 0x75, 0x3e, 0xe0, 0x34, 0x59, 0x3d,
  0xd4, 0x66, 0xf5, 0x3d, 0x20, 0x95, 0x20, 0xbe, 0x83, 0x73, 0x98, 0xbe,
  0x10, 0xda, 0x9f, 0xbe, 0x10, 0x1e, 0xf1, 0x3d, 0x3e, 0xa1, 0x9f, 0x3e,
  0xb3, 0xbb, 0x8e, 0x3e, 0xdf, 0x21, 0x1b, 0xbe, 0x7a, 0x39, 0xc3, 0x3e,
  0xe8, 0x8e, 0x80, 0x3e, 0x5d, 0x1f, 0xbc, 0xbb, 0xb3, 0x36, 0x35, 0x3c,
  0x9e, 0x78, 0xb2, 0x3e, 0x0c, 0x79, 0x83, 0x3e, 0x2b, 0xc3, 0x4e, 0xbe,
  0x20, 0xb7, 0x79, 0xbe, 0x40, 0xdb, 0xee, 0xbd, 0x42, 0xec, 0x49, 0x3e,
  0x40, 0xd3, 0x62, 0x3e, 0x97, 0xc5, 0xab, 0xbe, 0x59, 0xdd, 0x5f, 0xbe,
  0x2a, 0xf1, 0x64, 0x3e, 0xc8, 0x5b, 0x02, 0x3f, 0x00, 0xee, 0x8b, 0xbc,
  0x57, 0x9e, 0x8c, 0xbe, 0x41, 0x14, 0x59, 0x3e, 0xbe, 0x9d, 0xb9, 0x3e,
  0xf3, 0x4e, 0xe0, 0x3e, 0x43, 0x78, 0x55, 0xbe, 0x64, 0xee, 0x8c, 0xbd,
  0xdf, 0x06, 0x0a, 0x3f, 0xbf, 0xe1, 0x29, 0x3e, 0x6c, 0xcb, 0xec, 0xbd,
  0x31, 0x18, 0x24, 0x3d, 0x2e, 0x56, 0x0b, 0xbe, 0x6f, 0x74, 0x33, 0xbe,
  0x33, 0x83, 0x8c, 0x3e, 0x05, 0xf8, 0x23, 0x3e, 0x01, 0x83, 0x27, 0xbe,
  0xff, 0x70, 0x16, 0xbe, 0x73, 0x4f, 0x8c, 0x3c, 0x6f, 0x35, 0x86, 0xbd,
  0x51, 0x00, 0x3b, 0xbe, 0x2b, 0x12, 0x30, 0xbe, 0x4a, 0xf1, 0x96, 0x3e,
  0xa4, 0x2d, 0x2b, 0x3e, 0xb8, 0x7e, 0xba, 0x3e, 0xe7, 0x5e, 0xbc, 0xbe,
  0x58, 0x27, 0x40, 0xbd, 0xfe, 0x42, 0xb0, 0xbe, 0xf8, 0x44, 0xee, 0x3e,
  0x16, 0x28, 0x0b, 0x3e, 0x05, 0x30, 0x16, 0xbe, 0xec, 0x2d, 0x9d, 0xbd,
  0xfe, 0xf3, 0xab, 0xbe, 0xd7, 0x92, 0xc6, 0xbc, 0x39, 0x06, 0x3c, 0xbe,
  0x5a, 0x0a, 0xcc, 0x3e, 0x99, 0x8d, 0xab, 0x3e, 0x9a, 0x10, 0x2a, 0x3e,
  0xca, 0xb2, 0x81, 0xbe, 0xf0, 0x80, 0x8f, 0xbe, 0xd2, 0x72, 0x28, 0x3e,
  0xcf, 0x93, 0xa4, 0xbe, 0x3c, 0x8b, 0x38, 0xbe, 0xe6, 0x8a, 0x8b, 0x3e,
  0x82, 0x9b, 0x60, 0xbe, 0xd5, 0xd6, 0xae, 0xbe, 0xd8, 0x3d, 0x02, 0x3d,
  0x3b, 0xe6, 0x17, 0xbe, 0x1b, 0x56, 0x3e, 0xbe, 0x6f, 0xe7, 0xec, 0x3e,
  0xef, 0x2b, 0x2e, 0x3e, 0xa4, 0x58, 0x36, 0xbe, 0x38, 0xd4, 0xb5, 0x3e,
  0x86, 0xd0, 0x46, 0xbe, 0xd4, 0x8c, 0x77, 0x3e, 0x51, 0xd2, 0xda, 0xbb,
  0x68, 0xfe, 0x71, 0x3e, 0x3c, 0x46, 0x31, 0xbe, 0x5c, 0x7c, 0x1f, 0xbe,
  0x9d, 0xe0, 0xeb, 0x3e, 0xe8, 0x1e, 0x8c, 0xbd, 0xb4, 0xd0, 0xa1, 0x3e,
  0xda, 0x55, 0x99, 0xbe, 0xef, 0xd8, 0xbf, 0x3e, 0xc0, 0x79, 0xc9, 0x3e,
  0xbf, 0x28, 0x76, 0x3e, 0x64, 0x14, 0x06, 0xbe, 0x27, 0x7e, 0xe1, 0xbd,
  0x5d, 0x74, 0x6e, 0x3d, 0x13, 0x62, 0x7c, 0xbe, 0x7e, 0xb3, 0xd9, 0xbd,
  0x6e, 0xea, 0x21, 0x3b, 0x9c, 0xf3, 0xc5, 0x3d, 0x5c, 0xfd, 0xb1, 0x3d,
  0x3b, 0xb7, 0x7f, 0x3e, 0x48, 0x0b, 0x09, 0x3e, 0x30, 0x34, 0x9a, 0x3c,
  0xa0, 0x0c, 0xa2, 0x3e, 0xfe, 0x5b, 0x42, 0xbe, 0xd9, 0xcf, 0x9a, 0x3e,
  0x2e, 0x50, 0x83, 0x3e, 0xed, 0x3f, 0x85, 0xbe, 0xef, 0xa4, 0x77, 0x3e,
  0x19, 0x20, 0x90, 0xbe, 0xc0, 0x47, 0x84, 0x3b, 0x7e, 0x46, 0x52, 0xbc,
  0x0e, 0xf7, 0x68, 0xbe, 0x35, 0x7c, 0x90, 0xbe, 0x33, 0xfb, 0xd0, 0x3e,
  0xd3, 0xab, 0x32, 0xbe, 0x74, 0x96, 0x4f, 0xbe, 0x28, 0xc3, 0x05, 0x3e,
  0x15, 0xff, 0xaf, 0xbe, 0xda, 0x12, 0x84, 0xbe, 0x31, 0x36, 0xc4, 0x3e,
  0xb2, 0x73, 0x46, 0xbe, 0x5d, 0x98, 0x99, 0x3e, 0xbe, 0x61, 0x8f, 0xbd,
  0x3b, 0x48, 0xde, 0xbd, 0xbd, 0x11, 0x88, 0xbe, 0x76, 0x62, 0x8c, 0x3d,
  0x3b, 0xc8, 0x7c, 0x3e, 0x78, 0x64, 0xd4, 0xbd, 0xdc, 0x7d, 0xbb, 0xbe,
  0x31, 0xc7, 0x50, 0x3e, 0xc3, 0x8b, 0x2f, 0xbe, 0x18, 0x2b, 0x98, 0xbd,
  0x81, 0x74, 0xa1, 0xbe, 0x72, 0x27, 0xa7, 0xbe, 0x25, 0xb7, 0x04, 0xbe,
  0x5e, 0x76, 0x50, 0x3e, 0xdb, 0xc9, 0x95, 0x3e, 0x26, 0xbf, 0x20, 0xbe,
  0xc8, 0xe1, 0x9e, 0xbd, 0x38, 0x9d, 0x90, 0x3e, 0x18, 0x1e, 0x8c, 0xbe,
  0x40, 0x4b, 0x49, 0x3c, 0x58, 0xd1, 0x41, 0xbe, 0x54, 0xbe, 0xab, 0xbd,
  0xdc, 0xfc, 0x57, 0x3e, 0x61, 0x91, 0x45, 0xbd, 0x98, 0xca, 0xab, 0xbd,
  0x88, 0xb4, 0xc3, 0xbd, 0xe8, 0xd6, 0x5a, 0x3e, 0xae, 0x75, 0xef, 0x3d,
  0xe8, 0x90, 0xbd, 0x3d, 0xc8, 0x46, 0xc6, 0x3e, 0xad, 0x7c, 0x83, 0xbd,
  0x49, 0x49, 0x60, 0xbd, 0x95, 0xb9, 0xd4, 0x3d, 0xd2, 0x3d, 0xe8, 0xbd,
  0xa4, 0xe4, 0xa5, 0x3e, 0x60, 0xce, 0xb7, 0x3e, 0x38, 0x59, 0xc3, 0x3e,
  0xf5, 0x04, 0x23, 0x3d, 0x72, 0xc3, 0xf4, 0x3d, 0x00, 0x00, 0x00, 0x00,
  0x46, 0xef, 0xff, 0xff, 0x04, 0x00, 0x00, 0x00, 0xb0, 0x04, 0x00, 0x00,
  0xf2, 0xde, 0x62, 0xbe, 0x1e, 0x74, 0x9c, 0xbe, 0xf0, 0xa8, 0xa8, 0xbe,
  0xc4, 0x67, 0xf5, 0xbd, 0x03, 0xb1, 0x8e, 0xbe, 0x9e, 0x7c, 0x28, 0xbe,
  0x40, 0xe9, 0xd2, 0x3b, 0x18, 0x2c, 0x92, 0x3d, 0xaf, 0x24, 0xb2, 0xbe,
  0x60, 0x44, 0x03, 0x3e, 0xe7, 0xe4, 0x3a, 0xbe, 0x00, 0x7b, 0x98, 0xbc,
  0x72, 0xbf, 0x4f, 0xbe, 0x4a, 0x3b, 0x74, 0xbe, 0x1d, 0x60, 0x36, 0xbe,
  0x98, 0x46, 0x4c, 0x3e, 0x84, 0x59, 0x61, 0xbe, 0x34, 0x90, 0xee, 0xbd,
  0x2b, 0x4c, 0x70, 0xbe, 0x4c, 0xf2, 0x3c, 0x3e, 0x44, 0x13, 0x2e, 0xbe,
  0x6e, 0x1c, 0x2a, 0xbe, 0xce, 0xca, 0x49, 0xbe, 0x22, 0xd4, 0x82, 0x3d,
  0x12, 0xf4, 0x8d, 0x3e, 0x42, 0x65, 0xa6, 0xbe, 0x9e, 0xef, 0x56, 0xbe,
  0xfd, 0x82, 0x97, 0xbd, 0x4c, 0xa6, 0x8b, 0x3c, 0xcc, 0xe4, 0x44, 0xbe,
  0x3c, 0x7f, 0x22, 0xbe, 0xb7, 0xa0, 0x9e, 0xbe, 0x60, 0xbb, 0x50, 0x3e,
  0xe2, 0x6d, 0xe1, 0x3d, 0xfd, 0x96, 0x9f, 0x3e, 0x6f, 0x7b, 0xdb, 0xbe,
  0x96, 0x45, 0x85, 0x3e, 0x1f, 0x69, 0x99, 0xbe, 0x22, 0x15, 0x54, 0x3d,
  0x39, 0xd5, 0x88, 0xbe, 0x73, 0x34, 0x63, 0x3e, 0xe1, 0x61, 0x1f, 0x3d,
  0xf2, 0x95, 0xbd, 0x3e, 0xa0, 0x74, 0xb6, 0x3e, 0x42, 0xff, 0x7e, 0xbe,
  0xe3, 0xab, 0x00, 0x3f, 0x19, 0x97, 0xf2, 0x3e, 0x2a, 0x89, 0xfc, 0x3e,
  0x50, 0x0e, 0xb1, 0x3c, 0xea, 0x6d, 0xc5, 0xbe, 0x32, 0x97, 0x9b, 0x3e,
  0xec, 0x6a, 0xbd, 0xbd, 0x67, 0x6a, 0xc0, 0xbe, 0xbb, 0xb0, 0x11, 0xbd,
  0x44, 0x9b, 0xec, 0x3d, 0x20, 0x09, 0x43, 0x3e, 0xf7, 0xcc, 0x99, 0xbe,
  0x70, 0x3c, 0x25, 0x3e, 0x57, 0x05, 0x9d, 0x3e, 0x88, 0x49, 0x6d, 0xbd,
  0xfe, 0x32, 0x98, 0xbe, 0x30, 0x9c, 0x7c, 0xbd, 0xc9, 0xdc, 0x8c, 0x3e,
  0x5f, 0x96, 0x9f, 0x3e, 0xd4, 0x74, 0xb0, 0xbe, 0x05, 0xed, 0x8c, 0xbd,
  0xd6, 0x03, 0x3d, 0x3e, 0x19, 0xa0, 0x9e, 0xbd, 0x7a, 0x78, 0x5e, 0x3e,
  0xf5, 0x4c, 0x97, 0xbe, 0xbc, 0x84, 0x9e, 0xbe, 0xbd, 0xa8, 0x1b, 0xbe,
  0x24, 0xc2, 0xb4, 0xbe, 0x28, 0x21, 0x97, 0xbe, 0xd0, 0x4c, 0xe1, 0x3d,
  0x3a, 0xc8, 0x2b, 0xbe, 0x94, 0xf0, 0x8c, 0x3e, 0x13, 0x56, 0x81, 0xbe,
  0x74, 0x74, 0xc0, 0xbe, 0x7a, 0x37, 0x92, 0xbe, 0x7a, 0x3b, 0x9f, 0xbe,
  0x39, 0x2b, 0xaa, 0xbe, 0x66, 0x87, 0x1f, 0xbe, 0x7c, 0x50, 0x85, 0xbd,
  0x3e, 0xeb, 0x92, 0xbe, 0xec, 0xb8, 0x3b, 0x3e, 0xc8, 0xa0, 0x86, 0x3e,
  0xf0, 0xc8, 0x27, 0xbe, 0xca, 0x52, 0xa8, 0xbe, 0x40, 0x6e, 0x7e, 0xbc,
  0x1c, 0x82, 0x88, 0x3e, 0x1d, 0xba, 0x34, 0xbd, 0x0b, 0x3a, 0xba, 0x3d,
  0xa7, 0x06, 0xc6, 0xbe, 0xc3, 0x91, 0x77, 0x3e, 0x59, 0xdb, 0xf9, 0x3d,
  0x82, 0x0c, 0x80, 0xbd, 0x4c, 0xc2, 0xfb, 0x3d, 0xc7, 0x06, 0x75, 0x3e,
  0x80, 0x31, 0x6b, 0x3d, 0xc9, 0x79, 0x4a, 0xbe, 0xd0, 0x3e, 0x06, 0xbd,
  0x40, 0xe2, 0xb3, 0xbd, 0x50, 0xb5, 0x00, 0x3e, 0xa4, 0xb5, 0xa9, 0xbe,
  0xb0, 0xd8, 0x37, 0xbe, 0x7f, 0xdc, 0x2d, 0xbe, 0x8a, 0x5c, 0x05, 0xbe,
  0x58, 0xc7, 0x13, 0x3e, 0xc8, 0x10, 0x91, 0xbe, 0xee, 0x09, 0xf4, 0x3c,
  0x5f, 0x81, 0x2c, 0xbe, 0xcf, 0x8f, 0x37, 0xbe, 0xb8, 0xae, 0x91, 0x3d,
  0xec, 0xbf, 0x9f, 0xbc, 0x20, 0xbe, 0xa7, 0x3e, 0x0c, 0xb0, 0x73, 0x3e,
  0x3e, 0xb8, 0x80, 0xbd, 0x31, 0x64, 0xa2, 0xbe, 0x08, 0x6f, 0x21, 0x3e,
  0x21, 0xee, 0x94, 0xbe, 0xde, 0xda, 0xea, 0xbd, 0x57, 0x00, 0x99, 0x3e,
  0x64, 0xf8, 0xd4, 0x3e, 0x00, 0x51, 0x58, 0x3e, 0x3f, 0xee, 0x62, 0x3d,
  0x7e, 0xf4, 0x96, 0x3e, 0x3b, 0x7a, 0xec, 0xbc, 0x48, 0x2a, 0xf1, 0xbb,
  0x00, 0x81, 0x81, 0xba, 0x81, 0x26, 0xb3, 0xbd, 0x15, 0x1c, 0x09, 0xbe,
  0x74, 0x88, 0xb7, 0x3d, 0x41, 0x48, 0xfc, 0x3e, 0x5f, 0xf1, 0x97, 0x3c,
  0x51, 0xe6, 0x9a, 0x3e, 0x0e, 0xe7, 0x83, 0x3e, 0x39, 0xc2, 0x42, 0x3b,
  0xfc, 0x4e, 0xac, 0xbd, 0x07, 0xa7, 0x7e, 0xbe, 0x16, 0xba, 0x76, 0xbe,
  0x5f, 0x9b, 0x52, 0xbe, 0x73, 0xb0, 0xaa, 0x3e, 0x91, 0x34, 0xa4, 0x3e,
  0xfa, 0xe7, 0x6b, 0xbe, 0x15, 0x44, 0xac, 0x3e, 0x36, 0x15, 0x77, 0x3e,
  0x0c, 0xb6, 0x7e, 0x3e, 0x3c, 0xa9, 0xa4, 0xbe, 0xc8, 0xf8, 0x12, 0x3d,
  0x09, 0x43, 0x74, 0xbe, 0x00, 0x28, 0xfe, 0x3c, 0x61, 0x50, 0x4d, 0xbe,
  0x1e, 0xa3, 0xab, 0xbe, 0x7e, 0xba, 0xaf, 0xbe, 0xbc, 0xe3, 0x46, 0x3e,
  0x1e, 0x6c, 0x85, 0xbe, 0x44, 0xd5, 0x84, 0x3e, 0xb4, 0x20, 0x1b, 0x3e,
  0x1c, 0x98, 0xb9, 0x3d, 0xb8, 0xc4, 0x2c, 0xbe, 0x18, 0xaa, 0x0a, 0x3e,
  0x45, 0xee, 0x7f, 0xbe, 0xd8, 0x74, 0x93, 0xbe, 0xc0, 0xce, 0x00, 0x3e,
  0x74, 0x7e, 0xae, 0x3d, 0x08, 0x1f, 0xfe, 0xbd, 0xf1, 0x46, 0xc5, 0xbe,
  0x00, 0x92, 0x67, 0xbd, 0xc0, 0x94, 0xb8, 0x3c, 0xcb, 0x56, 0x85, 0xbe,
  0x3e, 0xab, 0xa7, 0x3e, 0xf3, 0xfd, 0x7b, 0x3e, 0x22, 0xbb, 0xb8, 0x3e,
  0x3a, 0x5f, 0xe3, 0xbd, 0x92, 0xf9, 0xc1, 0x3d, 0x36, 0x23, 0xb6, 0x3e,
  0xa4, 0x82, 0x4e, 0xbd, 0xb2, 0xa1, 0xcd, 0xbd, 0x58, 0xbd, 0x47, 0x3d,
  0x59, 0x82, 0x17, 0x3d, 0x52, 0x91, 0xb3, 0x3e, 0xc5, 0x0e, 0x72, 0xbe,
  0xa5, 0x49, 0xa0, 0xbc, 0x3d, 0x3a, 0x3b, 0x3e, 0x92, 0xb4, 0xfc, 0xbd,
  0x49, 0xfe, 0xb3, 0x3c, 0xe0, 0x5e, 0x48, 0xbd, 0x02, 0x19, 0x89, 0xbd,
  0xc4, 0x79, 0x74, 0xbe, 0x3b, 0x70, 0x95, 0xbd, 0xba, 0x3a, 0x69, 0xbe,
  0xad, 0xa8, 0xb2, 0xbb, 0x08, 0x84, 0xf1, 0x3d, 0x12, 0xdf, 0x28, 0x3d,
  0xe7, 0xb9, 0xd1, 0x3e, 0x9d, 0x88, 0x99, 0x3b, 0x57, 0xb5, 0xc0, 0x3e,
  0x79, 0xbd, 0x37, 0xbe, 0x88, 0xf0, 0xdf, 0xbd, 0xc0, 0x70, 0x1c, 0xbe,
  0xcd, 0x2e, 0x55, 0xbd, 0xfa, 0xe4, 0xa6, 0x3e, 0x14, 0x8d, 0xe0, 0x3e,
  0x50, 0xa5, 0x6f, 0x3c, 0xf8, 0x53, 0x76, 0xbe, 0x58, 0xdf, 0xfb, 0x3e,
  0xbc, 0x95, 0x23, 0xbe, 0xa8, 0x92, 0x89, 0x3e, 0xa4, 0xe9, 0xbf, 0xbe,
  0x43, 0xaf, 0x13, 0xbe, 0xa8, 0xb4, 0x18, 0x3e, 0x16, 0x40, 0x4b, 0x3e,
  0xd2, 0xeb, 0x87, 0x3d, 0x01, 0x8b, 0xb0, 0xbd, 0xeb, 0x3c, 0xf1, 0x3d,
  0xbd, 0xc5, 0x7f, 0x3e, 0x69, 0xc5, 0x78, 0xbe, 0xe9, 0xc7, 0xb5, 0x3e,
  0x5c, 0x11, 0xcb, 0xbd, 0x41, 0x7b, 0x4c, 0xbe, 0xc6, 0x44, 0x81, 0xbe,
  0xfb, 0x4b, 0xb5, 0xbe, 0x2a, 0x1f, 0xc7, 0x3e, 0xda, 0xf3, 0xbb, 0xbe,
  0x23, 0xb2, 0x4b, 0xbd, 0x9b, 0x36, 0x05, 0x3e, 0xfe, 0xde, 0xbb, 0x3e,
  0x7e, 0xf6, 0x41, 0x3d, 0xa0, 0xa0, 0xf1, 0x3d, 0xf7, 0x3c, 0x32, 0x3d,
  0x53, 0xc9, 0x2a, 0xbd, 0x6a, 0x69, 0x5d, 0xbe, 0x81, 0x81, 0x85, 0x3e,
  0xb7, 0x91, 0x8c, 0x3e, 0x02, 0x3c, 0xe5, 0xbd, 0xfe, 0x67, 0x68, 0xbe,
  0x3b, 0x12, 0x84, 0xbb, 0xe4, 0x0e, 0x9e, 0x3e, 0xcd, 0x8b, 0x40, 0xbe,
  0x71, 0x5f, 0xf4, 0x3c, 0xd3, 0xcd, 0x54, 0x3c, 0x52, 0x2a, 0xb5, 0xbe,
  0xb3, 0x63, 0x9f, 0x3e, 0x38, 0x94, 0xba, 0xbe, 0x78, 0x2d, 0x8f, 0xbe,
  0x5b, 0x98, 0xdb, 0x3c, 0xf4, 0x2f, 0x24, 0x3e, 0x90, 0x90, 0x73, 0xbe,
  0xd0, 0xa4, 0x94, 0x3e, 0xb1, 0x8b, 0xb7, 0x3e, 0xca, 0x95, 0x29, 0xbe,
  0xea, 0x31, 0xa3, 0xbd, 0x07, 0x32, 0x36, 0x3e, 0xbd, 0x39, 0xbe, 0xbe,
  0x41, 0x6f, 0xc6, 0xbd, 0x3a, 0xaf, 0x37, 0x3e, 0xba, 0x6b, 0x26, 0xbe,
  0xc9, 0xf5, 0x54, 0xbe, 0x20, 0x6d, 0x82, 0x3e, 0xf9, 0x46, 0x72, 0xbe,
  0xe8, 0x10, 0x42, 0x3e, 0x70, 0xfa, 0x94, 0xbd, 0x64, 0xe4, 0xa0, 0xbe,
  0x94, 0x05, 0x4c, 0xbe, 0x1c, 0xdb, 0x72, 0x3e, 0x7a, 0xae, 0xb2, 0xbe,
  0x34, 0x87, 0x35, 0xbe, 0x00, 0x0c, 0xb5, 0xbb, 0xac, 0xba, 0xa1, 0xbd,
  0xb4, 0xd5, 0x6f, 0xbe, 0x3e, 0xf9, 0xbc, 0xbe, 0xa6, 0x6a, 0x9b, 0xbe,
  0x07, 0xb5, 0x24, 0xbe, 0xac, 0x9e, 0xc0, 0x3e, 0x9c, 0x60, 0x9c, 0xbd,
  0x50, 0x76, 0xb0, 0xbc, 0xb8, 0x09, 0x59, 0x3e, 0xb1, 0x05, 0x88, 0xbe,
  0x7f, 0xf8, 0x71, 0xbe, 0x52, 0xdc, 0x33, 0xbe, 0x47, 0x80, 0x5b, 0x3e,
  0x78, 0x24, 0xcb, 0x3e, 0x12, 0x42, 0x03, 0xbd, 0x5e, 0xbb, 0x95, 0xbd,
  0x93, 0x79, 0x9d, 0xbe, 0x08, 0xf2, 0xe5, 0xbc, 0xe7, 0xf8, 0x82, 0x3d,
  0x8f, 0x11, 0x3b, 0xbe, 0x44, 0x2a, 0xb5, 0x3e, 0xcb, 0x80, 0xbf, 0xbe,
  0xd0, 0x16, 0xd8, 0xbc, 0x59, 0xdb, 0xff, 0x3d, 0x63, 0x6b, 0x2b, 0x3d,
  0x0a, 0x26, 0x09, 0x3e, 0xf3, 0xe5, 0xa4, 0xbd, 0xe6, 0x75, 0xa8, 0xbe,
  0x5c, 0x55, 0x23, 0xbd, 0xe7, 0xc8, 0x24, 0xbe, 0x6e, 0x99, 0x90, 0xbe,
  0x00, 0x00, 0x00, 0x00, 0x06, 0xf4, 0xff, 0xff, 0x04, 0x00, 0x00, 0x00,
  0x50, 0x00, 0x00, 0x00, 0xe1, 0xb8, 0x5e, 0x3c, 0x2f, 0x3b, 0x78, 0x3e,
  0x6f, 0x41, 0xe1, 0xbe, 0x52, 0x00, 0x42, 0x3e, 0xc0, 0x78, 0x36, 0x3f,
  0x16, 0xec, 0x9a, 0xbe, 0xc4, 0x50, 0x20, 0x3f, 0x92, 0x21, 0x0e, 0x3e,
  0x46, 0xdc, 0xa0, 0x3e, 0x9d, 0xff, 0x2c, 0xbe, 0x48, 0x2b, 0x88, 0x3c,
  0x75, 0xe8, 0xb9, 0x3e, 0x08, 0xbb, 0x04, 0x3e, 0xad, 0x91, 0xac, 0x3e,
  0x11, 0x5a, 0x8d, 0x3e, 0x60, 0x40, 0x12, 0x3f, 0xb7, 0xc1, 0x12, 0x3f,
  0xc5, 0xc0, 0xb9, 0xbd, 0xa8, 0x71, 0xa2, 0xbe, 0x38, 0x61, 0xa2, 0x3d,
  0x00, 0x00, 0x00, 0x00, 0x66, 0xf4, 0xff, 0xff, 0x04, 0x00, 0x00, 0x00,
  0x50, 0x00, 0x00, 0x00, 0x2c, 0xac, 0x99, 0xbe, 0x91, 0xf2, 0x50, 0x3e,
  0x67, 0xf3, 0xa3, 0xbe, 0x5e, 0x80, 0xd6, 0xbd, 0x10, 0x15, 0x55, 0x3d,
  0x34, 0x68, 0x37, 0x3e, 0xde, 0xf9, 0xb6, 0x3e, 0x98, 0x19, 0x9e, 0xbd,
  0x94, 0xad, 0x86, 0x3e, 0x45, 0x5e, 0x36, 0x3e, 0x90, 0xff, 0x36, 0x3d,
  0x20, 0x5c, 0xc3, 0xbd, 0x75, 0xbc, 0xeb, 0x3e, 0xdb, 0x36, 0x1f, 0x3e,
  0x0b, 0x37, 0x28, 0x3f, 0x19, 0x92, 0x0e, 0x3f, 0x30, 0x0a, 0x24, 0xbe,
  0x30, 0x5e, 0x80, 0x3e, 0x9e, 0x42, 0x2f, 0x3f, 0xe1, 0xd1, 0xb2, 0xbe,
  0x00, 0x00, 0x00, 0x00, 0xc6, 0xf4, 0xff, 0xff, 0x04, 0x00, 0x00, 0x00,
  0xb0, 0x04, 0x00, 0x00, 0xe0, 0xce, 0x2d, 0x3d, 0x00, 0xb8, 0x79, 0x39,
  0x68, 0x7a, 0x23, 0x3d, 0x80, 0xec, 0x98, 0x3d, 0xf8, 0xcf, 0xcd, 0xbd,
  0xd8, 0x7c, 0x27, 0x3d, 0x18, 0x17, 0x17, 0xbd, 0x30, 0x59, 0x0e, 0xbd,
  0x40, 0x96, 0x1a, 0xbd, 0xae, 0xb3, 0xb4, 0x3e, 0xda, 0xb0, 0x94, 0x3e,
  0xa4, 0xe8, 0x7c, 0xbe, 0xf8, 0xbe, 0x2c, 0x3d, 0x92, 0xe8, 0x8c, 0x3e,
  0xfa, 0x82, 0x80, 0x3e, 0x78, 0x55, 0x56, 0x3e, 0xd8, 0x8a, 0xfb, 0x3d,
  0x0c, 0x35, 0x1a, 0x3e, 0x74, 0x2f, 0x9d, 0xbe, 0x33, 0xe9, 0x1b, 0xbe,
  0x3c, 0xd4, 0xb8, 0xbd, 0x90, 0xa8, 0x63, 0x3d, 0x2e, 0xe2, 0xba, 0xbe,
  0x1c, 0x50, 0x1f, 0x3e, 0xa8, 0x99, 0x4f, 0x3d, 0xac, 0x20, 0x31, 0xbe,
  0x22, 0x1d, 0x8d, 0xbe, 0xdf, 0x0b, 0xbd, 0xbe, 0xf0, 0x4c, 0xf6, 0xbc,
  0x9c, 0xec, 0xbf, 0xbe, 0xdc, 0x1b, 0xcb, 0xbc, 0x39, 0x87, 0x3c, 0xbe,
  0xe8, 0x00, 0x83, 0x3e, 0x76, 0xb6, 0xf4, 0x3d, 0x55, 0x53, 0xb3, 0xbe,
  0xb5, 0x54, 0x6e, 0x3b, 0x14, 0x47, 0x8d, 0xbe, 0x84, 0x80, 0x22, 0xbe,
  0x26, 0xc2, 0x0d, 0x3e, 0x06, 0xe5, 0xa5, 0x3c, 0x8e, 0x25, 0x55, 0x3e,
  0x58, 0x09, 0xbf, 0x3d, 0x70, 0xc7, 0xdc, 0xbc, 0xf4, 0xa0, 0x82, 0xbe,
  0x05, 0x12, 0x5b, 0x3e, 0xc4, 0x52, 0x4d, 0xbd, 0xe4, 0xdd, 0x81, 0x3d,
  0x93, 0x34, 0x2c, 0xbe, 0xf1, 0x01, 0x70, 0xbe, 0xc6, 0xeb, 0x8a, 0x3e,
  0x78, 0xfe, 0xc6, 0xbd, 0x7a, 0xe7, 0x9c, 0x3e, 0x3e, 0x8c, 0xd1, 0x3e,
  0x14, 0x6e, 0xc8, 0xbe, 0xfc, 0xec, 0x01, 0xbe, 0x5b, 0x27, 0x8c, 0x3e,
  0xe0, 0x7f, 0xf6, 0xbd, 0x37, 0x96, 0xd3, 0xbd, 0xf2, 0xd4, 0x9e, 0x3e,
  0x2b, 0xad, 0x9a, 0xbd, 0xca, 0x45, 0x92, 0xbe, 0x0b, 0xb2, 0x91, 0x3e,
  0x2b, 0x83, 0x4d, 0xbe, 0xf5, 0x37, 0x90, 0xbe, 0x24, 0x78, 0x16, 0x3e,
  0x50, 0x76, 0x52, 0xbc, 0x1a, 0xef, 0x20, 0x3e, 0x46, 0xef, 0xd4, 0xbd,
  0xb9, 0xc5, 0x4a, 0x3e, 0xc9, 0x60, 0x5e, 0xbd, 0x00, 0xb7, 0x34, 0x3e,
  0x91, 0xed, 0x82, 0xbe, 0xe8, 0x1d, 0xb5, 0x3e, 0x75, 0xec, 0x74, 0x3e,
  0xa6, 0x20, 0xac, 0xbe, 0x87, 0xea, 0x25, 0xbe, 0x60, 0xfe, 0x22, 0x3d,
  0x28, 0x10, 0x73, 0x3e, 0xce, 0xb4, 0x1f, 0x3d, 0xd1, 0xe8, 0xbe, 0xbe,
  0x40, 0xc9, 0xba, 0xbd, 0xd3, 0x6e, 0xac, 0xbe, 0xce, 0xeb, 0x2b, 0x3e,
  0x86, 0xe6, 0xb5, 0xbe, 0xf8, 0xfd, 0x9b, 0x3e, 0xda, 0x0e, 0x23, 0x3e,
  0x6c, 0x77, 0x9e, 0xbe, 0x76, 0xad, 0x87, 0x3c, 0xb9, 0x70, 0x10, 0xbe,
  0xf0, 0x4f, 0xb9, 0xbe, 0xd7, 0xf9, 0xaf, 0x3d, 0x3c, 0xe2, 0x20, 0x3e,
  0x12, 0x1e, 0x87, 0xbe, 0xa7, 0x1f, 0xf8, 0xbc, 0x18, 0xf2, 0xc0, 0x3d,
  0xab, 0x27, 0x03, 0xbe, 0x07, 0xbc, 0x8d, 0xbe, 0x2a, 0x87, 0xdb, 0x3d,
  0x9b, 0x08, 0xe2, 0xbe, 0xfa, 0x99, 0x91, 0x3e, 0x34, 0xcf, 0x85, 0xbe,
  0x5c, 0xf7, 0xe2, 0xbd, 0xaf, 0xa3, 0x61, 0xbe, 0xff, 0x97, 0x83, 0x3e,
  0x09, 0x8d, 0x36, 0xbe, 0x4c, 0xab, 0xc9, 0xbe, 0xfe, 0x83, 0x86, 0xbe,
  0xc8, 0x02, 0xbd, 0x3e, 0x6c, 0xd2, 0xb9, 0x3d, 0xfa, 0x17, 0x13, 0xbe,
  0xbc, 0xc7, 0xb6, 0xbd, 0xf0, 0x12, 0x5c, 0xbd, 0x37, 0xea, 0x9c, 0x3c,
  0xec, 0x5d, 0x28, 0xbc, 0xc8, 0x16, 0x53, 0x3d, 0x16, 0xae, 0x0e, 0xbe,
  0x80, 0x5c, 0xa6, 0xbe, 0xa8, 0x00, 0x80, 0xbe, 0x5d, 0xa5, 0x9a, 0xbe,
  0x48, 0xd9, 0xd1, 0xbc, 0x98, 0xff, 0xc9, 0xbd, 0x69, 0x9b, 0x51, 0xbe,
  0xd8, 0x2f, 0xa4, 0xbe, 0xec, 0x16, 0xc0, 0xbe, 0x6a, 0x09, 0x9a, 0x3e,
  0xdb, 0xf5, 0x42, 0xbe, 0x7d, 0x1c, 0x87, 0xbe, 0xca, 0x57, 0x80, 0xbe,
  0xe8, 0x5c, 0x5a, 0x3d, 0xe0, 0xd7, 0x23, 0x3e, 0x90, 0xff, 0xc3, 0x3e,
  0x2c, 0xff, 0xaa, 0x3e, 0x06, 0x21, 0x68, 0xbe, 0xd2, 0x20, 0x9e, 0xbe,
  0xac, 0x2a, 0xc5, 0x3e, 0xe2, 0x6b, 0x5a, 0xbe, 0xb2, 0x49, 0x93, 0xbe,
  0x21, 0xc5, 0x97, 0xbe, 0x90, 0x65, 0x7d, 0x3d, 0x80, 0x12, 0x97, 0x3e,
  0x90, 0x11, 0xcc, 0xbd, 0x83, 0x18, 0x3c, 0xbe, 0x1c, 0xda, 0xb0, 0x3d,
  0x14, 0x5b, 0xc7, 0x3d, 0x4c, 0xc5, 0xbb, 0x3d, 0xaf, 0xe0, 0xb9, 0xbe,
  0x38, 0x11, 0x95, 0x3e, 0xd0, 0x48, 0x63, 0x3d, 0x70, 0x2f, 0x53, 0xbe,
  0x27, 0xfa, 0x80, 0xbe, 0xd8, 0xcf, 0x1c, 0x3e, 0x66, 0x15, 0xbb, 0x3e,
  0x30, 0x9e, 0x33, 0x3d, 0xb4, 0xa0, 0xb2, 0xbd, 0x6c, 0xd9, 0xce, 0xbd,
  0xe0, 0x95, 0xe8, 0xbc, 0xdc, 0x08, 0x4f, 0x3e, 0x6e, 0xcb, 0x82, 0xbe,
  0x34, 0xf4, 0xbb, 0xbd, 0xd0, 0xb4, 0xa6, 0x3c, 0xe4, 0xce, 0x16, 0x3e,
  0x37, 0xde, 0x9f, 0xbe, 0x70, 0xc8, 0xb6, 0x3c, 0x8f, 0xe5, 0x9b, 0xbe,
  0x4c, 0x48, 0x69, 0x3e, 0x27, 0xd1, 0x74, 0xbe, 0x7a, 0xbc, 0x62, 0xbe,
  0x0b, 0x78, 0xae, 0xbe, 0xa9, 0xde, 0x2a, 0xbe, 0xa8, 0x8d, 0xe9, 0x3d,
  0x16, 0xb2, 0x88, 0xbe, 0x6a, 0x57, 0x9a, 0x3e, 0x0d, 0xc3, 0xa6, 0xbe,
  0xa0, 0x9b, 0x2c, 0x3e, 0x03, 0xa5, 0x95, 0xbe, 0x80, 0x82, 0x6d, 0x3b,
  0x48, 0xff, 0x4c, 0x3e, 0x04, 0x2b, 0x79, 0x3e, 0xa2, 0x27, 0x0b, 0xbe,
  0xf1, 0xea, 0x95, 0xbe, 0x61, 0x5d, 0x53, 0xbe, 0xd4, 0x5d, 0xae, 0xbd,
  0x10, 0x98, 0xfe, 0xbd, 0x84, 0xf1, 0x3f, 0x3e, 0x31, 0x8e, 0x67, 0xbe,
  0xbe, 0x1e, 0x81, 0xbe, 0x04, 0x53, 0x70, 0x3e, 0x10, 0x9a, 0xd3, 0xbd,
  0xc3, 0x90, 0xc3, 0xbe, 0xa8, 0xf0, 0x5b, 0xbd, 0xd7, 0x89, 0x63, 0xbe,
  0x9d, 0x4d, 0x92, 0xbe, 0xac, 0x16, 0x8a, 0x3e, 0xf7, 0x9e, 0x39, 0xbe,
  0x41, 0xe2, 0x5a, 0xbe, 0xb4, 0x7f, 0x88, 0x3e, 0x4c, 0x1a, 0x19, 0x3e,
  0xb6, 0xe1, 0x87, 0x3e, 0x60, 0x22, 0xff, 0xbd, 0xa4, 0x8a, 0xce, 0x3d,
  0xc7, 0xfe, 0xb7, 0xbe, 0xbb, 0xaa, 0x39, 0xbe, 0xd8, 0x2a, 0x42, 0xbd,
  0x70, 0x92, 0xb0, 0xbe, 0x40, 0x2c, 0xb3, 0xbe, 0xa7, 0xb8, 0x5d, 0xbe,
  0xf0, 0xa2, 0x09, 0xbd, 0xf2, 0x5a, 0xa1, 0x3e, 0x98, 0xc4, 0x70, 0xbd,
  0x14, 0x78, 0xbf, 0xbe, 0x3d, 0x91, 0x7f, 0x3d, 0xc1, 0x5b, 0xe5, 0xbd,
  0x62, 0x99, 0x86, 0x3e, 0x4b, 0x81, 0x99, 0xbe, 0x38, 0x6f, 0xf7, 0x3d,
  0xfe, 0xa3, 0x68, 0x3e, 0x3e, 0xf1, 0x38, 0xbd, 0x6c, 0x86, 0x97, 0xbe,
  0x81, 0x2e, 0x7d, 0x3e, 0xd5, 0xa2, 0x95, 0xbe, 0x23, 0xcb, 0x83, 0xbe,
  0x3c, 0x43, 0xa3, 0xbe, 0x05, 0x91, 0x66, 0xbe, 0x85, 0x29, 0x72, 0x3d,
  0xa7, 0x94, 0xf2, 0xbd, 0x79, 0xc0, 0x5f, 0xbe, 0xe0, 0x0b, 0x4b, 0x3e,
  0x88, 0x65, 0xa4, 0x3d, 0x2b, 0x71, 0xc4, 0x3e, 0x8d, 0x74, 0xe0, 0xbc,
  0x20, 0x90, 0x46, 0xbc, 0x88, 0xeb, 0xbc, 0x3e, 0xb5, 0x36, 0xbb, 0x3e,
  0x80, 0xd3, 0x80, 0x3e, 0x4f, 0x8c, 0xaf, 0xbe, 0x07, 0x63, 0xc6, 0x3d,
  0x99, 0xe2, 0x3e, 0xbe, 0xc3, 0x5d, 0x12, 0x3e, 0x8a, 0xf4, 0xae, 0xbc,
  0x00, 0xc2, 0x39, 0x3e, 0xb7, 0x30, 0x42, 0xbe, 0x0f, 0x90, 0x8b, 0x3e,
  0x92, 0x80, 0xf7, 0x3d, 0xfd, 0xa7, 0xc3, 0x3e, 0xfc, 0x9a, 0x80, 0xbe,
  0x9a, 0xaf, 0x47, 0xbe, 0x06, 0x05, 0x0c, 0x3c, 0x15, 0x44, 0x64, 0xbe,
  0xc5, 0x07, 0xba, 0xbe, 0xf1, 0x40, 0xbf, 0x3e, 0x61, 0xfc, 0x93, 0x3e,
  0x77, 0x8b, 0x48, 0xbe, 0xe6, 0x31, 0x06, 0xbe, 0x29, 0xef, 0x63, 0xbe,
  0x68, 0x2d, 0x88, 0x3d, 0xdd, 0xf9, 0xf9, 0xbd, 0x80, 0x33, 0x14, 0x3b,
  0x14, 0xcd, 0x28, 0xbe, 0xf9, 0xe1, 0x4e, 0x3e, 0xc4, 0xb1, 0x25, 0x3e,
  0xe0, 0x9e, 0x57, 0x3e, 0xa4, 0x41, 0xcf, 0xbd, 0xdf, 0x09, 0xb2, 0x3e,
  0x58, 0x70, 0x27, 0xbd, 0x8a, 0xc8, 0xab, 0xbe, 0x96, 0x14, 0xcb, 0xbd,
  0xbd, 0x74, 0xd5, 0x3d, 0x01, 0xd9, 0x22, 0x3e, 0x86, 0x65, 0xd5, 0x3e,
  0xd8, 0x74, 0xde, 0x3d, 0x9c, 0xff, 0xd6, 0x3e, 0x72, 0xc4, 0xe1, 0x3e,
  0x8b, 0xc4, 0x3e, 0x3e, 0x63, 0x70, 0x62, 0x3d, 0x18, 0x57, 0x5b, 0xbe,
  0x5c, 0x8b, 0xe8, 0x3e, 0x07, 0xdf, 0x4b, 0xbe, 0x1a, 0x81, 0x06, 0x3f,
  0x4e, 0xb4, 0xc4, 0x3e, 0xb7, 0x88, 0x4a, 0x3e, 0x7c, 0x36, 0x8b, 0x3d,
  0x72, 0xa4, 0xb0, 0x3e, 0x67, 0xa8, 0x66, 0xbe, 0xce, 0x04, 0x03, 0xbe,
  0x09, 0xcd, 0x2e, 0xbe, 0x08, 0x02, 0xa9, 0x3e, 0x62, 0xe5, 0x89, 0xbe,
  0x8c, 0x37, 0xa7, 0x3d, 0xa1, 0x18, 0x82, 0x3e, 0xfe, 0xb0, 0x86, 0xbd,
  0xd8, 0x64, 0x57, 0x3e, 0x73, 0x45, 0xa7, 0xbe, 0xcc, 0x6b, 0x35, 0x3e,
  0x2a, 0x75, 0x4b, 0xbe, 0xf8, 0xc0, 0x07, 0x3d, 0x8f, 0x86, 0xf1, 0xbd,
  0xa8, 0x95, 0x2e, 0x3e, 0x60, 0x2d, 0xdc, 0xbd, 0xc8, 0xc3, 0x8c, 0x3e,
  0xef, 0xe6, 0xdc, 0x3c, 0x00, 0x00, 0x00, 0x00, 0x86, 0xf9, 0xff, 0xff,
  0x04, 0x00, 0x00, 0x00, 0xb0, 0x04, 0x00, 0x00, 0x09, 0xec, 0x0d, 0x3e,
  0x10, 0xf1, 0xf2, 0x3d, 0x69, 0x65, 0x82, 0x3e, 0x48, 0x95, 0x49, 0x3e,
  0x65, 0x51, 0x01, 0xbe, 0xa3, 0x8e, 0xa4, 0xbe, 0x46, 0x60, 0x33, 0xbe,
  0xe8, 0xc2, 0x8c, 0x3e, 0x13, 0xa5, 0x36, 0x3e, 0xf0, 0xcb, 0xb1, 0x3d,
  0x36, 0xed, 0xa3, 0x3e, 0xbb, 0x7d, 0xb6, 0x3e, 0x5b, 0xe2, 0x84, 0x3e,
  0xe1, 0xde, 0x4e, 0x3e, 0x69, 0xfd, 0x0d, 0x3e, 0x24, 0x30, 0x0d, 0x3e,
  0x95, 0x5e, 0x11, 0xbe, 0xc0, 0x4b, 0x9d, 0x3e, 0x42, 0x4a, 0xc7, 0x3e,
  0x10, 0xc8, 0xdb, 0xbd, 0xe2, 0x9e, 0xc3, 0x3e, 0xd7, 0xc1, 0xa8, 0x3e,
  0x46, 0xff, 0x8e, 0x3e, 0x5f, 0x22, 0x00, 0x3b, 0x5e, 0x4e, 0x68, 0x3a,
  0x6a, 0x61, 0x12, 0x3e, 0xa9, 0x81, 0x63, 0xbe, 0xcc, 0x83, 0x53, 0xbe,
  0x02, 0xe3, 0x24, 0x3e, 0x50, 0xb8, 0x97, 0xbe, 0x5d, 0x13, 0x16, 0x3e,
  0x70, 0xca, 0xb5, 0x3e, 0xaf, 0x7d, 0xcf, 0x3e, 0x38, 0x74, 0x30, 0x3d,
  0x9f, 0x81, 0x8c, 0x3e, 0x60, 0xcb, 0xc8, 0x3d, 0x45, 0x2f, 0xb0, 0x3e,
  0x6f, 0xd8, 0xe5, 0x3e, 0x08, 0x23, 0xf4, 0x3c, 0x4b, 0x3c, 0x9b, 0x3d,
  0x8c, 0x9f, 0xc9, 0x3d, 0xa8, 0x12, 0x49, 0xbd, 0x08, 0xa1, 0x6c, 0xbd,
  0x6c, 0xc0, 0x9d, 0xbe, 0x56, 0x5f, 0x84, 0xbe, 0xad, 0x0a, 0xa4, 0xbe,
  0xd4, 0x34, 0x13, 0x3e, 0xa4, 0x04, 0xe5, 0x3d, 0xea, 0xbd, 0x9c, 0xbe,
  0x20, 0xe3, 0xab, 0x3c, 0xa1, 0xca, 0xea, 0x3e, 0xd3, 0x0c, 0xe8, 0x3e,
  0x42, 0x92, 0x90, 0x3d, 0x98, 0x47, 0x32, 0xbe, 0x20, 0x0f, 0x5c, 0xbe,
  0xb1, 0x79, 0x5e, 0xbe, 0xba, 0xa7, 0x92, 0x3c, 0x9d, 0x27, 0x29, 0xbe,
  0x8f, 0x8b, 0x31, 0x3e, 0xc2, 0x1f, 0xb1, 0x3d, 0x7b, 0x47, 0xd4, 0xbe,
  0xdf, 0x81, 0x75, 0xbe, 0xf8, 0x77, 0x49, 0x3e, 0xe2, 0x2f, 0x58, 0x3e,
  0xa5, 0x11, 0x29, 0xbe, 0x56, 0xdf, 0x4a, 0xbe, 0xa0, 0x0e, 0xfc, 0x3c,
  0x80, 0x98, 0x29, 0xbe, 0x77, 0x06, 0xaa, 0x3e, 0x8a, 0x76, 0x29, 0xbd,
  0xf5, 0x6a, 0x43, 0xbe, 0x23, 0xcb, 0xc8, 0x3e, 0xc9, 0xc1, 0x46, 0xbe,
  0x6d, 0x94, 0x1d, 0xbe, 0x72, 0x3d, 0xc2, 0x3e, 0xdc, 0xd1, 0xda, 0xbe,
  0x73, 0xcb, 0x41, 0x3d, 0xf4, 0x93, 0xaa, 0x3e, 0x44, 0xeb, 0xb5, 0x3e,
  0xb3, 0xc7, 0x9d, 0xbd, 0x12, 0x78, 0xcb, 0x3d, 0x1c, 0xf9, 0x82, 0x3d,
  0xb3, 0x34, 0x27, 0x3e, 0x6f, 0x6f, 0x80, 0x3e, 0x44, 0x11, 0x5b, 0x3e,
  0xdd, 0x32, 0xb2, 0xbd, 0xdf, 0x8c, 0x64, 0x3e, 0x35, 0x48, 0xc8, 0xbe,
  0xaf, 0xda, 0x69, 0x3e, 0x62, 0xfc, 0x81, 0xbe, 0xda, 0x4e, 0xcd, 0x3d,
  0x76, 0xd2, 0x87, 0x3e, 0x8c, 0x79, 0x8e, 0xbd, 0xc3, 0x48, 0x63, 0x3e,
  0x69, 0x88, 0x63, 0xbd, 0x37, 0x39, 0xe2, 0xbd, 0xfa, 0xe9, 0xb6, 0xbd,
  0x42, 0xc0, 0xd2, 0x3e, 0xbf, 0x02, 0x24, 0x3e, 0x4d, 0xbb, 0x08, 0xbd,
  0x55, 0x0c, 0xa3, 0xbe, 0x89, 0xbf, 0x01, 0xbe, 0x8a, 0xa2, 0x84, 0x3d,
  0x3e, 0xeb, 0x1f, 0xbe, 0x6c, 0x9f, 0x6d, 0xbe, 0x5f, 0x7f, 0xb1, 0xbe,
  0x98, 0x21, 0xc7, 0x3d, 0x44, 0xaf, 0x89, 0xbe, 0x1c, 0xa7, 0x78, 0x3e,
  0x84, 0x14, 0x18, 0x3e, 0xc4, 0x95, 0xcb, 0x3d, 0x75, 0xc0, 0xb9, 0x3e,
  0x0f, 0x09, 0x1b, 0xbd, 0x89, 0x61, 0x6f, 0x3e, 0x25, 0x64, 0x97, 0x3e,
  0x14, 0x6e, 0x46, 0xbe, 0x36, 0x56, 0xcb, 0x3e, 0x8b, 0xb1, 0xcd, 0x3c,
  0x11, 0x40, 0xbb, 0xbc, 0xb0, 0x07, 0xc8, 0xbd, 0xfd, 0x21, 0x44, 0xbe,
  0xc2, 0x0f, 0xa4, 0xbe, 0xe5, 0x1d, 0x77, 0xbe, 0xc0, 0x9a, 0xc3, 0x3c,
  0x30, 0xf8, 0x0f, 0x3e, 0x59, 0xb7, 0x35, 0xbe, 0x70, 0x3b, 0xe2, 0x3d,
  0x45, 0x7b, 0xb8, 0xbe, 0x14, 0x00, 0xa8, 0x3e, 0x74, 0x87, 0x71, 0xbe,
  0xab, 0xa2, 0xc8, 0xbe, 0xea, 0xc9, 0xc1, 0x3d, 0xb7, 0x6f, 0x11, 0x3e,
  0x66, 0x73, 0xa2, 0xbe, 0xfe, 0x6f, 0x14, 0xbe, 0x7d, 0xcb, 0x59, 0x3e,
  0x48, 0x4f, 0xa0, 0x3d, 0xdb, 0x89, 0x7c, 0x3e, 0x3d, 0x72, 0xfe, 0x3d,
  0xf1, 0xae, 0xa3, 0x3d, 0x6b, 0x61, 0x60, 0x3d, 0xf7, 0x07, 0x8b, 0xbc,
  0xa5, 0x60, 0xbd, 0x3d, 0x1c, 0x51, 0x46, 0xbe, 0xb1, 0xd2, 0xd8, 0x3d,
  0xbd, 0xcb, 0x9e, 0xbe, 0xaa, 0xb3, 0x68, 0xbd, 0xd8, 0x9b, 0xbb, 0xbe,
  0x6e, 0x92, 0x7f, 0x3e, 0x0d, 0x0f, 0x65, 0xbd, 0xf1, 0xb2, 0x5b, 0xbe,
  0xb5, 0x37, 0xbf, 0x3e, 0xfd, 0x93, 0xdd, 0x3d, 0xbc, 0xdc, 0x27, 0x3e,
  0x80, 0x82, 0x31, 0xbe, 0xfa, 0x83, 0x9b, 0xbd, 0x35, 0xfb, 0xb1, 0xbd,
  0x49, 0xd2, 0x21, 0xbe, 0xcb, 0x50, 0x92, 0x3e, 0xac, 0x3b, 0x63, 0x3e,
  0x20, 0x4a, 0x9d, 0x3e, 0x9c, 0x4b, 0xad, 0xbe, 0x08, 0xcd, 0xcf, 0xbd,
  0xb8, 0xf1, 0xc4, 0x3d, 0x00, 0x5c, 0x89, 0xbc, 0x52, 0x2a, 0xb4, 0xbe,
  0xb9, 0xd8, 0xa2, 0xbe, 0x64, 0x99, 0xc8, 0x3d, 0x12, 0xd2, 0x46, 0xbe,
  0x84, 0xc4, 0x8b, 0xbd, 0x26, 0x99, 0xac, 0xbe, 0xcc, 0x84, 0xb3, 0x3e,
  0x6c, 0x98, 0xb2, 0xbd, 0xdc, 0x2f, 0x3f, 0xbe, 0x58, 0x42, 0xbc, 0xbd,
  0xd6, 0xa0, 0x57, 0xbe, 0x02, 0x6c, 0x8a, 0x3e, 0xa6, 0xc0, 0x47, 0xbe,
  0xa2, 0xd4, 0x79, 0xbe, 0xef, 0x2b, 0xa4, 0xbe, 0xa3, 0x2c, 0xa0, 0x3e,
  0x08, 0x43, 0x94, 0x3e, 0x3d, 0x72, 0xa8, 0x3e, 0xeb, 0x3a, 0xb4, 0x3e,
  0x1d, 0xea, 0xc0, 0xbe, 0xb3, 0x5d, 0xd5, 0x3e, 0x5c, 0x57, 0x98, 0x3d,
  0x58, 0x63, 0x96, 0x3e, 0x8f, 0x9b, 0x99, 0x3e, 0xc2, 0x6d, 0xc9, 0x3c,
  0x3e, 0x29, 0x91, 0x3e, 0x86, 0x48, 0x52, 0x3d, 0xe1, 0x3a, 0xa3, 0x3e,
  0x6a, 0x03, 0x19, 0xbe, 0x83, 0xcb, 0x08, 0xbe, 0xb9, 0xce, 0xcb, 0x3c,
  0xab, 0x5e, 0xee, 0xbc, 0x12, 0x9f, 0xd6, 0x3d, 0xbc, 0xf6, 0x4c, 0x3e,
  0x8f, 0x0d, 0x3a, 0x3e, 0xe4, 0x17, 0x9c, 0xbd, 0x18, 0xe3, 0x88, 0x3d,
  0xd6, 0xd8, 0x98, 0xbe, 0xc8, 0xfa, 0x9d, 0xbe, 0x10, 0x79, 0x0e, 0xbd,
  0x50, 0x27, 0x0c, 0x3d, 0x98, 0xae, 0x26, 0xbd, 0x78, 0x83, 0x2e, 0xbe,
  0xb5, 0x99, 0x4f, 0xbe, 0xc8, 0x46, 0x60, 0x3e, 0xb4, 0xfb, 0x52, 0x3e,
  0x98, 0x80, 0x22, 0x3e, 0xe4, 0x9c, 0x9b, 0xbe, 0xe1, 0x9e, 0x5e, 0xbe,
  0xd7, 0x12, 0x89, 0xbe, 0x60, 0xcf, 0x88, 0xbe, 0xc0, 0x2e, 0x7f, 0xbc,
  0xed, 0x26, 0x85, 0xbe, 0x52, 0x5c, 0x15, 0xbe, 0xe0, 0x94, 0x5c, 0xbc,
  0x96, 0xf4, 0x4b, 0x3c, 0x53, 0x81, 0xad, 0xbd, 0x69, 0x9a, 0xd8, 0xbc,
  0x88, 0x66, 0xb6, 0x3e, 0x98, 0x05, 0xb0, 0x3e, 0xdb, 0xab, 0x8e, 0x3e,
  0xdd, 0x29, 0x83, 0x3e, 0x00, 0xa2, 0x5f, 0x3d, 0x0a, 0x6e, 0xa3, 0x3e,
  0x28, 0xb5, 0xbd, 0x3e, 0xc6, 0x83, 0x44, 0xbe, 0xcb, 0x5e, 0xfb, 0xbd,
  0x81, 0x8f, 0xb5, 0x3e, 0x36, 0xa1, 0x38, 0x3e, 0x89, 0xc9, 0xba, 0x3d,
  0x8f, 0x0d, 0x44, 0x3e, 0x13, 0x45, 0x6b, 0xbe, 0x47, 0x9b, 0x6f, 0x3d,
  0xc2, 0x64, 0x31, 0xbd, 0x21, 0x7a, 0x98, 0xbe, 0x40, 0x99, 0xf2, 0xbc,
  0x70, 0x66, 0xf3, 0x3d, 0x40, 0x83, 0xbd, 0xbb, 0xfb, 0xe3, 0x89, 0xbe,
  0x9b, 0x39, 0x9d, 0xbe, 0xf8, 0x96, 0x20, 0xbe, 0x2c, 0x5d, 0xb2, 0xbd,
  0x40, 0xe2, 0x8b, 0x3e, 0x8a, 0x4f, 0xb5, 0xbe, 0x6c, 0x6b, 0xda, 0xbd,
  0xc3, 0x75, 0x4e, 0xbe, 0x0e, 0x1a, 0x46, 0x3e, 0x7f, 0x3f, 0x3b, 0x3e,
  0xfe, 0x4a, 0x40, 0x3d, 0x5b, 0xb9, 0x8c, 0xbd, 0x05, 0x52, 0xc3, 0xbd,
  0x4c, 0x02, 0x85, 0xbe, 0x40, 0x88, 0xa6, 0xbd, 0xb6, 0xb4, 0x86, 0xbe,
  0x62, 0xdb, 0x97, 0x3e, 0xd4, 0x86, 0x7f, 0x3e, 0x26, 0x1a, 0x79, 0xbe,
  0x36, 0xb5, 0xad, 0x3e, 0x31, 0x2c, 0x8a, 0xbe, 0xb7, 0xe7, 0xe5, 0x3d,
  0x57, 0xfe, 0x0a, 0xbe, 0xf9, 0xee, 0x2f, 0xbc, 0xf1, 0x65, 0xa4, 0xbe,
  0xb7, 0xe0, 0x84, 0xbe, 0x60, 0x5c, 0x65, 0x3d, 0x10, 0xa1, 0x94, 0xbe,
  0xc0, 0xc6, 0x09, 0xbe, 0x4c, 0x05, 0xb7, 0x3e, 0xde, 0x15, 0x81, 0xbe,
  0x6c, 0x15, 0xe7, 0x3c, 0x24, 0x5c, 0xdd, 0x3e, 0xf1, 0x07, 0x2e, 0x3e,
  0x7a, 0xbc, 0xb2, 0xbd, 0xad, 0xf7, 0x12, 0x3b, 0x0f, 0x0d, 0x62, 0x3e,
  0xb2, 0x4b, 0x81, 0xbe, 0x88, 0xb2, 0xeb, 0xbd, 0x22, 0x2d, 0x71, 0x3e,
  0xfa, 0x6a, 0x93, 0x3d, 0x51, 0x5b, 0x9d, 0x3e, 0x62, 0xba, 0xd9, 0x3e,
  0xe9, 0xa7, 0x96, 0x3e, 0x89, 0x22, 0x21, 0xbd, 0xbc, 0xe2, 0x16, 0xbe,
  0x4a, 0xd4, 0xbc, 0x3e, 0x26, 0xd8, 0x90, 0x3d, 0x29, 0xc1, 0xa5, 0x3e,
  0xba, 0x33, 0x46, 0xbe, 0x96, 0x78, 0x3e, 0xbd, 0xfc, 0x18, 0x3a, 0xbd,
  0x58, 0x4e, 0x41, 0xbd, 0xe1, 0x70, 0x2a, 0xbd, 0xe5, 0x10, 0x2e, 0x3d,
  0x30, 0x8b, 0x19, 0x3d, 0xb2, 0xa9, 0x69, 0xbe, 0x00, 0x00, 0x00, 0x00,
  0x46, 0xfe, 0xff, 0xff, 0x04, 0x00, 0x00, 0x00, 0x78, 0x00, 0x00, 0x00,
  0x1a, 0x3e, 0xa0, 0xbc, 0xfb, 0x30, 0x93, 0xbc, 0x33, 0x08, 0xee, 0xbc,
  0x26, 0xe1, 0xdf, 0xbc, 0x00, 0x00, 0x00, 0x00, 0xfe, 0x96, 0xb2, 0x3c,
  0x1a, 0xf8, 0x81, 0xbc, 0xb0, 0x47, 0x6a, 0x3d, 0x43, 0x89, 0x00, 0x3c,
  0x96, 0x66, 0x27, 0xbd, 0xac, 0x9e, 0xaa, 0xba, 0xde, 0xe6, 0x01, 0xbd,
  0x00, 0x00, 0x00, 0x00, 0x7d, 0x58, 0x06, 0xbd, 0xca, 0xe3, 0x15, 0xbd,
  0x26, 0xc4, 0x80, 0xbb, 0x00, 0x00, 0x00, 0x00, 0x00, 0x00, 0x00, 0x00,
  0x9c, 0x95, 0xd7, 0x3c, 0x8e, 0x15, 0x34, 0xbd, 0x00, 0x00, 0x00, 0x00,
  0x00, 0x00, 0x00, 0x00, 0xbf, 0xf7, 0xc5, 0xbc, 0x0e, 0x34, 0x02, 0x3e,
  0x00, 0x00, 0x00, 0x00, 0xd9, 0x79, 0xa4, 0xbd, 0x60, 0xc2, 0x5c, 0xbc,
  0xdc, 0x6a, 0x86, 0x3d, 0x5d, 0x7e, 0x8d, 0xbc, 0x4a, 0xf5, 0x5e, 0xbb,
  0x00, 0x00, 0x00, 0x00, 0x00, 0x00, 0x00, 0x00, 0x00, 0x00, 0x00, 0x00,
  0xd6, 0xfe, 0xff, 0xff, 0x04, 0x00, 0x00, 0x00, 0x28, 0x00, 0x00, 0x00,
  0x00, 0x00, 0x00, 0x00, 0xad, 0x09, 0x8e, 0xbd, 0xe6, 0xd2, 0xe7, 0xbb,
  0x4e, 0x7d, 0x8c, 0xbd, 0x00, 0x00, 0x00, 0x00, 0x00, 0x00, 0x00, 0x00,
  0x00, 0x00, 0x00, 0x00, 0x22, 0x77, 0x94, 0x3d, 0xc2, 0x4e, 0x42, 0xbb,
  0x9b, 0x2a, 0x1f, 0x3b, 0x00, 0x00, 0x00, 0x00, 0x00, 0x00, 0x00, 0x00,
  0x00, 0x00, 0x00, 0x00, 0x16, 0xff, 0xff, 0xff, 0x04, 0x00, 0x00, 0x00,
  0x08, 0x00, 0x00, 0x00, 0x38, 0x38, 0x90, 0x3b, 0xb8, 0x27, 0xf6, 0x3b,
  0x00, 0x00, 0x00, 0x00, 0x00, 0x00, 0x00, 0x00, 0x00, 0x00, 0x00, 0x00,
  0x36, 0xff, 0xff, 0xff, 0x04, 0x00, 0x00, 0x00, 0x28, 0x00, 0x00, 0x00,
  0xf9, 0xe6, 0xc6, 0xbd, 0x59, 0x84, 0xd2, 0x3c, 0xd2, 0x5f, 0x73, 0x3d,
  0x11, 0xa4, 0xcb, 0x3c, 0xe6, 0x34, 0x6a, 0xbd, 0xc2, 0x5e, 0x13, 0xbc,
  0xfa, 0x4c, 0x3b, 0x3d, 0xcb, 0x25, 0x4f, 0xbd, 0x8c, 0x15, 0x3e, 0xbd,
  0x00, 0x00, 0x00, 0x00, 0x00, 0x00, 0x00, 0x00, 0x00, 0x00, 0x00, 0x00,
  0x00, 0x00, 0x00, 0x00, 0x76, 0xff, 0xff, 0xff, 0x04, 0x00, 0x00, 0x00,
  0x78, 0x00, 0x00, 0x00, 0x00, 0x00, 0x00, 0x00, 0x00, 0x00, 0x00, 0x00,
  0x66, 0x88, 0xa7, 0xbb, 0x18, 0x4e, 0xe9, 0x3c, 0x5f, 0x1a, 0x8a, 0x3d,
  0xf6, 0x95, 0x9a, 0xbc, 0x98, 0xf5, 0x3e, 0xbd, 0x00, 0x00, 0x00, 0x00,
  0x00, 0x00, 0x00, 0x00, 0x2e, 0xf7, 0xc7, 0xbc, 0x00, 0x00, 0x00, 0x00,
  0x96, 0x57, 0xa1, 0xbc, 0x1c, 0x2b, 0x7e, 0x3d, 0x9e, 0xef, 0x9b, 0x3d,
  0x3c, 0x11, 0x38, 0xbd, 0x00, 0x00, 0x00, 0x00, 0x00, 0x00, 0x00, 0x00,
  0x92, 0xca, 0x4c, 0xbd, 0x67, 0x28, 0xd0, 0x3c, 0xd4, 0x0c, 0x50, 0xbd,
  0x4e, 0xd8, 0xc4, 0x3d, 0x53, 0xe5, 0x19, 0x3d, 0x09, 0x97, 0x87, 0xbc,
  0x46, 0x86, 0x15, 0xbb, 0xf1, 0x03, 0x88, 0xbc, 0xec, 0x6c, 0x6e, 0xbc,
  0x00, 0x00, 0x00, 0x00, 0x00, 0x00, 0x00, 0x00, 0xce, 0xd7, 0x74, 0x3d,
  0x25, 0x29, 0x35, 0xbc, 0x00, 0x00, 0x00, 0x00, 0x00, 0x00, 0x06, 0x00,
  0x08, 0x00, 0x04, 0x00, 0x06, 0x00, 0x00, 0x00, 0x04, 0x00, 0x00, 0x00,
  0x28, 0x00, 0x00, 0x00, 0x22, 0x5d, 0xb0, 0x3d, 0x9c, 0xc1, 0xad, 0x3d,
  0x1f, 0x39, 0xa8, 0x3c, 0x70, 0x02, 0xb2, 0x3d, 0xac, 0x61, 0x50, 0x3d,
  0x81, 0xe9, 0xc8, 0x3d, 0xfc, 0xbf, 0x9d, 0x3d, 0x83, 0x3d, 0x99, 0x3d,
  0x22, 0x51, 0x94, 0x3d, 0xbe, 0x2d, 0xd2, 0x3d, 0x00, 0x00, 0x00, 0x00,
  0xb8, 0xf7, 0xff, 0xff, 0x00, 0x00, 0x00, 0x00, 0x00, 0x00, 0x00, 0x00,
  0x00, 0x00, 0x00, 0x00, 0xc8, 0xf7, 0xff, 0xff, 0x00, 0x00, 0x00, 0x00,
  0x00, 0x00, 0x00, 0x00, 0x0f, 0x00, 0x00, 0x00, 0x4d, 0x4c, 0x49, 0x52,
  0x20, 0x43, 0x6f, 0x6e, 0x76, 0x65, 0x72, 0x74, 0x65, 0x64, 0x2e, 0x00,
  0x01, 0x00, 0x00, 0x00, 0x14, 0x00, 0x00, 0x00, 0x00, 0x00, 0x0e, 0x00,
  0x18, 0x00, 0x04, 0x00, 0x08, 0x00, 0x0c, 0x00, 0x10, 0x00, 0x14, 0x00,
  0x0e, 0x00, 0x00, 0x00, 0xa8, 0x01, 0x00, 0x00, 0x9c, 0x01, 0x00, 0x00,
  0x90, 0x01, 0x00, 0x00, 0x14, 0x00, 0x00, 0x00, 0x04, 0x00, 0x00, 0x00,
  0x04, 0x00, 0x00, 0x00, 0x6d, 0x61, 0x69, 0x6e, 0x00, 0x00, 0x00, 0x00,
  0x06, 0x00, 0x00, 0x00, 0x38, 0x01, 0x00, 0x00, 0xf0, 0x00, 0x00, 0x00,
  0xa8, 0x00, 0x00, 0x00, 0x70, 0x00, 0x00, 0x00, 0x38, 0x00, 0x00, 0x00,
  0x04, 0x00, 0x00, 0x00, 0x32, 0xff, 0xff, 0xff, 0x00, 0x00, 0x00, 0x08,
  0x18, 0x00, 0x00, 0x00, 0x0c, 0x00, 0x00, 0x00, 0x04, 0x00, 0x00, 0x00,
  0x54, 0xf8, 0xff, 0xff, 0x01, 0x00, 0x00, 0x00, 0x12, 0x00, 0x00, 0x00,
  0x03, 0x00, 0x00, 0x00, 0x11, 0x00, 0x00, 0x00, 0x0c, 0x00, 0x00, 0x00,
  0x01, 0x00, 0x00, 0x00, 0x62, 0xff, 0xff, 0xff, 0x00, 0x00, 0x00, 0x08,
  0x1c, 0x00, 0x00, 0x00, 0x10, 0x00, 0x00, 0x00, 0x04, 0x00, 0x00, 0x00,
  0x0e, 0xff, 0xff, 0xff, 0x00, 0x00, 0x00, 0x01, 0x01, 0x00, 0x00, 0x00,
  0x11, 0x00, 0x00, 0x00, 0x03, 0x00, 0x00, 0x00, 0x10, 0x00, 0x00, 0x00,
  0x0b, 0x00, 0x00, 0x00, 0x02, 0x00, 0x00, 0x00, 0x96, 0xff, 0xff, 0xff,
  0x00, 0x00, 0x00, 0x08, 0x1c, 0x00, 0x00, 0x00, 0x10, 0x00, 0x00, 0x00,
  0x04, 0x00, 0x00, 0x00, 0x42, 0xff, 0xff, 0xff, 0x00, 0x00, 0x00, 0x01,
  0x01, 0x00, 0x00, 0x00, 0x10, 0x00, 0x00, 0x00, 0x03, 0x00, 0x00, 0x00,
  0x0f, 0x00, 0x00, 0x00, 0x0a, 0x00, 0x00, 0x00, 0x03, 0x00, 0x00, 0x00,
  0xca, 0xff, 0xff, 0xff, 0x00, 0x00, 0x00, 0x08, 0x1c, 0x00, 0x00, 0x00,
  0x10, 0x00, 0x00, 0x00, 0x04, 0x00, 0x00, 0x00, 0x76, 0xff, 0xff, 0xff,
  0x00, 0x00, 0x00, 0x01, 0x01, 0x00, 0x00, 0x00, 0x0f, 0x00, 0x00, 0x00,
  0x03, 0x00, 0x00, 0x00, 0x0e, 0x00, 0x00, 0x00, 0x09, 0x00, 0x00, 0x00,
  0x04, 0x00, 0x00, 0x00, 0x00, 0x00, 0x0e, 0x00, 0x14, 0x00, 0x00, 0x00,
  0x08, 0x00, 0x0c, 0x00, 0x07, 0x00, 0x10, 0x00, 0x0e, 0x00, 0x00, 0x00,
  0x00, 0x00, 0x00, 0x08, 0x1c, 0x00, 0x00, 0x00, 0x10, 0x00, 0x00, 0x00,
  0x04, 0x00, 0x00, 0x00, 0xba, 0xff, 0xff, 0xff, 0x00, 0x00, 0x00, 0x01,
  0x01, 0x00, 0x00, 0x00, 0x0e, 0x00, 0x00, 0x00, 0x03, 0x00, 0x00, 0x00,
  0x0d, 0x00, 0x00, 0x00, 0x08, 0x00, 0x00, 0x00, 0x05, 0x00, 0x00, 0x00,
  0x00, 0x00, 0x0e, 0x00, 0x16, 0x00, 0x00, 0x00, 0x08, 0x00, 0x0c, 0x00,
  0x07, 0x00, 0x10, 0x00, 0x0e, 0x00, 0x00, 0x00, 0x00, 0x00, 0x00, 0x08,
  0x24, 0x00, 0x00, 0x00, 0x18, 0x00, 0x00, 0x00, 0x0c, 0x00, 0x00, 0x00,
  0x00, 0x00, 0x06, 0x00, 0x08, 0x00, 0x07, 0x00, 0x06, 0x00, 0x00, 0x00,
  0x00, 0x00, 0x00, 0x01, 0x01, 0x00, 0x00, 0x00, 0x0d, 0x00, 0x00, 0x00,
  0x03, 0x00, 0x00, 0x00, 0x00, 0x00, 0x00, 0x00, 0x07, 0x00, 0x00, 0x00,
  0x06, 0x00, 0x00, 0x00, 0x01, 0x00, 0x00, 0x00, 0x12, 0x00, 0x00, 0x00,
  0x01, 0x00, 0x00, 0x00, 0x00, 0x00, 0x00, 0x00, 0x13, 0x00, 0x00, 0x00,
  0x2c, 0x06, 0x00, 0x00, 0xe0, 0x05, 0x00, 0x00, 0x98, 0x05, 0x00, 0x00,
  0x60, 0x05, 0x00, 0x00, 0x28, 0x05, 0x00, 0x00, 0xf0, 0x04, 0x00, 0x00,
  0xbc, 0x04, 0x00, 0x00, 0x78, 0x04, 0x00, 0x00, 0x30, 0x04, 0x00, 0x00,
  0xe8, 0x03, 0x00, 0x00, 0xa0, 0x03, 0x00, 0x00, 0x58, 0x03, 0x00, 0x00,
  0x10, 0x03, 0x00, 0x00, 0x8c, 0x02, 0x00, 0x00, 0x00, 0x02, 0x00, 0x00,
  0x74, 0x01, 0x00, 0x00, 0xe8, 0x00, 0x00, 0x00, 0x5c, 0x00, 0x00, 0x00,
  0x04, 0x00, 0x00, 0x00, 0x34, 0xfa, 0xff, 0xff, 0x44, 0x00, 0x00, 0x00,
  0x13, 0x00, 0x00, 0x00, 0x1c, 0x00, 0x00, 0x00, 0x14, 0x00, 0x00, 0x00,
  0x04, 0x00, 0x00, 0x00, 0x02, 0x00, 0x00, 0x00, 0xff, 0xff, 0xff, 0xff,
  0x0a, 0x00, 0x00, 0x00, 0x20, 0xfa, 0xff, 0xff, 0x19, 0x00, 0x00, 0x00,
  0x53, 0x74, 0x61, 0x74, 0x65, 0x66, 0x75, 0x6c, 0x50, 0x61, 0x72, 0x74,
  0x69, 0x74, 0x69, 0x6f, 0x6e, 0x65, 0x64, 0x43, 0x61, 0x6c, 0x6c, 0x3a,
  0x30, 0x00, 0x00, 0x00, 0x02, 0x00, 0x00, 0x00, 0x01, 0x00, 0x00, 0x00,
  0x0a, 0x00, 0x00, 0x00, 0x88, 0xfa, 0xff, 0xff, 0x78, 0x00, 0x00, 0x00,
  0x12, 0x00, 0x00, 0x00, 0x1c, 0x00, 0x00, 0x00, 0x14, 0x00, 0x00, 0x00,
  0x04, 0x00, 0x00, 0x00, 0x02, 0x00, 0x00, 0x00, 0xff, 0xff, 0xff, 0xff,
  0x1e, 0x00, 0x00, 0x00, 0x74, 0xfa, 0xff, 0xff, 0x4c, 0x00, 0x00, 0x00,
  0x73, 0x65, 0x71, 0x75, 0x65, 0x6e, 0x74, 0x69, 0x61, 0x6c, 0x2f, 0x64,
  0x65, 0x6e, 0x73, 0x65, 0x5f, 0x34, 0x2f, 0x4d, 0x61, 0x74, 0x4d, 0x75,
  0x6c, 0x3b, 0x73, 0x65, 0x71, 0x75, 0x65, 0x6e, 0x74, 0x69, 0x61, 0x6c,
  0x2f, 0x64, 0x65, 0x6e, 0x73, 0x65, 0x5f, 0x34, 0x2f, 0x52, 0x65, 0x6c,
  0x75, 0x3b, 0x73, 0x65, 0x71, 0x75, 0x65, 0x6e, 0x74, 0x69, 0x61, 0x6c,
  0x2f, 0x64, 0x65, 0x6e, 0x73, 0x65, 0x5f, 0x34, 0x2f, 0x42, 0x69, 0x61,
  0x73, 0x41, 0x64, 0x64, 0x00, 0x00, 0x00, 0x00, 0x02, 0x00, 0x00, 0x00,
  0x01, 0x00, 0x00, 0x00, 0x1e, 0x00, 0x00, 0x00, 0x10, 0xfb, 0xff, 0xff,
  0x78, 0x00, 0x00, 0x00, 0x11, 0x00, 0x00, 0x00, 0x1c, 0x00, 0x00, 0x00,
  0x14, 0x00, 0x00, 0x00, 0x04, 0x00, 0x00, 0x00, 0x02, 0x00, 0x00, 0x00,
  0xff, 0xff, 0xff, 0xff, 0x0a, 0x00, 0x00, 0x00, 0xfc, 0xfa, 0xff, 0xff,
  0x4c, 0x00, 0x00, 0x00, 0x73, 0x65, 0x71, 0x75, 0x65, 0x6e, 0x74, 0x69,
  0x61, 0x6c, 0x2f, 0x64, 0x65, 0x6e, 0x73, 0x65, 0x5f, 0x33, 0x2f, 0x4d,
  0x61, 0x74, 0x4d, 0x75, 0x6c, 0x3b, 0x73, 0x65, 0x71, 0x75, 0x65, 0x6e,
  0x74, 0x69, 0x61, 0x6c, 0x2f, 0x64, 0x65, 0x6e, 0x73, 0x65, 0x5f, 0x33,
  0x2f, 0x52, 0x65, 0x6c, 0x75, 0x3b, 0x73, 0x65, 0x71, 0x75, 0x65, 0x6e,
  0x74, 0x69, 0x61, 0x6c, 0x2f, 0x64, 0x65, 0x6e, 0x73, 0x65, 0x5f, 0x33,
  0x2f, 0x42, 0x69, 0x61, 0x73, 0x41, 0x64, 0x64, 0x00, 0x00, 0x00, 0x00,
  0x02, 0x00, 0x00, 0x00, 0x01, 0x00, 0x00, 0x00, 0x0a, 0x00, 0x00, 0x00,
  0x98, 0xfb, 0xff, 0xff, 0x78, 0x00, 0x00, 0x00, 0x10, 0x00, 0x00, 0x00,
  0x1c, 0x00, 0x00, 0x00, 0x14, 0x00, 0x00, 0x00, 0x04, 0x00, 0x00, 0x00,
  0x02, 0x00, 0x00, 0x00, 0xff, 0xff, 0xff, 0xff, 0x02, 0x00, 0x00, 0x00,
  0x84, 0xfb, 0xff, 0xff, 0x4c, 0x00, 0x00, 0x00, 0x73, 0x65, 0x71, 0x75,
  0x65, 0x6e, 0x74, 0x69, 0x61, 0x6c, 0x2f, 0x64, 0x65, 0x6e, 0x73, 0x65,
  0x5f, 0x32, 0x2f, 0x4d, 0x61, 0x74, 0x4d, 0x75, 0x6c, 0x3b, 0x73, 0x65,
  0x71, 0x75, 0x65, 0x6e, 0x74, 0x69, 0x61, 0x6c, 0x2f, 0x64, 0x65, 0x6e,
  0x73, 0x65, 0x5f, 0x32, 0x2f, 0x52, 0x65, 0x6c, 0x75, 0x3b, 0x73, 0x65,
  0x71, 0x75, 0x65, 0x6e, 0x74, 0x69, 0x61, 0x6c, 0x2f, 0x64, 0x65, 0x6e,
  0x73, 0x65, 0x5f, 0x32, 0x2f, 0x42, 0x69, 0x61, 0x73, 0x41, 0x64, 0x64,
  0x00, 0x00, 0x00, 0x00, 0x02, 0x00, 0x00, 0x00, 0x01, 0x00, 0x00, 0x00,
  0x02, 0x00, 0x00, 0x00, 0x20, 0xfc, 0xff, 0xff, 0x78, 0x00, 0x00, 0x00,
  0x0f, 0x00, 0x00, 0x00, 0x1c, 0x00, 0x00, 0x00, 0x14, 0x00, 0x00, 0x00,
  0x04, 0x00, 0x00, 0x00, 0x02, 0x00, 0x00, 0x00, 0xff, 0xff, 0xff, 0xff,
  0x0a, 0x00, 0x00, 0x00, 0x0c, 0xfc, 0xff, 0xff, 0x4c, 0x00, 0x00, 0x00,
  0x73, 0x65, 0x71, 0x75, 0x65, 0x6e, 0x74, 0x69, 0x61, 0x6c, 0x2f, 0x64,
  0x65, 0x6e, 0x73, 0x65, 0x5f, 0x31, 0x2f, 0x4d, 0x61, 0x74, 0x4d, 0x75,
  0x6c, 0x3b, 0x73, 0x65, 0x71, 0x75, 0x65, 0x6e, 0x74, 0x69, 0x61, 0x6c,
  0x2f, 0x64, 0x65, 0x6e, 0x73, 0x65, 0x5f, 0x31, 0x2f, 0x52, 0x65, 0x6c,
  0x75, 0x3b, 0x73, 0x65, 0x71, 0x75, 0x65, 0x6e, 0x74, 0x69, 0x61, 0x6c,
  0x2f, 0x64, 0x65, 0x6e, 0x73, 0x65, 0x5f, 0x31, 0x2f, 0x42, 0x69, 0x61,
  0x73, 0x41, 0x64, 0x64, 0x00, 0x00, 0x00, 0x00, 0x02, 0x00, 0x00, 0x00,
  0x01, 0x00, 0x00, 0x00, 0x0a, 0x00, 0x00, 0x00, 0xa8, 0xfc, 0xff, 0xff,
  0x70, 0x00, 0x00, 0x00, 0x0e, 0x00, 0x00, 0x00, 0x1c, 0x00, 0x00, 0x00,
  0x14, 0x00, 0x00, 0x00, 0x04, 0x00, 0x00, 0x00, 0x02, 0x00, 0x00, 0x00,
  0xff, 0xff, 0xff, 0xff, 0x1e, 0x00, 0x00, 0x00, 0x94, 0xfc, 0xff, 0xff,
  0x46, 0x00, 0x00, 0x00, 0x73, 0x65, 0x71, 0x75, 0x65, 0x6e, 0x74, 0x69,
  0x61, 0x6c, 0x2f, 0x64, 0x65, 0x6e, 0x73, 0x65, 0x2f, 0x4d, 0x61, 0x74,
  0x4d, 0x75, 0x6c, 0x3b, 0x73, 0x65, 0x71, 0x75, 0x65, 0x6e, 0x74, 0x69,
  0x61, 0x6c, 0x2f, 0x64, 0x65, 0x6e, 0x73, 0x65, 0x2f, 0x52, 0x65, 0x6c,
  0x75, 0x3b, 0x73, 0x65, 0x71, 0x75, 0x65, 0x6e, 0x74, 0x69, 0x61, 0x6c,
  0x2f, 0x64, 0x65, 0x6e, 0x73, 0x65, 0x2f, 0x42, 0x69, 0x61, 0x73, 0x41,
  0x64, 0x64, 0x00, 0x00, 0x02, 0x00, 0x00, 0x00, 0x01, 0x00, 0x00, 0x00,
  0x1e, 0x00, 0x00, 0x00, 0x6a, 0xfd, 0xff, 0xff, 0x34, 0x00, 0x00, 0x00,
  0x0d, 0x00, 0x00, 0x00, 0x0c, 0x00, 0x00, 0x00, 0x04, 0x00, 0x00, 0x00,
  0x04, 0xfd, 0xff, 0xff, 0x19, 0x00, 0x00, 0x00, 0x73, 0x65, 0x71, 0x75,
  0x65, 0x6e, 0x74, 0x69, 0x61, 0x6c, 0x2f, 0x64, 0x65, 0x6e, 0x73, 0x65,
  0x5f, 0x35, 0x2f, 0x4d, 0x61, 0x74, 0x4d, 0x75, 0x6c, 0x00, 0x00, 0x00,
  0x02, 0x00, 0x00, 0x00, 0x0a, 0x00, 0x00, 0x00, 0x1e, 0x00, 0x00, 0x00,
  0xae, 0xfd, 0xff, 0xff, 0x34, 0x00, 0x00, 0x00, 0x0c, 0x00, 0x00, 0x00,
  0x0c, 0x00, 0x00, 0x00, 0x04, 0x00, 0x00, 0x00, 0x48, 0xfd, 0xff, 0xff,
  0x19, 0x00, 0x00, 0x00, 0x73, 0x65, 0x71, 0x75, 0x65, 0x6e, 0x74, 0x69,
  0x61, 0x6c, 0x2f, 0x64, 0x65, 0x6e, 0x73, 0x65, 0x5f, 0x34, 0x2f, 0x4d,
  0x61, 0x74, 0x4d, 0x75, 0x6c, 0x00, 0x00, 0x00, 0x02, 0x00, 0x00, 0x00,
  0x1e, 0x00, 0x00, 0x00, 0x0a, 0x00, 0x00, 0x00, 0xf2, 0xfd, 0xff, 0xff,
  0x34, 0x00, 0x00, 0x00, 0x0b, 0x00, 0x00, 0x00, 0x0c, 0x00, 0x00, 0x00,
  0x04, 0x00, 0x00, 0x00, 0x8c, 0xfd, 0xff, 0xff, 0x19, 0x00, 0x00, 0x00,
  0x73, 0x65, 0x71, 0x75, 0x65, 0x6e, 0x74, 0x69, 0x61, 0x6c, 0x2f, 0x64,
  0x65, 0x6e, 0x73, 0x65, 0x5f, 0x33, 0x2f, 0x4d, 0x61, 0x74, 0x4d, 0x75,
  0x6c, 0x00, 0x00, 0x00, 0x02, 0x00, 0x00, 0x00, 0x0a, 0x00, 0x00, 0x00,
  0x02, 0x00, 0x00, 0x00, 0x36, 0xfe, 0xff, 0xff, 0x34, 0x00, 0x00, 0x00,
  0x0a, 0x00, 0x00, 0x00, 0x0c, 0x00, 0x00, 0x00, 0x04, 0x00, 0x00, 0x00,
  0xd0, 0xfd, 0xff, 0xff, 0x19, 0x00, 0x00, 0x00, 0x73, 0x65, 0x71, 0x75,
  0x65, 0x6e, 0x74, 0x69, 0x61, 0x6c, 0x2f, 0x64, 0x65, 0x6e, 0x73, 0x65,
  0x5f, 0x32, 0x2f, 0x4d, 0x61, 0x74, 0x4d, 0x75, 0x6c, 0x00, 0x00, 0x00,
  0x02, 0x00, 0x00, 0x00, 0x02, 0x00, 0x00, 0x00, 0x0a, 0x00, 0x00, 0x00,
  0x7a, 0xfe, 0xff, 0xff, 0x34, 0x00, 0x00, 0x00, 0x09, 0x00, 0x00, 0x00,
  0x0c, 0x00, 0x00, 0x00, 0x04, 0x00, 0x00, 0x00, 0x14, 0xfe, 0xff, 0xff,
  0x19, 0x00, 0x00, 0x00, 0x73, 0x65, 0x71, 0x75, 0x65, 0x6e, 0x74, 0x69,
  0x61, 0x6c, 0x2f, 0x64, 0x65, 0x6e, 0x73, 0x65, 0x5f, 0x31, 0x2f, 0x4d,
  0x61, 0x74, 0x4d, 0x75, 0x6c, 0x00, 0x00, 0x00, 0x02, 0x00, 0x00, 0x00,
  0x0a, 0x00, 0x00, 0x00, 0x1e, 0x00, 0x00, 0x00, 0xbe, 0xfe, 0xff, 0xff,
  0x30, 0x00, 0x00, 0x00, 0x08, 0x00, 0x00, 0x00, 0x0c, 0x00, 0x00, 0x00,
  0x04, 0x00, 0x00, 0x00, 0x58, 0xfe, 0xff, 0xff, 0x17, 0x00, 0x00, 0x00,
  0x73, 0x65, 0x71, 0x75, 0x65, 0x6e, 0x74, 0x69, 0x61, 0x6c, 0x2f, 0x64,
  0x65, 0x6e, 0x73, 0x65, 0x2f, 0x4d, 0x61, 0x74, 0x4d, 0x75, 0x6c, 0x00,
  0x02, 0x00, 0x00, 0x00, 0x1e, 0x00, 0x00, 0x00, 0x0a, 0x00, 0x00, 0x00,
  0xfe, 0xfe, 0xff, 0xff, 0x24, 0x00, 0x00, 0x00, 0x07, 0x00, 0x00, 0x00,
  0x0c, 0x00, 0x00, 0x00, 0x04, 0x00, 0x00, 0x00, 0x98, 0xfe, 0xff, 0xff,
  0x0a, 0x00, 0x00, 0x00, 0x64, 0x65, 0x6e, 0x73, 0x65, 0x2f, 0x62, 0x69,
  0x61, 0x73, 0x00, 0x00, 0x01, 0x00, 0x00, 0x00, 0x1e, 0x00, 0x00, 0x00,
  0x2e, 0xff, 0xff, 0xff, 0x28, 0x00, 0x00, 0x00, 0x06, 0x00, 0x00, 0x00,
  0x0c, 0x00, 0x00, 0x00, 0x04, 0x00, 0x00, 0x00, 0xc8, 0xfe, 0xff, 0xff,
  0x0c, 0x00, 0x00, 0x00, 0x64, 0x65, 0x6e, 0x73, 0x65, 0x5f, 0x31, 0x2f,
  0x62, 0x69, 0x61, 0x73, 0x00, 0x00, 0x00, 0x00, 0x01, 0x00, 0x00, 0x00,
  0x0a, 0x00, 0x00, 0x00, 0x62, 0xff, 0xff, 0xff, 0x28, 0x00, 0x00, 0x00,
  0x05, 0x00, 0x00, 0x00, 0x0c, 0x00, 0x00, 0x00, 0x04, 0x00, 0x00, 0x00,
  0xfc, 0xfe, 0xff, 0xff, 0x0c, 0x00, 0x00, 0x00, 0x64, 0x65, 0x6e, 0x73,
  0x65, 0x5f, 0x32, 0x2f, 0x62, 0x69, 0x61, 0x73, 0x00, 0x00, 0x00, 0x00,
  0x01, 0x00, 0x00, 0x00, 0x02, 0x00, 0x00, 0x00, 0x96, 0xff, 0xff, 0xff,
  0x28, 0x00, 0x00, 0x00, 0x04, 0x00, 0x00, 0x00, 0x0c, 0x00, 0x00, 0x00,
  0x04, 0x00, 0x00, 0x00, 0x30, 0xff, 0xff, 0xff, 0x0c, 0x00, 0x00, 0x00,
  0x64, 0x65, 0x6e, 0x73, 0x65, 0x5f, 0x33, 0x2f, 0x62, 0x69, 0x61, 0x73,
  0x00, 0x00, 0x00, 0x00, 0x01, 0x00, 0x00, 0x00, 0x0a, 0x00, 0x00, 0x00,
  0xca, 0xff, 0xff, 0xff, 0x28, 0x00, 0x00, 0x00, 0x03, 0x00, 0x00, 0x00,
  0x0c, 0x00, 0x00, 0x00, 0x04, 0x00, 0x00, 0x00, 0x64, 0xff, 0xff, 0xff,
  0x0c, 0x00, 0x00, 0x00, 0x64, 0x65, 0x6e, 0x73, 0x65, 0x5f, 0x34, 0x2f,
  0x62, 0x69, 0x61, 0x73, 0x00, 0x00, 0x00, 0x00, 0x01, 0x00, 0x00, 0x00,
  0x1e, 0x00, 0x00, 0x00, 0x00, 0x00, 0x0e, 0x00, 0x14, 0x00, 0x04, 0x00,
  0x00, 0x00, 0x08, 0x00, 0x0c, 0x00, 0x10, 0x00, 0x0e, 0x00, 0x00, 0x00,
  0x28, 0x00, 0x00, 0x00, 0x02, 0x00, 0x00, 0x00, 0x0c, 0x00, 0x00, 0x00,
  0x04, 0x00, 0x00, 0x00, 0xa8, 0xff, 0xff, 0xff, 0x0c, 0x00, 0x00, 0x00,
  0x64, 0x65, 0x6e, 0x73, 0x65, 0x5f, 0x35, 0x2f, 0x62, 0x69, 0x61, 0x73,
  0x00, 0x00, 0x00, 0x00, 0x01, 0x00, 0x00, 0x00, 0x0a, 0x00, 0x00, 0x00,
  0x14, 0x00, 0x18, 0x00, 0x04, 0x00, 0x00, 0x00, 0x08, 0x00, 0x0c, 0x00,
  0x10, 0x00, 0x00, 0x00, 0x00, 0x00, 0x14, 0x00, 0x14, 0x00, 0x00, 0x00,
  0x4c, 0x00, 0x00, 0x00, 0x01, 0x00, 0x00, 0x00, 0x20, 0x00, 0x00, 0x00,
  0x18, 0x00, 0x00, 0x00, 0x04, 0x00, 0x00, 0x00, 0x02, 0x00, 0x00, 0x00,
  0xff, 0xff, 0xff, 0xff, 0x0a, 0x00, 0x00, 0x00, 0x04, 0x00, 0x04, 0x00,
  0x04, 0x00, 0x00, 0x00, 0x1d, 0x00, 0x00, 0x00, 0x73, 0x65, 0x72, 0x76,
  0x69, 0x6e, 0x67, 0x5f, 0x64, 0x65, 0x66, 0x61, 0x75, 0x6c, 0x74, 0x5f,
  0x64, 0x65, 0x6e, 0x73, 0x65, 0x5f, 0x69, 0x6e, 0x70, 0x75, 0x74, 0x3a,
  0x30, 0x00, 0x00, 0x00, 0x02, 0x00, 0x00, 0x00, 0x01, 0x00, 0x00, 0x00,
  0x0a, 0x00, 0x00, 0x00, 0x01, 0x00, 0x00, 0x00, 0x10, 0x00, 0x00, 0x00,
  0x0c, 0x00, 0x10, 0x00, 0x07, 0x00, 0x00, 0x00, 0x08, 0x00, 0x0c, 0x00,
  0x0c, 0x00, 0x00, 0x00, 0x00, 0x00, 0x00, 0x09, 0x09, 0x00, 0x00, 0x00,
  0x09, 0x00, 0x00, 0x00
};
const int g_model_len = 8224;
