alignas(8) const unsigned char g_model[] = {
  0x20, 0x00, 0x00, 0x00, 0x54, 0x46, 0x4c, 0x33, 0x00, 0x00, 0x00, 0x00,
  0x14, 0x00, 0x20, 0x00, 0x04, 0x00, 0x08, 0x00, 0x0c, 0x00, 0x10, 0x00,
  0x14, 0x00, 0x00, 0x00, 0x18, 0x00, 0x1c, 0x00, 0x14, 0x00, 0x00, 0x00,
  0x03, 0x00, 0x00, 0x00, 0x18, 0x00, 0x00, 0x00, 0x1c, 0x00, 0x00, 0x00,
  0x50, 0x01, 0x00, 0x00, 0x1c, 0x00, 0x00, 0x00, 0xf8, 0x00, 0x00, 0x00,
  0x6c, 0x00, 0x00, 0x00, 0x01, 0x00, 0x00, 0x00, 0x98, 0x06, 0x00, 0x00,
  0x01, 0x00, 0x00, 0x00, 0x58, 0x01, 0x00, 0x00, 0x15, 0x00, 0x00, 0x00,
  0x78, 0x14, 0x00, 0x00, 0x74, 0x14, 0x00, 0x00, 0x94, 0x11, 0x00, 0x00,
  0xb0, 0x10, 0x00, 0x00, 0x10, 0x0f, 0x00, 0x00, 0x80, 0x0e, 0x00, 0x00,
  0xf8, 0x0d, 0x00, 0x00, 0x88, 0x0d, 0x00, 0x00, 0x00, 0x0d, 0x00, 0x00,
  0x70, 0x0c, 0x00, 0x00, 0xcc, 0x0a, 0x00, 0x00, 0xf0, 0x09, 0x00, 0x00,
  0xb4, 0x07, 0x00, 0x00, 0x14, 0x07, 0x00, 0x00, 0x40, 0x14, 0x00, 0x00,
  0x3c, 0x14, 0x00, 0x00, 0x38, 0x14, 0x00, 0x00, 0x34, 0x14, 0x00, 0x00,
  0x30, 0x14, 0x00, 0x00, 0x2c, 0x14, 0x00, 0x00, 0xc0, 0x00, 0x00, 0x00,
  0x01, 0x00, 0x00, 0x00, 0x10, 0x00, 0x00, 0x00, 0x00, 0x00, 0x0a, 0x00,
  0x10, 0x00, 0x0c, 0x00, 0x08, 0x00, 0x04, 0x00, 0x0a, 0x00, 0x00, 0x00,
  0x0c, 0x00, 0x00, 0x00, 0x1c, 0x00, 0x00, 0x00, 0x20, 0x00, 0x00, 0x00,
  0x0f, 0x00, 0x00, 0x00, 0x73, 0x65, 0x72, 0x76, 0x69, 0x6e, 0x67, 0x5f,
  0x64, 0x65, 0x66, 0x61, 0x75, 0x6c, 0x74, 0x00, 0x01, 0x00, 0x00, 0x00,
  0x14, 0x00, 0x00, 0x00, 0x01, 0x00, 0x00, 0x00, 0x28, 0x00, 0x00, 0x00,
  0x08, 0x00, 0x0c, 0x00, 0x08, 0x00, 0x04, 0x00, 0x08, 0x00, 0x00, 0x00,
  0x12, 0x00, 0x00, 0x00, 0x04, 0x00, 0x00, 0x00, 0x08, 0x00, 0x00, 0x00,
  0x64, 0x65, 0x6e, 0x73, 0x65, 0x5f, 0x31, 0x31, 0x00, 0x00, 0x00, 0x00,
  0x2a, 0xef, 0xff, 0xff, 0x04, 0x00, 0x00, 0x00, 0x0d, 0x00, 0x00, 0x00,
  0x64, 0x65, 0x6e, 0x73, 0x65, 0x5f, 0x36, 0x5f, 0x69, 0x6e, 0x70, 0x75,
  0x74, 0x00, 0x00, 0x00, 0x01, 0x00, 0x00, 0x00, 0x0c, 0x00, 0x00, 0x00,
  0x08, 0x00, 0x0c, 0x00, 0x04, 0x00, 0x08, 0x00, 0x08, 0x00, 0x00, 0x00,
  0x08, 0x00, 0x00, 0x00, 0x14, 0x00, 0x00, 0x00, 0x13, 0x00, 0x00, 0x00,
  0x6d, 0x69, 0x6e, 0x5f, 0x72, 0x75, 0x6e, 0x74, 0x69, 0x6d, 0x65, 0x5f,
  0x76, 0x65, 0x72, 0x73, 0x69, 0x6f, 0x6e, 0x00, 0x7a, 0xef, 0xff, 0xff,
  0x04, 0x00, 0x00, 0x00, 0x10, 0x00, 0x00, 0x00, 0x31, 0x2e, 0x31, 0x34,
  0x2e, 0x30, 0x00, 0x00, 0x00, 0x00, 0x00, 0x00, 0x00, 0x00, 0x00, 0x00,
  0x0f, 0x00, 0x00, 0x00, 0x4d, 0x4c, 0x49, 0x52, 0x20, 0x43, 0x6f, 0x6e,
  0x76, 0x65, 0x72, 0x74, 0x65, 0x64, 0x2e, 0x00, 0x00, 0x00, 0x0e, 0x00,
  0x18, 0x00, 0x04, 0x00, 0x08, 0x00, 0x0c, 0x00, 0x10, 0x00, 0x14, 0x00,
  0x0e, 0x00, 0x00, 0x00, 0x14, 0x00, 0x00, 0x00, 0x60, 0x00, 0x00, 0x00,
  0x64, 0x00, 0x00, 0x00, 0x68, 0x00, 0x00, 0x00, 0x80, 0x00, 0x00, 0x00,
  0x13, 0x00, 0x00, 0x00, 0x84, 0x12, 0x00, 0x00, 0x08, 0x12, 0x00, 0x00,
  0xcc, 0x0f, 0x00, 0x00, 0xe0, 0x0e, 0x00, 0x00, 0x4c, 0x0d, 0x00, 0x00,
  0xb0, 0x0c, 0x00, 0x00, 0x34, 0x0c, 0x00, 0x00, 0xb8, 0x0b, 0x00, 0x00,
  0x3c, 0x0b, 0x00, 0x00, 0x9c, 0x0a, 0x00, 0x00, 0x0c, 0x09, 0x00, 0x00,
  0x1c, 0x08, 0x00, 0x00, 0xf4, 0x05, 0x00, 0x00, 0xf8, 0x04, 0x00, 0x00,
  0xdc, 0x03, 0x00, 0x00, 0xe8, 0x02, 0x00, 0x00, 0x04, 0x02, 0x00, 0x00,
  0x1c, 0x01, 0x00, 0x00, 0x6c, 0x00, 0x00, 0x00, 0x01, 0x00, 0x00, 0x00,
  0x00, 0x00, 0x00, 0x00, 0x01, 0x00, 0x00, 0x00, 0x12, 0x00, 0x00, 0x00,
  0x06, 0x00, 0x00, 0x00, 0x74, 0x04, 0x00, 0x00, 0x7c, 0x03, 0x00, 0x00,
  0x88, 0x02, 0x00, 0x00, 0xa4, 0x01, 0x00, 0x00, 0xbc, 0x00, 0x00, 0x00,
  0x10, 0x00, 0x00, 0x00, 0x04, 0x00, 0x00, 0x00, 0x6d, 0x61, 0x69, 0x6e,
  0x00, 0x00, 0x00, 0x00, 0xb2, 0xfc, 0xff, 0xff, 0x00, 0x00, 0x00, 0x08,
  0x18, 0x00, 0x00, 0x00, 0x0c, 0x00, 0x00, 0x00, 0x04, 0x00, 0x00, 0x00,
  0x90, 0xed, 0xff, 0xff, 0x01, 0x00, 0x00, 0x00, 0x12, 0x00, 0x00, 0x00,
  0x03, 0x00, 0x00, 0x00, 0x11, 0x00, 0x00, 0x00, 0x0b, 0x00, 0x00, 0x00,
  0x0c, 0x00, 0x00, 0x00, 0x44, 0xee, 0xff, 0xff, 0x00, 0x00, 0x00, 0x09,
  0x14, 0x00, 0x00, 0x00, 0x13, 0x00, 0x00, 0x00, 0x18, 0x00, 0x00, 0x00,
  0x40, 0x00, 0x00, 0x00, 0x30, 0x00, 0x00, 0x00, 0x02, 0x00, 0x00, 0x00,
  0x01, 0x00, 0x00, 0x00, 0x0f, 0x00, 0x00, 0x00, 0x19, 0x00, 0x00, 0x00,
  0x53, 0x74, 0x61, 0x74, 0x65, 0x66, 0x75, 0x6c, 0x50, 0x61, 0x72, 0x74,
  0x69, 0x74, 0x69, 0x6f, 0x6e, 0x65, 0x64, 0x43, 0x61, 0x6c, 0x6c, 0x3a,
  0x30, 0x00, 0x00, 0x00, 0x02, 0x00, 0x00, 0x00, 0xff, 0xff, 0xff, 0xff,
  0x0f, 0x00, 0x00, 0x00, 0x2c, 0xee, 0xff, 0xff, 0x08, 0x00, 0x00, 0x00,
  0x0c, 0x00, 0x00, 0x00, 0x01, 0x00, 0x00, 0x00, 0xe0, 0x53, 0x30, 0x3b,
  0x01, 0x00, 0x00, 0x00, 0x80, 0xff, 0xff, 0xff, 0xff, 0xff, 0xff, 0xff,
  0x00, 0x00, 0x00, 0x00, 0x5a, 0xfd, 0xff, 0xff, 0x00, 0x00, 0x00, 0x08,
  0x1c, 0x00, 0x00, 0x00, 0x10, 0x00, 0x00, 0x00, 0x04, 0x00, 0x00, 0x00,
  0x56, 0xfc, 0xff, 0xff, 0x00, 0x00, 0x00, 0x01, 0x01, 0x00, 0x00, 0x00,
  0x11, 0x00, 0x00, 0x00, 0x03, 0x00, 0x00, 0x00, 0x10, 0x00, 0x00, 0x00,
  0x09, 0x00, 0x00, 0x00, 0x0a, 0x00, 0x00, 0x00, 0xf0, 0xee, 0xff, 0xff,
  0x00, 0x00, 0x00, 0x09, 0x14, 0x00, 0x00, 0x00, 0x12, 0x00, 0x00, 0x00,
  0x18, 0x00, 0x00, 0x00, 0x7c, 0x00, 0x00, 0x00, 0x6c, 0x00, 0x00, 0x00,
  0x02, 0x00, 0x00, 0x00, 0x01, 0x00, 0x00, 0x00, 0x1e, 0x00, 0x00, 0x00,
  0x55, 0x00, 0x00, 0x00, 0x73, 0x65, 0x71, 0x75, 0x65, 0x6e, 0x74, 0x69,
  0x61, 0x6c, 0x5f, 0x31, 0x2f, 0x64, 0x65, 0x6e, 0x73, 0x65, 0x5f, 0x31,
  0x30, 0x2f, 0x4d, 0x61, 0x74, 0x4d, 0x75, 0x6c, 0x3b, 0x73, 0x65, 0x71,
  0x75, 0x65, 0x6e, 0x74, 0x69, 0x61, 0x6c, 0x5f, 0x31, 0x2f, 0x64, 0x65,
  0x6e, 0x73, 0x65, 0x5f, 0x31, 0x30, 0x2f, 0x52, 0x65, 0x6c, 0x75, 0x3b,
  0x73, 0x65, 0x71, 0x75, 0x65, 0x6e, 0x74, 0x69, 0x61, 0x6c, 0x5f, 0x31,
  0x2f, 0x64, 0x65, 0x6e, 0x73, 0x65, 0x5f, 0x31, 0x30, 0x2f, 0x42, 0x69,
  0x61, 0x73, 0x41, 0x64, 0x64, 0x00, 0x00, 0x00, 0x02, 0x00, 0x00, 0x00,
  0xff, 0xff, 0xff, 0xff, 0x1e, 0x00, 0x00, 0x00, 0x14, 0xef, 0xff, 0xff,
  0x08, 0x00, 0x00, 0x00, 0x0c, 0x00, 0x00, 0x00, 0x01, 0x00, 0x00, 0x00,
  0x60, 0x44, 0x51, 0x3b, 0x01, 0x00, 0x00, 0x00, 0x80, 0xff, 0xff, 0xff,
  0xff, 0xff, 0xff, 0xff, 0x3e, 0xfe, 0xff, 0xff, 0x00, 0x00, 0x00, 0x08,
  0x1c, 0x00, 0x00, 0x00, 0x10, 0x00, 0x00, 0x00, 0x04, 0x00, 0x00, 0x00,
  0x3a, 0xfd, 0xff, 0xff, 0x00, 0x00, 0x00, 0x01, 0x01, 0x00, 0x00, 0x00,
  0x10, 0x00, 0x00, 0x00, 0x03, 0x00, 0x00, 0x00, 0x0f, 0x00, 0x00, 0x00,
  0x07, 0x00, 0x00, 0x00, 0x08, 0x00, 0x00, 0x00, 0xd4, 0xef, 0xff, 0xff,
  0x00, 0x00, 0x00, 0x09, 0x14, 0x00, 0x00, 0x00, 0x11, 0x00, 0x00, 0x00,
  0x18, 0x00, 0x00, 0x00, 0x78, 0x00, 0x00, 0x00, 0x68, 0x00, 0x00, 0x00,
  0x02, 0x00, 0x00, 0x00, 0x01, 0x00, 0x00, 0x00, 0x0a, 0x00, 0x00, 0x00,
  0x52, 0x00, 0x00, 0x00, 0x73, 0x65, 0x71, 0x75, 0x65, 0x6e, 0x74, 0x69,
  0x61, 0x6c, 0x5f, 0x31, 0x2f, 0x64, 0x65, 0x6e, 0x73, 0x65, 0x5f, 0x39,
  0x2f, 0x4d, 0x61, 0x74, 0x4d, 0x75, 0x6c, 0x3b, 0x73, 0x65, 0x71, 0x75,
  0x65, 0x6e, 0x74, 0x69, 0x61, 0x6c, 0x5f, 0x31, 0x2f, 0x64, 0x65, 0x6e,
  0x73, 0x65, 0x5f, 0x39, 0x2f, 0x52, 0x65, 0x6c, 0x75, 0x3b, 0x73, 0x65,
  0x71, 0x75, 0x65, 0x6e, 0x74, 0x69, 0x61, 0x6c, 0x5f, 0x31, 0x2f, 0x64,
  0x65, 0x6e, 0x73, 0x65, 0x5f, 0x39, 0x2f, 0x42, 0x69, 0x61, 0x73, 0x41,
  0x64, 0x64, 0x00, 0x00, 0x02, 0x00, 0x00, 0x00, 0xff, 0xff, 0xff, 0xff,
  0x0a, 0x00, 0x00, 0x00, 0xf4, 0xef, 0xff, 0xff, 0x08, 0x00, 0x00, 0x00,
  0x0c, 0x00, 0x00, 0x00, 0x01, 0x00, 0x00, 0x00, 0xa3, 0x2a, 0x86, 0x3b,
  0x01, 0x00, 0x00, 0x00, 0x80, 0xff, 0xff, 0xff, 0xff, 0xff, 0xff, 0xff,
  0x1e, 0xff, 0xff, 0xff, 0x00, 0x00, 0x00, 0x08, 0x1c, 0x00, 0x00, 0x00,
  0x10, 0x00, 0x00, 0x00, 0x04, 0x00, 0x00, 0x00, 0x1a, 0xfe, 0xff, 0xff,
  0x00, 0x00, 0x00, 0x01, 0x01, 0x00, 0x00, 0x00, 0x0f, 0x00, 0x00, 0x00,
  0x03, 0x00, 0x00, 0x00, 0x0e, 0x00, 0x00, 0x00, 0x05, 0x00, 0x00, 0x00,
  0x06, 0x00, 0x00, 0x00, 0xb4, 0xf0, 0xff, 0xff, 0x00, 0x00, 0x00, 0x09,
  0x14, 0x00, 0x00, 0x00, 0x10, 0x00, 0x00, 0x00, 0x18, 0x00, 0x00, 0x00,
  0x78, 0x00, 0x00, 0x00, 0x68, 0x00, 0x00, 0x00, 0x02, 0x00, 0x00, 0x00,
  0x01, 0x00, 0x00, 0x00, 0x02, 0x00, 0x00, 0x00, 0x52, 0x00, 0x00, 0x00,
  0x73, 0x65, 0x71, 0x75, 0x65, 0x6e, 0x74, 0x69, 0x61, 0x6c, 0x5f, 0x31,
  0x2f, 0x64, 0x65, 0x6e, 0x73, 0x65, 0x5f, 0x38, 0x2f, 0x4d, 0x61, 0x74,
  0x4d, 0x75, 0x6c, 0x3b, 0x73, 0x65, 0x71, 0x75, 0x65, 0x6e, 0x74, 0x69,
  0x61, 0x6c, 0x5f, 0x31, 0x2f, 0x64, 0x65, 0x6e, 0x73, 0x65, 0x5f, 0x38,
  0x2f, 0x52, 0x65, 0x6c, 0x75, 0x3b, 0x73, 0x65, 0x71, 0x75, 0x65, 0x6e,
  0x74, 0x69, 0x61, 0x6c, 0x5f, 0x31, 0x2f, 0x64, 0x65, 0x6e, 0x73, 0x65,
  0x5f, 0x38, 0x2f, 0x42, 0x69, 0x61, 0x73, 0x41, 0x64, 0x64, 0x00, 0x00,
  0x02, 0x00, 0x00, 0x00, 0xff, 0xff, 0xff, 0xff, 0x02, 0x00, 0x00, 0x00,
  0xd4, 0xf0, 0xff, 0xff, 0x08, 0x00, 0x00, 0x00, 0x0c, 0x00, 0x00, 0x00,
  0x01, 0x00, 0x00, 0x00, 0xda, 0x1a, 0x06, 0x3c, 0x01, 0x00, 0x00, 0x00,
  0x80, 0xff, 0xff, 0xff, 0xff, 0xff, 0xff, 0xff, 0x00, 0x00, 0x0e, 0x00,
  0x14, 0x00, 0x00, 0x00, 0x08, 0x00, 0x0c, 0x00, 0x07, 0x00, 0x10, 0x00,
  0x0e, 0x00, 0x00, 0x00, 0x00, 0x00, 0x00, 0x08, 0x1c, 0x00, 0x00, 0x00,
  0x10, 0x00, 0x00, 0x00, 0x04, 0x00, 0x00, 0x00, 0x0a, 0xff, 0xff, 0xff,
  0x00, 0x00, 0x00, 0x01, 0x01, 0x00, 0x00, 0x00, 0x0e, 0x00, 0x00, 0x00,
  0x03, 0x00, 0x00, 0x00, 0x0d, 0x00, 0x00, 0x00, 0x03, 0x00, 0x00, 0x00,
  0x04, 0x00, 0x00, 0x00, 0xa4, 0xf1, 0xff, 0xff, 0x00, 0x00, 0x00, 0x09,
  0x14, 0x00, 0x00, 0x00, 0x0f, 0x00, 0x00, 0x00, 0x18, 0x00, 0x00, 0x00,
  0x78, 0x00, 0x00, 0x00, 0x68, 0x00, 0x00, 0x00, 0x02, 0x00, 0x00, 0x00,
  0x01, 0x00, 0x00, 0x00, 0x0a, 0x00, 0x00, 0x00, 0x52, 0x00, 0x00, 0x00,
  0x73, 0x65, 0x71, 0x75, 0x65, 0x6e, 0x74, 0x69, 0x61, 0x6c, 0x5f, 0x31,
  0x2f, 0x64, 0x65, 0x6e, 0x73, 0x65, 0x5f, 0x37, 0x2f, 0x4d, 0x61, 0x74,
  0x4d, 0x75, 0x6c, 0x3b, 0x73, 0x65, 0x71, 0x75, 0x65, 0x6e, 0x74, 0x69,
  0x61, 0x6c, 0x5f, 0x31, 0x2f, 0x64, 0x65, 0x6e, 0x73, 0x65, 0x5f, 0x37,
  0x2f, 0x52, 0x65, 0x6c, 0x75, 0x3b, 0x73, 0x65, 0x71, 0x75, 0x65, 0x6e,
  0x74, 0x69, 0x61, 0x6c, 0x5f, 0x31, 0x2f, 0x64, 0x65, 0x6e, 0x73, 0x65,
  0x5f, 0x37, 0x2f, 0x42, 0x69, 0x61, 0x73, 0x41, 0x64, 0x64, 0x00, 0x00,
  0x02, 0x00, 0x00, 0x00, 0xff, 0xff, 0xff, 0xff, 0x0a, 0x00, 0x00, 0x00,
  0xc4, 0xf1, 0xff, 0xff, 0x08, 0x00, 0x00, 0x00, 0x0c, 0x00, 0x00, 0x00,
  0x01, 0x00, 0x00, 0x00, 0x5e, 0xc0, 0x15, 0x3c, 0x01, 0x00, 0x00, 0x00,
  0x80, 0xff, 0xff, 0xff, 0xff, 0xff, 0xff, 0xff, 0x00, 0x00, 0x00, 0x00,
  0x00, 0x00, 0x0e, 0x00, 0x16, 0x00, 0x00, 0x00, 0x08, 0x00, 0x0c, 0x00,
  0x07, 0x00, 0x10, 0x00, 0x0e, 0x00, 0x00, 0x00, 0x00, 0x00, 0x00, 0x08,
  0x24, 0x00, 0x00, 0x00, 0x18, 0x00, 0x00, 0x00, 0x0c, 0x00, 0x00, 0x00,
  0x00, 0x00, 0x06, 0x00, 0x08, 0x00, 0x07, 0x00, 0x06, 0x00, 0x00, 0x00,
  0x00, 0x00, 0x00, 0x01, 0x01, 0x00, 0x00, 0x00, 0x0d, 0x00, 0x00, 0x00,
  0x03, 0x00, 0x00, 0x00, 0x00, 0x00, 0x00, 0x00, 0x01, 0x00, 0x00, 0x00,
  0x02, 0x00, 0x00, 0x00, 0x0c, 0x00, 0x10, 0x00, 0x0b, 0x00, 0x00, 0x00,
  0x0c, 0x00, 0x04, 0x00, 0x0c, 0x00, 0x00, 0x00, 0x09, 0x00, 0x00, 0x00,
  0x00, 0x00, 0x00, 0x09, 0x04, 0x00, 0x00, 0x00, 0xbc, 0xf2, 0xff, 0xff,
  0x00, 0x00, 0x00, 0x09, 0x14, 0x00, 0x00, 0x00, 0x0e, 0x00, 0x00, 0x00,
  0x18, 0x00, 0x00, 0x00, 0x78, 0x00, 0x00, 0x00, 0x68, 0x00, 0x00, 0x00,
  0x02, 0x00, 0x00, 0x00, 0x01, 0x00, 0x00, 0x00, 0x1e, 0x00, 0x00, 0x00,
  0x52, 0x00, 0x00, 0x00, 0x73, 0x65, 0x71, 0x75, 0x65, 0x6e, 0x74, 0x69,
  0x61, 0x6c, 0x5f, 0x31, 0x2f, 0x64, 0x65, 0x6e, 0x73, 0x65, 0x5f, 0x36,
  0x2f, 0x4d, 0x61, 0x74, 0x4d, 0x75, 0x6c, 0x3b, 0x73, 0x65, 0x71, 0x75,
  0x65, 0x6e, 0x74, 0x69, 0x61, 0x6c, 0x5f, 0x31, 0x2f, 0x64, 0x65, 0x6e,
  0x73, 0x65, 0x5f, 0x36, 0x2f, 0x52, 0x65, 0x6c, 0x75, 0x3b, 0x73, 0x65,
  0x71, 0x75, 0x65, 0x6e, 0x74, 0x69, 0x61, 0x6c, 0x5f, 0x31, 0x2f, 0x64,
  0x65, 0x6e, 0x73, 0x65, 0x5f, 0x36, 0x2f, 0x42, 0x69, 0x61, 0x73, 0x41,
  0x64, 0x64, 0x00, 0x00, 0x02, 0x00, 0x00, 0x00, 0xff, 0xff, 0xff, 0xff,
  0x1e, 0x00, 0x00, 0x00, 0xdc, 0xf2, 0xff, 0xff, 0x08, 0x00, 0x00, 0x00,
  0x0c, 0x00, 0x00, 0x00, 0x01, 0x00, 0x00, 0x00, 0x7e, 0xea, 0xdc, 0x3b,
  0x01, 0x00, 0x00, 0x00, 0x80, 0xff, 0xff, 0xff, 0xff, 0xff, 0xff, 0xff,
  0x00, 0x00, 0x00, 0x00, 0xb2, 0xf5, 0xff, 0xff, 0x04, 0x00, 0x00, 0x00,
  0x3c, 0x00, 0x00, 0x00, 0x0d, 0x0f, 0x00, 0x00, 0x16, 0x19, 0x00, 0x00,
  0x2e, 0x12, 0x00, 0x00, 0xc9, 0x17, 0x00, 0x00, 0x32, 0x0f, 0x00, 0x00,
  0x8d, 0x1d, 0x00, 0x00, 0x3a, 0x18, 0x00, 0x00, 0xe6, 0x15, 0x00, 0x00,
  0xf2, 0x10, 0x00, 0x00, 0x13, 0x16, 0x00, 0x00, 0x46, 0x12, 0x00, 0x00,
  0x77, 0x0f, 0x00, 0x00, 0xcb, 0x0d, 0x00, 0x00, 0xa1, 0x13, 0x00, 0x00,
  0xb0, 0x0f, 0x00, 0x00, 0x26, 0xf4, 0xff, 0xff, 0x00, 0x00, 0x00, 0x02,
  0x10, 0x00, 0x00, 0x00, 0x0d, 0x00, 0x00, 0x00, 0x10, 0x00, 0x00, 0x00,
  0x20, 0x00, 0x00, 0x00, 0x01, 0x00, 0x00, 0x00, 0x0f, 0x00, 0x00, 0x00,
  0x0d, 0x00, 0x00, 0x00, 0x64, 0x65, 0x6e, 0x73, 0x65, 0x5f, 0x31, 0x31,
  0x2f, 0x62, 0x69, 0x61, 0x73, 0x00, 0x00, 0x00, 0x7c, 0xf3, 0xff, 0xff,
  0x08, 0x00, 0x00, 0x00, 0x0c, 0x00, 0x00, 0x00, 0x01, 0x00, 0x00, 0x00,
  0x77, 0x6b, 0x4e, 0x37, 0x01, 0x00, 0x00, 0x00, 0x00, 0x00, 0x00, 0x00,
  0x00, 0x00, 0x00, 0x00, 0x4e, 0xf6, 0xff, 0xff, 0x04, 0x00, 0x00, 0x00,
  0xc2, 0x01, 0x00, 0x00, 0xe7, 0x3d, 0xd7, 0x3a, 0x65, 0xd9, 0x39, 0x36,
  0x37, 0x25, 0xfd, 0xca, 0xcd, 0x42, 0x3c, 0x5b, 0x05, 0x17, 0x3c, 0x2c,
  0xbe, 0x47, 0x2c, 0x24, 0x0e, 0x2f, 0x05, 0x17, 0xea, 0x05, 0x29, 0xdc,
  0x51, 0xc1, 0xeb, 0x47, 0x03, 0xf5, 0x20, 0x24, 0xb2, 0xb8, 0x3c, 0x51,
  0x1b, 0xa9, 0x28, 0xc9, 0xf7, 0xb9, 0x7f, 0x29, 0xb1, 0x6c, 0x08, 0xed,
  0x2e, 0xd6, 0x09, 0xbd, 0xfb, 0xdc, 0x30, 0x1b, 0xe0, 0xdc, 0x17, 0x3a,
  0x1c, 0x68, 0x02, 0xc5, 0xc7, 0x36, 0x6b, 0x10, 0xb6, 0x14, 0xbe, 0x25,
  0x31, 0xd1, 0xd5, 0xca, 0x61, 0x42, 0xc4, 0x4a, 0x24, 0xf3, 0x02, 0x4d,
  0xb5, 0x2c, 0xf2, 0xd9, 0xfb, 0xc8, 0x00, 0xd7, 0xb9, 0xb6, 0xc3, 0xbb,
  0x73, 0xe0, 0xc7, 0x53, 0x54, 0x1e, 0x2e, 0x1c, 0x0a, 0x5a, 0xe0, 0x5b,
  0xa9, 0xe2, 0x38, 0xf7, 0xa7, 0xb3, 0x4b, 0x17, 0x12, 0xf5, 0xd5, 0x03,
  0x28, 0x17, 0x1d, 0xf6, 0x34, 0x02, 0x05, 0xfa, 0xb4, 0x55, 0x57, 0xea,
  0x55, 0xb2, 0xfe, 0x58, 0x30, 0xb8, 0xe4, 0xbe, 0x46, 0xc8, 0x5d, 0xa6,
  0xed, 0xd9, 0xcf, 0x64, 0x2f, 0x49, 0xa6, 0x11, 0xfc, 0xdb, 0x57, 0xd6,
  0xf1, 0xfd, 0xe1, 0x61, 0xfa, 0x1b, 0xd5, 0xa7, 0xd6, 0xf4, 0x57, 0x15,
  0xf9, 0xef, 0x38, 0x48, 0xd8, 0x0c, 0xe1, 0x5f, 0x48, 0xdf, 0xa6, 0x57,
  0x54, 0x23, 0xed, 0xeb, 0xd2, 0x18, 0x25, 0x12, 0x26, 0xca, 0x61, 0xcb,
  0x45, 0x1c, 0x05, 0xdc, 0x25, 0x3c, 0x2a, 0x5c, 0xa9, 0xac, 0x08, 0x1f,
  0x5c, 0x21, 0x57, 0xe4, 0xfe, 0xa4, 0xbb, 0x4e, 0x4d, 0x3e, 0x5f, 0xcb,
  0xe4, 0xe2, 0xe4, 0xc3, 0x34, 0xe5, 0xca, 0xdd, 0xb6, 0x09, 0x26, 0x30,
  0x48, 0xd4, 0x36, 0x3f, 0x05, 0xf5, 0x38, 0xc8, 0x2b, 0xfb, 0xfc, 0xee,
  0x44, 0x16, 0x20, 0xfd, 0x5c, 0x00, 0xd6, 0x02, 0x0e, 0xf4, 0xb7, 0x2a,
  0x49, 0x02, 0x51, 0x0e, 0x4d, 0x5b, 0xdd, 0xa9, 0xf3, 0x0b, 0xee, 0xc6,
  0xc2, 0x0d, 0xca, 0x03, 0xbc, 0xfe, 0xc2, 0xd8, 0xeb, 0x03, 0x1b, 0x28,
  0xdc, 0xca, 0xe1, 0x32, 0x79, 0xdd, 0x05, 0xa9, 0xd3, 0xd6, 0x72, 0x4c,
  0xdc, 0xcb, 0x25, 0xde, 0x1c, 0xfe, 0xd9, 0x46, 0x3a, 0xf5, 0xbd, 0xac,
  0x3f, 0x65, 0x32, 0x1d, 0xb1, 0xa8, 0xe8, 0x1f, 0xb5, 0xee, 0xc3, 0x2a,
  0x4f, 0xe3, 0x04, 0x6d, 0x54, 0xce, 0xcf, 0xe3, 0xaf, 0xb9, 0xf8, 0x03,
  0xb1, 0xdd, 0x33, 0x5c, 0xb0, 0xaa, 0x1d, 0xc7, 0xac, 0xe9, 0xac, 0x33,
  0x27, 0xb5, 0xfa, 0xda, 0x64, 0xaf, 0x09, 0x2f, 0xce, 0x35, 0xde, 0x50,
  0x40, 0x31, 0xa7, 0x25, 0xaa, 0xd1, 0x63, 0xdc, 0xb6, 0x3c, 0x24, 0xd5,
  0x3e, 0xd6, 0x28, 0x51, 0x2f, 0xc1, 0xca, 0xb8, 0xf1, 0x16, 0x57, 0x24,
  0x43, 0x5d, 0x00, 0x3b, 0x53, 0x2b, 0x43, 0xd1, 0x0f, 0xa4, 0x32, 0xd0,
  0x3d, 0xc8, 0x01, 0x15, 0x37, 0xb7, 0xa6, 0xc0, 0xfd, 0xb0, 0xdb, 0x28,
  0xb9, 0xb6, 0xd7, 0xf2, 0x12, 0xd9, 0x51, 0x15, 0x14, 0x58, 0x03, 0x54,
  0x4b, 0x1c, 0x51, 0xce, 0x3d, 0xaf, 0x36, 0x4f, 0x3d, 0x48, 0xb0, 0xce,
  0xd5, 0xd2, 0x27, 0x1b, 0xd5, 0x34, 0x02, 0x04, 0xb1, 0x59, 0x4a, 0x21,
  0x14, 0xd1, 0xf4, 0xb4, 0x3a, 0x5b, 0xfd, 0xb1, 0x32, 0xe8, 0x00, 0x00,
  0x4a, 0xf6, 0xff, 0xff, 0x00, 0x00, 0x00, 0x09, 0x10, 0x00, 0x00, 0x00,
  0x0c, 0x00, 0x00, 0x00, 0x14, 0x00, 0x00, 0x00, 0x34, 0x00, 0x00, 0x00,
  0x02, 0x00, 0x00, 0x00, 0x0f, 0x00, 0x00, 0x00, 0x1e, 0x00, 0x00, 0x00,
  0x1c, 0x00, 0x00, 0x00, 0x73, 0x65, 0x71, 0x75, 0x65, 0x6e, 0x74, 0x69,
  0x61, 0x6c, 0x5f, 0x31, 0x2f, 0x64, 0x65, 0x6e, 0x73, 0x65, 0x5f, 0x31,
  0x31, 0x2f, 0x4d, 0x61, 0x74, 0x4d, 0x75, 0x6c, 0x00, 0x00, 0x00, 0x00,
  0xb4, 0xf5, 0xff, 0xff, 0x08, 0x00, 0x00, 0x00, 0x0c, 0x00, 0x00, 0x00,
  0x01, 0x00, 0x00, 0x00, 0x50, 0x84, 0x7c, 0x3b, 0x01, 0x00, 0x00, 0x00,
  0x00, 0x00, 0x00, 0x00, 0x00, 0x00, 0x00, 0x00, 0x86, 0xf8, 0xff, 0xff,
  0x04, 0x00, 0x00, 0x00, 0x78, 0x00, 0x00, 0x00, 0x00, 0x00, 0x00, 0x00,
  0x00, 0x00, 0x00, 0x00, 0xf3, 0x0a, 0x00, 0x00, 0xc2, 0x0a, 0x00, 0x00,
  0xd4, 0xf5, 0xff, 0xff, 0x25, 0xff, 0xff, 0xff, 0x40, 0xfb, 0xff, 0xff,
  0x00, 0x00, 0x00, 0x00, 0x00, 0x00, 0x00, 0x00, 0x79, 0xfd, 0xff, 0xff,
  0x00, 0x00, 0x00, 0x00, 0x4a, 0xf2, 0xff, 0xff, 0x75, 0xfb, 0xff, 0xff,
  0x00, 0x00, 0x00, 0x00, 0xd3, 0xf7, 0xff, 0xff, 0x00, 0x00, 0x00, 0x00,
  0x00, 0x00, 0x00, 0x00, 0xf7, 0xff, 0xff, 0xff, 0xc4, 0x0f, 0x00, 0x00,
  0x3f, 0xf8, 0xff, 0xff, 0x55, 0x10, 0x00, 0x00, 0xbd, 0xf7, 0xff, 0xff,
  0x20, 0xf2, 0xff, 0xff, 0xfb, 0x0f, 0x00, 0x00, 0xa3, 0x11, 0x00, 0x00,
  0x88, 0x11, 0x00, 0x00, 0x00, 0x00, 0x00, 0x00, 0xfd, 0xfd, 0xff, 0xff,
  0x00, 0x00, 0x00, 0x00, 0x00, 0x00, 0x00, 0x00, 0x36, 0xf7, 0xff, 0xff,
  0x00, 0x00, 0x00, 0x02, 0x10, 0x00, 0x00, 0x00, 0x0b, 0x00, 0x00, 0x00,
  0x10, 0x00, 0x00, 0x00, 0x20, 0x00, 0x00, 0x00, 0x01, 0x00, 0x00, 0x00,
  0x1e, 0x00, 0x00, 0x00, 0x0d, 0x00, 0x00, 0x00, 0x64, 0x65, 0x6e, 0x73,
  0x65, 0x5f, 0x31, 0x30, 0x2f, 0x62, 0x69, 0x61, 0x73, 0x00, 0x00, 0x00,
  0x8c, 0xf6, 0xff, 0xff, 0x08, 0x00, 0x00, 0x00, 0x0c, 0x00, 0x00, 0x00,
  0x01, 0x00, 0x00, 0x00, 0xac, 0xdf, 0x7a, 0x37, 0x01, 0x00, 0x00, 0x00,
  0x00, 0x00, 0x00, 0x00, 0x00, 0x00, 0x00, 0x00, 0x5e, 0xf9, 0xff, 0xff,
  0x04, 0x00, 0x00, 0x00, 0x2c, 0x01, 0x00, 0x00, 0xc3, 0xac, 0xa6, 0xdf,
  0xb4, 0xd3, 0x02, 0x14, 0xa1, 0x23, 0xce, 0xfb, 0xc8, 0xbf, 0xcf, 0x37,
  0xc4, 0xe0, 0xc0, 0x33, 0xde, 0xdb, 0xcf, 0x19, 0x51, 0xaf, 0xcf, 0xf4,
  0x07, 0xd1, 0xd6, 0xaf, 0x2c, 0x16, 0x41, 0xa6, 0x45, 0xab, 0xfd, 0xbd,
  0xfe, 0x01, 0x4a, 0x3a, 0x8d, 0x4e, 0x5d, 0x5a, 0xda, 0xae, 0x55, 0xe5,
  0x9a, 0xf9, 0x26, 0x34, 0xb0, 0x2d, 0x56, 0xe9, 0x9b, 0xef, 0x57, 0x5c,
  0xa7, 0xe3, 0x36, 0xea, 0x42, 0xaf, 0xab, 0xd6, 0x9f, 0xaf, 0x1e, 0xd2,
  0x4b, 0xbb, 0x99, 0xb2, 0xab, 0xa5, 0xd5, 0xee, 0xb1, 0x32, 0x48, 0xd3,
  0xa6, 0xfc, 0x5b, 0x1b, 0x1b, 0x9f, 0x2a, 0x3e, 0x05, 0x34, 0x43, 0x3f,
  0xca, 0xf7, 0xe8, 0x22, 0xa5, 0xcf, 0xd2, 0xdc, 0x28, 0xb2, 0xff, 0xc7,
  0xe7, 0x12, 0xf5, 0x56, 0x3f, 0xea, 0xa6, 0x28, 0x9a, 0xd9, 0x36, 0x5d,
  0x1f, 0x0a, 0x41, 0xea, 0xe7, 0x00, 0xb0, 0xd7, 0xf9, 0x66, 0xe1, 0x37,
  0x27, 0xdc, 0xc6, 0xbc, 0xc2, 0xd8, 0x62, 0x5a, 0xba, 0x61, 0x47, 0x47,
  0xab, 0x1f, 0xbf, 0x08, 0xc9, 0xa4, 0xa2, 0x35, 0xb9, 0x47, 0x29, 0x19,
  0xd2, 0x25, 0xbc, 0xb1, 0x22, 0x17, 0xde, 0x96, 0xf1, 0x06, 0xb9, 0x5e,
  0x4c, 0x68, 0xe8, 0x1b, 0x62, 0xf4, 0xe8, 0x17, 0x1c, 0x66, 0xbc, 0x0c,
  0x4d, 0xec, 0x11, 0x04, 0x00, 0xc5, 0xc4, 0xb7, 0x18, 0x27, 0x23, 0x34,
  0xf0, 0x53, 0xdc, 0xdc, 0xdf, 0xfb, 0x30, 0x60, 0xed, 0xcb, 0x75, 0xc3,
  0x2e, 0x96, 0xd8, 0x23, 0x24, 0x01, 0xd4, 0x36, 0x3d, 0xb8, 0x4f, 0xe5,
  0xb1, 0xad, 0x9c, 0x58, 0x96, 0xcf, 0x0c, 0x4e, 0x00, 0x1b, 0x31, 0x00,
  0xbe, 0x5b, 0x75, 0x05, 0xd4, 0x1c, 0x6e, 0xc5, 0x26, 0x1e, 0xb9, 0x75,
  0xa9, 0xd3, 0x27, 0x4a, 0xd6, 0x62, 0x7f, 0xe7, 0xf8, 0x50, 0xb2, 0x00,
  0x4d, 0xf0, 0xe2, 0x40, 0xbf, 0x34, 0xec, 0xaa, 0xc9, 0x41, 0xa0, 0xcf,
  0xfe, 0xea, 0xbe, 0x9b, 0xac, 0xd2, 0x65, 0xeb, 0xfa, 0x39, 0xb6, 0xbf,
  0xc0, 0x36, 0x4f, 0xd9, 0xc4, 0xc3, 0xe5, 0xf7, 0xab, 0x61, 0x9c, 0xf9,
  0x25, 0x0e, 0x28, 0xeb, 0xa7, 0xf8, 0xd7, 0xb3, 0xc2, 0xf8, 0xff, 0xff,
  0x00, 0x00, 0x00, 0x09, 0x10, 0x00, 0x00, 0x00, 0x0a, 0x00, 0x00, 0x00,
  0x14, 0x00, 0x00, 0x00, 0x34, 0x00, 0x00, 0x00, 0x02, 0x00, 0x00, 0x00,
  0x1e, 0x00, 0x00, 0x00, 0x0a, 0x00, 0x00, 0x00, 0x1c, 0x00, 0x00, 0x00,
  0x73, 0x65, 0x71, 0x75, 0x65, 0x6e, 0x74, 0x69, 0x61, 0x6c, 0x5f, 0x31,
  0x2f, 0x64, 0x65, 0x6e, 0x73, 0x65, 0x5f, 0x31, 0x30, 0x2f, 0x4d, 0x61,
  0x74, 0x4d, 0x75, 0x6c, 0x00, 0x00, 0x00, 0x00, 0x2c, 0xf8, 0xff, 0xff,
  0x08, 0x00, 0x00, 0x00, 0x0c, 0x00, 0x00, 0x00, 0x01, 0x00, 0x00, 0x00,
  0xd4, 0x57, 0x6f, 0x3b, 0x01, 0x00, 0x00, 0x00, 0x00, 0x00, 0x00, 0x00,
  0x00, 0x00, 0x00, 0x00, 0xfe, 0xfa, 0xff, 0xff, 0x04, 0x00, 0x00, 0x00,
  0x28, 0x00, 0x00, 0x00, 0x5d, 0x06, 0x00, 0x00, 0x1f, 0x03, 0x00, 0x00,
  0xca, 0xfd, 0xff, 0xff, 0xbe, 0x03, 0x00, 0x00, 0xa5, 0xff, 0xff, 0xff,
  0xdf, 0xf9, 0xff, 0xff, 0xa3, 0x01, 0x00, 0x00, 0x32, 0xf9, 0xff, 0xff,
  0xa1, 0xfd, 0xff, 0xff, 0x83, 0xff, 0xff, 0xff, 0x5e, 0xf9, 0xff, 0xff,
  0x00, 0x00, 0x00, 0x02, 0x10, 0x00, 0x00, 0x00, 0x09, 0x00, 0x00, 0x00,
  0x10, 0x00, 0x00, 0x00, 0x20, 0x00, 0x00, 0x00, 0x01, 0x00, 0x00, 0x00,
  0x0a, 0x00, 0x00, 0x00, 0x0c, 0x00, 0x00, 0x00, 0x64, 0x65, 0x6e, 0x73,
  0x65, 0x5f, 0x39, 0x2f, 0x62, 0x69, 0x61, 0x73, 0x00, 0x00, 0x00, 0x00,
  0xb4, 0xf8, 0xff, 0xff, 0x08, 0x00, 0x00, 0x00, 0x0c, 0x00, 0x00, 0x00,
  0x01, 0x00, 0x00, 0x00, 0xc0, 0x5d, 0x32, 0x38, 0x01, 0x00, 0x00, 0x00,
  0x00, 0x00, 0x00, 0x00, 0x00, 0x00, 0x00, 0x00, 0x00, 0x00, 0x00, 0x00,
  0x8a, 0xfb, 0xff, 0xff, 0x04, 0x00, 0x00, 0x00, 0x14, 0x00, 0x00, 0x00,
  0x2d, 0x55, 0xb4, 0x2c, 0x71, 0xba, 0x75, 0x1e, 0x58, 0xfc, 0xf4, 0x1c,
  0x08, 0x3d, 0x29, 0x45, 0x7f, 0x09, 0xca, 0x17, 0xd6, 0xf9, 0xff, 0xff,
  0x00, 0x00, 0x00, 0x09, 0x10, 0x00, 0x00, 0x00, 0x08, 0x00, 0x00, 0x00,
  0x14, 0x00, 0x00, 0x00, 0x30, 0x00, 0x00, 0x00, 0x02, 0x00, 0x00, 0x00,
  0x0a, 0x00, 0x00, 0x00, 0x02, 0x00, 0x00, 0x00, 0x1b, 0x00, 0x00, 0x00,
  0x73, 0x65, 0x71, 0x75, 0x65, 0x6e, 0x74, 0x69, 0x61, 0x6c, 0x5f, 0x31,
  0x2f, 0x64, 0x65, 0x6e, 0x73, 0x65, 0x5f, 0x39, 0x2f, 0x4d, 0x61, 0x74,
  0x4d, 0x75, 0x6c, 0x00, 0x3c, 0xf9, 0xff, 0xff, 0x08, 0x00, 0x00, 0x00,
  0x0c, 0x00, 0x00, 0x00, 0x01, 0x00, 0x00, 0x00, 0x14, 0x3f, 0xaa, 0x3b,
  0x01, 0x00, 0x00, 0x00, 0x00, 0x00, 0x00, 0x00, 0x00, 0x00, 0x00, 0x00,
  0x0e, 0xfc, 0xff, 0xff, 0x04, 0x00, 0x00, 0x00, 0x08, 0x00, 0x00, 0x00,
  0xb0, 0xff, 0xff, 0xff, 0x57, 0x02, 0x00, 0x00, 0x4e, 0xfa, 0xff, 0xff,
  0x00, 0x00, 0x00, 0x02, 0x10, 0x00, 0x00, 0x00, 0x07, 0x00, 0x00, 0x00,
  0x10, 0x00, 0x00, 0x00, 0x20, 0x00, 0x00, 0x00, 0x01, 0x00, 0x00, 0x00,
  0x02, 0x00, 0x00, 0x00, 0x0c, 0x00, 0x00, 0x00, 0x64, 0x65, 0x6e, 0x73,
  0x65, 0x5f, 0x38, 0x2f, 0x62, 0x69, 0x61, 0x73, 0x00, 0x00, 0x00, 0x00,
  0xa4, 0xf9, 0xff, 0xff, 0x08, 0x00, 0x00, 0x00, 0x0c, 0x00, 0x00, 0x00,
  0x01, 0x00, 0x00, 0x00, 0x19, 0x9f, 0x52, 0x38, 0x01, 0x00, 0x00, 0x00,
  0x00, 0x00, 0x00, 0x00, 0x00, 0x00, 0x00, 0x00, 0x00, 0x00, 0x00, 0x00,
  0x7a, 0xfc, 0xff, 0xff, 0x04, 0x00, 0x00, 0x00, 0x14, 0x00, 0x00, 0x00,
  0xce, 0x3e, 0xc5, 0xf0, 0x09, 0x21, 0x41, 0xc3, 0x2a, 0x1e, 0x11, 0xdb,
  0x54, 0x29, 0x78, 0x63, 0xe3, 0x43, 0x7f, 0xc8, 0xc6, 0xfa, 0xff, 0xff,
  0x00, 0x00, 0x00, 0x09, 0x10, 0x00, 0x00, 0x00, 0x06, 0x00, 0x00, 0x00,
  0x14, 0x00, 0x00, 0x00, 0x30, 0x00, 0x00, 0x00, 0x02, 0x00, 0x00, 0x00,
  0x02, 0x00, 0x00, 0x00, 0x0a, 0x00, 0x00, 0x00, 0x1b, 0x00, 0x00, 0x00,
  0x73, 0x65, 0x71, 0x75, 0x65, 0x6e, 0x74, 0x69, 0x61, 0x6c, 0x5f, 0x31,
  0x2f, 0x64, 0x65, 0x6e, 0x73, 0x65, 0x5f, 0x38, 0x2f, 0x4d, 0x61, 0x74,
  0x4d, 0x75, 0x6c, 0x00, 0x2c, 0xfa, 0xff, 0xff, 0x08, 0x00, 0x00, 0x00,
  0x0c, 0x00, 0x00, 0x00, 0x01, 0x00, 0x00, 0x00, 0x56, 0x07, 0xb4, 0x3b,
  0x01, 0x00, 0x00, 0x00, 0x00, 0x00, 0x00, 0x00, 0x00, 0x00, 0x00, 0x00,
  0xfe, 0xfc, 0xff, 0xff, 0x04, 0x00, 0x00, 0x00, 0x28, 0x00, 0x00, 0x00,
  0xe1, 0xfc, 0xff, 0xff, 0x67, 0xff, 0xff, 0xff, 0x00, 0x00, 0x00, 0x00,
  0x04, 0x05, 0x00, 0x00, 0x00, 0x00, 0x00, 0x00, 0x8b, 0xff, 0xff, 0xff,
  0x00, 0x00, 0x00, 0x00, 0x28, 0x06, 0x00, 0x00, 0x8f, 0x02, 0x00, 0x00,
  0xf7, 0xfa, 0xff, 0xff, 0x5e, 0xfb, 0xff, 0xff, 0x00, 0x00, 0x00, 0x02,
  0x10, 0x00, 0x00, 0x00, 0x05, 0x00, 0x00, 0x00, 0x10, 0x00, 0x00, 0x00,
  0x20, 0x00, 0x00, 0x00, 0x01, 0x00, 0x00, 0x00, 0x0a, 0x00, 0x00, 0x00,
  0x0c, 0x00, 0x00, 0x00, 0x64, 0x65, 0x6e, 0x73, 0x65, 0x5f, 0x37, 0x2f,
  0x62, 0x69, 0x61, 0x73, 0x00, 0x00, 0x00, 0x00, 0xb4, 0xfa, 0xff, 0xff,
  0x08, 0x00, 0x00, 0x00, 0x0c, 0x00, 0x00, 0x00, 0x01, 0x00, 0x00, 0x00,
  0x25, 0x73, 0xd7, 0x37, 0x01, 0x00, 0x00, 0x00, 0x00, 0x00, 0x00, 0x00,
  0x00, 0x00, 0x00, 0x00, 0x00, 0x00, 0x00, 0x00, 0x8a, 0xfd, 0xff, 0xff,
  0x04, 0x00, 0x00, 0x00, 0x2c, 0x01, 0x00, 0x00, 0x07, 0xfa, 0x06, 0x0e,
  0xe4, 0x0c, 0xf2, 0xf7, 0xf4, 0x56, 0x48, 0xbb, 0x0b, 0x44, 0x3b, 0x36,
  0x1f, 0x28, 0xa9, 0xd6, 0xe8, 0x0f, 0x9b, 0x23, 0x0d, 0xd2, 0xb6, 0x9e,
  0xf3, 0x94, 0xff, 0xd8, 0x7f, 0x17, 0xa4, 0xf3, 0xb2, 0xd1, 0x15, 0x18,
  0x20, 0x06, 0xfb, 0xad, 0x44, 0x06, 0xd8, 0xd4, 0xb9, 0xfa, 0xe6, 0x50,
  0x5d, 0xa1, 0xdf, 0x47, 0xdd, 0x8d, 0x57, 0x15, 0xb7, 0x4c, 0xcd, 0xb8,
  0x27, 0xff, 0x29, 0xe6, 0x36, 0xf3, 0x2e, 0xbf, 0x5d, 0x40, 0xa9, 0xd7,
  0x0a, 0x3e, 0x0c, 0xa0, 0xe8, 0xa8, 0x2d, 0xa4, 0x50, 0x2b, 0xaf, 0x05,
  0xdb, 0xa0, 0x34, 0x47, 0xc0, 0x1b, 0x2a, 0xe0, 0xc7, 0x3d, 0xa6, 0x66,
  0xc6, 0xfb, 0xcc, 0x6a, 0xe5, 0xb7, 0x03, 0x61, 0x3b, 0x0c, 0xe9, 0xf2,
  0x26, 0x28, 0x0e, 0xf3, 0xb1, 0x13, 0xd4, 0x07, 0xe6, 0xca, 0xac, 0x9e,
  0x4f, 0xce, 0xbb, 0xbe, 0x0e, 0x2a, 0x64, 0x58, 0xc4, 0xaf, 0x65, 0xc8,
  0xb4, 0xb2, 0x10, 0x4d, 0xe6, 0xd0, 0x17, 0x1a, 0x18, 0xa1, 0x4c, 0x0f,
  0xca, 0xbe, 0x28, 0x5f, 0x0a, 0xe8, 0xe9, 0xf9, 0x33, 0xbb, 0xea, 0x04,
  0x25, 0xb0, 0x08, 0xaf, 0x3b, 0xc5, 0xc5, 0xa7, 0xd3, 0x1a, 0xba, 0x4f,
  0xa9, 0x2b, 0xb3, 0x04, 0x37, 0x3f, 0xdc, 0xb2, 0xca, 0xea, 0xdf, 0x31,
  0xc5, 0xbe, 0x3e, 0xe5, 0x9c, 0xf2, 0xc6, 0xb5, 0x47, 0xd0, 0xc8, 0x46,
  0x27, 0x46, 0xdf, 0x1a, 0xa2, 0xd0, 0xf4, 0xa5, 0xa4, 0xc7, 0xf7, 0x53,
  0xf1, 0x9e, 0xff, 0xe0, 0x29, 0xc3, 0x31, 0x39, 0x08, 0xb1, 0x44, 0xa5,
  0xd9, 0xb1, 0xb0, 0x23, 0xf7, 0x99, 0x7e, 0x15, 0x70, 0x38, 0xfd, 0x61,
  0x6e, 0x5f, 0xa6, 0x3f, 0xd2, 0x57, 0xf0, 0x32, 0xcf, 0x48, 0x33, 0x68,
  0xcb, 0xc1, 0x12, 0x03, 0xb1, 0x67, 0x4b, 0xd0, 0xe2, 0xc2, 0x25, 0xdd,
  0x1b, 0xd5, 0x2e, 0x14, 0x37, 0xe5, 0x59, 0xfc, 0xa8, 0xe8, 0x23, 0x00,
  0x62, 0x31, 0x4f, 0x59, 0x38, 0xeb, 0xb6, 0x5d, 0xbe, 0x40, 0x30, 0x1c,
  0x0b, 0x32, 0xbd, 0xbf, 0xc0, 0x47, 0x83, 0x15, 0x28, 0xc4, 0x37, 0xaa,
  0x14, 0xcb, 0x09, 0xc9, 0x25, 0xb3, 0x3c, 0x00, 0xee, 0xfc, 0xff, 0xff,
  0x00, 0x00, 0x00, 0x09, 0x10, 0x00, 0x00, 0x00, 0x04, 0x00, 0x00, 0x00,
  0x14, 0x00, 0x00, 0x00, 0x30, 0x00, 0x00, 0x00, 0x02, 0x00, 0x00, 0x00,
  0x0a, 0x00, 0x00, 0x00, 0x1e, 0x00, 0x00, 0x00, 0x1b, 0x00, 0x00, 0x00,
  0x73, 0x65, 0x71, 0x75, 0x65, 0x6e, 0x74, 0x69, 0x61, 0x6c, 0x5f, 0x31,
  0x2f, 0x64, 0x65, 0x6e, 0x73, 0x65, 0x5f, 0x37, 0x2f, 0x4d, 0x61, 0x74,
  0x4d, 0x75, 0x6c, 0x00, 0x54, 0xfc, 0xff, 0xff, 0x08, 0x00, 0x00, 0x00,
  0x0c, 0x00, 0x00, 0x00, 0x01, 0x00, 0x00, 0x00, 0x6b, 0xaa, 0x79, 0x3b,
  0x01, 0x00, 0x00, 0x00, 0x00, 0x00, 0x00, 0x00, 0x00, 0x00, 0x00, 0x00,
  0x26, 0xff, 0xff, 0xff, 0x04, 0x00, 0x00, 0x00, 0x78, 0x00, 0x00, 0x00,
  0x07, 0xfe, 0xff, 0xff, 0x72, 0x01, 0x00, 0x00, 0x4c, 0x00, 0x00, 0x00,
  0x5b, 0x01, 0x00, 0x00, 0x05, 0xfd, 0xff, 0xff, 0x54, 0x01, 0x00, 0x00,
  0xfc, 0xff, 0xff, 0xff, 0x04, 0x06, 0x00, 0x00, 0xcc, 0xfc, 0xff, 0xff,
  0x1a, 0x02, 0x00, 0x00, 0x25, 0xfe, 0xff, 0xff, 0xe6, 0xff, 0xff, 0xff,
  0x21, 0x04, 0x00, 0x00, 0x9f, 0xfe, 0xff, 0xff, 0x61, 0x00, 0x00, 0x00,
  0x13, 0xfc, 0xff, 0xff, 0xfa, 0xff, 0xff, 0xff, 0x00, 0x00, 0x00, 0x00,
  0x98, 0x01, 0x00, 0x00, 0xfe, 0xfe, 0xff, 0xff, 0x00, 0x00, 0x00, 0x00,
  0x00, 0x00, 0x00, 0x00, 0x11, 0x01, 0x00, 0x00, 0x35, 0x02, 0x00, 0x00,
  0x00, 0x00, 0x00, 0x00, 0x22, 0xfc, 0xff, 0xff, 0xc9, 0xfe, 0xff, 0xff,
  0xe1, 0x05, 0x00, 0x00, 0x6f, 0x00, 0x00, 0x00, 0x20, 0x01, 0x00, 0x00,
  0xd6, 0xfd, 0xff, 0xff, 0x00, 0x00, 0x00, 0x02, 0x10, 0x00, 0x00, 0x00,
  0x03, 0x00, 0x00, 0x00, 0x10, 0x00, 0x00, 0x00, 0x20, 0x00, 0x00, 0x00,
  0x01, 0x00, 0x00, 0x00, 0x1e, 0x00, 0x00, 0x00, 0x0c, 0x00, 0x00, 0x00,
  0x64, 0x65, 0x6e, 0x73, 0x65, 0x5f, 0x36, 0x2f, 0x62, 0x69, 0x61, 0x73,
  0x00, 0x00, 0x00, 0x00, 0x2c, 0xfd, 0xff, 0xff, 0x08, 0x00, 0x00, 0x00,
  0x0c, 0x00, 0x00, 0x00, 0x01, 0x00, 0x00, 0x00, 0x89, 0x36, 0x35, 0x38,
  0x01, 0x00, 0x00, 0x00, 0x00, 0x00, 0x00, 0x00, 0x00, 0x00, 0x00, 0x00,
  0x00, 0x00, 0x06, 0x00, 0x08, 0x00, 0x04, 0x00, 0x06, 0x00, 0x00, 0x00,
  0x04, 0x00, 0x00, 0x00, 0xc2, 0x01, 0x00, 0x00, 0x10, 0x0d, 0x39, 0x2d,
  0xce, 0xc5, 0xb1, 0x3e, 0x15, 0x1a, 0xdc, 0x0e, 0x4d, 0x51, 0xc0, 0x46,
  0x58, 0x37, 0x32, 0x1c, 0x20, 0xcf, 0x43, 0x56, 0xe8, 0x28, 0x50, 0x42,
  0xf4, 0xe8, 0x43, 0x68, 0x36, 0x00, 0xfc, 0x23, 0xb2, 0xbc, 0x25, 0xaa,
  0x52, 0x24, 0x6d, 0xc5, 0x21, 0x23, 0x63, 0x5e, 0x0f, 0x4a, 0x0b, 0x58,
  0x69, 0x0a, 0x12, 0x54, 0x35, 0xe5, 0x43, 0x36, 0x0f, 0xe9, 0xec, 0xad,
  0xb8, 0xaa, 0x1c, 0x12, 0xab, 0xfe, 0x25, 0xd1, 0x51, 0x29, 0x2d, 0x61,
  0x62, 0x0f, 0xcb, 0xb1, 0xed, 0xd5, 0xd3, 0x10, 0x23, 0xc4, 0xfb, 0xa2,
  0xf6, 0x23, 0xb8, 0xc5, 0x3e, 0x38, 0xde, 0xcb, 0x1e, 0xe0, 0x58, 0x0b,
  0xc3, 0xfe, 0x06, 0xce, 0x0b, 0xb6, 0x43, 0xc2, 0xd3, 0x31, 0xd8, 0xc0,
  0x59, 0x35, 0xfa, 0xaa, 0x29, 0xf1, 0x31, 0x3e, 0x04, 0xfe, 0x21, 0x32,
  0x1b, 0xfb, 0x15, 0x9a, 0x20, 0xc1, 0x96, 0x22, 0xcc, 0xfb, 0x42, 0x19,
  0x4f, 0xec, 0x40, 0xfa, 0xe1, 0xec, 0x64, 0x2c, 0xfd, 0x25, 0x24, 0x09,
  0x5e, 0xd7, 0xab, 0xe3, 0x0a, 0xd4, 0xc3, 0xac, 0x10, 0xbe, 0x38, 0x1f,
  0x56, 0xd9, 0x0e, 0xdb, 0x2c, 0x01, 0x52, 0xf0, 0x39, 0x3a, 0xea, 0x39,
  0x03, 0xe6, 0xec, 0x37, 0x37, 0xa1, 0xe0, 0xd9, 0xcf, 0xb4, 0xc2, 0x09,
  0x2e, 0xd7, 0x17, 0xa8, 0x53, 0xc3, 0x1f, 0x30, 0xf9, 0x4d, 0xf6, 0xbb,
  0x0e, 0x37, 0xbb, 0xe3, 0x42, 0x27, 0x50, 0x26, 0x29, 0x32, 0xbe, 0xea,
  0xc9, 0x39, 0x1b, 0x13, 0x26, 0xdd, 0x23, 0xc9, 0x05, 0xb8, 0x50, 0xff,
  0x68, 0x02, 0xff, 0x36, 0x33, 0xaa, 0x44, 0x05, 0x18, 0xb6, 0xfb, 0xb4,
  0xc7, 0x23, 0x2d, 0xfc, 0xc9, 0x46, 0x19, 0x1e, 0x7f, 0x93, 0x07, 0x1e,
  0xf0, 0xb8, 0xe3, 0x34, 0xd2, 0x26, 0x00, 0x6b, 0x1b, 0xf9, 0x27, 0xad,
  0x56, 0xea, 0xd2, 0xe9, 0xcc, 0x43, 0xd0, 0xc4, 0xb1, 0xf7, 0xe9, 0x30,
  0x1d, 0xf7, 0x5e, 0x3a, 0x53, 0x55, 0xa6, 0x4e, 0x24, 0x3d, 0x4b, 0x0a,
  0xfc, 0xe9, 0xe0, 0x11, 0x0f, 0x4a, 0x0f, 0x47, 0xde, 0xe3, 0xf0, 0xfc,
  0x0e, 0x2d, 0x31, 0xbd, 0x1f, 0xb6, 0x20, 0x13, 0xed, 0x10, 0xb6, 0xb4,
  0xf7, 0x08, 0xf6, 0xd6, 0xce, 0x36, 0x5f, 0x16, 0xed, 0xbc, 0xe6, 0x33,
  0x27, 0xb5, 0xca, 0xbe, 0xbe, 0xfc, 0xc0, 0xdc, 0xfd, 0xaf, 0xe0, 0xe2,
  0x58, 0xf2, 0x02, 0xf2, 0xf4, 0x5c, 0x57, 0x39, 0x3d, 0x02, 0x4e, 0x5c,
  0xe1, 0xdd, 0x26, 0xe1, 0x0f, 0x0c, 0xbc, 0x6e, 0x29, 0x14, 0x1d, 0x07,
  0x1e, 0x05, 0xcd, 0x23, 0xec, 0xe9, 0xa8, 0x46, 0xf9, 0x1d, 0xff, 0xbe,
  0xb4, 0xd9, 0xeb, 0x43, 0xa9, 0xe6, 0xf9, 0xfb, 0x0f, 0xcc, 0x3f, 0xd2,
  0x38, 0x37, 0x15, 0xf5, 0xf3, 0xc2, 0xf1, 0xc3, 0x54, 0xd7, 0x3b, 0xb6,
  0xed, 0x41, 0x38, 0xc3, 0x4d, 0xc2, 0x1c, 0xd8, 0xf3, 0xa6, 0xb5, 0x07,
  0xa4, 0x1f, 0x2e, 0xe7, 0xfd, 0x02, 0xbc, 0x6a, 0xcd, 0x21, 0x36, 0x72,
  0xf0, 0x14, 0x57, 0xe7, 0xb4, 0xd8, 0xbf, 0x55, 0xb0, 0xee, 0x2c, 0x10,
  0x47, 0x60, 0x38, 0xe6, 0xd5, 0x51, 0x3b, 0x03, 0x45, 0x1c, 0x24, 0x20,
  0x57, 0xdd, 0xfb, 0xf7, 0xff, 0x07, 0x19, 0x13, 0xd5, 0x4c, 0x65, 0xe7,
  0xc7, 0x1d, 0x0e, 0x00, 0x18, 0x00, 0x08, 0x00, 0x07, 0x00, 0x0c, 0x00,
  0x10, 0x00, 0x14, 0x00, 0x0e, 0x00, 0x00, 0x00, 0x00, 0x00, 0x00, 0x09,
  0x10, 0x00, 0x00, 0x00, 0x02, 0x00, 0x00, 0x00, 0x14, 0x00, 0x00, 0x00,
  0x30, 0x00, 0x00, 0x00, 0x02, 0x00, 0x00, 0x00, 0x1e, 0x00, 0x00, 0x00,
  0x0f, 0x00, 0x00, 0x00, 0x1b, 0x00, 0x00, 0x00, 0x73, 0x65, 0x71, 0x75,
  0x65, 0x6e, 0x74, 0x69, 0x61, 0x6c, 0x5f, 0x31, 0x2f, 0x64, 0x65, 0x6e,
  0x73, 0x65, 0x5f, 0x36, 0x2f, 0x4d, 0x61, 0x74, 0x4d, 0x75, 0x6c, 0x00,
  0x74, 0xff, 0xff, 0xff, 0x08, 0x00, 0x00, 0x00, 0x0c, 0x00, 0x00, 0x00,
  0x01, 0x00, 0x00, 0x00, 0x2c, 0x9d, 0x7a, 0x3b, 0x01, 0x00, 0x00, 0x00,
  0x00, 0x00, 0x00, 0x00, 0x00, 0x00, 0x00, 0x00, 0x14, 0x00, 0x1c, 0x00,
  0x08, 0x00, 0x07, 0x00, 0x0c, 0x00, 0x10, 0x00, 0x14, 0x00, 0x00, 0x00,
  0x00, 0x00, 0x18, 0x00, 0x14, 0x00, 0x00, 0x00, 0x00, 0x00, 0x00, 0x09,
  0x14, 0x00, 0x00, 0x00, 0x01, 0x00, 0x00, 0x00, 0x18, 0x00, 0x00, 0x00,
  0x50, 0x00, 0x00, 0x00, 0x34, 0x00, 0x00, 0x00, 0x02, 0x00, 0x00, 0x00,
  0x01, 0x00, 0x00, 0x00, 0x0f, 0x00, 0x00, 0x00, 0x1f, 0x00, 0x00, 0x00,
  0x73, 0x65, 0x72, 0x76, 0x69, 0x6e, 0x67, 0x5f, 0x64, 0x65, 0x66, 0x61,
  0x75, 0x6c, 0x74, 0x5f, 0x64, 0x65, 0x6e, 0x73, 0x65, 0x5f, 0x36, 0x5f,
  0x69, 0x6e, 0x70, 0x75, 0x74, 0x3a, 0x30, 0x00, 0x02, 0x00, 0x00, 0x00,
  0xff, 0xff, 0xff, 0xff, 0x0f, 0x00, 0x00, 0x00, 0x0c, 0x00, 0x0c, 0x00,
  0x00, 0x00, 0x00, 0x00, 0x04, 0x00, 0x08, 0x00, 0x0c, 0x00, 0x00, 0x00,
  0x08, 0x00, 0x00, 0x00, 0x0c, 0x00, 0x00, 0x00, 0x01, 0x00, 0x00, 0x00,
  0x88, 0x1b, 0x39, 0x3c, 0x01, 0x00, 0x00, 0x00, 0x2a, 0x00, 0x00, 0x00,
  0x00, 0x00, 0x00, 0x00, 0x04, 0x00, 0x04, 0x00, 0x04, 0x00, 0x00, 0x00
};
const int g_model_len = 5328;
