alignas(8) const unsigned char g_model[] = {
  0x20, 0x00, 0x00, 0x00, 0x54, 0x46, 0x4c, 0x33, 0x00, 0x00, 0x00, 0x00,
  0x14, 0x00, 0x20, 0x00, 0x04, 0x00, 0x08, 0x00, 0x0c, 0x00, 0x10, 0x00,
  0x14, 0x00, 0x00, 0x00, 0x18, 0x00, 0x1c, 0x00, 0x14, 0x00, 0x00, 0x00,
  0x03, 0x00, 0x00, 0x00, 0x18, 0x00, 0x00, 0x00, 0x1c, 0x00, 0x00, 0x00,
  0x50, 0x01, 0x00, 0x00, 0x1c, 0x00, 0x00, 0x00, 0xf8, 0x00, 0x00, 0x00,
  0x6c, 0x00, 0x00, 0x00, 0x01, 0x00, 0x00, 0x00, 0xac, 0x06, 0x00, 0x00,
  0x01, 0x00, 0x00, 0x00, 0x58, 0x01, 0x00, 0x00, 0x15, 0x00, 0x00, 0x00,
  0xe0, 0x15, 0x00, 0x00, 0xdc, 0x15, 0x00, 0x00, 0x58, 0x12, 0x00, 0x00,
  0x70, 0x11, 0x00, 0x00, 0xcc, 0x0f, 0x00, 0x00, 0x40, 0x0f, 0x00, 0x00,
  0xb4, 0x0e, 0x00, 0x00, 0x48, 0x0e, 0x00, 0x00, 0xbc, 0x0d, 0x00, 0x00,
  0x30, 0x0d, 0x00, 0x00, 0x8c, 0x0b, 0x00, 0x00, 0xb0, 0x0a, 0x00, 0x00,
  0xe0, 0x07, 0x00, 0x00, 0x28, 0x07, 0x00, 0x00, 0xa8, 0x15, 0x00, 0x00,
  0xa4, 0x15, 0x00, 0x00, 0xa0, 0x15, 0x00, 0x00, 0x9c, 0x15, 0x00, 0x00,
  0x98, 0x15, 0x00, 0x00, 0x94, 0x15, 0x00, 0x00, 0xc0, 0x00, 0x00, 0x00,
  0x01, 0x00, 0x00, 0x00, 0x10, 0x00, 0x00, 0x00, 0x00, 0x00, 0x0a, 0x00,
  0x10, 0x00, 0x0c, 0x00, 0x08, 0x00, 0x04, 0x00, 0x0a, 0x00, 0x00, 0x00,
  0x0c, 0x00, 0x00, 0x00, 0x1c, 0x00, 0x00, 0x00, 0x20, 0x00, 0x00, 0x00,
  0x0f, 0x00, 0x00, 0x00, 0x73, 0x65, 0x72, 0x76, 0x69, 0x6e, 0x67, 0x5f,
  0x64, 0x65, 0x66, 0x61, 0x75, 0x6c, 0x74, 0x00, 0x01, 0x00, 0x00, 0x00,
  0x14, 0x00, 0x00, 0x00, 0x01, 0x00, 0x00, 0x00, 0x28, 0x00, 0x00, 0x00,
  0x08, 0x00, 0x0c, 0x00, 0x08, 0x00, 0x04, 0x00, 0x08, 0x00, 0x00, 0x00,
  0x12, 0x00, 0x00, 0x00, 0x04, 0x00, 0x00, 0x00, 0x08, 0x00, 0x00, 0x00,
  0x64, 0x65, 0x6e, 0x73, 0x65, 0x5f, 0x31, 0x37, 0x00, 0x00, 0x00, 0x00,
  0x66, 0xee, 0xff, 0xff, 0x04, 0x00, 0x00, 0x00, 0x0e, 0x00, 0x00, 0x00,
  0x64, 0x65, 0x6e, 0x73, 0x65, 0x5f, 0x31, 0x32, 0x5f, 0x69, 0x6e, 0x70,
  0x75, 0x74, 0x00, 0x00, 0x01, 0x00, 0x00, 0x00, 0x0c, 0x00, 0x00, 0x00,
  0x08, 0x00, 0x0c, 0x00, 0x04, 0x00, 0x08, 0x00, 0x08, 0x00, 0x00, 0x00,
  0x08, 0x00, 0x00, 0x00, 0x14, 0x00, 0x00, 0x00, 0x13, 0x00, 0x00, 0x00,
  0x6d, 0x69, 0x6e, 0x5f, 0x72, 0x75, 0x6e, 0x74, 0x69, 0x6d, 0x65, 0x5f,
  0x76, 0x65, 0x72, 0x73, 0x69, 0x6f, 0x6e, 0x00, 0xb6, 0xee, 0xff, 0xff,
  0x04, 0x00, 0x00, 0x00, 0x10, 0x00, 0x00, 0x00, 0x31, 0x2e, 0x31, 0x34,
  0x2e, 0x30, 0x00, 0x00, 0x00, 0x00, 0x00, 0x00, 0x00, 0x00, 0x00, 0x00,
  0x0f, 0x00, 0x00, 0x00, 0x4d, 0x4c, 0x49, 0x52, 0x20, 0x43, 0x6f, 0x6e,
  0x76, 0x65, 0x72, 0x74, 0x65, 0x64, 0x2e, 0x00, 0x00, 0x00, 0x0e, 0x00,
  0x18, 0x00, 0x04, 0x00, 0x08, 0x00, 0x0c, 0x00, 0x10, 0x00, 0x14, 0x00,
  0x0e, 0x00, 0x00, 0x00, 0x14, 0x00, 0x00, 0x00, 0x60, 0x00, 0x00, 0x00,
  0x64, 0x00, 0x00, 0x00, 0x68, 0x00, 0x00, 0x00, 0x80, 0x00, 0x00, 0x00,
  0x13, 0x00, 0x00, 0x00, 0xe8, 0x13, 0x00, 0x00, 0x64, 0x13, 0x00, 0x00,
  0x8c, 0x10, 0x00, 0x00, 0x9c, 0x0f, 0x00, 0x00, 0x0c, 0x0e, 0x00, 0x00,
  0x6c, 0x0d, 0x00, 0x00, 0xf4, 0x0c, 0x00, 0x00, 0x74, 0x0c, 0x00, 0x00,
  0xfc, 0x0b, 0x00, 0x00, 0x5c, 0x0b, 0x00, 0x00, 0xcc, 0x09, 0x00, 0x00,
  0xdc, 0x08, 0x00, 0x00, 0x1c, 0x06, 0x00, 0x00, 0x0c, 0x05, 0x00, 0x00,
  0xf0, 0x03, 0x00, 0x00, 0xf4, 0x02, 0x00, 0x00, 0x08, 0x02, 0x00, 0x00,
  0x1c, 0x01, 0x00, 0x00, 0x6c, 0x00, 0x00, 0x00, 0x01, 0x00, 0x00, 0x00,
  0x00, 0x00, 0x00, 0x00, 0x01, 0x00, 0x00, 0x00, 0x12, 0x00, 0x00, 0x00,
  0x06, 0x00, 0x00, 0x00, 0x88, 0x04, 0x00, 0x00, 0x90, 0x03, 0x00, 0x00,
  0x94, 0x02, 0x00, 0x00, 0xa8, 0x01, 0x00, 0x00, 0xbc, 0x00, 0x00, 0x00,
  0x10, 0x00, 0x00, 0x00, 0x04, 0x00, 0x00, 0x00, 0x6d, 0x61, 0x69, 0x6e,
  0x00, 0x00, 0x00, 0x00, 0x9e, 0xfc, 0xff, 0xff, 0x00, 0x00, 0x00, 0x08,
  0x18, 0x00, 0x00, 0x00, 0x0c, 0x00, 0x00, 0x00, 0x04, 0x00, 0x00, 0x00,
  0x28, 0xec, 0xff, 0xff, 0x01, 0x00, 0x00, 0x00, 0x12, 0x00, 0x00, 0x00,
  0x03, 0x00, 0x00, 0x00, 0x11, 0x00, 0x00, 0x00, 0x0b, 0x00, 0x00, 0x00,
  0x0c, 0x00, 0x00, 0x00, 0xe0, 0xec, 0xff, 0xff, 0x00, 0x00, 0x00, 0x09,
  0x14, 0x00, 0x00, 0x00, 0x13, 0x00, 0x00, 0x00, 0x18, 0x00, 0x00, 0x00,
  0x40, 0x00, 0x00, 0x00, 0x30, 0x00, 0x00, 0x00, 0x02, 0x00, 0x00, 0x00,
  0x01, 0x00, 0x00, 0x00, 0x14, 0x00, 0x00, 0x00, 0x19, 0x00, 0x00, 0x00,
  0x53, 0x74, 0x61, 0x74, 0x65, 0x66, 0x75, 0x6c, 0x50, 0x61, 0x72, 0x74,
  0x69, 0x74, 0x69, 0x6f, 0x6e, 0x65, 0x64, 0x43, 0x61, 0x6c, 0x6c, 0x3a,
  0x30, 0x00, 0x00, 0x00, 0x02, 0x00, 0x00, 0x00, 0xff, 0xff, 0xff, 0xff,
  0x14, 0x00, 0x00, 0x00, 0xc4, 0xec, 0xff, 0xff, 0x08, 0x00, 0x00, 0x00,
  0x0c, 0x00, 0x00, 0x00, 0x01, 0x00, 0x00, 0x00, 0xc9, 0x7a, 0x35, 0x3b,
  0x01, 0x00, 0x00, 0x00, 0x80, 0xff, 0xff, 0xff, 0xff, 0xff, 0xff, 0xff,
  0x00, 0x00, 0x00, 0x00, 0x46, 0xfd, 0xff, 0xff, 0x00, 0x00, 0x00, 0x08,
  0x1c, 0x00, 0x00, 0x00, 0x10, 0x00, 0x00, 0x00, 0x04, 0x00, 0x00, 0x00,
  0x42, 0xfc, 0xff, 0xff, 0x00, 0x00, 0x00, 0x01, 0x01, 0x00, 0x00, 0x00,
  0x11, 0x00, 0x00, 0x00, 0x03, 0x00, 0x00, 0x00, 0x10, 0x00, 0x00, 0x00,
  0x09, 0x00, 0x00, 0x00, 0x0a, 0x00, 0x00, 0x00, 0x8c, 0xed, 0xff, 0xff,
  0x00, 0x00, 0x00, 0x09, 0x14, 0x00, 0x00, 0x00, 0x12, 0x00, 0x00, 0x00,
  0x18, 0x00, 0x00, 0x00, 0x7c, 0x00, 0x00, 0x00, 0x6c, 0x00, 0x00, 0x00,
  0x02, 0x00, 0x00, 0x00, 0x01, 0x00, 0x00, 0x00, 0x1e, 0x00, 0x00, 0x00,
  0x55, 0x00, 0x00, 0x00, 0x73, 0x65, 0x71, 0x75, 0x65, 0x6e, 0x74, 0x69,
  0x61, 0x6c, 0x5f, 0x32, 0x2f, 0x64, 0x65, 0x6e, 0x73, 0x65, 0x5f, 0x31,
  0x36, 0x2f, 0x4d, 0x61, 0x74, 0x4d, 0x75, 0x6c, 0x3b, 0x73, 0x65, 0x71,
  0x75, 0x65, 0x6e, 0x74, 0x69, 0x61, 0x6c, 0x5f, 0x32, 0x2f, 0x64, 0x65,
  0x6e, 0x73, 0x65, 0x5f, 0x31, 0x36, 0x2f, 0x52, 0x65, 0x6c, 0x75, 0x3b,
  0x73, 0x65, 0x71, 0x75, 0x65, 0x6e, 0x74, 0x69, 0x61, 0x6c, 0x5f, 0x32,
  0x2f, 0x64, 0x65, 0x6e, 0x73, 0x65, 0x5f, 0x31, 0x36, 0x2f, 0x42, 0x69,
  0x61, 0x73, 0x41, 0x64, 0x64, 0x00, 0x00, 0x00, 0x02, 0x00, 0x00, 0x00,
  0xff, 0xff, 0xff, 0xff, 0x1e, 0x00, 0x00, 0x00, 0xac, 0xed, 0xff, 0xff,
  0x08, 0x00, 0x00, 0x00, 0x0c, 0x00, 0x00, 0x00, 0x01, 0x00, 0x00, 0x00,
  0x6e, 0x53, 0x93, 0x3b, 0x01, 0x00, 0x00, 0x00, 0x80, 0xff, 0xff, 0xff,
  0xff, 0xff, 0xff, 0xff, 0x00, 0x00, 0x00, 0x00, 0x2e, 0xfe, 0xff, 0xff,
  0x00, 0x00, 0x00, 0x08, 0x1c, 0x00, 0x00, 0x00, 0x10, 0x00, 0x00, 0x00,
  0x04, 0x00, 0x00, 0x00, 0x2a, 0xfd, 0xff, 0xff, 0x00, 0x00, 0x00, 0x01,
  0x01, 0x00, 0x00, 0x00, 0x10, 0x00, 0x00, 0x00, 0x03, 0x00, 0x00, 0x00,
  0x0f, 0x00, 0x00, 0x00, 0x07, 0x00, 0x00, 0x00, 0x08, 0x00, 0x00, 0x00,
  0x74, 0xee, 0xff, 0xff, 0x00, 0x00, 0x00, 0x09, 0x14, 0x00, 0x00, 0x00,
  0x11, 0x00, 0x00, 0x00, 0x18, 0x00, 0x00, 0x00, 0x7c, 0x00, 0x00, 0x00,
  0x6c, 0x00, 0x00, 0x00, 0x02, 0x00, 0x00, 0x00, 0x01, 0x00, 0x00, 0x00,
  0x0a, 0x00, 0x00, 0x00, 0x55, 0x00, 0x00, 0x00, 0x73, 0x65, 0x71, 0x75,
  0x65, 0x6e, 0x74, 0x69, 0x61, 0x6c, 0x5f, 0x32, 0x2f, 0x64, 0x65, 0x6e,
  0x73, 0x65, 0x5f, 0x31, 0x35, 0x2f, 0x4d, 0x61, 0x74, 0x4d, 0x75, 0x6c,
  0x3b, 0x73, 0x65, 0x71, 0x75, 0x65, 0x6e, 0x74, 0x69, 0x61, 0x6c, 0x5f,
  0x32, 0x2f, 0x64, 0x65, 0x6e, 0x73, 0x65, 0x5f, 0x31, 0x35, 0x2f, 0x52,
  0x65, 0x6c, 0x75, 0x3b, 0x73, 0x65, 0x71, 0x75, 0x65, 0x6e, 0x74, 0x69,
  0x61, 0x6c, 0x5f, 0x32, 0x2f, 0x64, 0x65, 0x6e, 0x73, 0x65, 0x5f, 0x31,
  0x35, 0x2f, 0x42, 0x69, 0x61, 0x73, 0x41, 0x64, 0x64, 0x00, 0x00, 0x00,
  0x02, 0x00, 0x00, 0x00, 0xff, 0xff, 0xff, 0xff, 0x0a, 0x00, 0x00, 0x00,
  0x94, 0xee, 0xff, 0xff, 0x08, 0x00, 0x00, 0x00, 0x0c, 0x00, 0x00, 0x00,
  0x01, 0x00, 0x00, 0x00, 0x2c, 0x2d, 0xa1, 0x3b, 0x01, 0x00, 0x00, 0x00,
  0x80, 0xff, 0xff, 0xff, 0xff, 0xff, 0xff, 0xff, 0x00, 0x00, 0x00, 0x00,
  0x16, 0xff, 0xff, 0xff, 0x00, 0x00, 0x00, 0x08, 0x1c, 0x00, 0x00, 0x00,
  0x10, 0x00, 0x00, 0x00, 0x04, 0x00, 0x00, 0x00, 0x12, 0xfe, 0xff, 0xff,
  0x00, 0x00, 0x00, 0x01, 0x01, 0x00, 0x00, 0x00, 0x0f, 0x00, 0x00, 0x00,
  0x03, 0x00, 0x00, 0x00, 0x0e, 0x00, 0x00, 0x00, 0x05, 0x00, 0x00, 0x00,
  0x06, 0x00, 0x00, 0x00, 0x5c, 0xef, 0xff, 0xff, 0x00, 0x00, 0x00, 0x09,
  0x14, 0x00, 0x00, 0x00, 0x10, 0x00, 0x00, 0x00, 0x18, 0x00, 0x00, 0x00,
  0x7c, 0x00, 0x00, 0x00, 0x6c, 0x00, 0x00, 0x00, 0x02, 0x00, 0x00, 0x00,
  0x01, 0x00, 0x00, 0x00, 0x02, 0x00, 0x00, 0x00, 0x55, 0x00, 0x00, 0x00,
  0x73, 0x65, 0x71, 0x75, 0x65, 0x6e, 0x74, 0x69, 0x61, 0x6c, 0x5f, 0x32,
  0x2f, 0x64, 0x65, 0x6e, 0x73, 0x65, 0x5f, 0x31, 0x34, 0x2f, 0x4d, 0x61,
  0x74, 0x4d, 0x75, 0x6c, 0x3b, 0x73, 0x65, 0x71, 0x75, 0x65, 0x6e, 0x74,
  0x69, 0x61, 0x6c, 0x5f, 0x32, 0x2f, 0x64, 0x65, 0x6e, 0x73, 0x65, 0x5f,
  0x31, 0x34, 0x2f, 0x52, 0x65, 0x6c, 0x75, 0x3b, 0x73, 0x65, 0x71, 0x75,
  0x65, 0x6e, 0x74, 0x69, 0x61, 0x6c, 0x5f, 0x32, 0x2f, 0x64, 0x65, 0x6e,
  0x73, 0x65, 0x5f, 0x31, 0x34, 0x2f, 0x42, 0x69, 0x61, 0x73, 0x41, 0x64,
  0x64, 0x00, 0x00, 0x00, 0x02, 0x00, 0x00, 0x00, 0xff, 0xff, 0xff, 0xff,
  0x02, 0x00, 0x00, 0x00, 0x7c, 0xef, 0xff, 0xff, 0x08, 0x00, 0x00, 0x00,
  0x0c, 0x00, 0x00, 0x00, 0x01, 0x00, 0x00, 0x00, 0xf5, 0x51, 0xd9, 0x3b,
  0x01, 0x00, 0x00, 0x00, 0x80, 0xff, 0xff, 0xff, 0xff, 0xff, 0xff, 0xff,
  0x00, 0x00, 0x00, 0x00, 0x00, 0x00, 0x0e, 0x00, 0x14, 0x00, 0x00, 0x00,
  0x08, 0x00, 0x0c, 0x00, 0x07, 0x00, 0x10, 0x00, 0x0e, 0x00, 0x00, 0x00,
  0x00, 0x00, 0x00, 0x08, 0x1c, 0x00, 0x00, 0x00, 0x10, 0x00, 0x00, 0x00,
  0x04, 0x00, 0x00, 0x00, 0x0a, 0xff, 0xff, 0xff, 0x00, 0x00, 0x00, 0x01,
  0x01, 0x00, 0x00, 0x00, 0x0e, 0x00, 0x00, 0x00, 0x03, 0x00, 0x00, 0x00,
  0x0d, 0x00, 0x00, 0x00, 0x03, 0x00, 0x00, 0x00, 0x04, 0x00, 0x00, 0x00,
  0x54, 0xf0, 0xff, 0xff, 0x00, 0x00, 0x00, 0x09, 0x14, 0x00, 0x00, 0x00,
  0x0f, 0x00, 0x00, 0x00, 0x18, 0x00, 0x00, 0x00, 0x7c, 0x00, 0x00, 0x00,
  0x6c, 0x00, 0x00, 0x00, 0x02, 0x00, 0x00, 0x00, 0x01, 0x00, 0x00, 0x00,
  0x0a, 0x00, 0x00, 0x00, 0x55, 0x00, 0x00, 0x00, 0x73, 0x65, 0x71, 0x75,
  0x65, 0x6e, 0x74, 0x69, 0x61, 0x6c, 0x5f, 0x32, 0x2f, 0x64, 0x65, 0x6e,
  0x73, 0x65, 0x5f, 0x31, 0x33, 0x2f, 0x4d, 0x61, 0x74, 0x4d, 0x75, 0x6c,
  0x3b, 0x73, 0x65, 0x71, 0x75, 0x65, 0x6e, 0x74, 0x69, 0x61, 0x6c, 0x5f,
  0x32, 0x2f, 0x64, 0x65, 0x6e, 0x73, 0x65, 0x5f, 0x31, 0x33, 0x2f, 0x52,
  0x65, 0x6c, 0x75, 0x3b, 0x73, 0x65, 0x71, 0x75, 0x65, 0x6e, 0x74, 0x69,
  0x61, 0x6c, 0x5f, 0x32, 0x2f, 0x64, 0x65, 0x6e, 0x73, 0x65, 0x5f, 0x31,
  0x33, 0x2f, 0x42, 0x69, 0x61, 0x73, 0x41, 0x64, 0x64, 0x00, 0x00, 0x00,
  0x02, 0x00, 0x00, 0x00, 0xff, 0xff, 0xff, 0xff, 0x0a, 0x00, 0x00, 0x00,
  0x74, 0xf0, 0xff, 0xff, 0x08, 0x00, 0x00, 0x00, 0x0c, 0x00, 0x00, 0x00,
  0x01, 0x00, 0x00, 0x00, 0x22, 0x78, 0x41, 0x3c, 0x01, 0x00, 0x00, 0x00,
  0x80, 0xff, 0xff, 0xff, 0xff, 0xff, 0xff, 0xff, 0x00, 0x00, 0x0e, 0x00,
  0x16, 0x00, 0x00, 0x00, 0x08, 0x00, 0x0c, 0x00, 0x07, 0x00, 0x10, 0x00,
  0x0e, 0x00, 0x00, 0x00, 0x00, 0x00, 0x00, 0x08, 0x24, 0x00, 0x00, 0x00,
  0x18, 0x00, 0x00, 0x00, 0x0c, 0x00, 0x00, 0x00, 0x00, 0x00, 0x06, 0x00,
  0x08, 0x00, 0x07, 0x00, 0x06, 0x00, 0x00, 0x00, 0x00, 0x00, 0x00, 0x01,
  0x01, 0x00, 0x00, 0x00, 0x0d, 0x00, 0x00, 0x00, 0x03, 0x00, 0x00, 0x00,
  0x00, 0x00, 0x00, 0x00, 0x01, 0x00, 0x00, 0x00, 0x02, 0x00, 0x00, 0x00,
  0x0c, 0x00, 0x10, 0x00, 0x0b, 0x00, 0x00, 0x00, 0x0c, 0x00, 0x04, 0x00,
  0x0c, 0x00, 0x00, 0x00, 0x09, 0x00, 0x00, 0x00, 0x00, 0x00, 0x00, 0x09,
  0x04, 0x00, 0x00, 0x00, 0x6c, 0xf1, 0xff, 0xff, 0x00, 0x00, 0x00, 0x09,
  0x14, 0x00, 0x00, 0x00, 0x0e, 0x00, 0x00, 0x00, 0x18, 0x00, 0x00, 0x00,
  0x7c, 0x00, 0x00, 0x00, 0x6c, 0x00, 0x00, 0x00, 0x02, 0x00, 0x00, 0x00,
  0x01, 0x00, 0x00, 0x00, 0x1e, 0x00, 0x00, 0x00, 0x55, 0x00, 0x00, 0x00,
  0x73, 0x65, 0x71, 0x75, 0x65, 0x6e, 0x74, 0x69, 0x61, 0x6c, 0x5f, 0x32,
  0x2f, 0x64, 0x65, 0x6e, 0x73, 0x65, 0x5f, 0x31, 0x32, 0x2f, 0x4d, 0x61,
  0x74, 0x4d, 0x75, 0x6c, 0x3b, 0x73, 0x65, 0x71, 0x75, 0x65, 0x6e, 0x74,
  0x69, 0x61, 0x6c, 0x5f, 0x32, 0x2f, 0x64, 0x65, 0x6e, 0x73, 0x65, 0x5f,
  0x31, 0x32, 0x2f, 0x52, 0x65, 0x6c, 0x75, 0x3b, 0x73, 0x65, 0x71, 0x75,
  0x65, 0x6e, 0x74, 0x69, 0x61, 0x6c, 0x5f, 0x32, 0x2f, 0x64, 0x65, 0x6e,
  0x73, 0x65, 0x5f, 0x31, 0x32, 0x2f, 0x42, 0x69, 0x61, 0x73, 0x41, 0x64,
  0x64, 0x00, 0x00, 0x00, 0x02, 0x00, 0x00, 0x00, 0xff, 0xff, 0xff, 0xff,
  0x1e, 0x00, 0x00, 0x00, 0x8c, 0xf1, 0xff, 0xff, 0x08, 0x00, 0x00, 0x00,
  0x0c, 0x00, 0x00, 0x00, 0x01, 0x00, 0x00, 0x00, 0x3e, 0x48, 0x24, 0x3c,
  0x01, 0x00, 0x00, 0x00, 0x80, 0xff, 0xff, 0xff, 0xff, 0xff, 0xff, 0xff,
  0x02, 0xf5, 0xff, 0xff, 0x04, 0x00, 0x00, 0x00, 0x50, 0x00, 0x00, 0x00,
  0x43, 0x0c, 0x00, 0x00, 0x1a, 0x0c, 0x00, 0x00, 0x62, 0x09, 0x00, 0x00,
  0xa7, 0x02, 0x00, 0x00, 0xec, 0x02, 0x00, 0x00, 0xa5, 0x0c, 0x00, 0x00,
  0x76, 0x0d, 0x00, 0x00, 0x89, 0x02, 0x00, 0x00, 0xa5, 0xfa, 0xff, 0xff,
  0xd6, 0x08, 0x00, 0x00, 0xde, 0x06, 0x00, 0x00, 0xeb, 0x15, 0x00, 0x00,
  0xbd, 0x0d, 0x00, 0x00, 0x2e, 0x15, 0x00, 0x00, 0x40, 0x12, 0x00, 0x00,
  0x2b, 0x08, 0x00, 0x00, 0x50, 0x10, 0x00, 0x00, 0x5a, 0x09, 0x00, 0x00,
  0xee, 0x12, 0x00, 0x00, 0x81, 0x10, 0x00, 0x00, 0xf2, 0xf2, 0xff, 0xff,
  0x00, 0x00, 0x00, 0x02, 0x10, 0x00, 0x00, 0x00, 0x0d, 0x00, 0x00, 0x00,
  0x10, 0x00, 0x00, 0x00, 0x20, 0x00, 0x00, 0x00, 0x01, 0x00, 0x00, 0x00,
  0x14, 0x00, 0x00, 0x00, 0x0d, 0x00, 0x00, 0x00, 0x64, 0x65, 0x6e, 0x73,
  0x65, 0x5f, 0x31, 0x37, 0x2f, 0x62, 0x69, 0x61, 0x73, 0x00, 0x00, 0x00,
  0x3c, 0xf2, 0xff, 0xff, 0x08, 0x00, 0x00, 0x00, 0x0c, 0x00, 0x00, 0x00,
  0x01, 0x00, 0x00, 0x00, 0x20, 0xe0, 0x90, 0x37, 0x01, 0x00, 0x00, 0x00,
  0x00, 0x00, 0x00, 0x00, 0x00, 0x00, 0x00, 0x00, 0x00, 0x00, 0x00, 0x00,
  0xb6, 0xf5, 0xff, 0xff, 0x04, 0x00, 0x00, 0x00, 0x58, 0x02, 0x00, 0x00,
  0xe9, 0xab, 0xd3, 0x57, 0x5c, 0xda, 0x47, 0xef, 0x2f, 0xde, 0xd8, 0xdd,
  0x13, 0x3d, 0xc7, 0xae, 0xa6, 0x07, 0xf9, 0x04, 0xe1, 0xfd, 0x4c, 0xe2,
  0x3f, 0xe5, 0x0b, 0xb8, 0x1c, 0x67, 0x27, 0x0c, 0xac, 0xe6, 0xe0, 0xb8,
  0x35, 0x07, 0xb0, 0x47, 0x17, 0x21, 0x3b, 0xb3, 0x67, 0x57, 0x17, 0xda,
  0xe8, 0x31, 0x55, 0x1f, 0xb1, 0xe5, 0x44, 0xe1, 0x27, 0xcc, 0x4c, 0x3b,
  0xfb, 0x1d, 0x57, 0xd6, 0xdb, 0x0a, 0x2c, 0x31, 0x26, 0xd6, 0xcd, 0xd4,
  0xca, 0xab, 0x5f, 0x21, 0xda, 0x08, 0x47, 0x1c, 0x50, 0x31, 0x3a, 0x0e,
  0x49, 0xf0, 0x1f, 0xc4, 0xf2, 0x4a, 0x02, 0xf5, 0x31, 0xcb, 0xf3, 0x36,
  0x02, 0x0c, 0xfd, 0xcd, 0x00, 0xb4, 0xcc, 0xea, 0x0b, 0x0b, 0xfe, 0x0e,
  0xc2, 0x49, 0x43, 0x34, 0x09, 0x34, 0xd3, 0xdb, 0x05, 0x29, 0xb0, 0xe0,
  0xac, 0xc9, 0x2a, 0xf7, 0xf4, 0xda, 0x26, 0xc3, 0x25, 0x32, 0x26, 0x05,
  0xb8, 0x1b, 0x42, 0x49, 0xa9, 0xeb, 0x1f, 0x30, 0xf6, 0x42, 0xe4, 0x43,
  0xd6, 0xc5, 0xb1, 0xc7, 0x00, 0x19, 0x59, 0xfe, 0x2e, 0xc3, 0xfb, 0x43,
  0xbe, 0x54, 0xc0, 0x62, 0xac, 0x56, 0xf5, 0xe0, 0x3a, 0xb6, 0xe0, 0x1e,
  0x2e, 0xd2, 0x2a, 0x4a, 0xc1, 0x69, 0xe9, 0xe2, 0xeb, 0xc1, 0x13, 0x57,
  0xda, 0x03, 0xbc, 0x3c, 0x6e, 0x19, 0x64, 0xc6, 0xb2, 0xe3, 0x30, 0xae,
  0x34, 0xd6, 0xcc, 0x25, 0x29, 0x52, 0x05, 0x56, 0xeb, 0xc3, 0x2c, 0xc2,
  0x05, 0xdf, 0x52, 0xcc, 0x49, 0x20, 0x07, 0xd4, 0x11, 0x1e, 0x3e, 0x64,
  0xb8, 0xdd, 0xba, 0x5f, 0xc4, 0x0f, 0xdb, 0x17, 0x29, 0xaf, 0x54, 0xba,
  0x05, 0x23, 0x36, 0x2b, 0xb2, 0x4a, 0xb3, 0xc8, 0x3a, 0x52, 0xb5, 0x28,
  0x04, 0xd3, 0x1d, 0x08, 0xfa, 0xe1, 0x35, 0xb6, 0xb0, 0x4f, 0x26, 0xe2,
  0x01, 0xe8, 0x13, 0x35, 0x10, 0x2c, 0x39, 0x33, 0xd3, 0xe7, 0xd6, 0x4e,
  0x3b, 0xe8, 0xd0, 0xb0, 0xfe, 0x48, 0xef, 0xb3, 0x0d, 0xc9, 0x54, 0x14,
  0xd7, 0xd3, 0xea, 0x26, 0x31, 0xfb, 0xf3, 0x54, 0xf6, 0xe6, 0xd0, 0x59,
  0x52, 0x5e, 0xd6, 0x35, 0xed, 0x2a, 0xdd, 0xed, 0xc9, 0x2d, 0xd3, 0x5d,
  0x1a, 0xcf, 0xd2, 0x20, 0x41, 0x6a, 0x42, 0xfe, 0xce, 0xbf, 0x29, 0xfd,
  0xbc, 0x27, 0x24, 0x37, 0x1d, 0xdb, 0x3d, 0x0f, 0xf0, 0xb8, 0x5b, 0x51,
  0x53, 0x16, 0x0d, 0xf3, 0xe6, 0x36, 0xf9, 0x43, 0x54, 0x50, 0x1b, 0x50,
  0x3c, 0xb6, 0xe0, 0xc3, 0x00, 0x11, 0x1e, 0xd9, 0xe1, 0x01, 0xa9, 0xe1,
  0xd4, 0x49, 0x7f, 0xcf, 0xb2, 0xd0, 0xd4, 0x4f, 0xab, 0x45, 0xe4, 0xde,
  0xae, 0x23, 0x16, 0xd3, 0x27, 0xa8, 0x53, 0x02, 0x31, 0x3b, 0x55, 0xe3,
  0x0a, 0xac, 0xf5, 0x39, 0xcb, 0x05, 0x4a, 0xdd, 0xf3, 0x28, 0xbd, 0x2c,
  0x47, 0xd7, 0xaa, 0x09, 0x23, 0x21, 0x30, 0xae, 0xc3, 0x1a, 0x15, 0x03,
  0xca, 0xbc, 0xf0, 0xef, 0x54, 0x02, 0xfc, 0x32, 0x39, 0x36, 0xfd, 0x1a,
  0xef, 0xcc, 0xd4, 0x70, 0x4a, 0x48, 0x3b, 0x16, 0xee, 0xec, 0x01, 0x52,
  0x3a, 0x3d, 0x05, 0x55, 0xeb, 0xee, 0xf3, 0x1c, 0xf7, 0xe8, 0xfc, 0xcd,
  0xd2, 0x49, 0xf0, 0x08, 0xf3, 0xd4, 0x2e, 0xff, 0xef, 0x4c, 0x4e, 0x23,
  0x00, 0x0a, 0xeb, 0xde, 0x33, 0x5c, 0x3a, 0xe4, 0x3a, 0xdc, 0x34, 0x9c,
  0x2a, 0xfc, 0x0f, 0x4c, 0xcd, 0x1e, 0x1e, 0xd7, 0x32, 0x3f, 0xcb, 0x6e,
  0x18, 0x09, 0xfe, 0x1b, 0x26, 0x11, 0xbc, 0xfd, 0x46, 0x27, 0xab, 0x5f,
  0xde, 0xd8, 0xd7, 0x46, 0xc0, 0xb9, 0x22, 0xee, 0xe1, 0x61, 0x0b, 0xb9,
  0xd1, 0x3f, 0xc4, 0x22, 0xf9, 0x43, 0xce, 0x43, 0x4f, 0xde, 0x52, 0x21,
  0xc6, 0xac, 0xb5, 0xb4, 0xb5, 0x28, 0xdd, 0x4e, 0xd5, 0xe4, 0x05, 0xcc,
  0x66, 0x4a, 0x40, 0x3f, 0xc9, 0xbc, 0x11, 0x14, 0x28, 0xce, 0xae, 0x44,
  0x29, 0x53, 0xe8, 0x06, 0xdf, 0x1d, 0xf7, 0xb9, 0xa7, 0x25, 0xc5, 0xdd,
  0x4a, 0x2c, 0xc2, 0xda, 0x14, 0xd3, 0xd7, 0x1e, 0xa6, 0xd4, 0xd2, 0xb9,
  0x52, 0xab, 0xec, 0x16, 0x42, 0x53, 0x37, 0xfb, 0x39, 0x14, 0xfc, 0x6d,
  0x48, 0xa6, 0x15, 0xe5, 0x1d, 0xc3, 0xb7, 0xbb, 0x43, 0x0a, 0xd7, 0xe5,
  0x29, 0xec, 0x0e, 0x16, 0xca, 0x04, 0x64, 0x59, 0x2f, 0xb1, 0xca, 0xc5,
  0xae, 0xf9, 0xd3, 0xe7, 0xbb, 0x4c, 0x04, 0xbd, 0x3d, 0x4b, 0x45, 0x53,
  0xae, 0xf5, 0xff, 0xff, 0x00, 0x00, 0x00, 0x09, 0x10, 0x00, 0x00, 0x00,
  0x0c, 0x00, 0x00, 0x00, 0x14, 0x00, 0x00, 0x00, 0x34, 0x00, 0x00, 0x00,
  0x02, 0x00, 0x00, 0x00, 0x14, 0x00, 0x00, 0x00, 0x1e, 0x00, 0x00, 0x00,
  0x1c, 0x00, 0x00, 0x00, 0x73, 0x65, 0x71, 0x75, 0x65, 0x6e, 0x74, 0x69,
  0x61, 0x6c, 0x5f, 0x32, 0x2f, 0x64, 0x65, 0x6e, 0x73, 0x65, 0x5f, 0x31,
  0x37, 0x2f, 0x4d, 0x61, 0x74, 0x4d, 0x75, 0x6c, 0x00, 0x00, 0x00, 0x00,
  0x0c, 0xf5, 0xff, 0xff, 0x08, 0x00, 0x00, 0x00, 0x0c, 0x00, 0x00, 0x00,
  0x01, 0x00, 0x00, 0x00, 0xf7, 0xbd, 0x7b, 0x3b, 0x01, 0x00, 0x00, 0x00,
  0x00, 0x00, 0x00, 0x00, 0x00, 0x00, 0x00, 0x00, 0x82, 0xf8, 0xff, 0xff,
  0x04, 0x00, 0x00, 0x00, 0x78, 0x00, 0x00, 0x00, 0x00, 0x00, 0x00, 0x00,
  0x00, 0x00, 0x00, 0x00, 0xe2, 0xfd, 0xff, 0xff, 0x6c, 0x06, 0x00, 0x00,
  0xb5, 0xfd, 0xff, 0xff, 0xe1, 0xfb, 0xff, 0xff, 0x52, 0x03, 0x00, 0x00,
  0x00, 0x00, 0x00, 0x00, 0x00, 0x00, 0x00, 0x00, 0x21, 0xf7, 0xff, 0xff,
  0x23, 0xff, 0xff, 0xff, 0x00, 0x00, 0x00, 0x00, 0x91, 0xfd, 0xff, 0xff,
  0x24, 0xff, 0xff, 0xff, 0x7e, 0xf8, 0xff, 0xff, 0x00, 0x00, 0x00, 0x00,
  0x00, 0x00, 0x00, 0x00, 0x3d, 0xf9, 0xff, 0xff, 0x00, 0x00, 0x00, 0x00,
  0xfa, 0x00, 0x00, 0x00, 0xe2, 0x03, 0x00, 0x00, 0x0d, 0x09, 0x00, 0x00,
  0x7a, 0xfc, 0xff, 0xff, 0x71, 0x06, 0x00, 0x00, 0xdd, 0x00, 0x00, 0x00,
  0x00, 0x00, 0x00, 0x00, 0x00, 0x00, 0x00, 0x00, 0x00, 0x00, 0x00, 0x00,
  0x00, 0x00, 0x00, 0x00, 0x65, 0x07, 0x00, 0x00, 0x9a, 0xf6, 0xff, 0xff,
  0x00, 0x00, 0x00, 0x02, 0x10, 0x00, 0x00, 0x00, 0x0b, 0x00, 0x00, 0x00,
  0x10, 0x00, 0x00, 0x00, 0x20, 0x00, 0x00, 0x00, 0x01, 0x00, 0x00, 0x00,
  0x1e, 0x00, 0x00, 0x00, 0x0d, 0x00, 0x00, 0x00, 0x64, 0x65, 0x6e, 0x73,
  0x65, 0x5f, 0x31, 0x36, 0x2f, 0x62, 0x69, 0x61, 0x73, 0x00, 0x00, 0x00,
  0xe4, 0xf5, 0xff, 0xff, 0x08, 0x00, 0x00, 0x00, 0x0c, 0x00, 0x00, 0x00,
  0x01, 0x00, 0x00, 0x00, 0x0c, 0xab, 0xd2, 0x37, 0x01, 0x00, 0x00, 0x00,
  0x00, 0x00, 0x00, 0x00, 0x00, 0x00, 0x00, 0x00, 0x5a, 0xf9, 0xff, 0xff,
  0x04, 0x00, 0x00, 0x00, 0x2c, 0x01, 0x00, 0x00, 0xd5, 0xc4, 0xbf, 0xe9,
  0xc9, 0xe0, 0x01, 0x0e, 0xbc, 0x19, 0xdc, 0xfc, 0xd8, 0xd1, 0xdd, 0x27,
  0xd5, 0xe9, 0xd2, 0x24, 0xdc, 0xdf, 0xd7, 0x0a, 0x33, 0xc0, 0xd8, 0xef,
  0x01, 0xda, 0xee, 0xc0, 0x27, 0x19, 0x39, 0xd7, 0x4a, 0xce, 0x0a, 0xcc,
  0x15, 0x03, 0x2f, 0x2e, 0xb7, 0x70, 0x7f, 0x49, 0xeb, 0xb4, 0x3d, 0xef,
  0xb1, 0xf5, 0x13, 0x33, 0xda, 0x1e, 0x38, 0xf5, 0xbd, 0xf4, 0x48, 0x4a,
  0xc9, 0xe8, 0x17, 0xf7, 0x38, 0xc6, 0xc3, 0xe2, 0xbb, 0xc6, 0x16, 0xdf,
  0x36, 0xcf, 0xb6, 0xc8, 0xc3, 0xbf, 0xe1, 0xf3, 0xc8, 0x24, 0x34, 0xe0,
  0xc0, 0xfd, 0x2b, 0xf9, 0x09, 0xaa, 0x25, 0x19, 0xf4, 0x0e, 0x25, 0x0b,
  0xd9, 0xfa, 0xee, 0x18, 0xbf, 0xdd, 0xdf, 0xe6, 0x1c, 0xc9, 0x0a, 0xe0,
  0xef, 0x17, 0x00, 0x47, 0x38, 0xfa, 0xc8, 0x1f, 0xb5, 0xe4, 0x29, 0x45,
  0x19, 0x00, 0x23, 0xf1, 0xf1, 0x00, 0xc7, 0xe3, 0xfb, 0x49, 0xea, 0x27,
  0x1c, 0xe6, 0xd7, 0xcf, 0xca, 0xda, 0x40, 0x37, 0xce, 0x3b, 0x30, 0x27,
  0xba, 0x07, 0xd1, 0x06, 0xd9, 0xbe, 0xbd, 0x26, 0xcd, 0x33, 0x1e, 0x12,
  0xdf, 0x1b, 0xcf, 0xc8, 0x19, 0x11, 0xe8, 0xb5, 0xf5, 0x04, 0xbf, 0x42,
  0x31, 0x41, 0xe2, 0x01, 0x33, 0xec, 0xe6, 0x0a, 0x06, 0x41, 0xcc, 0xf9,
  0x21, 0xe7, 0x01, 0xf5, 0xf1, 0xd1, 0xe6, 0xd4, 0x16, 0x24, 0x1d, 0x3a,
  0x00, 0x47, 0xec, 0xeb, 0xdb, 0xf6, 0x2c, 0x43, 0xeb, 0xb6, 0x27, 0xd0,
  0x20, 0xb7, 0xf1, 0x1f, 0x2f, 0x1a, 0xf7, 0x1d, 0x22, 0xe2, 0x51, 0xed,
  0xcd, 0xcf, 0xb5, 0x46, 0xb7, 0xde, 0x0d, 0x3e, 0x05, 0x17, 0x25, 0xfa,
  0xd8, 0x3a, 0x40, 0x11, 0xfc, 0x13, 0x46, 0xdb, 0x09, 0x04, 0xca, 0x44,
  0xbc, 0xcf, 0x0c, 0x25, 0xd7, 0x39, 0x49, 0xe0, 0xf6, 0x27, 0xba, 0xf1,
  0x28, 0xe4, 0xdb, 0x32, 0xd2, 0x25, 0xf2, 0xc2, 0xd9, 0x2e, 0xbc, 0xdd,
  0xff, 0xf1, 0xd2, 0xb8, 0xc5, 0xe0, 0x4a, 0xf1, 0xfc, 0x2a, 0xcc, 0xd2,
  0xd2, 0x26, 0x38, 0xe4, 0xd5, 0xd4, 0xed, 0xf9, 0xc3, 0x45, 0xc7, 0xfb,
  0x28, 0x18, 0x2a, 0xfa, 0xd6, 0x08, 0xf0, 0xc9, 0x26, 0xf8, 0xff, 0xff,
  0x00, 0x00, 0x00, 0x09, 0x10, 0x00, 0x00, 0x00, 0x0a, 0x00, 0x00, 0x00,
  0x14, 0x00, 0x00, 0x00, 0x34, 0x00, 0x00, 0x00, 0x02, 0x00, 0x00, 0x00,
  0x1e, 0x00, 0x00, 0x00, 0x0a, 0x00, 0x00, 0x00, 0x1c, 0x00, 0x00, 0x00,
  0x73, 0x65, 0x71, 0x75, 0x65, 0x6e, 0x74, 0x69, 0x61, 0x6c, 0x5f, 0x32,
  0x2f, 0x64, 0x65, 0x6e, 0x73, 0x65, 0x5f, 0x31, 0x36, 0x2f, 0x4d, 0x61,
  0x74, 0x4d, 0x75, 0x6c, 0x00, 0x00, 0x00, 0x00, 0x84, 0xf7, 0xff, 0xff,
  0x08, 0x00, 0x00, 0x00, 0x0c, 0x00, 0x00, 0x00, 0x01, 0x00, 0x00, 0x00,
  0xeb, 0x4d, 0xa7, 0x3b, 0x01, 0x00, 0x00, 0x00, 0x00, 0x00, 0x00, 0x00,
  0x00, 0x00, 0x00, 0x00, 0xfa, 0xfa, 0xff, 0xff, 0x04, 0x00, 0x00, 0x00,
  0x28, 0x00, 0x00, 0x00, 0x4c, 0xf9, 0xff, 0xff, 0x00, 0x00, 0x00, 0x00,
  0x23, 0x01, 0x00, 0x00, 0x63, 0x06, 0x00, 0x00, 0x4a, 0x06, 0x00, 0x00,
  0x13, 0xfd, 0xff, 0xff, 0x0e, 0xfd, 0xff, 0xff, 0xc1, 0xfa, 0xff, 0xff,
  0x44, 0x05, 0x00, 0x00, 0x00, 0x00, 0x00, 0x00, 0xc2, 0xf8, 0xff, 0xff,
  0x00, 0x00, 0x00, 0x02, 0x10, 0x00, 0x00, 0x00, 0x09, 0x00, 0x00, 0x00,
  0x10, 0x00, 0x00, 0x00, 0x20, 0x00, 0x00, 0x00, 0x01, 0x00, 0x00, 0x00,
  0x0a, 0x00, 0x00, 0x00, 0x0d, 0x00, 0x00, 0x00, 0x64, 0x65, 0x6e, 0x73,
  0x65, 0x5f, 0x31, 0x35, 0x2f, 0x62, 0x69, 0x61, 0x73, 0x00, 0x00, 0x00,
  0x0c, 0xf8, 0xff, 0xff, 0x08, 0x00, 0x00, 0x00, 0x0c, 0x00, 0x00, 0x00,
  0x01, 0x00, 0x00, 0x00, 0xf3, 0x92, 0x18, 0x38, 0x01, 0x00, 0x00, 0x00,
  0x00, 0x00, 0x00, 0x00, 0x00, 0x00, 0x00, 0x00, 0x82, 0xfb, 0xff, 0xff,
  0x04, 0x00, 0x00, 0x00, 0x14, 0x00, 0x00, 0x00, 0x0c, 0x54, 0xad, 0x21,
  0x75, 0xb9, 0x76, 0x1d, 0x56, 0x17, 0x03, 0x34, 0x01, 0x2b, 0x31, 0x78,
  0x7f, 0x0c, 0xc6, 0x0e, 0x36, 0xf9, 0xff, 0xff, 0x00, 0x00, 0x00, 0x09,
  0x10, 0x00, 0x00, 0x00, 0x08, 0x00, 0x00, 0x00, 0x14, 0x00, 0x00, 0x00,
  0x34, 0x00, 0x00, 0x00, 0x02, 0x00, 0x00, 0x00, 0x0a, 0x00, 0x00, 0x00,
  0x02, 0x00, 0x00, 0x00, 0x1c, 0x00, 0x00, 0x00, 0x73, 0x65, 0x71, 0x75,
  0x65, 0x6e, 0x74, 0x69, 0x61, 0x6c, 0x5f, 0x32, 0x2f, 0x64, 0x65, 0x6e,
  0x73, 0x65, 0x5f, 0x31, 0x35, 0x2f, 0x4d, 0x61, 0x74, 0x4d, 0x75, 0x6c,
  0x00, 0x00, 0x00, 0x00, 0x94, 0xf8, 0xff, 0xff, 0x08, 0x00, 0x00, 0x00,
  0x0c, 0x00, 0x00, 0x00, 0x01, 0x00, 0x00, 0x00, 0xe1, 0xba, 0xb3, 0x3b,
  0x01, 0x00, 0x00, 0x00, 0x00, 0x00, 0x00, 0x00, 0x00, 0x00, 0x00, 0x00,
  0x0a, 0xfc, 0xff, 0xff, 0x04, 0x00, 0x00, 0x00, 0x08, 0x00, 0x00, 0x00,
  0x9e, 0x01, 0x00, 0x00, 0x32, 0x00, 0x00, 0x00, 0xb2, 0xf9, 0xff, 0xff,
  0x00, 0x00, 0x00, 0x02, 0x10, 0x00, 0x00, 0x00, 0x07, 0x00, 0x00, 0x00,
  0x10, 0x00, 0x00, 0x00, 0x20, 0x00, 0x00, 0x00, 0x01, 0x00, 0x00, 0x00,
  0x02, 0x00, 0x00, 0x00, 0x0d, 0x00, 0x00, 0x00, 0x64, 0x65, 0x6e, 0x73,
  0x65, 0x5f, 0x31, 0x34, 0x2f, 0x62, 0x69, 0x61, 0x73, 0x00, 0x00, 0x00,
  0xfc, 0xf8, 0xff, 0xff, 0x08, 0x00, 0x00, 0x00, 0x0c, 0x00, 0x00, 0x00,
  0x01, 0x00, 0x00, 0x00, 0xbc, 0x64, 0x80, 0x38, 0x01, 0x00, 0x00, 0x00,
  0x00, 0x00, 0x00, 0x00, 0x00, 0x00, 0x00, 0x00, 0x72, 0xfc, 0xff, 0xff,
  0x04, 0x00, 0x00, 0x00, 0x14, 0x00, 0x00, 0x00, 0xc9, 0x36, 0xc2, 0xed,
  0x0a, 0x23, 0x45, 0xf4, 0x31, 0x1f, 0x07, 0xed, 0x59, 0x1e, 0x7f, 0x6b,
  0xe1, 0x3d, 0x7f, 0xb8, 0x26, 0xfa, 0xff, 0xff, 0x00, 0x00, 0x00, 0x09,
  0x10, 0x00, 0x00, 0x00, 0x06, 0x00, 0x00, 0x00, 0x14, 0x00, 0x00, 0x00,
  0x34, 0x00, 0x00, 0x00, 0x02, 0x00, 0x00, 0x00, 0x02, 0x00, 0x00, 0x00,
  0x0a, 0x00, 0x00, 0x00, 0x1c, 0x00, 0x00, 0x00, 0x73, 0x65, 0x71, 0x75,
  0x65, 0x6e, 0x74, 0x69, 0x61, 0x6c, 0x5f, 0x32, 0x2f, 0x64, 0x65, 0x6e,
  0x73, 0x65, 0x5f, 0x31, 0x34, 0x2f, 0x4d, 0x61, 0x74, 0x4d, 0x75, 0x6c,
  0x00, 0x00, 0x00, 0x00, 0x84, 0xf9, 0xff, 0xff, 0x08, 0x00, 0x00, 0x00,
  0x0c, 0x00, 0x00, 0x00, 0x01, 0x00, 0x00, 0x00, 0x28, 0xe4, 0xa9, 0x3b,
  0x01, 0x00, 0x00, 0x00, 0x00, 0x00, 0x00, 0x00, 0x00, 0x00, 0x00, 0x00,
  0xfa, 0xfc, 0xff, 0xff, 0x04, 0x00, 0x00, 0x00, 0x28, 0x00, 0x00, 0x00,
  0x20, 0xfe, 0xff, 0xff, 0x25, 0x02, 0x00, 0x00, 0x00, 0x00, 0x00, 0x00,
  0xbe, 0xfc, 0xff, 0xff, 0x00, 0x00, 0x00, 0x00, 0x00, 0x00, 0x00, 0x00,
  0x00, 0x00, 0x00, 0x00, 0x00, 0x00, 0x00, 0x00, 0x0c, 0x05, 0x00, 0x00,
  0x24, 0x01, 0x00, 0x00, 0xc2, 0xfa, 0xff, 0xff, 0x00, 0x00, 0x00, 0x02,
  0x10, 0x00, 0x00, 0x00, 0x05, 0x00, 0x00, 0x00, 0x10, 0x00, 0x00, 0x00,
  0x20, 0x00, 0x00, 0x00, 0x01, 0x00, 0x00, 0x00, 0x0a, 0x00, 0x00, 0x00,
  0x0d, 0x00, 0x00, 0x00, 0x64, 0x65, 0x6e, 0x73, 0x65, 0x5f, 0x31, 0x33,
  0x2f, 0x62, 0x69, 0x61, 0x73, 0x00, 0x00, 0x00, 0x0c, 0xfa, 0xff, 0xff,
  0x08, 0x00, 0x00, 0x00, 0x0c, 0x00, 0x00, 0x00, 0x01, 0x00, 0x00, 0x00,
  0x66, 0x67, 0x1a, 0x38, 0x01, 0x00, 0x00, 0x00, 0x00, 0x00, 0x00, 0x00,
  0x00, 0x00, 0x00, 0x00, 0x82, 0xfd, 0xff, 0xff, 0x04, 0x00, 0x00, 0x00,
  0x2c, 0x01, 0x00, 0x00, 0x07, 0xfb, 0x06, 0x0f, 0xe0, 0x08, 0xf6, 0xf2,
  0xf4, 0x5b, 0x4f, 0xb8, 0x09, 0x46, 0x42, 0x34, 0x20, 0x29, 0xa8, 0xd3,
  0xe7, 0x0f, 0x98, 0x28, 0x0d, 0xcc, 0xb4, 0x9b, 0xf3, 0x95, 0x03, 0xd1,
  0x5d, 0x20, 0xab, 0x0b, 0xbe, 0xd0, 0x1e, 0x0f, 0x36, 0x18, 0xfc, 0xb5,
  0x43, 0x0d, 0x13, 0x10, 0xc1, 0x49, 0xe6, 0x53, 0x75, 0xbd, 0xdf, 0x57,
  0xfc, 0xd8, 0x5c, 0x04, 0xb4, 0x4f, 0xcb, 0xb5, 0x28, 0xff, 0x2b, 0xe5,
  0x38, 0xf2, 0x30, 0xbc, 0x60, 0x43, 0xa6, 0xd5, 0x0b, 0x41, 0x0c, 0x9c,
  0xe7, 0xa4, 0x2f, 0xa1, 0x53, 0x2d, 0xac, 0x05, 0xda, 0x9c, 0x23, 0x36,
  0xbd, 0x03, 0x12, 0xe6, 0xbc, 0x32, 0x94, 0x5a, 0xb9, 0xed, 0xc1, 0x50,
  0xce, 0x9e, 0xb5, 0x64, 0x24, 0xe3, 0xe8, 0xf1, 0x10, 0x03, 0x0d, 0xde,
  0xa3, 0xcc, 0xb8, 0xf7, 0xe5, 0xc8, 0xa9, 0x9a, 0x52, 0xcc, 0xb8, 0xbc,
  0x0f, 0x2c, 0x68, 0x5b, 0xc2, 0xac, 0x69, 0xc6, 0xb2, 0xaf, 0x11, 0x50,
  0xe5, 0xce, 0x18, 0x1b, 0x19, 0x9d, 0x4f, 0x0f, 0xc8, 0xbb, 0x2a, 0x64,
  0x0c, 0xe8, 0xe4, 0xf8, 0x37, 0xba, 0xe7, 0x06, 0x28, 0xab, 0x06, 0xad,
  0x3e, 0xbf, 0xc4, 0xa3, 0xd3, 0x1f, 0xb7, 0x52, 0xa7, 0x2e, 0xb0, 0x01,
  0x37, 0x42, 0xdb, 0xb0, 0xc8, 0xe9, 0xde, 0x33, 0xc2, 0xbb, 0x40, 0xe4,
  0x98, 0xf1, 0xc3, 0xb2, 0x49, 0xcf, 0xc6, 0x49, 0x29, 0x48, 0xde, 0x1b,
  0x9e, 0xcf, 0xf3, 0xa2, 0xa1, 0xc5, 0xf7, 0x56, 0xf0, 0x9a, 0x0e, 0xd9,
  0x3e, 0xab, 0x21, 0x4f, 0x02, 0xb3, 0x67, 0xa0, 0xba, 0xb5, 0xc3, 0x06,
  0xe3, 0xa5, 0x36, 0x16, 0x5e, 0xf6, 0xfd, 0x65, 0x5e, 0x35, 0xa3, 0x1e,
  0xd0, 0x14, 0xde, 0x2f, 0xd2, 0x4c, 0x2d, 0x72, 0xc4, 0xb8, 0x19, 0x0c,
  0x9e, 0x76, 0x53, 0xcf, 0xdd, 0xc4, 0x1f, 0xd7, 0x01, 0xd3, 0x43, 0x31,
  0x39, 0xe4, 0x69, 0xf3, 0xa6, 0xf4, 0x12, 0xeb, 0x6b, 0x29, 0x71, 0x71,
  0x3d, 0x04, 0xd1, 0x7f, 0xb8, 0x51, 0x50, 0x2e, 0x0e, 0x51, 0xc7, 0xdd,
  0xd0, 0x67, 0xb9, 0x4d, 0x38, 0xe6, 0x39, 0xa7, 0x29, 0xe1, 0x0a, 0xd8,
  0x54, 0xf7, 0x50, 0x18, 0x4e, 0xfc, 0xff, 0xff, 0x00, 0x00, 0x00, 0x09,
  0x10, 0x00, 0x00, 0x00, 0x04, 0x00, 0x00, 0x00, 0x14, 0x00, 0x00, 0x00,
  0x34, 0x00, 0x00, 0x00, 0x02, 0x00, 0x00, 0x00, 0x0a, 0x00, 0x00, 0x00,
  0x1e, 0x00, 0x00, 0x00, 0x1c, 0x00, 0x00, 0x00, 0x73, 0x65, 0x71, 0x75,
  0x65, 0x6e, 0x74, 0x69, 0x61, 0x6c, 0x5f, 0x32, 0x2f, 0x64, 0x65, 0x6e,
  0x73, 0x65, 0x5f, 0x31, 0x33, 0x2f, 0x4d, 0x61, 0x74, 0x4d, 0x75, 0x6c,
  0x00, 0x00, 0x00, 0x00, 0xac, 0xfb, 0xff, 0xff, 0x08, 0x00, 0x00, 0x00,
  0x0c, 0x00, 0x00, 0x00, 0x01, 0x00, 0x00, 0x00, 0x52, 0x9b, 0x70, 0x3b,
  0x01, 0x00, 0x00, 0x00, 0x00, 0x00, 0x00, 0x00, 0x00, 0x00, 0x00, 0x00,
  0x22, 0xff, 0xff, 0xff, 0x04, 0x00, 0x00, 0x00, 0x78, 0x00, 0x00, 0x00,
  0x82, 0xfc, 0xff, 0xff, 0xb7, 0x01, 0x00, 0x00, 0xdf, 0x01, 0x00, 0x00,
  0xa7, 0x03, 0x00, 0x00, 0x50, 0xfb, 0xff, 0xff, 0x26, 0x00, 0x00, 0x00,
  0x00, 0x00, 0x00, 0x00, 0xf4, 0xfb, 0xff, 0xff, 0x02, 0x02, 0x00, 0x00,
  0xa7, 0x00, 0x00, 0x00, 0x00, 0x00, 0x00, 0x00, 0x06, 0x00, 0x00, 0x00,
  0x00, 0x00, 0x00, 0x00, 0xcc, 0xf9, 0xff, 0xff, 0x48, 0x02, 0x00, 0x00,
  0x73, 0xff, 0xff, 0xff, 0xcd, 0xff, 0xff, 0xff, 0x86, 0x03, 0x00, 0x00,
  0xfc, 0xff, 0xff, 0xff, 0xd1, 0x02, 0x00, 0x00, 0x00, 0x00, 0x00, 0x00,
  0x00, 0x00, 0x00, 0x00, 0x82, 0x02, 0x00, 0x00, 0x3f, 0xfe, 0xff, 0xff,
  0xf5, 0xfe, 0xff, 0xff, 0xc7, 0x01, 0x00, 0x00, 0x9a, 0xfe, 0xff, 0xff,
  0xc8, 0x07, 0x00, 0x00, 0x60, 0x02, 0x00, 0x00, 0x02, 0x02, 0x00, 0x00,
  0x3a, 0xfd, 0xff, 0xff, 0x00, 0x00, 0x00, 0x02, 0x10, 0x00, 0x00, 0x00,
  0x03, 0x00, 0x00, 0x00, 0x10, 0x00, 0x00, 0x00, 0x20, 0x00, 0x00, 0x00,
  0x01, 0x00, 0x00, 0x00, 0x1e, 0x00, 0x00, 0x00, 0x0d, 0x00, 0x00, 0x00,
  0x64, 0x65, 0x6e, 0x73, 0x65, 0x5f, 0x31, 0x32, 0x2f, 0x62, 0x69, 0x61,
  0x73, 0x00, 0x00, 0x00, 0x84, 0xfc, 0xff, 0xff, 0x08, 0x00, 0x00, 0x00,
  0x0c, 0x00, 0x00, 0x00, 0x01, 0x00, 0x00, 0x00, 0xa4, 0xe2, 0x31, 0x38,
  0x01, 0x00, 0x00, 0x00, 0x00, 0x00, 0x00, 0x00, 0x00, 0x00, 0x00, 0x00,
  0x00, 0x00, 0x00, 0x00, 0x00, 0x00, 0x06, 0x00, 0x08, 0x00, 0x04, 0x00,
  0x06, 0x00, 0x00, 0x00, 0x04, 0x00, 0x00, 0x00, 0x58, 0x02, 0x00, 0x00,
  0x2d, 0x27, 0x42, 0x08, 0xdb, 0xc7, 0xd6, 0x39, 0x21, 0xf7, 0xcf, 0x18,
  0x5d, 0x51, 0xcd, 0x43, 0x3f, 0xff, 0x28, 0xcf, 0x47, 0x4a, 0x2b, 0x2b,
  0x1a, 0x22, 0xe3, 0x56, 0x58, 0xed, 0x26, 0x4a, 0x3b, 0xff, 0xe8, 0x4c,
  0xdb, 0xf4, 0xe9, 0x3c, 0x59, 0x4b, 0x35, 0xfd, 0x01, 0x1c, 0xca, 0xcc,
  0x24, 0xbb, 0x43, 0x16, 0x57, 0xbf, 0x1f, 0x43, 0xcf, 0x71, 0x19, 0x0c,
  0x22, 0x4f, 0x53, 0x1a, 0x44, 0x13, 0x60, 0x7f, 0x0f, 0x27, 0x5c, 0x34,
  0xe1, 0x4d, 0x38, 0x4d, 0xd4, 0xe3, 0x1d, 0x4b, 0x0a, 0xe7, 0xe5, 0xab,
  0xb6, 0xa7, 0x14, 0x0c, 0xab, 0xf8, 0x20, 0xd1, 0x49, 0x23, 0x26, 0x43,
  0xd7, 0xd4, 0x03, 0x4b, 0x76, 0x74, 0x19, 0xaf, 0xbf, 0xea, 0xf9, 0xd0,
  0x1b, 0xfb, 0xb0, 0x01, 0xb7, 0xfc, 0x25, 0x08, 0x58, 0x0a, 0x13, 0x66,
  0xa9, 0xd1, 0x36, 0x38, 0xe4, 0xce, 0x15, 0xdc, 0x55, 0xfb, 0xc3, 0xfe,
  0x03, 0xd1, 0xfc, 0x2c, 0xe5, 0x16, 0xb8, 0xe3, 0xa3, 0x32, 0xb5, 0xbd,
  0x1f, 0xbe, 0xb8, 0x44, 0x18, 0xea, 0xa4, 0x18, 0xe6, 0x1e, 0x30, 0xa5,
  0xd5, 0x43, 0x14, 0x31, 0x2a, 0x27, 0x3a, 0x23, 0x39, 0x09, 0x37, 0xa3,
  0x36, 0xb3, 0x9a, 0x30, 0xe9, 0x05, 0x4b, 0xc7, 0x05, 0x12, 0x0e, 0x02,
  0x11, 0x34, 0xdd, 0x3b, 0xef, 0xe0, 0xf2, 0x71, 0x26, 0x07, 0x23, 0x1a,
  0xfa, 0x5d, 0xd3, 0x0d, 0x3f, 0x4a, 0xfc, 0xf8, 0xb5, 0xe2, 0x10, 0xdc,
  0xca, 0xaf, 0x17, 0xc1, 0x39, 0x23, 0x55, 0xda, 0x05, 0xda, 0x2a, 0x03,
  0xca, 0xe9, 0xb4, 0x32, 0x26, 0x65, 0x02, 0x20, 0x46, 0xf2, 0x5e, 0x0e,
  0xf8, 0xde, 0x33, 0x45, 0xbc, 0xeb, 0xef, 0x52, 0x7e, 0x1a, 0xbd, 0xd5,
  0xce, 0xb5, 0xc9, 0x0b, 0x20, 0xd1, 0x1a, 0xa9, 0x49, 0xcb, 0x23, 0x2e,
  0xf8, 0x4c, 0xfe, 0x3e, 0xc9, 0x39, 0xa5, 0xd3, 0xa5, 0x12, 0x27, 0xb2,
  0xd9, 0x37, 0x13, 0x3b, 0x1c, 0x0f, 0x2a, 0xbe, 0xed, 0xc8, 0x2b, 0x24,
  0xe9, 0xa3, 0x30, 0x19, 0x1b, 0xfe, 0x1c, 0xe7, 0x1e, 0xd2, 0x12, 0xd5,
  0x51, 0x13, 0x6c, 0x00, 0xf6, 0x3d, 0x33, 0xf4, 0x13, 0x05, 0x32, 0xae,
  0xd0, 0x5c, 0x1a, 0x0c, 0xcc, 0x06, 0xdd, 0xd8, 0x37, 0x24, 0xfb, 0xdc,
  0x5d, 0x25, 0x31, 0x6f, 0x5c, 0x29, 0xda, 0x55, 0x43, 0xa8, 0xe8, 0x1e,
  0xfb, 0xad, 0xa6, 0x16, 0xcf, 0xec, 0xea, 0x53, 0x10, 0xf9, 0xe1, 0x3e,
  0x1e, 0xcd, 0x18, 0xcf, 0xce, 0x66, 0xfe, 0xd8, 0x12, 0xdd, 0x52, 0xd8,
  0xe0, 0xab, 0xf8, 0xf3, 0x44, 0x1c, 0xef, 0x66, 0xe8, 0x1b, 0x34, 0xf4,
  0x3a, 0x29, 0x37, 0x54, 0x99, 0x4a, 0x13, 0x40, 0x42, 0x0a, 0xfe, 0xe2,
  0xd6, 0x17, 0xff, 0xd8, 0xc7, 0x0a, 0x11, 0x0c, 0x47, 0x0c, 0x3f, 0xe8,
  0xe8, 0xff, 0x0c, 0x28, 0x3a, 0x39, 0xc8, 0x24, 0xbc, 0x32, 0x14, 0xc9,
  0xfd, 0x3f, 0x1d, 0x23, 0xee, 0x10, 0xba, 0xb7, 0xf8, 0x08, 0xf6, 0xd8,
  0xd0, 0x34, 0x5b, 0x15, 0xee, 0xbf, 0xe7, 0xd5, 0xe1, 0x43, 0xad, 0xc8,
  0x31, 0x25, 0xb8, 0xcd, 0xc1, 0xc1, 0xfc, 0xc3, 0xde, 0xfd, 0xb2, 0xe1,
  0xe4, 0x54, 0xf3, 0xc7, 0xa8, 0x1b, 0x28, 0x36, 0x06, 0xea, 0xef, 0x57,
  0x55, 0x3b, 0x48, 0x14, 0x51, 0x5d, 0xe2, 0xdd, 0x21, 0xeb, 0x0d, 0x2b,
  0x29, 0x13, 0x16, 0xf0, 0xdb, 0xd9, 0x56, 0x1a, 0x0e, 0x19, 0xe9, 0x08,
  0x05, 0xa1, 0x1d, 0xe6, 0xf1, 0xaf, 0x21, 0x53, 0xbe, 0xe1, 0x0a, 0xb8,
  0xf6, 0x19, 0xfc, 0xbe, 0xb5, 0xd8, 0xe9, 0x3d, 0xaa, 0xe4, 0xf6, 0xf9,
  0x0c, 0xcb, 0x39, 0xbb, 0x4d, 0xe3, 0x07, 0x38, 0xf3, 0x48, 0x45, 0x1a,
  0x07, 0x09, 0xed, 0x12, 0xe1, 0x5d, 0xea, 0x53, 0xd4, 0x0b, 0x5a, 0x0f,
  0x0f, 0x23, 0xe7, 0x5d, 0x4d, 0xc8, 0x4c, 0xb7, 0x25, 0xe8, 0x1e, 0xce,
  0xd0, 0x04, 0xac, 0x28, 0x3f, 0xfa, 0x0c, 0x2e, 0x15, 0xd8, 0x69, 0x3c,
  0xcb, 0xed, 0x5c, 0xd9, 0x2a, 0x41, 0x40, 0xd4, 0x17, 0x35, 0xf0, 0xa7,
  0xe2, 0xcb, 0x2a, 0xe7, 0x00, 0xf2, 0x0d, 0x05, 0xc2, 0xe1, 0x29, 0x10,
  0x48, 0x5e, 0x47, 0xf9, 0xdc, 0x59, 0x36, 0x00, 0x3a, 0x1f, 0x24, 0xf4,
  0x3a, 0xd7, 0x2a, 0x4a, 0x1a, 0x45, 0xd2, 0xff, 0xf4, 0x07, 0x11, 0x31,
  0x17, 0xe4, 0x4e, 0x5e, 0xe4, 0xd6, 0x19, 0x21, 0x3c, 0x3e, 0xfe, 0xb3,
  0x00, 0x00, 0x0e, 0x00, 0x18, 0x00, 0x08, 0x00, 0x07, 0x00, 0x0c, 0x00,
  0x10, 0x00, 0x14, 0x00, 0x0e, 0x00, 0x00, 0x00, 0x00, 0x00, 0x00, 0x09,
  0x10, 0x00, 0x00, 0x00, 0x02, 0x00, 0x00, 0x00, 0x14, 0x00, 0x00, 0x00,
  0x34, 0x00, 0x00, 0x00, 0x02, 0x00, 0x00, 0x00, 0x1e, 0x00, 0x00, 0x00,
  0x14, 0x00, 0x00, 0x00, 0x1c, 0x00, 0x00, 0x00, 0x73, 0x65, 0x71, 0x75,
  0x65, 0x6e, 0x74, 0x69, 0x61, 0x6c, 0x5f, 0x32, 0x2f, 0x64, 0x65, 0x6e,
  0x73, 0x65, 0x5f, 0x31, 0x32, 0x2f, 0x4d, 0x61, 0x74, 0x4d, 0x75, 0x6c,
  0x00, 0x00, 0x00, 0x00, 0x6c, 0xff, 0xff, 0xff, 0x08, 0x00, 0x00, 0x00,
  0x0c, 0x00, 0x00, 0x00, 0x01, 0x00, 0x00, 0x00, 0x14, 0xfc, 0x78, 0x3b,
  0x01, 0x00, 0x00, 0x00, 0x00, 0x00, 0x00, 0x00, 0x00, 0x00, 0x00, 0x00,
  0x00, 0x00, 0x00, 0x00, 0x14, 0x00, 0x1c, 0x00, 0x08, 0x00, 0x07, 0x00,
  0x0c, 0x00, 0x10, 0x00, 0x14, 0x00, 0x00, 0x00, 0x00, 0x00, 0x18, 0x00,
  0x14, 0x00, 0x00, 0x00, 0x00, 0x00, 0x00, 0x09, 0x14, 0x00, 0x00, 0x00,
  0x01, 0x00, 0x00, 0x00, 0x18, 0x00, 0x00, 0x00, 0x54, 0x00, 0x00, 0x00,
  0x38, 0x00, 0x00, 0x00, 0x02, 0x00, 0x00, 0x00, 0x01, 0x00, 0x00, 0x00,
  0x14, 0x00, 0x00, 0x00, 0x20, 0x00, 0x00, 0x00, 0x73, 0x65, 0x72, 0x76,
  0x69, 0x6e, 0x67, 0x5f, 0x64, 0x65, 0x66, 0x61, 0x75, 0x6c, 0x74, 0x5f,
  0x64, 0x65, 0x6e, 0x73, 0x65, 0x5f, 0x31, 0x32, 0x5f, 0x69, 0x6e, 0x70,
  0x75, 0x74, 0x3a, 0x30, 0x00, 0x00, 0x00, 0x00, 0x02, 0x00, 0x00, 0x00,
  0xff, 0xff, 0xff, 0xff, 0x14, 0x00, 0x00, 0x00, 0x0c, 0x00, 0x0c, 0x00,
  0x00, 0x00, 0x00, 0x00, 0x04, 0x00, 0x08, 0x00, 0x0c, 0x00, 0x00, 0x00,
  0x08, 0x00, 0x00, 0x00, 0x0c, 0x00, 0x00, 0x00, 0x01, 0x00, 0x00, 0x00,
  0xb9, 0xe5, 0x36, 0x3c, 0x01, 0x00, 0x00, 0x00, 0x26, 0x00, 0x00, 0x00,
  0x00, 0x00, 0x00, 0x00, 0x04, 0x00, 0x04, 0x00, 0x04, 0x00, 0x00, 0x00
};
const int g_model_len = 5688;
