alignas(8) const unsigned char g_model[] = {
  0x20, 0x00, 0x00, 0x00, 0x54, 0x46, 0x4c, 0x33, 0x00, 0x00, 0x00, 0x00,
  0x14, 0x00, 0x20, 0x00, 0x04, 0x00, 0x08, 0x00, 0x0c, 0x00, 0x10, 0x00,
  0x14, 0x00, 0x00, 0x00, 0x18, 0x00, 0x1c, 0x00, 0x14, 0x00, 0x00, 0x00,
  0x03, 0x00, 0x00, 0x00, 0x18, 0x00, 0x00, 0x00, 0x1c, 0x00, 0x00, 0x00,
  0x48, 0x01, 0x00, 0x00, 0x1c, 0x00, 0x00, 0x00, 0xf0, 0x00, 0x00, 0x00,
  0x6c, 0x00, 0x00, 0x00, 0x01, 0x00, 0x00, 0x00, 0x84, 0x06, 0x00, 0x00,
  0x01, 0x00, 0x00, 0x00, 0x50, 0x01, 0x00, 0x00, 0x15, 0x00, 0x00, 0x00,
  0xd0, 0x16, 0x00, 0x00, 0xcc, 0x16, 0x00, 0x00, 0xc4, 0x12, 0x00, 0x00,
  0xe4, 0x11, 0x00, 0x00, 0x40, 0x10, 0x00, 0x00, 0xb0, 0x0f, 0x00, 0x00,
  0x28, 0x0f, 0x00, 0x00, 0xb8, 0x0e, 0x00, 0x00, 0x30, 0x0e, 0x00, 0x00,
  0xa0, 0x0d, 0x00, 0x00, 0x00, 0x0c, 0x00, 0x00, 0x20, 0x0b, 0x00, 0x00,
  0xbc, 0x07, 0x00, 0x00, 0xf4, 0x06, 0x00, 0x00, 0x98, 0x16, 0x00, 0x00,
  0x94, 0x16, 0x00, 0x00, 0x90, 0x16, 0x00, 0x00, 0x8c, 0x16, 0x00, 0x00,
  0x88, 0x16, 0x00, 0x00, 0x84, 0x16, 0x00, 0x00, 0xb8, 0x00, 0x00, 0x00,
  0x01, 0x00, 0x00, 0x00, 0x10, 0x00, 0x00, 0x00, 0x00, 0x00, 0x0a, 0x00,
  0x10, 0x00, 0x0c, 0x00, 0x08, 0x00, 0x04, 0x00, 0x0a, 0x00, 0x00, 0x00,
  0x0c, 0x00, 0x00, 0x00, 0x1c, 0x00, 0x00, 0x00, 0x20, 0x00, 0x00, 0x00,
  0x0f, 0x00, 0x00, 0x00, 0x73, 0x65, 0x72, 0x76, 0x69, 0x6e, 0x67, 0x5f,
  0x64, 0x65, 0x66, 0x61, 0x75, 0x6c, 0x74, 0x00, 0x01, 0x00, 0x00, 0x00,
  0x14, 0x00, 0x00, 0x00, 0x01, 0x00, 0x00, 0x00, 0x24, 0x00, 0x00, 0x00,
  0x08, 0x00, 0x0c, 0x00, 0x08, 0x00, 0x04, 0x00, 0x08, 0x00, 0x00, 0x00,
  0x12, 0x00, 0x00, 0x00, 0x04, 0x00, 0x00, 0x00, 0x07, 0x00, 0x00, 0x00,
  0x64, 0x65, 0x6e, 0x73, 0x65, 0x5f, 0x35, 0x00, 0xf6, 0xed, 0xff, 0xff,
  0x04, 0x00, 0x00, 0x00, 0x0b, 0x00, 0x00, 0x00, 0x64, 0x65, 0x6e, 0x73,
  0x65, 0x5f, 0x69, 0x6e, 0x70, 0x75, 0x74, 0x00, 0x01, 0x00, 0x00, 0x00,
  0x0c, 0x00, 0x00, 0x00, 0x08, 0x00, 0x0c, 0x00, 0x04, 0x00, 0x08, 0x00,
  0x08, 0x00, 0x00, 0x00, 0x08, 0x00, 0x00, 0x00, 0x14, 0x00, 0x00, 0x00,
  0x13, 0x00, 0x00, 0x00, 0x6d, 0x69, 0x6e, 0x5f, 0x72, 0x75, 0x6e, 0x74,
  0x69, 0x6d, 0x65, 0x5f, 0x76, 0x65, 0x72, 0x73, 0x69, 0x6f, 0x6e, 0x00,
  0x42, 0xee, 0xff, 0xff, 0x04, 0x00, 0x00, 0x00, 0x10, 0x00, 0x00, 0x00,
  0x31, 0x2e, 0x31, 0x34, 0x2e, 0x30, 0x00, 0x00, 0x00, 0x00, 0x00, 0x00,
  0x00, 0x00, 0x00, 0x00, 0x0f, 0x00, 0x00, 0x00, 0x4d, 0x4c, 0x49, 0x52,
  0x20, 0x43, 0x6f, 0x6e, 0x76, 0x65, 0x72, 0x74, 0x65, 0x64, 0x2e, 0x00,
  0x00, 0x00, 0x0e, 0x00, 0x18, 0x00, 0x04, 0x00, 0x08, 0x00, 0x0c, 0x00,
  0x10, 0x00, 0x14, 0x00, 0x0e, 0x00, 0x00, 0x00, 0x14, 0x00, 0x00, 0x00,
  0x60, 0x00, 0x00, 0x00, 0x64, 0x00, 0x00, 0x00, 0x68, 0x00, 0x00, 0x00,
  0x80, 0x00, 0x00, 0x00, 0x13, 0x00, 0x00, 0x00, 0xe4, 0x14, 0x00, 0x00,
  0x6c, 0x14, 0x00, 0x00, 0x08, 0x11, 0x00, 0x00, 0x18, 0x10, 0x00, 0x00,
  0x84, 0x0e, 0x00, 0x00, 0xe8, 0x0d, 0x00, 0x00, 0x6c, 0x0d, 0x00, 0x00,
  0xf0, 0x0c, 0x00, 0x00, 0x74, 0x0c, 0x00, 0x00, 0xd8, 0x0b, 0x00, 0x00,
  0x44, 0x0a, 0x00, 0x00, 0x58, 0x09, 0x00, 0x00, 0x04, 0x06, 0x00, 0x00,
  0xec, 0x04, 0x00, 0x00, 0xd8, 0x03, 0x00, 0x00, 0xe4, 0x02, 0x00, 0x00,
  0x00, 0x02, 0x00, 0x00, 0x1c, 0x01, 0x00, 0x00, 0x6c, 0x00, 0x00, 0x00,
  0x01, 0x00, 0x00, 0x00, 0x00, 0x00, 0x00, 0x00, 0x01, 0x00, 0x00, 0x00,
  0x12, 0x00, 0x00, 0x00, 0x06, 0x00, 0x00, 0x00, 0x68, 0x04, 0x00, 0x00,
  0x78, 0x03, 0x00, 0x00, 0x84, 0x02, 0x00, 0x00, 0xa0, 0x01, 0x00, 0x00,
  0xbc, 0x00, 0x00, 0x00, 0x10, 0x00, 0x00, 0x00, 0x04, 0x00, 0x00, 0x00,
  0x6d, 0x61, 0x69, 0x6e, 0x00, 0x00, 0x00, 0x00, 0xb6, 0xfc, 0xff, 0xff,
  0x00, 0x00, 0x00, 0x08, 0x18, 0x00, 0x00, 0x00, 0x0c, 0x00, 0x00, 0x00,
  0x04, 0x00, 0x00, 0x00, 0x30, 0xeb, 0xff, 0xff, 0x01, 0x00, 0x00, 0x00,
  0x12, 0x00, 0x00, 0x00, 0x03, 0x00, 0x00, 0x00, 0x11, 0x00, 0x00, 0x00,
  0x0b, 0x00, 0x00, 0x00, 0x0c, 0x00, 0x00, 0x00, 0xe4, 0xeb, 0xff, 0xff,
  0x00, 0x00, 0x00, 0x09, 0x14, 0x00, 0x00, 0x00, 0x13, 0x00, 0x00, 0x00,
  0x18, 0x00, 0x00, 0x00, 0x40, 0x00, 0x00, 0x00, 0x30, 0x00, 0x00, 0x00,
  0x02, 0x00, 0x00, 0x00, 0x01, 0x00, 0x00, 0x00, 0x19, 0x00, 0x00, 0x00,
  0x19, 0x00, 0x00, 0x00, 0x53, 0x74, 0x61, 0x74, 0x65, 0x66, 0x75, 0x6c,
  0x50, 0x61, 0x72, 0x74, 0x69, 0x74, 0x69, 0x6f, 0x6e, 0x65, 0x64, 0x43,
  0x61, 0x6c, 0x6c, 0x3a, 0x30, 0x00, 0x00, 0x00, 0x02, 0x00, 0x00, 0x00,
  0xff, 0xff, 0xff, 0xff, 0x19, 0x00, 0x00, 0x00, 0xcc, 0xeb, 0xff, 0xff,
  0x08, 0x00, 0x00, 0x00, 0x0c, 0x00, 0x00, 0x00, 0x01, 0x00, 0x00, 0x00,
  0x82, 0x19, 0x23, 0x3b, 0x01, 0x00, 0x00, 0x00, 0x80, 0xff, 0xff, 0xff,
  0xff, 0xff, 0xff, 0xff, 0x00, 0x00, 0x00, 0x00, 0x5e, 0xfd, 0xff, 0xff,
  0x00, 0x00, 0x00, 0x08, 0x1c, 0x00, 0x00, 0x00, 0x10, 0x00, 0x00, 0x00,
  0x04, 0x00, 0x00, 0x00, 0x62, 0xfc, 0xff, 0xff, 0x00, 0x00, 0x00, 0x01,
  0x01, 0x00, 0x00, 0x00, 0x11, 0x00, 0x00, 0x00, 0x03, 0x00, 0x00, 0x00,
  0x10, 0x00, 0x00, 0x00, 0x09, 0x00, 0x00, 0x00, 0x0a, 0x00, 0x00, 0x00,
  0x90, 0xec, 0xff, 0xff, 0x00, 0x00, 0x00, 0x09, 0x14, 0x00, 0x00, 0x00,
  0x12, 0x00, 0x00, 0x00, 0x18, 0x00, 0x00, 0x00, 0x74, 0x00, 0x00, 0x00,
  0x64, 0x00, 0x00, 0x00, 0x02, 0x00, 0x00, 0x00, 0x01, 0x00, 0x00, 0x00,
  0x1e, 0x00, 0x00, 0x00, 0x4c, 0x00, 0x00, 0x00, 0x73, 0x65, 0x71, 0x75,
  0x65, 0x6e, 0x74, 0x69, 0x61, 0x6c, 0x2f, 0x64, 0x65, 0x6e, 0x73, 0x65,
  0x5f, 0x34, 0x2f, 0x4d, 0x61, 0x74, 0x4d, 0x75, 0x6c, 0x3b, 0x73, 0x65,
  0x71, 0x75, 0x65, 0x6e, 0x74, 0x69, 0x61, 0x6c, 0x2f, 0x64, 0x65, 0x6e,
  0x73, 0x65, 0x5f, 0x34, 0x2f, 0x52, 0x65, 0x6c, 0x75, 0x3b, 0x73, 0x65,
  0x71, 0x75, 0x65, 0x6e, 0x74, 0x69, 0x61, 0x6c, 0x2f, 0x64, 0x65, 0x6e,
  0x73, 0x65, 0x5f, 0x34, 0x2f, 0x42, 0x69, 0x61, 0x73, 0x41, 0x64, 0x64,
  0x00, 0x00, 0x00, 0x00, 0x02, 0x00, 0x00, 0x00, 0xff, 0xff, 0xff, 0xff,
  0x1e, 0x00, 0x00, 0x00, 0xac, 0xec, 0xff, 0xff, 0x08, 0x00, 0x00, 0x00,
  0x0c, 0x00, 0x00, 0x00, 0x01, 0x00, 0x00, 0x00, 0xf1, 0x80, 0x83, 0x3b,
  0x01, 0x00, 0x00, 0x00, 0x80, 0xff, 0xff, 0xff, 0xff, 0xff, 0xff, 0xff,
  0x00, 0x00, 0x00, 0x00, 0x3e, 0xfe, 0xff, 0xff, 0x00, 0x00, 0x00, 0x08,
  0x1c, 0x00, 0x00, 0x00, 0x10, 0x00, 0x00, 0x00, 0x04, 0x00, 0x00, 0x00,
  0x42, 0xfd, 0xff, 0xff, 0x00, 0x00, 0x00, 0x01, 0x01, 0x00, 0x00, 0x00,
  0x10, 0x00, 0x00, 0x00, 0x03, 0x00, 0x00, 0x00, 0x0f, 0x00, 0x00, 0x00,
  0x07, 0x00, 0x00, 0x00, 0x08, 0x00, 0x00, 0x00, 0x70, 0xed, 0xff, 0xff,
  0x00, 0x00, 0x00, 0x09, 0x14, 0x00, 0x00, 0x00, 0x11, 0x00, 0x00, 0x00,
  0x18, 0x00, 0x00, 0x00, 0x74, 0x00, 0x00, 0x00, 0x64, 0x00, 0x00, 0x00,
  0x02, 0x00, 0x00, 0x00, 0x01, 0x00, 0x00, 0x00, 0x0a, 0x00, 0x00, 0x00,
  0x4c, 0x00, 0x00, 0x00, 0x73, 0x65, 0x71, 0x75, 0x65, 0x6e, 0x74, 0x69,
  0x61, 0x6c, 0x2f, 0x64, 0x65, 0x6e, 0x73, 0x65, 0x5f, 0x33, 0x2f, 0x4d,
  0x61, 0x74, 0x4d, 0x75, 0x6c, 0x3b, 0x73, 0x65, 0x71, 0x75, 0x65, 0x6e,
  0x74, 0x69, 0x61, 0x6c, 0x2f, 0x64, 0x65, 0x6e, 0x73, 0x65, 0x5f, 0x33,
  0x2f, 0x52, 0x65, 0x6c, 0x75, 0x3b, 0x73, 0x65, 0x71, 0x75, 0x65, 0x6e,
  0x74, 0x69, 0x61, 0x6c, 0x2f, 0x64, 0x65, 0x6e, 0x73, 0x65, 0x5f, 0x33,
  0x2f, 0x42, 0x69, 0x61, 0x73, 0x41, 0x64, 0x64, 0x00, 0x00, 0x00, 0x00,
  0x02, 0x00, 0x00, 0x00, 0xff, 0xff, 0xff, 0xff, 0x0a, 0x00, 0x00, 0x00,
  0x8c, 0xed, 0xff, 0xff, 0x08, 0x00, 0x00, 0x00, 0x0c, 0x00, 0x00, 0x00,
  0x01, 0x00, 0x00, 0x00, 0x52, 0xd7, 0x8d, 0x3b, 0x01, 0x00, 0x00, 0x00,
  0x80, 0xff, 0xff, 0xff, 0xff, 0xff, 0xff, 0xff, 0x00, 0x00, 0x00, 0x00,
  0x1e, 0xff, 0xff, 0xff, 0x00, 0x00, 0x00, 0x08, 0x1c, 0x00, 0x00, 0x00,
  0x10, 0x00, 0x00, 0x00, 0x04, 0x00, 0x00, 0x00, 0x22, 0xfe, 0xff, 0xff,
  0x00, 0x00, 0x00, 0x01, 0x01, 0x00, 0x00, 0x00, 0x0f, 0x00, 0x00, 0x00,
  0x03, 0x00, 0x00, 0x00, 0x0e, 0x00, 0x00, 0x00, 0x05, 0x00, 0x00, 0x00,
  0x06, 0x00, 0x00, 0x00, 0x50, 0xee, 0xff, 0xff, 0x00, 0x00, 0x00, 0x09,
  0x14, 0x00, 0x00, 0x00, 0x10, 0x00, 0x00, 0x00, 0x18, 0x00, 0x00, 0x00,
  0x74, 0x00, 0x00, 0x00, 0x64, 0x00, 0x00, 0x00, 0x02, 0x00, 0x00, 0x00,
  0x01, 0x00, 0x00, 0x00, 0x02, 0x00, 0x00, 0x00, 0x4c, 0x00, 0x00, 0x00,
  0x73, 0x65, 0x71, 0x75, 0x65, 0x6e, 0x74, 0x69, 0x61, 0x6c, 0x2f, 0x64,
  0x65, 0x6e, 0x73, 0x65, 0x5f, 0x32, 0x2f, 0x4d, 0x61, 0x74, 0x4d, 0x75,
  0x6c, 0x3b, 0x73, 0x65, 0x71, 0x75, 0x65, 0x6e, 0x74, 0x69, 0x61, 0x6c,
  0x2f, 0x64, 0x65, 0x6e, 0x73, 0x65, 0x5f, 0x32, 0x2f, 0x52, 0x65, 0x6c,
  0x75, 0x3b, 0x73, 0x65, 0x71, 0x75, 0x65, 0x6e, 0x74, 0x69, 0x61, 0x6c,
  0x2f, 0x64, 0x65, 0x6e, 0x73, 0x65, 0x5f, 0x32, 0x2f, 0x42, 0x69, 0x61,
  0x73, 0x41, 0x64, 0x64, 0x00, 0x00, 0x00, 0x00, 0x02, 0x00, 0x00, 0x00,
  0xff, 0xff, 0xff, 0xff, 0x02, 0x00, 0x00, 0x00, 0x6c, 0xee, 0xff, 0xff,
  0x08, 0x00, 0x00, 0x00, 0x0c, 0x00, 0x00, 0x00, 0x01, 0x00, 0x00, 0x00,
  0x94, 0x33, 0xfd, 0x3b, 0x01, 0x00, 0x00, 0x00, 0x80, 0xff, 0xff, 0xff,
  0xff, 0xff, 0xff, 0xff, 0x00, 0x00, 0x00, 0x00, 0x00, 0x00, 0x0e, 0x00,
  0x14, 0x00, 0x00, 0x00, 0x08, 0x00, 0x0c, 0x00, 0x07, 0x00, 0x10, 0x00,
  0x0e, 0x00, 0x00, 0x00, 0x00, 0x00, 0x00, 0x08, 0x1c, 0x00, 0x00, 0x00,
  0x10, 0x00, 0x00, 0x00, 0x04, 0x00, 0x00, 0x00, 0x12, 0xff, 0xff, 0xff,
  0x00, 0x00, 0x00, 0x01, 0x01, 0x00, 0x00, 0x00, 0x0e, 0x00, 0x00, 0x00,
  0x03, 0x00, 0x00, 0x00, 0x0d, 0x00, 0x00, 0x00, 0x03, 0x00, 0x00, 0x00,
  0x04, 0x00, 0x00, 0x00, 0x40, 0xef, 0xff, 0xff, 0x00, 0x00, 0x00, 0x09,
  0x14, 0x00, 0x00, 0x00, 0x0f, 0x00, 0x00, 0x00, 0x18, 0x00, 0x00, 0x00,
  0x74, 0x00, 0x00, 0x00, 0x64, 0x00, 0x00, 0x00, 0x02, 0x00, 0x00, 0x00,
  0x01, 0x00, 0x00, 0x00, 0x0a, 0x00, 0x00, 0x00, 0x4c, 0x00, 0x00, 0x00,
  0x73, 0x65, 0x71, 0x75, 0x65, 0x6e, 0x74, 0x69, 0x61, 0x6c, 0x2f, 0x64,
  0x65, 0x6e, 0x73, 0x65, 0x5f, 0x31, 0x2f, 0x4d, 0x61, 0x74, 0x4d, 0x75,
  0x6c, 0x3b, 0x73, 0x65, 0x71, 0x75, 0x65, 0x6e, 0x74, 0x69, 0x61, 0x6c,
  0x2f, 0x64, 0x65, 0x6e, 0x73, 0x65, 0x5f, 0x31, 0x2f, 0x52, 0x65, 0x6c,
  0x75, 0x3b, 0x73, 0x65, 0x71, 0x75, 0x65, 0x6e, 0x74, 0x69, 0x61, 0x6c,
  0x2f, 0x64, 0x65, 0x6e, 0x73, 0x65, 0x5f, 0x31, 0x2f, 0x42, 0x69, 0x61,
  0x73, 0x41, 0x64, 0x64, 0x00, 0x00, 0x00, 0x00, 0x02, 0x00, 0x00, 0x00,
  0xff, 0xff, 0xff, 0xff, 0x0a, 0x00, 0x00, 0x00, 0x5c, 0xef, 0xff, 0xff,
  0x08, 0x00, 0x00, 0x00, 0x0c, 0x00, 0x00, 0x00, 0x01, 0x00, 0x00, 0x00,
  0x84, 0xed, 0x2d, 0x3c, 0x01, 0x00, 0x00, 0x00, 0x80, 0xff, 0xff, 0xff,
  0xff, 0xff, 0xff, 0xff, 0x00, 0x00, 0x0e, 0x00, 0x16, 0x00, 0x00, 0x00,
  0x08, 0x00, 0x0c, 0x00, 0x07, 0x00, 0x10, 0x00, 0x0e, 0x00, 0x00, 0x00,
  0x00, 0x00, 0x00, 0x08, 0x24, 0x00, 0x00, 0x00, 0x18, 0x00, 0x00, 0x00,
  0x0c, 0x00, 0x00, 0x00, 0x00, 0x00, 0x06, 0x00, 0x08, 0x00, 0x07, 0x00,
  0x06, 0x00, 0x00, 0x00, 0x00, 0x00, 0x00, 0x01, 0x01, 0x00, 0x00, 0x00,
  0x0d, 0x00, 0x00, 0x00, 0x03, 0x00, 0x00, 0x00, 0x00, 0x00, 0x00, 0x00,
  0x01, 0x00, 0x00, 0x00, 0x02, 0x00, 0x00, 0x00, 0x0c, 0x00, 0x10, 0x00,
  0x0b, 0x00, 0x00, 0x00, 0x0c, 0x00, 0x04, 0x00, 0x0c, 0x00, 0x00, 0x00,
  0x09, 0x00, 0x00, 0x00, 0x00, 0x00, 0x00, 0x09, 0x04, 0x00, 0x00, 0x00,
  0x50, 0xf0, 0xff, 0xff, 0x00, 0x00, 0x00, 0x09, 0x14, 0x00, 0x00, 0x00,
  0x0e, 0x00, 0x00, 0x00, 0x18, 0x00, 0x00, 0x00, 0x6c, 0x00, 0x00, 0x00,
  0x5c, 0x00, 0x00, 0x00, 0x02, 0x00, 0x00, 0x00, 0x01, 0x00, 0x00, 0x00,
  0x1e, 0x00, 0x00, 0x00, 0x46, 0x00, 0x00, 0x00, 0x73, 0x65, 0x71, 0x75,
  0x65, 0x6e, 0x74, 0x69, 0x61, 0x6c, 0x2f, 0x64, 0x65, 0x6e, 0x73, 0x65,
  0x2f, 0x4d, 0x61, 0x74, 0x4d, 0x75, 0x6c, 0x3b, 0x73, 0x65, 0x71, 0x75,
  0x65, 0x6e, 0x74, 0x69, 0x61, 0x6c, 0x2f, 0x64, 0x65, 0x6e, 0x73, 0x65,
  0x2f, 0x52, 0x65, 0x6c, 0x75, 0x3b, 0x73, 0x65, 0x71, 0x75, 0x65, 0x6e,
  0x74, 0x69, 0x61, 0x6c, 0x2f, 0x64, 0x65, 0x6e, 0x73, 0x65, 0x2f, 0x42,
  0x69, 0x61, 0x73, 0x41, 0x64, 0x64, 0x00, 0x00, 0x02, 0x00, 0x00, 0x00,
  0xff, 0xff, 0xff, 0xff, 0x1e, 0x00, 0x00, 0x00, 0x64, 0xf0, 0xff, 0xff,
  0x08, 0x00, 0x00, 0x00, 0x0c, 0x00, 0x00, 0x00, 0x01, 0x00, 0x00, 0x00,
  0x88, 0xf3, 0x17, 0x3c, 0x01, 0x00, 0x00, 0x00, 0x80, 0xff, 0xff, 0xff,
  0xff, 0xff, 0xff, 0xff, 0x00, 0x00, 0x00, 0x00, 0x62, 0xf4, 0xff, 0xff,
  0x04, 0x00, 0x00, 0x00, 0x64, 0x00, 0x00, 0x00, 0xd8, 0x18, 0x00, 0x00,
  0xbd, 0x13, 0x00, 0x00, 0x4d, 0x0b, 0x00, 0x00, 0xf2, 0x0d, 0x00, 0x00,
  0x5c, 0x0b, 0x00, 0x00, 0x18, 0x06, 0x00, 0x00, 0xc1, 0x08, 0x00, 0x00,
  0x90, 0x07, 0x00, 0x00, 0x09, 0x11, 0x00, 0x00, 0x34, 0x0e, 0x00, 0x00,
  0x77, 0x0a, 0x00, 0x00, 0x6d, 0x0d, 0x00, 0x00, 0xd8, 0x0d, 0x00, 0x00,
  0x12, 0x12, 0x00, 0x00, 0x1e, 0x11, 0x00, 0x00, 0x1c, 0x08, 0x00, 0x00,
  0x74, 0x19, 0x00, 0x00, 0x8a, 0x19, 0x00, 0x00, 0xc8, 0x08, 0x00, 0x00,
  0xf4, 0x0d, 0x00, 0x00, 0xaa, 0x0d, 0x00, 0x00, 0x66, 0x1a, 0x00, 0x00,
  0x73, 0x10, 0x00, 0x00, 0x6c, 0x0a, 0x00, 0x00, 0xcf, 0x0b, 0x00, 0x00,
  0xd2, 0xf1, 0xff, 0xff, 0x00, 0x00, 0x00, 0x02, 0x10, 0x00, 0x00, 0x00,
  0x0d, 0x00, 0x00, 0x00, 0x10, 0x00, 0x00, 0x00, 0x20, 0x00, 0x00, 0x00,
  0x01, 0x00, 0x00, 0x00, 0x19, 0x00, 0x00, 0x00, 0x0c, 0x00, 0x00, 0x00,
  0x64, 0x65, 0x6e, 0x73, 0x65, 0x5f, 0x35, 0x2f, 0x62, 0x69, 0x61, 0x73,
  0x00, 0x00, 0x00, 0x00, 0x2c, 0xf1, 0xff, 0xff, 0x08, 0x00, 0x00, 0x00,
  0x0c, 0x00, 0x00, 0x00, 0x01, 0x00, 0x00, 0x00, 0x78, 0x5a, 0x67, 0x37,
  0x01, 0x00, 0x00, 0x00, 0x00, 0x00, 0x00, 0x00, 0x00, 0x00, 0x00, 0x00,
  0x26, 0xf5, 0xff, 0xff, 0x04, 0x00, 0x00, 0x00, 0xee, 0x02, 0x00, 0x00,
  0xe7, 0xfd, 0xcd, 0xc6, 0xd4, 0xbe, 0x04, 0x11, 0xd5, 0x7f, 0xb4, 0xf0,
  0xcd, 0xfc, 0xf3, 0x1c, 0xce, 0x5d, 0x5a, 0x20, 0xe6, 0xed, 0x15, 0xc8,
  0x17, 0x6c, 0xcc, 0xe8, 0xba, 0xf1, 0x2a, 0x03, 0x55, 0x2c, 0xc5, 0x6c,
  0xb7, 0xdf, 0x19, 0xc5, 0xfa, 0x5e, 0x7d, 0x3f, 0xdc, 0xcd, 0x41, 0xc8,
  0xa5, 0x22, 0xe2, 0x5b, 0x69, 0xcf, 0xe9, 0x23, 0xe3, 0xa8, 0x22, 0x05,
  0xfb, 0xd1, 0x16, 0xd2, 0x35, 0xca, 0x01, 0x44, 0xca, 0x18, 0xf1, 0x2c,
  0x2a, 0x3c, 0xfe, 0x2e, 0x44, 0x3a, 0xb7, 0x1c, 0xf2, 0x41, 0x17, 0xca,
  0xc3, 0x66, 0x09, 0x4d, 0x4f, 0x17, 0x02, 0xd0, 0xbc, 0xbd, 0x4c, 0x61,
  0xbb, 0xa0, 0x00, 0xf7, 0xd7, 0xb9, 0x2a, 0x1e, 0x16, 0x3c, 0x4c, 0x0c,
  0x4b, 0x70, 0xdc, 0xd1, 0x06, 0x42, 0x04, 0xc9, 0x43, 0xb3, 0x55, 0xe4,
  0xa6, 0xae, 0x02, 0xef, 0xbe, 0xd5, 0x28, 0x0e, 0x29, 0x0a, 0xb0, 0x6f,
  0x5d, 0xc4, 0xc6, 0xaa, 0xfd, 0x2e, 0x52, 0x45, 0xc6, 0xca, 0xec, 0x5d,
  0xca, 0x54, 0xd3, 0x0f, 0xc2, 0xdd, 0x5f, 0xcc, 0x3b, 0x4d, 0x3b, 0x4d,
  0x05, 0xc8, 0xa7, 0x04, 0x07, 0xaf, 0xb3, 0x1f, 0x5c, 0xef, 0x16, 0xa8,
  0x25, 0x47, 0xe3, 0x12, 0x2c, 0x64, 0x39, 0x01, 0xb0, 0xd9, 0xbd, 0xb2,
  0xd7, 0x47, 0xd1, 0xc9, 0x06, 0x22, 0xf3, 0x39, 0x34, 0x22, 0xae, 0x6f,
  0x2f, 0xa7, 0x3d, 0x1e, 0xd4, 0xac, 0x57, 0x54, 0xe0, 0xa9, 0xbb, 0x28,
  0x66, 0x2f, 0xea, 0x0b, 0x03, 0x2e, 0x08, 0x26, 0xd0, 0xcf, 0x42, 0x32,
  0x4f, 0xc2, 0xc0, 0xe7, 0xff, 0x62, 0xa5, 0xc0, 0x3d, 0x11, 0x4a, 0x0d,
  0xdd, 0x4f, 0xc7, 0xa8, 0x2a, 0x30, 0x4e, 0xd6, 0x1b, 0x03, 0xaf, 0x1a,
  0x05, 0xa9, 0xbb, 0xf0, 0xe0, 0xbc, 0x23, 0xbf, 0x29, 0x15, 0x3a, 0x18,
  0x50, 0xfc, 0x59, 0x4c, 0xe1, 0x68, 0xf4, 0xea, 0xe9, 0xf0, 0xfc, 0xf9,
  0xf6, 0x02, 0x5c, 0x58, 0x2d, 0x27, 0xee, 0x41, 0x45, 0xeb, 0x15, 0xeb,
  0xec, 0x31, 0x35, 0xd8, 0x4e, 0x52, 0xf6, 0xee, 0xbb, 0x32, 0xbd, 0x3e,
  0xb1, 0xe6, 0xef, 0xec, 0x62, 0x38, 0x3e, 0x1d, 0x4a, 0xb2, 0x1f, 0xec,
  0x1c, 0xe2, 0x53, 0xe6, 0x55, 0x28, 0x32, 0x55, 0x2b, 0x2b, 0x41, 0x32,
  0x43, 0xc0, 0x03, 0xba, 0xee, 0x06, 0xcb, 0xf3, 0x1b, 0x4e, 0x28, 0x53,
  0xca, 0x16, 0x4e, 0xc5, 0x5d, 0x10, 0xf8, 0xd6, 0xcf, 0x5d, 0x65, 0x1a,
  0xb4, 0xcd, 0x00, 0xbf, 0xae, 0xc0, 0x0f, 0xf3, 0xf4, 0x46, 0x5c, 0xc2,
  0xcb, 0x15, 0x57, 0xb4, 0x5e, 0x20, 0xfc, 0x51, 0x0c, 0x05, 0x10, 0xaf,
  0xa9, 0x53, 0xc8, 0x3f, 0xb2, 0x79, 0x34, 0x5c, 0x5a, 0xcb, 0xa5, 0x29,
  0x58, 0xbb, 0x5c, 0x27, 0xd2, 0x06, 0x01, 0xc5, 0xd8, 0xa6, 0x07, 0x5d,
  0x0c, 0x3a, 0x20, 0x07, 0xa6, 0x43, 0x33, 0x2f, 0xd6, 0x03, 0x08, 0xc7,
  0xfe, 0x59, 0x5a, 0xc8, 0xe9, 0x37, 0x52, 0x4b, 0xdb, 0x42, 0xa7, 0x11,
  0x38, 0x59, 0x1b, 0x1a, 0xc6, 0x70, 0x2f, 0x4e, 0xb0, 0xe9, 0xda, 0x1e,
  0x3e, 0xb7, 0x06, 0x48, 0x17, 0x1c, 0x2f, 0x18, 0xfb, 0x10, 0x1d, 0x02,
  0x1f, 0xc9, 0x3c, 0x53, 0xc9, 0xdd, 0x45, 0xf2, 0x0e, 0x45, 0x18, 0x60,
  0x6c, 0xd7, 0xb7, 0x5a, 0xbf, 0xfa, 0x3e, 0xce, 0xad, 0x39, 0xb0, 0xfe,
  0xc5, 0xac, 0xca, 0x06, 0xde, 0x1a, 0x41, 0xe9, 0x32, 0x07, 0xe2, 0x3e,
  0x5a, 0x5b, 0xff, 0xb7, 0x14, 0x3e, 0x22, 0xa9, 0x1e, 0xe4, 0xb0, 0xd8,
  0xdc, 0xa5, 0x30, 0x01, 0xc7, 0x1f, 0xb1, 0xa7, 0x0c, 0x4c, 0xd3, 0xe4,
  0x49, 0xdc, 0x26, 0x30, 0x31, 0xce, 0xa5, 0xf3, 0xaa, 0xcc, 0x71, 0xd8,
  0xdd, 0x0f, 0x3c, 0xf7, 0x0a, 0x31, 0xdb, 0x5a, 0x3d, 0x16, 0xf2, 0x4b,
  0xb3, 0x2b, 0xc5, 0xdc, 0x18, 0xfe, 0xf3, 0x13, 0x28, 0xc5, 0xd0, 0x66,
  0x54, 0x70, 0xb7, 0xc3, 0xd5, 0x2b, 0x08, 0x14, 0xc2, 0x29, 0xdd, 0x3b,
  0x4f, 0x33, 0x1e, 0xf9, 0xc0, 0x14, 0xb1, 0xd6, 0xcf, 0xcd, 0xe6, 0x30,
  0x16, 0xf6, 0x43, 0xaa, 0x1c, 0x04, 0x5f, 0x43, 0xa3, 0x30, 0x01, 0x31,
  0xf8, 0x3f, 0x24, 0xed, 0xeb, 0x53, 0xb2, 0x2c, 0xb2, 0xd3, 0xdd, 0xd6,
  0xe5, 0xd0, 0xc7, 0xc2, 0x59, 0xe6, 0xc0, 0xe7, 0x68, 0xe6, 0xaf, 0xea,
  0x19, 0x13, 0xbb, 0xc7, 0xe3, 0x5a, 0x64, 0x6d, 0x19, 0xb4, 0xc9, 0xa9,
  0xa5, 0x2f, 0x29, 0x2e, 0x50, 0x61, 0xce, 0x43, 0xdb, 0xf1, 0x2a, 0x45,
  0xb5, 0x0f, 0x5b, 0xfa, 0xe9, 0xcd, 0x4d, 0xcd, 0x0f, 0xc0, 0xfc, 0x56,
  0x25, 0x78, 0xb8, 0x43, 0x45, 0xf0, 0x0d, 0xb5, 0x2b, 0xa3, 0x40, 0xda,
  0xde, 0x52, 0x24, 0x50, 0xd6, 0xc7, 0x41, 0x6a, 0xf4, 0x2c, 0x09, 0x4d,
  0xa9, 0xe6, 0x2c, 0xcc, 0x08, 0x30, 0x31, 0x0a, 0x3a, 0xbb, 0x3d, 0xe2,
  0x1f, 0x10, 0xb2, 0xfc, 0x35, 0xed, 0x2f, 0x37, 0xd1, 0xf8, 0xa7, 0x38,
  0xf2, 0xc6, 0x69, 0x4b, 0x24, 0xbd, 0x15, 0x10, 0x25, 0x5a, 0x40, 0xdb,
  0x1c, 0x17, 0x25, 0xaf, 0xb9, 0xeb, 0xf5, 0x21, 0xf3, 0xfb, 0x0e, 0xc8,
  0xf4, 0xba, 0xaf, 0x18, 0x35, 0xdf, 0x08, 0x29, 0xfa, 0xde, 0x39, 0xd2,
  0x28, 0x5b, 0x09, 0xae, 0x0d, 0xb3, 0x59, 0x35, 0xf6, 0x1f, 0xf8, 0x60,
  0xc6, 0x0c, 0x39, 0xba, 0x42, 0xdd, 0xfd, 0x02, 0x05, 0xf4, 0x4d, 0x3a,
  0xb5, 0x40, 0x4a, 0xdd, 0x47, 0xfd, 0x08, 0x19, 0xaf, 0x34, 0x4c, 0x44,
  0x23, 0xc9, 0x19, 0x2f, 0x52, 0x22, 0x00, 0x00, 0x22, 0xf5, 0xff, 0xff,
  0x00, 0x00, 0x00, 0x09, 0x10, 0x00, 0x00, 0x00, 0x0c, 0x00, 0x00, 0x00,
  0x14, 0x00, 0x00, 0x00, 0x30, 0x00, 0x00, 0x00, 0x02, 0x00, 0x00, 0x00,
  0x19, 0x00, 0x00, 0x00, 0x1e, 0x00, 0x00, 0x00, 0x19, 0x00, 0x00, 0x00,
  0x73, 0x65, 0x71, 0x75, 0x65, 0x6e, 0x74, 0x69, 0x61, 0x6c, 0x2f, 0x64,
  0x65, 0x6e, 0x73, 0x65, 0x5f, 0x35, 0x2f, 0x4d, 0x61, 0x74, 0x4d, 0x75,
  0x6c, 0x00, 0x00, 0x00, 0x8c, 0xf4, 0xff, 0xff, 0x08, 0x00, 0x00, 0x00,
  0x0c, 0x00, 0x00, 0x00, 0x01, 0x00, 0x00, 0x00, 0x7d, 0x30, 0x61, 0x3b,
  0x01, 0x00, 0x00, 0x00, 0x00, 0x00, 0x00, 0x00, 0x00, 0x00, 0x00, 0x00,
  0x86, 0xf8, 0xff, 0xff, 0x04, 0x00, 0x00, 0x00, 0x78, 0x00, 0x00, 0x00,
  0x00, 0x00, 0x00, 0x00, 0x00, 0x00, 0x00, 0x00, 0x00, 0x00, 0x00, 0x00,
  0x9b, 0xfd, 0xff, 0xff, 0xc5, 0xee, 0xff, 0xff, 0xb4, 0xf0, 0xff, 0xff,
  0x97, 0xfb, 0xff, 0xff, 0x00, 0x00, 0x00, 0x00, 0x00, 0x00, 0x00, 0x00,
  0x98, 0xfb, 0xff, 0xff, 0x00, 0x00, 0x00, 0x00, 0xc3, 0xff, 0xff, 0xff,
  0xe7, 0x0f, 0x00, 0x00, 0x70, 0x00, 0x00, 0x00, 0x8b, 0x08, 0x00, 0x00,
  0xbf, 0x02, 0x00, 0x00, 0x00, 0x00, 0x00, 0x00, 0x69, 0x03, 0x00, 0x00,
  0x00, 0x00, 0x00, 0x00, 0x16, 0x09, 0x00, 0x00, 0x02, 0xfd, 0xff, 0xff,
  0x08, 0xfc, 0xff, 0xff, 0x31, 0x10, 0x00, 0x00, 0x90, 0x07, 0x00, 0x00,
  0xd5, 0x09, 0x00, 0x00, 0xf2, 0x0f, 0x00, 0x00, 0x00, 0x00, 0x00, 0x00,
  0xad, 0xfe, 0xff, 0xff, 0x00, 0x00, 0x00, 0x00, 0x00, 0x00, 0x00, 0x00,
  0x0a, 0xf6, 0xff, 0xff, 0x00, 0x00, 0x00, 0x02, 0x10, 0x00, 0x00, 0x00,
  0x0b, 0x00, 0x00, 0x00, 0x10, 0x00, 0x00, 0x00, 0x20, 0x00, 0x00, 0x00,
  0x01, 0x00, 0x00, 0x00, 0x1e, 0x00, 0x00, 0x00, 0x0c, 0x00, 0x00, 0x00,
  0x64, 0x65, 0x6e, 0x73, 0x65, 0x5f, 0x34, 0x2f, 0x62, 0x69, 0x61, 0x73,
  0x00, 0x00, 0x00, 0x00, 0x64, 0xf5, 0xff, 0xff, 0x08, 0x00, 0x00, 0x00,
  0x0c, 0x00, 0x00, 0x00, 0x01, 0x00, 0x00, 0x00, 0xe8, 0x61, 0x89, 0x37,
  0x01, 0x00, 0x00, 0x00, 0x00, 0x00, 0x00, 0x00, 0x00, 0x00, 0x00, 0x00,
  0x00, 0x00, 0x00, 0x00, 0x62, 0xf9, 0xff, 0xff, 0x04, 0x00, 0x00, 0x00,
  0x2c, 0x01, 0x00, 0x00, 0xc5, 0xaf, 0xa9, 0xe0, 0xb6, 0xd5, 0x02, 0x13,
  0xa4, 0x22, 0xd0, 0xfb, 0xca, 0xc1, 0xd1, 0x35, 0xc6, 0xe1, 0xc2, 0x31,
  0xd4, 0xd4, 0xcd, 0x12, 0x4b, 0xab, 0xca, 0xee, 0x06, 0xcd, 0xcc, 0xaa,
  0x24, 0x0e, 0x39, 0xa3, 0x3c, 0xa6, 0xfa, 0xb9, 0xf0, 0xfc, 0x40, 0x2a,
  0x81, 0x3d, 0x4a, 0x49, 0xcd, 0x92, 0x42, 0xe2, 0xaa, 0xea, 0x17, 0x22,
  0xa2, 0x1c, 0x48, 0xd9, 0x97, 0xf0, 0x54, 0x51, 0xa6, 0xdc, 0x29, 0xe3,
  0x3a, 0xa1, 0xae, 0xd8, 0xa3, 0xb2, 0x1d, 0xd4, 0x49, 0xbd, 0x9d, 0xb5,
  0xae, 0xa8, 0xd7, 0xef, 0xb4, 0x30, 0x45, 0xd5, 0xa9, 0xfc, 0x4e, 0xec,
  0x1b, 0xa6, 0x51, 0x26, 0xf9, 0x29, 0x4f, 0x11, 0xcc, 0xf7, 0xe9, 0x21,
  0xa8, 0xd1, 0xd3, 0xde, 0x26, 0xb5, 0x0d, 0xe1, 0xe6, 0x14, 0xdf, 0x62,
  0x4a, 0xf5, 0x9d, 0x3a, 0xb5, 0xdd, 0x4f, 0x76, 0x44, 0x1f, 0x54, 0x04,
  0x0a, 0x04, 0xb8, 0xee, 0xd6, 0x67, 0xe7, 0x3a, 0x2c, 0xe2, 0xcd, 0xc3,
  0xcf, 0xd7, 0x65, 0x5f, 0xca, 0x61, 0x4d, 0x4c, 0xb1, 0x1c, 0xc4, 0x0a,
  0xcb, 0xaa, 0xa7, 0x36, 0xbd, 0x47, 0x28, 0x1b, 0xd3, 0x24, 0xbe, 0xb4,
  0x21, 0x17, 0xdf, 0x9a, 0xf1, 0x06, 0xc0, 0x4d, 0x41, 0x6e, 0xf7, 0x1d,
  0x66, 0xfa, 0xf8, 0x0d, 0x08, 0x58, 0xba, 0xf7, 0x2d, 0xde, 0x01, 0xf1,
  0xec, 0xc1, 0xe2, 0xce, 0x20, 0x3b, 0x2c, 0x4e, 0x0c, 0x6a, 0xec, 0xf6,
  0xc8, 0xf3, 0x26, 0x45, 0xd0, 0xb8, 0x5b, 0xaf, 0x17, 0x9d, 0xda, 0x28,
  0x23, 0x02, 0xd4, 0x34, 0x3a, 0xbb, 0x4d, 0xdd, 0xda, 0xc8, 0xb2, 0x7d,
  0xbe, 0xf6, 0x32, 0x71, 0x25, 0x34, 0x20, 0xff, 0xc1, 0x42, 0x46, 0xfa,
  0xc9, 0x0c, 0x4f, 0xd6, 0x17, 0x11, 0xaf, 0x63, 0xa5, 0xca, 0x1b, 0x3b,
  0xcb, 0x5f, 0x77, 0xdf, 0xe8, 0x4d, 0xbc, 0x00, 0x4b, 0xf0, 0xe7, 0x55,
  0xc1, 0x32, 0xed, 0xad, 0xcb, 0x3f, 0xa4, 0xd1, 0xff, 0xeb, 0xc1, 0x9e,
  0xb0, 0xd5, 0x62, 0xeb, 0xfa, 0x37, 0xba, 0xc1, 0xc2, 0x34, 0x4c, 0xdb,
  0xc6, 0xc5, 0xe6, 0xf7, 0xae, 0x5e, 0xa0, 0xf9, 0x24, 0x0e, 0x26, 0xec,
  0xaa, 0xf8, 0xd8, 0xb5, 0x9a, 0xf7, 0xff, 0xff, 0x00, 0x00, 0x00, 0x09,
  0x10, 0x00, 0x00, 0x00, 0x0a, 0x00, 0x00, 0x00, 0x14, 0x00, 0x00, 0x00,
  0x30, 0x00, 0x00, 0x00, 0x02, 0x00, 0x00, 0x00, 0x1e, 0x00, 0x00, 0x00,
  0x0a, 0x00, 0x00, 0x00, 0x19, 0x00, 0x00, 0x00, 0x73, 0x65, 0x71, 0x75,
  0x65, 0x6e, 0x74, 0x69, 0x61, 0x6c, 0x2f, 0x64, 0x65, 0x6e, 0x73, 0x65,
  0x5f, 0x34, 0x2f, 0x4d, 0x61, 0x74, 0x4d, 0x75, 0x6c, 0x00, 0x00, 0x00,
  0x04, 0xf7, 0xff, 0xff, 0x08, 0x00, 0x00, 0x00, 0x0c, 0x00, 0x00, 0x00,
  0x01, 0x00, 0x00, 0x00, 0xef, 0xf3, 0x77, 0x3b, 0x01, 0x00, 0x00, 0x00,
  0x00, 0x00, 0x00, 0x00, 0x00, 0x00, 0x00, 0x00, 0xfe, 0xfa, 0xff, 0xff,
  0x04, 0x00, 0x00, 0x00, 0x28, 0x00, 0x00, 0x00, 0x43, 0xfd, 0xff, 0xff,
  0x51, 0xfc, 0xff, 0xff, 0xdf, 0xfd, 0xff, 0xff, 0xf5, 0x03, 0x00, 0x00,
  0xce, 0xfe, 0xff, 0xff, 0xf1, 0xfd, 0xff, 0xff, 0xc0, 0x01, 0x00, 0x00,
  0x08, 0x02, 0x00, 0x00, 0xd7, 0xfc, 0xff, 0xff, 0x53, 0x07, 0x00, 0x00,
  0x32, 0xf8, 0xff, 0xff, 0x00, 0x00, 0x00, 0x02, 0x10, 0x00, 0x00, 0x00,
  0x09, 0x00, 0x00, 0x00, 0x10, 0x00, 0x00, 0x00, 0x20, 0x00, 0x00, 0x00,
  0x01, 0x00, 0x00, 0x00, 0x0a, 0x00, 0x00, 0x00, 0x0c, 0x00, 0x00, 0x00,
  0x64, 0x65, 0x6e, 0x73, 0x65, 0x5f, 0x33, 0x2f, 0x62, 0x69, 0x61, 0x73,
  0x00, 0x00, 0x00, 0x00, 0x8c, 0xf7, 0xff, 0xff, 0x08, 0x00, 0x00, 0x00,
  0x0c, 0x00, 0x00, 0x00, 0x01, 0x00, 0x00, 0x00, 0x26, 0x9b, 0x2a, 0x38,
  0x01, 0x00, 0x00, 0x00, 0x00, 0x00, 0x00, 0x00, 0x00, 0x00, 0x00, 0x00,
  0x00, 0x00, 0x00, 0x00, 0x8a, 0xfb, 0xff, 0xff, 0x04, 0x00, 0x00, 0x00,
  0x14, 0x00, 0x00, 0x00, 0x18, 0x3b, 0x9e, 0x17, 0x65, 0xad, 0x72, 0x1f,
  0x55, 0xf3, 0xfa, 0x26, 0x0d, 0x40, 0x3b, 0x54, 0x7f, 0xfc, 0xd5, 0x1e,
  0xaa, 0xf8, 0xff, 0xff, 0x00, 0x00, 0x00, 0x09, 0x10, 0x00, 0x00, 0x00,
  0x08, 0x00, 0x00, 0x00, 0x14, 0x00, 0x00, 0x00, 0x30, 0x00, 0x00, 0x00,
  0x02, 0x00, 0x00, 0x00, 0x0a, 0x00, 0x00, 0x00, 0x02, 0x00, 0x00, 0x00,
  0x19, 0x00, 0x00, 0x00, 0x73, 0x65, 0x71, 0x75, 0x65, 0x6e, 0x74, 0x69,
  0x61, 0x6c, 0x2f, 0x64, 0x65, 0x6e, 0x73, 0x65, 0x5f, 0x33, 0x2f, 0x4d,
  0x61, 0x74, 0x4d, 0x75, 0x6c, 0x00, 0x00, 0x00, 0x14, 0xf8, 0xff, 0xff,
  0x08, 0x00, 0x00, 0x00, 0x0c, 0x00, 0x00, 0x00, 0x01, 0x00, 0x00, 0x00,
  0xdf, 0x7d, 0xac, 0x3b, 0x01, 0x00, 0x00, 0x00, 0x00, 0x00, 0x00, 0x00,
  0x00, 0x00, 0x00, 0x00, 0x0e, 0xfc, 0xff, 0xff, 0x04, 0x00, 0x00, 0x00,
  0x08, 0x00, 0x00, 0x00, 0x5c, 0x00, 0x00, 0x00, 0xb3, 0x02, 0x00, 0x00,
  0x22, 0xf9, 0xff, 0xff, 0x00, 0x00, 0x00, 0x02, 0x10, 0x00, 0x00, 0x00,
  0x07, 0x00, 0x00, 0x00, 0x10, 0x00, 0x00, 0x00, 0x20, 0x00, 0x00, 0x00,
  0x01, 0x00, 0x00, 0x00, 0x02, 0x00, 0x00, 0x00, 0x0c, 0x00, 0x00, 0x00,
  0x64, 0x65, 0x6e, 0x73, 0x65, 0x5f, 0x32, 0x2f, 0x62, 0x69, 0x61, 0x73,
  0x00, 0x00, 0x00, 0x00, 0x7c, 0xf8, 0xff, 0xff, 0x08, 0x00, 0x00, 0x00,
  0x0c, 0x00, 0x00, 0x00, 0x01, 0x00, 0x00, 0x00, 0xf8, 0xf7, 0x76, 0x38,
  0x01, 0x00, 0x00, 0x00, 0x00, 0x00, 0x00, 0x00, 0x00, 0x00, 0x00, 0x00,
  0x00, 0x00, 0x00, 0x00, 0x7a, 0xfc, 0xff, 0xff, 0x04, 0x00, 0x00, 0x00,
  0x14, 0x00, 0x00, 0x00, 0xce, 0x46, 0xc6, 0xe7, 0x09, 0x20, 0x48, 0xf5,
  0x26, 0x1c, 0x0f, 0xe1, 0x53, 0x2b, 0x76, 0x64, 0xdd, 0x39, 0x7f, 0xc5,
  0x9a, 0xf9, 0xff, 0xff, 0x00, 0x00, 0x00, 0x09, 0x10, 0x00, 0x00, 0x00,
  0x06, 0x00, 0x00, 0x00, 0x14, 0x00, 0x00, 0x00, 0x30, 0x00, 0x00, 0x00,
  0x02, 0x00, 0x00, 0x00, 0x02, 0x00, 0x00, 0x00, 0x0a, 0x00, 0x00, 0x00,
  0x19, 0x00, 0x00, 0x00, 0x73, 0x65, 0x71, 0x75, 0x65, 0x6e, 0x74, 0x69,
  0x61, 0x6c, 0x2f, 0x64, 0x65, 0x6e, 0x73, 0x65, 0x5f, 0x32, 0x2f, 0x4d,
  0x61, 0x74, 0x4d, 0x75, 0x6c, 0x00, 0x00, 0x00, 0x04, 0xf9, 0xff, 0xff,
  0x08, 0x00, 0x00, 0x00, 0x0c, 0x00, 0x00, 0x00, 0x01, 0x00, 0x00, 0x00,
  0xe5, 0xc0, 0xb5, 0x3b, 0x01, 0x00, 0x00, 0x00, 0x00, 0x00, 0x00, 0x00,
  0x00, 0x00, 0x00, 0x00, 0xfe, 0xfc, 0xff, 0xff, 0x04, 0x00, 0x00, 0x00,
  0x28, 0x00, 0x00, 0x00, 0x95, 0xfd, 0xff, 0xff, 0x62, 0x00, 0x00, 0x00,
  0x00, 0x00, 0x00, 0x00, 0x13, 0x03, 0x00, 0x00, 0x00, 0x00, 0x00, 0x00,
  0x00, 0x00, 0x00, 0x00, 0x46, 0x01, 0x00, 0x00, 0x00, 0x00, 0x00, 0x00,
  0x61, 0x02, 0x00, 0x00, 0x4d, 0xfd, 0xff, 0xff, 0x32, 0xfa, 0xff, 0xff,
  0x00, 0x00, 0x00, 0x02, 0x10, 0x00, 0x00, 0x00, 0x05, 0x00, 0x00, 0x00,
  0x10, 0x00, 0x00, 0x00, 0x20, 0x00, 0x00, 0x00, 0x01, 0x00, 0x00, 0x00,
  0x0a, 0x00, 0x00, 0x00, 0x0c, 0x00, 0x00, 0x00, 0x64, 0x65, 0x6e, 0x73,
  0x65, 0x5f, 0x31, 0x2f, 0x62, 0x69, 0x61, 0x73, 0x00, 0x00, 0x00, 0x00,
  0x8c, 0xf9, 0xff, 0xff, 0x08, 0x00, 0x00, 0x00, 0x0c, 0x00, 0x00, 0x00,
  0x01, 0x00, 0x00, 0x00, 0xb4, 0x8e, 0x1e, 0x38, 0x01, 0x00, 0x00, 0x00,
  0x00, 0x00, 0x00, 0x00, 0x00, 0x00, 0x00, 0x00, 0x00, 0x00, 0x00, 0x00,
  0x8a, 0xfd, 0xff, 0xff, 0x04, 0x00, 0x00, 0x00, 0x2c, 0x01, 0x00, 0x00,
  0x07, 0xf9, 0xff, 0x0c, 0xe3, 0x0a, 0xec, 0xf1, 0xf6, 0x4f, 0x47, 0xc0,
  0x08, 0x3e, 0x31, 0x30, 0x16, 0x25, 0xae, 0xdc, 0xea, 0x0e, 0x9f, 0x24,
  0x0c, 0xd6, 0xbc, 0x9f, 0xf2, 0xa6, 0xfa, 0xd6, 0x7f, 0x14, 0xa0, 0xf4,
  0xbd, 0xb7, 0x11, 0x0b, 0x1d, 0x0f, 0xf6, 0xc9, 0x33, 0x33, 0x1c, 0xd7,
  0xb3, 0x2c, 0xe8, 0x4b, 0x69, 0xc0, 0xdd, 0x4e, 0xe4, 0x8f, 0x4c, 0xf5,
  0xbc, 0x47, 0xd0, 0xbc, 0x24, 0xff, 0x26, 0xe8, 0x33, 0xf4, 0x2b, 0xc3,
  0x57, 0x3c, 0xaf, 0xda, 0x0a, 0x3a, 0x0b, 0xa6, 0xea, 0xad, 0x2a, 0xaa,
  0x4b, 0x28, 0xb4, 0x05, 0xde, 0xa6, 0x2c, 0x37, 0xb8, 0x16, 0x45, 0xf5,
  0xc9, 0x50, 0xa9, 0x5e, 0xcc, 0xf4, 0xcb, 0x53, 0xf0, 0xaa, 0xc4, 0x5b,
  0x43, 0xf0, 0xea, 0xf3, 0x19, 0x08, 0x13, 0xe2, 0xb3, 0x2c, 0xd8, 0xfb,
  0xe8, 0xce, 0xb1, 0xa4, 0x4a, 0xd1, 0xbf, 0xc3, 0x0d, 0x27, 0x5e, 0x52,
  0xc8, 0xb4, 0x5e, 0xcc, 0xb9, 0xb7, 0x0f, 0x48, 0xe8, 0xd3, 0x15, 0x18,
  0x16, 0xa7, 0x47, 0x0e, 0xcd, 0xc2, 0x26, 0x5a, 0x0b, 0xeb, 0xe7, 0xf9,
  0x32, 0xc1, 0xe9, 0x05, 0x24, 0xb3, 0x05, 0xb5, 0x38, 0xc5, 0xca, 0xac,
  0xd7, 0x1c, 0xbe, 0x4a, 0xb0, 0x29, 0xb8, 0x01, 0x31, 0x3c, 0xdf, 0xb8,
  0xd9, 0xf6, 0x17, 0x33, 0xc0, 0xbd, 0x31, 0xc7, 0x9f, 0xfe, 0xb4, 0xc9,
  0x43, 0xe6, 0xca, 0x75, 0x30, 0x41, 0xdb, 0x14, 0xa8, 0xd4, 0x01, 0xb0,
  0xa8, 0xd7, 0xf5, 0x06, 0xf4, 0xb1, 0x0c, 0xdd, 0x38, 0xb4, 0x1e, 0x47,
  0x02, 0xbb, 0x5d, 0xaa, 0xc1, 0xbc, 0xc9, 0x05, 0xe6, 0xae, 0x31, 0x14,
  0x54, 0xf7, 0xfd, 0x5b, 0x54, 0x30, 0xac, 0x1b, 0xd5, 0x12, 0xe1, 0x2b,
  0xd1, 0x3c, 0x34, 0x5f, 0xd9, 0xd2, 0x11, 0xf9, 0xb5, 0x5f, 0x49, 0xd4,
  0xe5, 0xc0, 0x26, 0xdf, 0x0b, 0xd8, 0x2f, 0x15, 0x34, 0xe7, 0x54, 0xf6,
  0xb2, 0xe7, 0x1e, 0x28, 0x5a, 0x19, 0x4d, 0x5d, 0x3e, 0xee, 0xaa, 0x45,
  0xc1, 0x29, 0x32, 0x1a, 0x05, 0x37, 0xc2, 0xcd, 0xbd, 0x51, 0xbb, 0x14,
  0x1b, 0xda, 0x34, 0xb0, 0x1b, 0xdb, 0x01, 0xde, 0x28, 0x8e, 0x36, 0x05,
  0xc2, 0xfb, 0xff, 0xff, 0x00, 0x00, 0x00, 0x09, 0x10, 0x00, 0x00, 0x00,
  0x04, 0x00, 0x00, 0x00, 0x14, 0x00, 0x00, 0x00, 0x30, 0x00, 0x00, 0x00,
  0x02, 0x00, 0x00, 0x00, 0x0a, 0x00, 0x00, 0x00, 0x1e, 0x00, 0x00, 0x00,
  0x19, 0x00, 0x00, 0x00, 0x73, 0x65, 0x71, 0x75, 0x65, 0x6e, 0x74, 0x69,
  0x61, 0x6c, 0x2f, 0x64, 0x65, 0x6e, 0x73, 0x65, 0x5f, 0x31, 0x2f, 0x4d,
  0x61, 0x74, 0x4d, 0x75, 0x6c, 0x00, 0x00, 0x00, 0x2c, 0xfb, 0xff, 0xff,
  0x08, 0x00, 0x00, 0x00, 0x0c, 0x00, 0x00, 0x00, 0x01, 0x00, 0x00, 0x00,
  0x9a, 0x90, 0x85, 0x3b, 0x01, 0x00, 0x00, 0x00, 0x00, 0x00, 0x00, 0x00,
  0x00, 0x00, 0x00, 0x00, 0x00, 0x00, 0x00, 0x00, 0x2a, 0xff, 0xff, 0xff,
  0x04, 0x00, 0x00, 0x00, 0x78, 0x00, 0x00, 0x00, 0x37, 0xfd, 0xff, 0xff,
  0xe6, 0x01, 0x00, 0x00, 0x61, 0x01, 0x00, 0x00, 0x12, 0x02, 0x00, 0x00,
  0x9f, 0xff, 0xff, 0xff, 0xae, 0xfd, 0xff, 0xff, 0xe5, 0x01, 0x00, 0x00,
  0xac, 0x06, 0x00, 0x00, 0xc3, 0xfc, 0xff, 0xff, 0xa8, 0x02, 0x00, 0x00,
  0x4c, 0x00, 0x00, 0x00, 0xdb, 0xff, 0xff, 0xff, 0xd8, 0xfd, 0xff, 0xff,
  0xb5, 0xfe, 0xff, 0xff, 0x69, 0xff, 0xff, 0xff, 0x02, 0xff, 0xff, 0xff,
  0xdb, 0xff, 0xff, 0xff, 0x00, 0x00, 0x00, 0x00, 0x89, 0x01, 0x00, 0x00,
  0xe6, 0xfe, 0xff, 0xff, 0x00, 0x00, 0x00, 0x00, 0x00, 0x00, 0x00, 0x00,
  0xb4, 0x01, 0x00, 0x00, 0xf9, 0xfd, 0xff, 0xff, 0x45, 0xfe, 0xff, 0xff,
  0x7c, 0xff, 0xff, 0xff, 0x1a, 0xff, 0xff, 0xff, 0xc9, 0xff, 0xff, 0xff,
  0x34, 0x01, 0x00, 0x00, 0x73, 0xfe, 0xff, 0xff, 0xae, 0xfc, 0xff, 0xff,
  0x00, 0x00, 0x00, 0x02, 0x10, 0x00, 0x00, 0x00, 0x03, 0x00, 0x00, 0x00,
  0x10, 0x00, 0x00, 0x00, 0x1c, 0x00, 0x00, 0x00, 0x01, 0x00, 0x00, 0x00,
  0x1e, 0x00, 0x00, 0x00, 0x0a, 0x00, 0x00, 0x00, 0x64, 0x65, 0x6e, 0x73,
  0x65, 0x2f, 0x62, 0x69, 0x61, 0x73, 0x00, 0x00, 0x04, 0xfc, 0xff, 0xff,
  0x08, 0x00, 0x00, 0x00, 0x0c, 0x00, 0x00, 0x00, 0x01, 0x00, 0x00, 0x00,
  0xb8, 0x64, 0x4a, 0x38, 0x01, 0x00, 0x00, 0x00, 0x00, 0x00, 0x00, 0x00,
  0x00, 0x00, 0x00, 0x00, 0x00, 0x00, 0x06, 0x00, 0x08, 0x00, 0x04, 0x00,
  0x06, 0x00, 0x00, 0x00, 0x04, 0x00, 0x00, 0x00, 0xee, 0x02, 0x00, 0x00,
  0x10, 0x0b, 0x33, 0x24, 0xd4, 0xcb, 0xbf, 0x34, 0x14, 0x14, 0xe2, 0x0e,
  0x44, 0x45, 0xcc, 0x1e, 0x10, 0xfe, 0x1b, 0xc5, 0xa3, 0xae, 0x1b, 0x3a,
  0xb2, 0x3e, 0x4e, 0x2d, 0x27, 0x0e, 0x1a, 0xd6, 0x3a, 0x43, 0xef, 0x1f,
  0x45, 0x37, 0xf2, 0xe5, 0x3d, 0xe7, 0xed, 0xd9, 0x3c, 0xd3, 0xf7, 0xe6,
  0xbe, 0x57, 0x24, 0x4d, 0x0f, 0x24, 0x07, 0x2b, 0xba, 0xcb, 0x10, 0xbb,
  0x57, 0x16, 0x50, 0xe1, 0x39, 0x57, 0xd8, 0x6e, 0x23, 0xf2, 0xbf, 0x51,
  0xc9, 0xa1, 0xe1, 0x1d, 0x58, 0x4a, 0x0f, 0x3a, 0x0e, 0x4c, 0x5f, 0x01,
  0x14, 0x4b, 0x30, 0xea, 0x3d, 0x30, 0x4c, 0xee, 0xdf, 0x0c, 0x47, 0x03,
  0x2c, 0x01, 0x46, 0x23, 0x23, 0xf1, 0x01, 0xb1, 0xc4, 0xb1, 0x1d, 0x11,
  0xc2, 0x06, 0x1a, 0xe0, 0x49, 0x18, 0x1d, 0x36, 0xe5, 0xda, 0xff, 0x57,
  0x4e, 0x21, 0x4a, 0xd7, 0x0b, 0x4a, 0x4b, 0x04, 0xce, 0xb0, 0xe6, 0xd7,
  0xd1, 0x06, 0x13, 0xc3, 0xf6, 0xa7, 0xf5, 0x19, 0xe1, 0x1e, 0x07, 0x04,
  0x48, 0x39, 0xb8, 0x2f, 0x13, 0xad, 0xbb, 0xe0, 0x34, 0x37, 0xe2, 0xdf,
  0x1d, 0xec, 0x4e, 0x07, 0xd4, 0x0d, 0x14, 0xdf, 0x0b, 0x34, 0xed, 0x28,
  0xcc, 0xf4, 0xc9, 0x39, 0x1d, 0x44, 0x40, 0xed, 0x3f, 0xfe, 0xc1, 0x32,
  0xc9, 0xdf, 0x49, 0x36, 0x11, 0xab, 0x28, 0xf5, 0x0a, 0x17, 0x99, 0xea,
  0x36, 0x0a, 0x59, 0xcf, 0xed, 0x0c, 0x7e, 0x07, 0x04, 0xfc, 0x1c, 0x2a,
  0x17, 0xfc, 0x14, 0xa7, 0x1b, 0xc8, 0xa6, 0x1c, 0xd2, 0xfa, 0x38, 0xa5,
  0xcf, 0x0a, 0x01, 0xe8, 0x11, 0x1f, 0x05, 0xd8, 0x43, 0x1a, 0x48, 0xec,
  0x33, 0xef, 0xe6, 0xf2, 0x5b, 0x1d, 0x05, 0x1f, 0x24, 0x0a, 0x50, 0xdd,
  0x15, 0x54, 0x48, 0xf5, 0x0b, 0x07, 0xcb, 0xdb, 0x4b, 0x4b, 0xbc, 0xe7,
  0x10, 0xdb, 0xc7, 0xb8, 0x1b, 0xc9, 0x34, 0x22, 0x4a, 0xe2, 0x05, 0xe2,
  0x2c, 0x02, 0xd0, 0xee, 0xba, 0x31, 0xc9, 0x36, 0x0c, 0x38, 0xd8, 0x0a,
  0x41, 0xfc, 0x31, 0x3b, 0xea, 0x35, 0x03, 0xf1, 0xf2, 0x31, 0x2d, 0xab,
  0xe2, 0xe1, 0x25, 0x4b, 0x02, 0xb1, 0xc5, 0xfe, 0xfc, 0x24, 0x09, 0xeb,
  0xd1, 0xb6, 0xc6, 0x01, 0x18, 0xd4, 0x10, 0xac, 0x3d, 0xc7, 0x19, 0x24,
  0xf0, 0x3f, 0xf8, 0x33, 0xcd, 0x32, 0xaf, 0xd2, 0x30, 0xed, 0x0d, 0x24,
  0xe7, 0xc5, 0x19, 0x36, 0xbc, 0xe6, 0x38, 0x21, 0x44, 0x29, 0x1c, 0x2a,
  0xce, 0xf8, 0xd0, 0x2a, 0x23, 0xf3, 0xb5, 0x34, 0x27, 0xd9, 0xb9, 0x0e,
  0xe1, 0x26, 0x21, 0x0f, 0x22, 0xca, 0xfe, 0xcb, 0x09, 0xc8, 0x34, 0x0a,
  0x4e, 0x09, 0x04, 0x23, 0x28, 0xee, 0x20, 0x0a, 0x18, 0xca, 0x6f, 0x14,
  0x24, 0xfb, 0xbe, 0xb2, 0x3d, 0x05, 0x2a, 0xd5, 0x06, 0xc3, 0xd3, 0x26,
  0x2a, 0x09, 0xd1, 0x3e, 0x25, 0x2b, 0x51, 0x35, 0x18, 0xd7, 0x30, 0xdb,
  0x37, 0xdb, 0xdb, 0xdf, 0x35, 0xc2, 0xda, 0x23, 0xfa, 0xc7, 0xbf, 0x21,
  0xd0, 0xf3, 0x01, 0x57, 0x1d, 0x0e, 0x03, 0x53, 0x26, 0xed, 0x30, 0xd0,
  0x16, 0x55, 0xcb, 0x3b, 0x41, 0xb8, 0x4a, 0xed, 0xd8, 0xec, 0xd3, 0x39,
  0xd7, 0xcc, 0xbc, 0xf8, 0xec, 0x2a, 0x19, 0xf8, 0x48, 0xaf, 0x1a, 0x20,
  0xe5, 0x4b, 0xd9, 0xe4, 0xe0, 0xc6, 0x4d, 0x3c, 0x46, 0x3c, 0xa5, 0x3f,
  0x19, 0x31, 0x3e, 0x03, 0xf2, 0xed, 0xe8, 0x07, 0xf8, 0xe2, 0xea, 0x06,
  0x04, 0x20, 0x5b, 0xc8, 0x36, 0xf5, 0x3e, 0x31, 0x09, 0x33, 0xde, 0xe5,
  0xea, 0xef, 0x00, 0x23, 0x1c, 0xb6, 0x0d, 0xb1, 0x11, 0xfa, 0xbe, 0x01,
  0x17, 0xf6, 0x11, 0xd0, 0xc3, 0xe9, 0x05, 0x2b, 0xf0, 0x0e, 0xc1, 0xbe,
  0xf9, 0x07, 0xf7, 0xdc, 0xd5, 0x2f, 0x52, 0x13, 0xef, 0xc5, 0xe9, 0xd9,
  0xe4, 0x3c, 0xb5, 0xce, 0xf7, 0xcc, 0xc1, 0xbf, 0x2a, 0x2c, 0x22, 0xbf,
  0xd2, 0xc7, 0xc7, 0xfd, 0xc9, 0xe1, 0xfd, 0xba, 0xe4, 0xe7, 0x4c, 0xf4,
  0xcc, 0xb0, 0x18, 0x24, 0x31, 0xda, 0x19, 0xc5, 0x3c, 0xcc, 0xfb, 0xf5,
  0xed, 0x52, 0x48, 0x33, 0x32, 0x03, 0x3d, 0x50, 0xe4, 0xe0, 0x1e, 0xe7,
  0x0b, 0x27, 0x2c, 0x0c, 0x08, 0xf0, 0x25, 0xef, 0x2c, 0xc2, 0x33, 0xde,
  0xda, 0x4c, 0x16, 0x0b, 0x15, 0xe9, 0x06, 0x01, 0xa9, 0x18, 0xe7, 0xf1,
  0xb5, 0x1d, 0x49, 0xc3, 0xe2, 0x07, 0xbe, 0x43, 0x2a, 0xcf, 0xed, 0xbb,
  0xf4, 0x14, 0xfa, 0xc2, 0xba, 0xda, 0xe9, 0x34, 0xaf, 0xe4, 0xf4, 0xf7,
  0x06, 0xce, 0x31, 0xbf, 0x43, 0xe4, 0x03, 0x30, 0x23, 0xd4, 0x2d, 0x3d,
  0xf3, 0xe2, 0x39, 0x3a, 0x18, 0x02, 0xf9, 0xd0, 0xf6, 0xd7, 0x4d, 0xe3,
  0x3a, 0xc3, 0xf9, 0x42, 0xfa, 0x03, 0x08, 0xcc, 0x45, 0xae, 0xce, 0xbc,
  0xcd, 0xc6, 0x30, 0xcc, 0x43, 0xcc, 0x19, 0xde, 0xf6, 0xb5, 0xc1, 0x07,
  0xb1, 0x1b, 0x28, 0xe8, 0xfe, 0x0f, 0x05, 0xc0, 0x3e, 0x2b, 0xf5, 0xaf,
  0x2e, 0xf7, 0xbc, 0xe3, 0xeb, 0x4e, 0xae, 0xf2, 0x34, 0x4e, 0xe5, 0x07,
  0x2a, 0xe1, 0xcc, 0xfa, 0xc2, 0x28, 0xee, 0xfc, 0x1a, 0x17, 0x1d, 0x35,
  0x32, 0x7f, 0x1e, 0xcf, 0xba, 0xea, 0x1d, 0x15, 0x3b, 0x54, 0x30, 0xec,
  0xd1, 0x4c, 0x33, 0xff, 0x35, 0x19, 0x23, 0xf6, 0x38, 0xd7, 0x1d, 0x3d,
  0xd4, 0x50, 0x51, 0x31, 0xb8, 0x0a, 0x3f, 0xd2, 0xf2, 0xf1, 0xf1, 0xf5,
  0x07, 0x05, 0xcc, 0x2f, 0x43, 0xd8, 0xbf, 0xfe, 0x0d, 0x3e, 0x13, 0xd8,
  0xad, 0xf3, 0xb3, 0x00, 0xf8, 0xdf, 0x0e, 0x00, 0x18, 0x00, 0x08, 0x00,
  0x07, 0x00, 0x0c, 0x00, 0x10, 0x00, 0x14, 0x00, 0x0e, 0x00, 0x00, 0x00,
  0x00, 0x00, 0x00, 0x09, 0x10, 0x00, 0x00, 0x00, 0x02, 0x00, 0x00, 0x00,
  0x14, 0x00, 0x00, 0x00, 0x2c, 0x00, 0x00, 0x00, 0x02, 0x00, 0x00, 0x00,
  0x1e, 0x00, 0x00, 0x00, 0x19, 0x00, 0x00, 0x00, 0x17, 0x00, 0x00, 0x00,
  0x73, 0x65, 0x71, 0x75, 0x65, 0x6e, 0x74, 0x69, 0x61, 0x6c, 0x2f, 0x64,
  0x65, 0x6e, 0x73, 0x65, 0x2f, 0x4d, 0x61, 0x74, 0x4d, 0x75, 0x6c, 0x00,
  0x74, 0xff, 0xff, 0xff, 0x08, 0x00, 0x00, 0x00, 0x0c, 0x00, 0x00, 0x00,
  0x01, 0x00, 0x00, 0x00, 0xc3, 0x8d, 0x83, 0x3b, 0x01, 0x00, 0x00, 0x00,
  0x00, 0x00, 0x00, 0x00, 0x00, 0x00, 0x00, 0x00, 0x14, 0x00, 0x1c, 0x00,
  0x08, 0x00, 0x07, 0x00, 0x0c, 0x00, 0x10, 0x00, 0x14, 0x00, 0x00, 0x00,
  0x00, 0x00, 0x18, 0x00, 0x14, 0x00, 0x00, 0x00, 0x00, 0x00, 0x00, 0x09,
  0x14, 0x00, 0x00, 0x00, 0x01, 0x00, 0x00, 0x00, 0x18, 0x00, 0x00, 0x00,
  0x50, 0x00, 0x00, 0x00, 0x34, 0x00, 0x00, 0x00, 0x02, 0x00, 0x00, 0x00,
  0x01, 0x00, 0x00, 0x00, 0x19, 0x00, 0x00, 0x00, 0x1d, 0x00, 0x00, 0x00,
  0x73, 0x65, 0x72, 0x76, 0x69, 0x6e, 0x67, 0x5f, 0x64, 0x65, 0x66, 0x61,
  0x75, 0x6c, 0x74, 0x5f, 0x64, 0x65, 0x6e, 0x73, 0x65, 0x5f, 0x69, 0x6e,
  0x70, 0x75, 0x74, 0x3a, 0x30, 0x00, 0x00, 0x00, 0x02, 0x00, 0x00, 0x00,
  0xff, 0xff, 0xff, 0xff, 0x19, 0x00, 0x00, 0x00, 0x0c, 0x00, 0x0c, 0x00,
  0x00, 0x00, 0x00, 0x00, 0x04, 0x00, 0x08, 0x00, 0x0c, 0x00, 0x00, 0x00,
  0x08, 0x00, 0x00, 0x00, 0x0c, 0x00, 0x00, 0x00, 0x01, 0x00, 0x00, 0x00,
  0x10, 0xed, 0x44, 0x3c, 0x01, 0x00, 0x00, 0x00, 0x2f, 0x00, 0x00, 0x00,
  0x00, 0x00, 0x00, 0x00, 0x04, 0x00, 0x04, 0x00, 0x04, 0x00, 0x00, 0x00
};
const int g_model_len = 5928;
