alignas(8) const unsigned char g_model[] = {
  0x20, 0x00, 0x00, 0x00, 0x54, 0x46, 0x4c, 0x33, 0x00, 0x00, 0x00, 0x00,
  0x14, 0x00, 0x20, 0x00, 0x04, 0x00, 0x08, 0x00, 0x0c, 0x00, 0x10, 0x00,
  0x14, 0x00, 0x00, 0x00, 0x18, 0x00, 0x1c, 0x00, 0x14, 0x00, 0x00, 0x00,
  0x03, 0x00, 0x00, 0x00, 0x34, 0x2e, 0x00, 0x00, 0xe0, 0x25, 0x00, 0x00,
  0xc8, 0x25, 0x00, 0x00, 0xb8, 0x00, 0x00, 0x00, 0x80, 0x00, 0x00, 0x00,
  0x04, 0x00, 0x00, 0x00, 0x01, 0x00, 0x00, 0x00, 0x10, 0x00, 0x00, 0x00,
  0x00, 0x00, 0x0a, 0x00, 0x10, 0x00, 0x04, 0x00, 0x08, 0x00, 0x0c, 0x00,
  0x0a, 0x00, 0x00, 0x00, 0x40, 0x00, 0x00, 0x00, 0x1c, 0x00, 0x00, 0x00,
  0x04, 0x00, 0x00, 0x00, 0x0f, 0x00, 0x00, 0x00, 0x73, 0x65, 0x72, 0x76,
  0x69, 0x6e, 0x67, 0x5f, 0x64, 0x65, 0x66, 0x61, 0x75, 0x6c, 0x74, 0x00,
  0x01, 0x00, 0x00, 0x00, 0x04, 0x00, 0x00, 0x00, 0xc0, 0xff, 0xff, 0xff,
  0x08, 0x00, 0x00, 0x00, 0x12, 0x00, 0x00, 0x00, 0x07, 0x00, 0x00, 0x00,
  0x64, 0x65, 0x6e, 0x73, 0x65, 0x5f, 0x35, 0x00, 0x01, 0x00, 0x00, 0x00,
  0x04, 0x00, 0x00, 0x00, 0x42, 0xdb, 0xff, 0xff, 0x04, 0x00, 0x00, 0x00,
  0x0b, 0x00, 0x00, 0x00, 0x64, 0x65, 0x6e, 0x73, 0x65, 0x5f, 0x69, 0x6e,
  0x70, 0x75, 0x74, 0x00, 0x01, 0x00, 0x00, 0x00, 0x0c, 0x00, 0x00, 0x00,
  0x08, 0x00, 0x0c, 0x00, 0x04, 0x00, 0x08, 0x00, 0x08, 0x00, 0x00, 0x00,
  0x08, 0x00, 0x00, 0x00, 0x14, 0x00, 0x00, 0x00, 0x13, 0x00, 0x00, 0x00,
  0x6d, 0x69, 0x6e, 0x5f, 0x72, 0x75, 0x6e, 0x74, 0x69, 0x6d, 0x65, 0x5f,
  0x76, 0x65, 0x72, 0x73, 0x69, 0x6f, 0x6e, 0x00, 0x15, 0x00, 0x00, 0x00,
  0xfc, 0x24, 0x00, 0x00, 0xe8, 0x24, 0x00, 0x00, 0x6c, 0x24, 0x00, 0x00,
  0xd8, 0x23, 0x00, 0x00, 0x94, 0x23, 0x00, 0x00, 0x70, 0x23, 0x00, 0x00,
  0x2c, 0x23, 0x00, 0x00, 0x98, 0x22, 0x00, 0x00, 0xc4, 0x16, 0x00, 0x00,
  0x00, 0x12, 0x00, 0x00, 0x9c, 0x11, 0x00, 0x00, 0x38, 0x11, 0x00, 0x00,
  0x74, 0x0c, 0x00, 0x00, 0xa0, 0x00, 0x00, 0x00, 0x94, 0x00, 0x00, 0x00,
  0x80, 0x00, 0x00, 0x00, 0x6c, 0x00, 0x00, 0x00, 0x58, 0x00, 0x00, 0x00,
  0x44, 0x00, 0x00, 0x00, 0x30, 0x00, 0x00, 0x00, 0x04, 0x00, 0x00, 0x00,
  0xe6, 0xdb, 0xff, 0xff, 0x04, 0x00, 0x00, 0x00, 0x10, 0x00, 0x00, 0x00,
  0x31, 0x2e, 0x35, 0x2e, 0x30, 0x00, 0x00, 0x00, 0x00, 0x00, 0x00, 0x00,
  0x00, 0x00, 0x00, 0x00, 0x00, 0x00, 0x00, 0x00, 0x00, 0x00, 0x00, 0x00,
  0x00, 0x00, 0x00, 0x00, 0x48, 0xd3, 0xff, 0xff, 0x00, 0x00, 0x00, 0x00,
  0x00, 0x00, 0x00, 0x00, 0x00, 0x00, 0x00, 0x00, 0x58, 0xd3, 0xff, 0xff,
  0x00, 0x00, 0x00, 0x00, 0x00, 0x00, 0x00, 0x00, 0x00, 0x00, 0x00, 0x00,
  0x68, 0xd3, 0xff, 0xff, 0x00, 0x00, 0x00, 0x00, 0x00, 0x00, 0x00, 0x00,
  0x00, 0x00, 0x00, 0x00, 0x78, 0xd3, 0xff, 0xff, 0x00, 0x00, 0x00, 0x00,
  0x00, 0x00, 0x00, 0x00, 0x00, 0x00, 0x00, 0x00, 0x88, 0xd3, 0xff, 0xff,
  0x00, 0x00, 0x00, 0x00, 0x00, 0x00, 0x00, 0x00, 0x00, 0x00, 0x00, 0x00,
  0x98, 0xd3, 0xff, 0xff, 0x00, 0x00, 0x00, 0x00, 0x66, 0xdc, 0xff, 0xff,
  0x04, 0x00, 0x00, 0x00, 0xb8, 0x0b, 0x00, 0x00, 0x5a, 0x3f, 0xb0, 0xbd,
  0x80, 0xe8, 0x0d, 0xbc, 0x5f, 0x94, 0x32, 0xbe, 0x88, 0xa2, 0x4c, 0xbe,
  0xef, 0x53, 0x19, 0xbe, 0x9b, 0x3d, 0x69, 0xbe, 0xc5, 0x25, 0x4a, 0x3c,
  0xf0, 0x50, 0x68, 0x3d, 0x00, 0xa0, 0x15, 0xbe, 0x1c, 0x6e, 0xdf, 0x3e,
  0xd2, 0x3c, 0x86, 0xbe, 0x7e, 0xfa, 0x66, 0xbd, 0x95, 0xc4, 0x31, 0xbe,
  0x33, 0x04, 0x74, 0xbc, 0xeb, 0x30, 0x38, 0xbd, 0xe1, 0xbf, 0xc1, 0x3d,
  0x90, 0x5f, 0x2f, 0xbe, 0xf5, 0x0d, 0xa3, 0x3e, 0x6e, 0xaf, 0x9d, 0x3e,
  0x1a, 0xf2, 0xe3, 0x3d, 0x16, 0x8d, 0xb6, 0xbd, 0xac, 0x3b, 0x84, 0xbd,
  0x5f, 0x25, 0x92, 0x3d, 0x65, 0x22, 0x44, 0xbe, 0x99, 0x7a, 0x9f, 0x3d,
  0x91, 0x5a, 0xbd, 0x3e, 0x76, 0x93, 0x36, 0xbe, 0xea, 0x35, 0xa8, 0xbd,
  0xc5, 0xe6, 0x76, 0xbe, 0xb8, 0xc6, 0x50, 0xbd, 0x9e, 0x25, 0x13, 0x3e,
  0x60, 0x6c, 0x31, 0x3c, 0xf8, 0xf7, 0x95, 0x3e, 0xc1, 0x0d, 0x1a, 0x3e,
  0x1f, 0x21, 0x4f, 0xbe, 0xfb, 0x6c, 0xbd, 0x3e, 0x1c, 0xe7, 0x7f, 0xbe,
  0x92, 0x97, 0xe8, 0xbd, 0x30, 0x20, 0xae, 0x3d, 0xa4, 0x2b, 0x4e, 0xbe,
  0xc0, 0x10, 0xb0, 0xbc, 0x63, 0x82, 0xa4, 0x3e, 0xf5, 0x4f, 0xdc, 0x3e,
  0x8c, 0x2e, 0x5d, 0x3e, 0x66, 0xd5, 0xf9, 0xbd, 0xdb, 0x0e, 0x34, 0xbe,
  0xc8, 0x54, 0x64, 0x3e, 0x55, 0x69, 0x43, 0xbe, 0x69, 0x7b, 0x9f, 0xbe,
  0x9c, 0x5b, 0xef, 0x3d, 0x7f, 0x08, 0xd5, 0xbd, 0x78, 0xa4, 0xa0, 0x3e,
  0x3d, 0x42, 0xb8, 0x3e, 0x89, 0x14, 0x2e, 0xbe, 0x38, 0x84, 0x9e, 0xbd,
  0x39, 0xe8, 0xf4, 0x3d, 0x36, 0xce, 0xc9, 0xbd, 0x72, 0x42, 0x9a, 0xbe,
  0x70, 0xa9, 0xf2, 0x3d, 0xa0, 0x46, 0x9a, 0x3c, 0x30, 0x0b, 0x8d, 0xbc,
  0x17, 0xfc, 0x25, 0xbe, 0x58, 0xc0, 0x99, 0x3d, 0x68, 0xab, 0x20, 0xbe,
  0x59, 0xee, 0x38, 0x3e, 0x71, 0x6c, 0x3e, 0xbe, 0x6b, 0x23, 0x9a, 0x3b,
  0xc8, 0x8a, 0x6e, 0x3e, 0x4b, 0xbc, 0x3e, 0xbe, 0x35, 0x9b, 0xa5, 0x3d,
  0xe0, 0x6b, 0x51, 0xbd, 0x8e, 0xf1, 0x1b, 0x3e, 0xd2, 0xbc, 0x14, 0x3e,
  0x49, 0x03, 0x54, 0x3e, 0x48, 0x5d, 0xd5, 0xbb, 0x29, 0x7c, 0x20, 0x3e,
  0xe4, 0x36, 0x6e, 0x3e, 0x22, 0xda, 0x4a, 0x3e, 0x29, 0x09, 0x80, 0xbe,
  0x5d, 0x33, 0xc5, 0x3d, 0xdc, 0x6d, 0x4b, 0xbd, 0xc7, 0x0b, 0x66, 0x3e,
  0x5f, 0x72, 0xa2, 0x3d, 0x41, 0x3e, 0x3f, 0xbe, 0xb9, 0x92, 0x56, 0xbe,
  0x05, 0x0e, 0xb4, 0x3e, 0x20, 0x8d, 0xfb, 0x3c, 0xc6, 0xb2, 0x86, 0x3e,
  0xe2, 0x33, 0x8a, 0x3e, 0x28, 0xf3, 0xa3, 0x3d, 0xc0, 0x21, 0xe4, 0x3b,
  0x71, 0xc1, 0x29, 0xbe, 0xc2, 0x6d, 0x6e, 0xbe, 0x3e, 0x52, 0x6d, 0xbe,
  0x3e, 0x39, 0x85, 0x3e, 0x00, 0xfb, 0xa9, 0x3e, 0x3a, 0x3f, 0x74, 0xbe,
  0x37, 0x70, 0xa8, 0xbe, 0x00, 0xb1, 0xac, 0x3a, 0xe4, 0x9f, 0xf2, 0xbc,
  0x2c, 0x89, 0x11, 0xbe, 0x81, 0x31, 0x79, 0xbe, 0xba, 0x85, 0x12, 0x3e,
  0x21, 0x2e, 0xd2, 0x3d, 0xf6, 0x01, 0x99, 0x3d, 0x78, 0x54, 0x53, 0x3e,
  0xc6, 0x41, 0x86, 0x3e, 0x05, 0xcd, 0x22, 0x3d, 0xb4, 0xc6, 0x84, 0x3e,
  0xc9, 0x61, 0xc5, 0x3e, 0x1f, 0x04, 0x00, 0xbe, 0xf7, 0xb7, 0x24, 0xbe,
  0xdb, 0xca, 0xb3, 0x3c, 0x05, 0xf5, 0x67, 0x3e, 0x8d, 0x33, 0x6f, 0x3c,
  0xce, 0x6c, 0x40, 0xbe, 0xc8, 0x22, 0x6b, 0x3e, 0x08, 0xdc, 0x87, 0xbe,
  0x7a, 0x40, 0x95, 0x3e, 0xde, 0xb4, 0xc1, 0xbd, 0x30, 0x61, 0x9e, 0xbe,
  0x8d, 0x8b, 0x90, 0xbe, 0x40, 0xdd, 0xb0, 0x3b, 0x13, 0xdb, 0x6a, 0xbd,
  0x32, 0xcc, 0x68, 0xbe, 0x5e, 0xa2, 0x18, 0xbe, 0xa0, 0xf3, 0x0b, 0x3e,
  0xc0, 0x96, 0x4a, 0x3d, 0x36, 0x07, 0x10, 0x3e, 0x8e, 0x23, 0x0c, 0x3d,
  0x42, 0xf9, 0x8c, 0xbe, 0x3b, 0xb6, 0xc2, 0x3e, 0x64, 0x6c, 0xa3, 0x3e,
  0x89, 0xc1, 0x51, 0xbe, 0x1c, 0x01, 0x4c, 0xbe, 0x4b, 0xbf, 0x97, 0xbe,
  0x00, 0xa9, 0x28, 0xbc, 0x79, 0x99, 0x23, 0x3e, 0xec, 0x25, 0x90, 0x3e,
  0x09, 0xb4, 0x71, 0x3e, 0xac, 0xa9, 0x4d, 0xbe, 0x02, 0x4f, 0x3c, 0xbe,
  0x0f, 0x30, 0x8c, 0xbd, 0xc8, 0x6c, 0xa3, 0x3e, 0x03, 0x53, 0x3d, 0xbe,
  0x8c, 0xb8, 0x93, 0x3e, 0xfb, 0x64, 0x1d, 0xbe, 0x96, 0x77, 0x4e, 0x3d,
  0xec, 0x1d, 0x59, 0xbe, 0xb4, 0x44, 0xf5, 0xbd, 0xee, 0x7c, 0xa6, 0x3e,
  0xf4, 0xa8, 0x36, 0xbe, 0x60, 0x4b, 0x51, 0x3e, 0x09, 0xba, 0x86, 0x3e,
  0x90, 0x02, 0x50, 0x3e, 0x9e, 0xc4, 0x87, 0x3e, 0xbc, 0x6f, 0x86, 0x3c,
  0x4c, 0x5b, 0x45, 0xbe, 0x8a, 0x6c, 0x9d, 0xbe, 0xf7, 0xab, 0x75, 0x3c,
  0x50, 0xfb, 0xc8, 0x3c, 0x21, 0x38, 0x8e, 0xbe, 0x44, 0xc3, 0x87, 0xbe,
  0xe0, 0x53, 0xd9, 0x3d, 0xec, 0x98, 0xa1, 0x3e, 0x69, 0xbc, 0x69, 0xbd,
  0x80, 0xe3, 0x9d, 0x3d, 0xcc, 0xea, 0x9a, 0xbe, 0x3a, 0xdc, 0x00, 0x3e,
  0xa7, 0xd4, 0x78, 0x3e, 0x55, 0xbc, 0xc8, 0xbd, 0xe1, 0x16, 0x7f, 0x3d,
  0xcd, 0x62, 0x1c, 0x3e, 0xb8, 0xf4, 0xaf, 0x3e, 0x2c, 0xfa, 0x47, 0x3e,
  0x50, 0xd8, 0xa5, 0x3b, 0x26, 0x49, 0x8d, 0xbe, 0x77, 0x92, 0x09, 0xbe,
  0x10, 0xcb, 0x6b, 0xbe, 0xba, 0x92, 0x88, 0xbe, 0xbf, 0xda, 0x0e, 0xbe,
  0xdc, 0xa2, 0x7a, 0x3e, 0x0d, 0x08, 0x24, 0xbe, 0xf0, 0xd7, 0x40, 0xbe,
  0x09, 0x0c, 0x9f, 0x3c, 0x1b, 0x13, 0xef, 0x3d, 0xa0, 0xa7, 0x30, 0xbd,
  0xcc, 0xdb, 0x46, 0x3e, 0xf8, 0x6c, 0x35, 0x3e, 0xb2, 0xe2, 0xef, 0x3d,
  0x4b, 0x68, 0x90, 0xbe, 0x04, 0x0f, 0xc3, 0x3e, 0x1d, 0x15, 0x25, 0x3e,
  0x92, 0x74, 0x9d, 0xbe, 0x2a, 0x09, 0x55, 0x3e, 0x26, 0x42, 0xd1, 0x3d,
  0x40, 0xbb, 0x19, 0xbe, 0x88, 0x3a, 0x94, 0xbe, 0x0e, 0x34, 0x98, 0x3e,
  0x5a, 0x7a, 0x94, 0x3e, 0xae, 0xe0, 0xe1, 0xbd, 0x1a, 0x87, 0x99, 0xbe,
  0xec, 0x1a, 0x71, 0xbe, 0x76, 0x26, 0x0c, 0x3e, 0x2d, 0x92, 0xb2, 0x3e,
  0xf2, 0xe3, 0x23, 0x3e, 0x70, 0xa1, 0x9a, 0xbd, 0x6b, 0xf4, 0x19, 0x3d,
  0x60, 0xb7, 0x23, 0x3c, 0x4e, 0x2a, 0x23, 0x3e, 0x00, 0x24, 0xde, 0x3c,
  0x18, 0xf3, 0x04, 0x3e, 0x15, 0x01, 0x2a, 0xbe, 0xbc, 0x34, 0x2c, 0xbe,
  0x50, 0x78, 0x67, 0x3e, 0x53, 0x8f, 0x30, 0x3e, 0x84, 0xef, 0x8a, 0x3e,
  0x0e, 0x42, 0x5b, 0xbe, 0x2d, 0xd2, 0x61, 0xbe, 0x78, 0x34, 0xb0, 0xbd,
  0x40, 0x90, 0x94, 0xbb, 0x52, 0x6a, 0xac, 0x3e, 0xd7, 0x59, 0xa0, 0xbe,
  0x7f, 0xca, 0x61, 0xbe, 0x2d, 0xc2, 0x57, 0x3e, 0x90, 0xea, 0x6e, 0x3d,
  0x40, 0xf1, 0x82, 0x3e, 0x26, 0x55, 0x39, 0x3d, 0x4e, 0x70, 0xf5, 0xbd,
  0x64, 0x14, 0x8b, 0x3e, 0x60, 0xf7, 0x48, 0xbe, 0x9c, 0x55, 0x9b, 0xbe,
  0x54, 0x8f, 0x13, 0x3e, 0xb1, 0x72, 0x28, 0x3e, 0x9a, 0xbd, 0x88, 0x3e,
  0xa0, 0xa8, 0x14, 0xbe, 0x48, 0x38, 0xbd, 0x3d, 0xd9, 0x46, 0x12, 0x3c,
  0x3c, 0xfe, 0x8e, 0xbe, 0xfc, 0xf6, 0xb5, 0x3d, 0x60, 0x81, 0x83, 0x3c,
  0xec, 0x05, 0x99, 0xbe, 0xcc, 0xa2, 0x71, 0xbe, 0xb1, 0x97, 0x62, 0xbd,
  0xb1, 0x9a, 0xdf, 0xbd, 0xe2, 0xa9, 0x6d, 0xbe, 0xe2, 0x57, 0xf3, 0x3d,
  0xf7, 0x62, 0x66, 0xbe, 0xe4, 0xa4, 0x0e, 0x3e, 0x77, 0x79, 0x94, 0x3d,
  0xb0, 0xc5, 0x4d, 0x3e, 0xf2, 0x1d, 0xa8, 0x3d, 0xc2, 0x5a, 0x8d, 0x3e,
  0xb7, 0x2a, 0x4c, 0xbc, 0xba, 0xbd, 0x9c, 0x3e, 0xf3, 0x7f, 0x86, 0x3e,
  0xc8, 0x01, 0xda, 0xbd, 0xc3, 0x3f, 0xb7, 0x3e, 0x80, 0x4a, 0x25, 0xbd,
  0x3e, 0x50, 0x9e, 0xbd, 0xd7, 0x80, 0xa1, 0xbd, 0xdc, 0xbf, 0x62, 0xbd,
  0xa8, 0x4d, 0x48, 0xbc, 0xfb, 0x84, 0xca, 0xbc, 0x1d, 0xe3, 0x0f, 0xbd,
  0x67, 0x30, 0xdd, 0x3b, 0xd4, 0xdc, 0xa1, 0x3e, 0xd8, 0xbc, 0x9a, 0x3e,
  0xf4, 0x5c, 0x1d, 0x3e, 0x72, 0xa9, 0x08, 0x3e, 0x04, 0xc5, 0x81, 0xbd,
  0x64, 0x46, 0x66, 0x3e, 0x60, 0x22, 0x71, 0x3e, 0xa9, 0xa6, 0x90, 0xbd,
  0x5f, 0xc3, 0x92, 0x3d, 0x71, 0x64, 0x93, 0xbd, 0xb7, 0x6a, 0x8d, 0xbd,
  0xd0, 0xb5, 0x2a, 0x3e, 0xa4, 0x41, 0x39, 0x3e, 0x83, 0x6b, 0x0e, 0xbe,
  0xd0, 0xbb, 0x89, 0x3e, 0xb7, 0xe0, 0x8f, 0x3e, 0xd0, 0x8c, 0x06, 0xbd,
  0x01, 0xa5, 0x80, 0xbd, 0x7f, 0xdb, 0x73, 0xbe, 0xf5, 0x42, 0x2e, 0x3e,
  0x20, 0xfa, 0x6c, 0xbe, 0x12, 0xd7, 0x5b, 0x3e, 0xce, 0x8c, 0x8b, 0xbe,
  0xf0, 0x19, 0xb5, 0xbd, 0xdf, 0xac, 0x74, 0xbd, 0x54, 0xa2, 0x8a, 0xbd,
  0x84, 0x76, 0xac, 0x3e, 0x3c, 0x9a, 0x45, 0x3e, 0xa9, 0x27, 0x5a, 0x3e,
  0xe7, 0xc8, 0xce, 0x3d, 0xae, 0xa3, 0x81, 0x3e, 0x94, 0xdd, 0x88, 0xbe,
  0xf0, 0x91, 0xd9, 0x3d, 0x9c, 0x97, 0x8c, 0xbd, 0x34, 0x75, 0xc4, 0x3d,
  0x8e, 0x6c, 0xd0, 0xbd, 0x84, 0x55, 0x92, 0x3e, 0x5b, 0xaf, 0xb9, 0xbd,
  0x12, 0xef, 0x95, 0x3e, 0x80, 0xa7, 0x0b, 0x3e, 0xc4, 0x29, 0x31, 0x3e,
  0xac, 0xcc, 0x94, 0x3e, 0x60, 0x5f, 0x18, 0x3e, 0x3d, 0x9c, 0x16, 0x3e,
  0xd0, 0x23, 0x64, 0x3e, 0x9d, 0x27, 0x2f, 0x3e, 0x82, 0x9d, 0x6a, 0x3e,
  0x53, 0xd1, 0x5f, 0xbe, 0x6f, 0xee, 0x2b, 0x3c, 0x98, 0x43, 0x77, 0xbe,
  0x18, 0x4a, 0x80, 0xbd, 0xb4, 0x76, 0xb4, 0x3c, 0x0c, 0xd7, 0x3a, 0xbe,
  0xb1, 0x98, 0x3c, 0xbd, 0x17, 0x72, 0xbb, 0x3d, 0x3a, 0x99, 0x88, 0x3e,
  0x5f, 0x45, 0x0b, 0x3e, 0xaf, 0x78, 0x92, 0x3e, 0xcd, 0x20, 0x3d, 0xbe,
  0xae, 0x2d, 0x99, 0x3d, 0x46, 0x10, 0x8a, 0x3e, 0x6b, 0xd8, 0x4f, 0xbe,
  0x0e, 0x11, 0xa3, 0x3e, 0xf8, 0x65, 0x63, 0x3d, 0x00, 0xf1, 0xd7, 0xbc,
  0x19, 0x17, 0x15, 0xbe, 0x21, 0xfb, 0x2b, 0xbe, 0x60, 0x49, 0xa3, 0x3e,
  0x07, 0x4f, 0xb1, 0x3e, 0x85, 0x56, 0xb7, 0x3d, 0x6b, 0xd7, 0x85, 0xbe,
  0x10, 0xb3, 0x33, 0xbe, 0x00, 0x9c, 0xa4, 0xba, 0xf0, 0x93, 0x65, 0xbe,
  0x24, 0x6b, 0x90, 0xbe, 0xe3, 0x1b, 0x62, 0xbe, 0x08, 0xc3, 0x4c, 0x3d,
  0xdd, 0x13, 0x3a, 0xbd, 0x0f, 0xee, 0x29, 0xbd, 0xd3, 0x16, 0x76, 0x3e,
  0x5e, 0x03, 0xa2, 0x3e, 0xc1, 0x82, 0x5b, 0xbe, 0x74, 0xfe, 0x3a, 0xbe,
  0xa8, 0xb9, 0x90, 0x3d, 0xb5, 0x1d, 0x99, 0x3e, 0xa7, 0x17, 0x86, 0xbe,
  0xb8, 0x25, 0xa6, 0x3e, 0x5f, 0x99, 0xe0, 0x3d, 0x60, 0x10, 0x55, 0xbc,
  0x29, 0xae, 0x8e, 0x3e, 0xb8, 0x7d, 0x24, 0x3d, 0x3f, 0x64, 0x80, 0x3c,
  0x50, 0x58, 0x64, 0x3d, 0x85, 0xb3, 0x8d, 0xbe, 0xfc, 0x6e, 0x99, 0xbe,
  0xc8, 0xec, 0x91, 0x3e, 0x4d, 0x0c, 0x44, 0xbe, 0x4c, 0xfa, 0x5b, 0x3e,
  0x91, 0xb2, 0x89, 0xbe, 0xe4, 0x7b, 0xd4, 0x3e, 0xdd, 0x51, 0x36, 0x3e,
  0x78, 0xf1, 0xa1, 0x3e, 0xc4, 0x89, 0x9e, 0x3e, 0xc4, 0x3b, 0x3a, 0xbe,
  0x28, 0xe6, 0x9f, 0xbe, 0xd9, 0x8e, 0x11, 0x3e, 0xee, 0x5a, 0x9a, 0x3e,
  0xa7, 0x8e, 0x72, 0xbe, 0x92, 0xdf, 0xa1, 0x3e, 0x5b, 0xf3, 0x09, 0x3e,
  0xd2, 0x26, 0x22, 0xbe, 0x00, 0x61, 0xb2, 0x3c, 0x00, 0x63, 0x5d, 0x3b,
  0x13, 0x44, 0x50, 0xbe, 0xed, 0x20, 0x0e, 0xbe, 0x0d, 0xb4, 0x9e, 0xbe,
  0xaa, 0x27, 0xbc, 0x3c, 0xc5, 0xa7, 0xa3, 0x3e, 0xba, 0x92, 0x26, 0x3d,
  0xf4, 0x7f, 0x4b, 0x3e, 0xe0, 0x17, 0xe0, 0x3d, 0x27, 0x1f, 0xc6, 0x3c,
  0x60, 0xaf, 0x9e, 0xbe, 0xa8, 0x10, 0x6a, 0x3e, 0x78, 0x5e, 0x32, 0x3e,
  0x06, 0xd9, 0x23, 0x3e, 0xbd, 0xf6, 0x12, 0xbe, 0x85, 0x77, 0x3c, 0x3c,
  0xb1, 0x4b, 0xee, 0x3c, 0x19, 0xd5, 0x47, 0xbe, 0x38, 0x4d, 0xab, 0xbb,
  0xdc, 0x30, 0x9d, 0x3e, 0xe4, 0x0c, 0x9e, 0x3e, 0x53, 0xb8, 0x45, 0xbe,
  0x8c, 0xab, 0xa1, 0xbd, 0x43, 0x00, 0x43, 0x3e, 0xe8, 0xc9, 0x90, 0x3e,
  0xdd, 0xec, 0x83, 0x3e, 0x61, 0xd2, 0x03, 0xbe, 0x16, 0xe5, 0x69, 0x3e,
  0xe6, 0x60, 0x9c, 0xbe, 0xb4, 0xcf, 0x70, 0x3d, 0x10, 0x4e, 0x45, 0x3e,
  0x8b, 0xb3, 0x9b, 0x3e, 0x65, 0x3c, 0xbc, 0x3d, 0x02, 0x92, 0xb9, 0x3d,
  0xac, 0x13, 0x4c, 0xbe, 0x2d, 0xda, 0xc5, 0x3e, 0x2b, 0xd4, 0x25, 0x3e,
  0xf5, 0xdd, 0x89, 0x3e, 0xd4, 0x8d, 0x8d, 0xbe, 0xfc, 0x64, 0xa0, 0xbd,
  0x2b, 0x0b, 0x05, 0xbe, 0xe0, 0xcb, 0xcf, 0x3d, 0x34, 0x65, 0x58, 0x3e,
  0xc9, 0x1b, 0x81, 0xbe, 0x10, 0x51, 0xac, 0x3c, 0x53, 0xde, 0x7e, 0x3e,
  0x2e, 0xd3, 0xa0, 0x3d, 0x33, 0x04, 0xc5, 0x3d, 0x2f, 0x79, 0x24, 0x3e,
  0xbc, 0x73, 0xa5, 0x3d, 0xc0, 0xda, 0x82, 0xbc, 0xbb, 0x14, 0x5e, 0x3d,
  0x28, 0xa0, 0xcd, 0x3d, 0xed, 0x13, 0xcd, 0x3b, 0x90, 0xe3, 0xd8, 0x3d,
  0x1b, 0xc0, 0x41, 0xbe, 0xb4, 0x13, 0x53, 0x3e, 0x56, 0xbf, 0x92, 0x3e,
  0xe9, 0x90, 0x40, 0xbe, 0x7b, 0x7d, 0xf9, 0xbd, 0x00, 0x28, 0x74, 0x3e,
  0x56, 0x00, 0x45, 0xbd, 0x2c, 0xbd, 0x3f, 0x3d, 0xfb, 0x03, 0x73, 0x3e,
  0x68, 0x9e, 0xa8, 0x3d, 0x24, 0x96, 0xa8, 0x3e, 0xcb, 0x66, 0xbe, 0x3e,
  0xb0, 0xc0, 0x0e, 0xbe, 0x01, 0x08, 0x80, 0xbe, 0xae, 0xe2, 0x9e, 0x3e,
  0x23, 0x2c, 0x66, 0xbe, 0x90, 0x90, 0x9e, 0xbc, 0x08, 0x45, 0x5b, 0x3e,
  0x1a, 0x19, 0x30, 0xbe, 0x5e, 0xa7, 0x92, 0xbe, 0xc8, 0xe1, 0x46, 0x3e,
  0x37, 0x9d, 0x8d, 0xbe, 0x76, 0xd3, 0xbd, 0xbb, 0x2a, 0xa0, 0x50, 0xbe,
  0x27, 0x79, 0x93, 0xbe, 0x48, 0x63, 0x3e, 0xbe, 0xd6, 0x71, 0xab, 0x3c,
  0x42, 0xa7, 0xed, 0xbd, 0x0f, 0xc8, 0xb3, 0x3d, 0xdc, 0x91, 0x63, 0x3e,
  0xac, 0x9b, 0x9f, 0xbd, 0x58, 0x08, 0x31, 0x3e, 0x6e, 0x3a, 0xc1, 0x3c,
  0x6e, 0x33, 0xd6, 0xbd, 0x46, 0xb7, 0x59, 0x3e, 0x88, 0xcd, 0x9d, 0x3e,
  0x7b, 0x26, 0xa0, 0x3e, 0x24, 0xe1, 0x12, 0xbb, 0xca, 0x7f, 0x7f, 0xbe,
  0x8f, 0x33, 0x8e, 0x3d, 0x15, 0xd6, 0x59, 0x3e, 0xf2, 0x6e, 0xee, 0x3d,
  0x20, 0x67, 0x99, 0xbe, 0xc8, 0x98, 0xd3, 0x3d, 0x58, 0xf6, 0xc5, 0xbd,
  0xa0, 0x52, 0x8c, 0xbe, 0x3a, 0x62, 0x0b, 0xbe, 0xfe, 0x4b, 0x00, 0xbe,
  0xac, 0x34, 0xa0, 0xbe, 0x36, 0x4c, 0x29, 0x3e, 0xa6, 0xce, 0x8a, 0x3b,
  0x52, 0xf5, 0x48, 0xbe, 0x7f, 0x10, 0xd8, 0x3d, 0x5b, 0x89, 0x8b, 0xbe,
  0x74, 0x9a, 0x9c, 0xbe, 0x80, 0x99, 0x29, 0x3d, 0x74, 0x5e, 0x85, 0x3e,
  0x2a, 0x61, 0x1d, 0xbe, 0x3e, 0x9f, 0xc5, 0xbd, 0x45, 0x48, 0x81, 0x3e,
  0x0a, 0xd6, 0xff, 0xbd, 0xeb, 0x9a, 0x06, 0x3e, 0x4b, 0x18, 0x28, 0x3e,
  0xb8, 0xb2, 0x2a, 0x3e, 0xb7, 0x32, 0x2e, 0xbe, 0xf1, 0x13, 0xa0, 0xbe,
  0x89, 0x6c, 0x31, 0xbd, 0x76, 0x22, 0x97, 0xbe, 0x8b, 0xd7, 0x35, 0xbe,
  0x23, 0x06, 0xc7, 0x3e, 0x07, 0x9e, 0x0c, 0xbe, 0xb5, 0x02, 0xf8, 0xbd,
  0xaf, 0x42, 0x4f, 0x3d, 0x68, 0x82, 0x52, 0x3e, 0x4d, 0x65, 0x03, 0xbd,
  0x88, 0x44, 0x0f, 0x3d, 0x20, 0x68, 0x2b, 0x3e, 0x4a, 0x8a, 0x01, 0xbe,
  0xc6, 0xcc, 0x9d, 0x3e, 0x40, 0xd1, 0x55, 0x3e, 0x54, 0x9c, 0x9a, 0x3d,
  0xee, 0x4f, 0x42, 0xbd, 0xb0, 0x64, 0x84, 0x3e, 0xf6, 0x12, 0x87, 0xbe,
  0x8a, 0x3f, 0x18, 0x3e, 0x47, 0x75, 0x4e, 0xbe, 0x9d, 0x1e, 0x00, 0xbe,
  0x50, 0xd0, 0xa8, 0x3d, 0xd8, 0x3d, 0x08, 0xbc, 0xb0, 0x6e, 0x36, 0xbd,
  0x15, 0x97, 0x86, 0x3d, 0x91, 0x56, 0x0d, 0x3e, 0x70, 0xb0, 0x4f, 0xbe,
  0x18, 0xde, 0x29, 0xbe, 0xc0, 0xd4, 0xb2, 0x3e, 0x50, 0x20, 0x93, 0x3e,
  0x32, 0x41, 0xc4, 0x3e, 0x4f, 0xbd, 0x7f, 0xbe, 0x7a, 0x2c, 0x55, 0xbe,
  0x94, 0xca, 0x15, 0xbe, 0x51, 0x84, 0x16, 0x3e, 0x02, 0x73, 0xee, 0x3c,
  0x3f, 0xb8, 0x8e, 0x3d, 0xd1, 0x0a, 0x5b, 0xbe, 0xa0, 0x2e, 0x10, 0x3e,
  0xa2, 0x87, 0xf8, 0xbd, 0xa8, 0xfc, 0x4d, 0x3e, 0x36, 0x32, 0x8a, 0x3e,
  0x80, 0x06, 0x33, 0x3e, 0x7c, 0x5d, 0xd2, 0x3d, 0xa1, 0x2e, 0xc9, 0xbc,
  0x8a, 0x99, 0x62, 0xbe, 0x13, 0x77, 0x8e, 0x3d, 0x43, 0x21, 0x8b, 0xbe,
  0x98, 0x82, 0x13, 0xbe, 0x01, 0xbb, 0x2c, 0xbe, 0x16, 0x58, 0x33, 0xbe,
  0x00, 0x21, 0xb5, 0xbd, 0x67, 0xc2, 0x27, 0x3e, 0x2a, 0xb3, 0x98, 0x3d,
  0x9f, 0x3f, 0x12, 0xbd, 0x50, 0x51, 0x6d, 0x3e, 0x33, 0x1d, 0x98, 0xbe,
  0x54, 0xc6, 0xc1, 0x3d, 0x04, 0xf7, 0x62, 0x3c, 0xdc, 0x4f, 0xa7, 0x3e,
  0x75, 0x5b, 0x6a, 0x3e, 0x80, 0x16, 0xa4, 0xbe, 0x44, 0x71, 0x28, 0x3e,
  0xbb, 0x8b, 0x50, 0x3b, 0x1d, 0xb9, 0x2a, 0x3e, 0x86, 0x8a, 0xd7, 0xbc,
  0xcd, 0x75, 0x5e, 0x3e, 0x2c, 0x3a, 0xfd, 0x3d, 0xd8, 0x92, 0x85, 0xbd,
  0xb8, 0x90, 0x92, 0xbd, 0x46, 0x76, 0x92, 0x3e, 0x7a, 0xb0, 0x89, 0xbe,
  0xa8, 0x7b, 0x1c, 0x3e, 0x46, 0xd3, 0x88, 0xbe, 0x01, 0xc7, 0x1d, 0xbe,
  0xce, 0x6e, 0xf4, 0xbd, 0x96, 0x44, 0x12, 0xbe, 0xc4, 0xcf, 0xba, 0xbd,
  0xba, 0xd4, 0x28, 0xbe, 0x8b, 0x54, 0x49, 0xbe, 0xe2, 0x96, 0x58, 0xbe,
  0x1c, 0xc0, 0x9c, 0x3e, 0xe7, 0x78, 0xb6, 0xbd, 0xa1, 0x9c, 0x62, 0xbe,
  0xae, 0x44, 0xaf, 0xbd, 0x16, 0x0b, 0xb7, 0x3e, 0x70, 0x15, 0xb9, 0xbd,
  0xbf, 0x94, 0x8e, 0xbe, 0xd7, 0x9f, 0x97, 0xbd, 0xd8, 0x3d, 0xb1, 0x3d,
  0xd6, 0x2d, 0x86, 0x3d, 0x32, 0xe4, 0x72, 0xbe, 0x37, 0xf6, 0x48, 0xbe,
  0x28, 0x49, 0xcf, 0xbd, 0x9d, 0x09, 0x9e, 0x3e, 0xec, 0x77, 0xb0, 0x3e,
  0xde, 0x3b, 0xc0, 0x3e, 0xc4, 0xc6, 0xad, 0x3d, 0x73, 0x05, 0x85, 0xbe,
  0xab, 0xff, 0x3f, 0xbe, 0x76, 0x01, 0x99, 0xbe, 0x56, 0xfd, 0x9f, 0xbe,
  0x42, 0xa6, 0x25, 0x3e, 0x38, 0x7a, 0x0f, 0x3e, 0x74, 0x71, 0x23, 0x3e,
  0x22, 0x1c, 0x8d, 0x3e, 0x74, 0x69, 0xaa, 0x3e, 0x6d, 0xfc, 0x30, 0xbe,
  0x14, 0xa8, 0x6a, 0x3e, 0xa6, 0x5d, 0x03, 0xbe, 0x46, 0x66, 0x56, 0xbd,
  0x88, 0xc7, 0x12, 0x3e, 0x04, 0x27, 0x72, 0x3e, 0x17, 0x3d, 0x83, 0xbe,
  0x8e, 0xf1, 0x4f, 0x3d, 0xd0, 0x3e, 0xa0, 0x3e, 0x55, 0x7d, 0xa1, 0xbc,
  0xec, 0x93, 0x9e, 0xbd, 0xe1, 0x6c, 0x32, 0xbe, 0xea, 0x9f, 0x87, 0x3e,
  0x87, 0xe4, 0x31, 0xbe, 0xc8, 0xea, 0x51, 0x3d, 0x9d, 0xac, 0x5f, 0xbe,
  0xcf, 0x53, 0x65, 0xbc, 0xb6, 0x61, 0x97, 0x3e, 0xcf, 0x3e, 0x03, 0x3e,
  0xed, 0x59, 0xd2, 0x3e, 0xbb, 0x29, 0x7c, 0xbe, 0x4e, 0x1f, 0x6b, 0x3e,
  0xb0, 0x0c, 0x73, 0x3e, 0x58, 0xb3, 0x62, 0xbd, 0x10, 0xd6, 0x31, 0x3d,
  0xfe, 0xfe, 0x83, 0xbe, 0xaa, 0x55, 0x16, 0x3e, 0x92, 0x77, 0xa4, 0xbe,
  0x37, 0x75, 0x5f, 0x3e, 0x67, 0x68, 0x04, 0xbe, 0xf3, 0x0b, 0xef, 0xbd,
  0x98, 0x5b, 0x90, 0x3e, 0xfc, 0x9f, 0xfa, 0x3d, 0x19, 0x1c, 0x8d, 0x3e,
  0x11, 0xdc, 0x12, 0xbe, 0xb9, 0x0f, 0x48, 0xbe, 0x66, 0xff, 0x63, 0x3e,
  0xb4, 0x00, 0xba, 0x3e, 0x7c, 0xd8, 0x23, 0xbd, 0xd9, 0xbd, 0x1b, 0x3e,
  0xa0, 0x18, 0xf8, 0x3c, 0x02, 0xc6, 0x87, 0x3e, 0x2b, 0xc8, 0x98, 0xbe,
  0xfd, 0x83, 0xb4, 0xbd, 0xaf, 0x34, 0x1b, 0x3e, 0xca, 0xd9, 0x36, 0xbe,
  0xc6, 0x42, 0xea, 0x3c, 0x52, 0x78, 0x2a, 0x3e, 0x01, 0xd6, 0x2c, 0x3e,
  0xbf, 0xa9, 0x07, 0x3d, 0xa4, 0xc9, 0x4c, 0x3e, 0x44, 0x66, 0x74, 0xbe,
  0x0c, 0x22, 0x56, 0x3e, 0xa2, 0xc9, 0xd4, 0xbd, 0x58, 0xeb, 0xdb, 0x3d,
  0xf8, 0x5f, 0x65, 0x3d, 0xf1, 0x84, 0x89, 0xbe, 0xf2, 0x0d, 0x56, 0xbc,
  0x7f, 0x22, 0x39, 0x3e, 0x8c, 0x50, 0x87, 0xbd, 0x6c, 0x07, 0x26, 0x3e,
  0xc8, 0xd9, 0x41, 0x3e, 0x05, 0x8b, 0x26, 0xbe, 0x16, 0x33, 0xdf, 0xbc,
  0x45, 0xa6, 0x9c, 0xbe, 0xaa, 0x0f, 0x46, 0x3e, 0x0d, 0x04, 0x44, 0xbd,
  0x89, 0xec, 0x4c, 0xbe, 0x1e, 0xba, 0xb8, 0x3e, 0x6b, 0x7e, 0x83, 0x3e,
  0x68, 0xcf, 0xfe, 0x3d, 0xf3, 0xcb, 0x6c, 0xbe, 0xcc, 0x15, 0x94, 0x3d,
  0x74, 0x95, 0x63, 0x3d, 0x23, 0x81, 0x00, 0x3e, 0xf1, 0xf7, 0x9e, 0x3e,
  0x5d, 0x69, 0x60, 0x3e, 0x86, 0xcb, 0x01, 0xbe, 0x8e, 0x59, 0xc7, 0x3d,
  0x4d, 0xc0, 0xa3, 0x3d, 0x1e, 0x93, 0x02, 0x3e, 0x85, 0x53, 0x8e, 0xbe,
  0x24, 0xe1, 0x79, 0xbe, 0x08, 0x0b, 0x94, 0xbd, 0x28, 0x05, 0x21, 0xbd,
  0x34, 0x5e, 0xe9, 0x3d, 0x20, 0xbb, 0x3b, 0xbd, 0xd4, 0x73, 0x9a, 0xbc,
  0x0f, 0xb9, 0x49, 0x3d, 0xde, 0xe2, 0x45, 0xbe, 0xb5, 0x79, 0x2f, 0xbd,
  0x88, 0xaf, 0x75, 0xbe, 0x58, 0x44, 0x8e, 0xbe, 0x61, 0xd8, 0xa6, 0x3d,
  0x94, 0x27, 0x3a, 0x3e, 0x8c, 0x99, 0xea, 0xbd, 0x2f, 0xb5, 0xd8, 0x3c,
  0xcf, 0x90, 0x10, 0x3e, 0xdd, 0xef, 0x9b, 0xbc, 0xd3, 0xd3, 0xeb, 0xbd,
  0x68, 0x66, 0x47, 0x3e, 0x23, 0xc0, 0x22, 0xbe, 0x3c, 0x18, 0x0c, 0x3e,
  0x89, 0xe6, 0x9f, 0x3e, 0x00, 0xf4, 0xf1, 0x3c, 0x5d, 0x37, 0x90, 0xbe,
  0xcd, 0x42, 0x36, 0x3d, 0xbd, 0xf0, 0x86, 0xbe, 0xbf, 0xb5, 0x9c, 0x3e,
  0xe6, 0x73, 0x3b, 0x3e, 0xe8, 0x1d, 0x12, 0xbd, 0x6c, 0xa0, 0xdc, 0x3d,
  0x30, 0xf0, 0xe9, 0xbc, 0xf8, 0x71, 0xa8, 0x3e, 0x78, 0x3f, 0x4d, 0xbe,
  0x30, 0x4c, 0x2d, 0x3d, 0xf0, 0x7b, 0x47, 0x3e, 0xc5, 0x0a, 0x77, 0xbe,
  0x4e, 0xd4, 0x68, 0x3e, 0x59, 0x44, 0xf3, 0xbd, 0x31, 0xec, 0x35, 0xbc,
  0xc0, 0xb5, 0xbb, 0x3b, 0x60, 0x21, 0x99, 0x3c, 0x07, 0xdb, 0x2b, 0xbd,
  0xfe, 0x21, 0x88, 0x3e, 0xbc, 0x3d, 0x4d, 0x3e, 0x68, 0xc5, 0x83, 0xbe,
  0xba, 0x77, 0x60, 0x3e, 0x6b, 0xd1, 0x82, 0x3e, 0x95, 0x0e, 0xf7, 0xbd,
  0x48, 0xb4, 0x7a, 0x3e, 0x45, 0xee, 0x2d, 0xbc, 0xc0, 0xf5, 0xe4, 0x3c,
  0xf8, 0xba, 0xaf, 0x3d, 0x83, 0x42, 0x8e, 0xbe, 0xff, 0xa4, 0x37, 0x3e,
  0x61, 0x74, 0x86, 0x3e, 0x9e, 0x15, 0x6e, 0x3e, 0x7b, 0xc1, 0xf7, 0x3d,
  0xdb, 0x90, 0x40, 0xbe, 0x34, 0x67, 0xae, 0x3d, 0xc8, 0xa0, 0x24, 0x3e,
  0xbe, 0xb1, 0x8f, 0x3e, 0x74, 0xa3, 0xef, 0x3d, 0x00, 0x00, 0x00, 0x00,
  0x00, 0x00, 0x00, 0x00, 0x00, 0x00, 0x00, 0x00, 0x36, 0xe8, 0xff, 0xff,
  0x04, 0x00, 0x00, 0x00, 0xb0, 0x04, 0x00, 0x00, 0xf2, 0xde, 0x62, 0xbe,
  0x1e, 0x74, 0x9c, 0xbe, 0xf0, 0xa8, 0xa8, 0xbe, 0xc4, 0x67, 0xf5, 0xbd,
  0x03, 0xb1, 0x8e, 0xbe, 0x9e, 0x7c, 0x28, 0xbe, 0x40, 0xe9, 0xd2, 0x3b,
  0x18, 0x2c, 0x92, 0x3d, 0xaf, 0x24, 0xb2, 0xbe, 0x60, 0x44, 0x03, 0x3e,
  0xe7, 0xe4, 0x3a, 0xbe, 0x00, 0x7b, 0x98, 0xbc, 0x72, 0xbf, 0x4f, 0xbe,
  0x4a, 0x3b, 0x74, 0xbe, 0x1d, 0x60, 0x36, 0xbe, 0x98, 0x46, 0x4c, 0x3e,
  0x84, 0x59, 0x61, 0xbe, 0x34, 0x90, 0xee, 0xbd, 0x2b, 0x4c, 0x70, 0xbe,
  0x4c, 0xf2, 0x3c, 0x3e, 0xa3, 0xdd, 0x28, 0xbe, 0x6e, 0x1c, 0x2a, 0xbe,
  0xdc, 0x8f, 0x44, 0xbe, 0x28, 0x49, 0x8d, 0x3d, 0x36, 0x91, 0x90, 0x3e,
  0x85, 0x4a, 0xa4, 0xbe, 0x82, 0x95, 0x52, 0xbe, 0x00, 0x11, 0x8d, 0xbd,
  0x10, 0x7e, 0xb5, 0x3c, 0xcc, 0xe4, 0x44, 0xbe, 0x97, 0xed, 0x4a, 0xbe,
  0xa6, 0x85, 0xa6, 0xbe, 0x70, 0xb3, 0x0c, 0x3e, 0xa4, 0xd0, 0x59, 0x3d,
  0x28, 0x28, 0x5d, 0x3e, 0xec, 0x9a, 0xb3, 0xbe, 0x14, 0x5b, 0x6a, 0x3e,
  0xa6, 0x5f, 0xad, 0xbe, 0x1f, 0xe8, 0xaf, 0xbc, 0x39, 0xd5, 0x88, 0xbe,
  0xec, 0x0a, 0x74, 0xbd, 0xe0, 0x12, 0x8b, 0xbc, 0x45, 0x05, 0x77, 0x3e,
  0x6f, 0x65, 0x23, 0x3e, 0x07, 0x04, 0xf6, 0xbe, 0xd0, 0x15, 0x6b, 0x3e,
  0x3d, 0x9f, 0x8e, 0x3e, 0xc1, 0xee, 0x8d, 0x3e, 0x99, 0xbc, 0x44, 0xbe,
  0x2a, 0xd7, 0xd4, 0xbe, 0x74, 0xd2, 0x7d, 0x3e, 0x68, 0xb3, 0xeb, 0xbd,
  0x63, 0x23, 0xa6, 0xbe, 0xce, 0xc0, 0xa7, 0xbd, 0xe9, 0x4e, 0xb4, 0x3d,
  0x69, 0x88, 0x05, 0x3e, 0xe3, 0xac, 0xb6, 0xbe, 0x60, 0xc2, 0xda, 0x3d,
  0xa3, 0x1c, 0x8c, 0x3e, 0x71, 0xc7, 0x18, 0xbe, 0x21, 0x93, 0xcb, 0xbe,
  0x30, 0x9c, 0x7c, 0xbd, 0x28, 0xc7, 0xa2, 0x3e, 0x23, 0xd6, 0x9d, 0x3e,
  0xff, 0xda, 0xae, 0xbe, 0xf1, 0xd2, 0x0b, 0xbe, 0x59, 0xa5, 0x20, 0x3e,
  0xbb, 0xf8, 0xe3, 0xbd, 0xe2, 0xa2, 0x60, 0x3e, 0x54, 0xf8, 0xb8, 0xbe,
  0xbc, 0x84, 0x9e, 0xbe, 0xbd, 0xa8, 0x1b, 0xbe, 0x24, 0xc2, 0xb4, 0xbe,
  0x28, 0x21, 0x97, 0xbe, 0xd0, 0x4c, 0xe1, 0x3d, 0x3a, 0xc8, 0x2b, 0xbe,
  0x94, 0xf0, 0x8c, 0x3e, 0x13, 0x56, 0x81, 0xbe, 0x74, 0x74, 0xc0, 0xbe,
  0x7a, 0x37, 0x92, 0xbe, 0x7a, 0x3b, 0x9f, 0xbe, 0x39, 0x2b, 0xaa, 0xbe,
  0x66, 0x87, 0x1f, 0xbe, 0x7c, 0x50, 0x85, 0xbd, 0x3e, 0xeb, 0x92, 0xbe,
  0xec, 0xb8, 0x3b, 0x3e, 0xc8, 0xa0, 0x86, 0x3e, 0xf0, 0xc8, 0x27, 0xbe,
  0xca, 0x52, 0xa8, 0xbe, 0x40, 0x6e, 0x7e, 0xbc, 0x63, 0xf9, 0x96, 0x3e,
  0x0b, 0x86, 0x97, 0xbd, 0x9f, 0xa3, 0xd1, 0x3d, 0xc3, 0x9c, 0xad, 0xbe,
  0x03, 0x45, 0x9c, 0x3e, 0xef, 0x03, 0x14, 0x3e, 0x1c, 0x54, 0xe2, 0xbc,
  0xf7, 0xad, 0x1f, 0x3e, 0x59, 0xf3, 0x99, 0x3e, 0x97, 0x9c, 0x83, 0x3d,
  0xc9, 0x79, 0x4a, 0xbe, 0xd0, 0x3e, 0x06, 0xbd, 0x40, 0xe2, 0xb3, 0xbd,
  0x50, 0xb5, 0x00, 0x3e, 0xa4, 0xb5, 0xa9, 0xbe, 0xb0, 0xd8, 0x37, 0xbe,
  0x7f, 0xdc, 0x2d, 0xbe, 0x8a, 0x5c, 0x05, 0xbe, 0x58, 0xc7, 0x13, 0x3e,
  0xc8, 0x10, 0x91, 0xbe, 0xe0, 0x52, 0x43, 0x3d, 0x78, 0xf1, 0xee, 0xbd,
  0x15, 0x29, 0xc6, 0xbd, 0x11, 0x66, 0x97, 0x3d, 0x18, 0xfc, 0xff, 0xbd,
  0xbe, 0x47, 0xbe, 0x3e, 0x5e, 0xfd, 0x8e, 0x3e, 0x20, 0xfe, 0x24, 0xbd,
  0x68, 0xe2, 0xbe, 0xbe, 0x0b, 0x33, 0x5f, 0x3e, 0x83, 0xd0, 0x90, 0xbe,
  0x3d, 0xde, 0x05, 0xbe, 0xe7, 0x46, 0x99, 0x3e, 0x4e, 0x5c, 0xe4, 0x3e,
  0x17, 0x84, 0x83, 0x3e, 0x00, 0xe2, 0xee, 0x3d, 0xd9, 0x7f, 0xa2, 0x3e,
  0x9d, 0x9c, 0x62, 0x3c, 0x82, 0x39, 0x13, 0x3d, 0x3d, 0x55, 0x8a, 0x3c,
  0x2a, 0x7e, 0x8b, 0xbe, 0x94, 0xc4, 0x88, 0xbd, 0x96, 0x5d, 0x24, 0xbe,
  0x17, 0x47, 0xc7, 0x3e, 0x12, 0x21, 0xbf, 0xbd, 0x11, 0xc5, 0x5f, 0x3e,
  0xc7, 0x14, 0x29, 0x3e, 0x54, 0x8f, 0xe9, 0xbd, 0xf6, 0x00, 0x44, 0xbe,
  0x27, 0xcf, 0x6c, 0xbe, 0x3f, 0xa7, 0x3f, 0xbe, 0x67, 0x51, 0x20, 0xbe,
  0xf5, 0x94, 0xc3, 0x3e, 0x23, 0x8e, 0xb7, 0x3e, 0xef, 0x5b, 0x52, 0xbe,
  0xb0, 0xad, 0xbb, 0x3e, 0x2b, 0x80, 0x95, 0x3e, 0xf4, 0xf1, 0x93, 0x3e,
  0xce, 0x5b, 0x99, 0xbe, 0x17, 0x49, 0xd7, 0x3d, 0xb4, 0xaa, 0x69, 0xbe,
  0xa9, 0x10, 0x22, 0x3d, 0x61, 0x50, 0x4d, 0xbe, 0x9a, 0x06, 0xa6, 0xbe,
  0x49, 0xad, 0xab, 0xbe, 0x24, 0x1a, 0x52, 0x3e, 0x84, 0xd2, 0x80, 0xbe,
  0x7e, 0x5d, 0x8a, 0x3e, 0xb4, 0x20, 0x1b, 0x3e, 0x20, 0x65, 0xd0, 0x3d,
  0xb8, 0xc4, 0x2c, 0xbe, 0x18, 0xaa, 0x0a, 0x3e, 0x45, 0xee, 0x7f, 0xbe,
  0xd8, 0x74, 0x93, 0xbe, 0xc0, 0xce, 0x00, 0x3e, 0x74, 0x7e, 0xae, 0x3d,
  0x08, 0x1f, 0xfe, 0xbd, 0xf1, 0x46, 0xc5, 0xbe, 0x00, 0x92, 0x67, 0xbd,
  0xc0, 0x94, 0xb8, 0x3c, 0x24, 0x31, 0x76, 0xbe, 0x0b, 0x1c, 0x95, 0x3e,
  0xeb, 0x39, 0x7a, 0x3e, 0xa0, 0x83, 0xd5, 0x3e, 0x2c, 0xda, 0x10, 0xbd,
  0xe1, 0xd7, 0xdc, 0x3d, 0x6c, 0x07, 0xc5, 0x3e, 0x2e, 0x98, 0xb4, 0xbc,
  0x36, 0x9e, 0xf4, 0xbc, 0x04, 0x71, 0x47, 0x3d, 0xd0, 0xd5, 0xed, 0x3c,
  0xaa, 0x4c, 0xaa, 0x3e, 0xb8, 0x76, 0x87, 0xbe, 0xd8, 0xb8, 0x0f, 0xbd,
  0x7c, 0x60, 0x2d, 0x3e, 0x10, 0xc1, 0x03, 0xbe, 0x80, 0xe4, 0x75, 0x3b,
  0xc0, 0xef, 0x67, 0xbd, 0x40, 0xfe, 0x9d, 0xbd, 0xc4, 0x79, 0x74, 0xbe,
  0x93, 0x77, 0xeb, 0xbd, 0x69, 0xd4, 0x3f, 0xbe, 0x48, 0x1d, 0xf5, 0x3d,
  0x5e, 0xd3, 0x63, 0x3e, 0xbe, 0x62, 0x29, 0x3e, 0x86, 0x26, 0x97, 0x3e,
  0x5e, 0x05, 0x34, 0x3d, 0x03, 0x77, 0xcd, 0x3e, 0x48, 0x68, 0x9d, 0xbd,
  0x78, 0xc1, 0x1f, 0xbd, 0xd8, 0x26, 0x5a, 0xbe, 0xa0, 0x42, 0x4e, 0xbd,
  0x0b, 0x02, 0x14, 0x3e, 0x0d, 0x1b, 0x86, 0x3e, 0xcd, 0xd6, 0x3b, 0xbe,
  0xbd, 0x0c, 0x8b, 0xbe, 0xe7, 0x80, 0xaf, 0x3e, 0x7b, 0xc7, 0x9d, 0xbe,
  0xf2, 0x5e, 0xb3, 0x3d, 0xa4, 0xe9, 0xbf, 0xbe, 0xda, 0x1c, 0x13, 0xbe,
  0xd0, 0x98, 0x1b, 0x3e, 0x63, 0x4a, 0x08, 0x3e, 0x24, 0xdc, 0x0e, 0x3c,
  0x49, 0xc4, 0x2a, 0xbe, 0xbe, 0x02, 0x4a, 0x3e, 0x9b, 0x84, 0x61, 0x3e,
  0xe3, 0x88, 0x85, 0xbe, 0xf3, 0xb8, 0x95, 0x3e, 0x95, 0x7a, 0x06, 0xbe,
  0x02, 0x2e, 0x12, 0xbe, 0xf2, 0x67, 0x57, 0xbe, 0x6e, 0x07, 0x98, 0xbe,
  0x81, 0x13, 0xf2, 0x3e, 0x40, 0x2b, 0x80, 0xbe, 0xf2, 0x5b, 0x1f, 0xbd,
  0x61, 0x76, 0x42, 0x3e, 0xe2, 0x61, 0xdb, 0x3e, 0x29, 0x7d, 0x10, 0x3e,
  0xba, 0xd7, 0x49, 0x3e, 0xc3, 0x33, 0xfa, 0x3d, 0x7b, 0x62, 0x3c, 0xbb,
  0x69, 0x01, 0x74, 0xbe, 0x68, 0x50, 0x80, 0x3e, 0xf1, 0x10, 0x88, 0x3e,
  0xbc, 0x6b, 0xad, 0xbc, 0x51, 0x58, 0x53, 0xbe, 0x6b, 0xfe, 0x3d, 0x3d,
  0xf0, 0x35, 0x99, 0x3e, 0x18, 0xea, 0x21, 0xbe, 0xae, 0xf6, 0xb0, 0x3d,
  0x98, 0x16, 0x81, 0x3d, 0x9d, 0xc1, 0x9c, 0xbe, 0xd8, 0x42, 0xbf, 0x3e,
  0x03, 0xcf, 0xb0, 0xbe, 0x33, 0xbc, 0x52, 0xbe, 0x46, 0x42, 0xd3, 0x3d,
  0xe8, 0x6a, 0x66, 0x3e, 0xf0, 0x16, 0x4f, 0xbe, 0x5d, 0x52, 0xb8, 0x3e,
  0xea, 0x69, 0xe7, 0x3e, 0x9c, 0x72, 0x00, 0xbe, 0x8b, 0x8b, 0xb8, 0xbd,
  0xdf, 0x6c, 0x94, 0x3e, 0xd7, 0xa7, 0x83, 0xbe, 0xe3, 0x4f, 0xd0, 0x3a,
  0x69, 0x6e, 0x91, 0x3e, 0x1f, 0x20, 0x76, 0xbd, 0x65, 0xc1, 0xc4, 0xbd,
  0xc9, 0xfb, 0xa3, 0x3e, 0xf9, 0x46, 0x72, 0xbe, 0xe8, 0x10, 0x42, 0x3e,
  0x70, 0xfa, 0x94, 0xbd, 0x64, 0xe4, 0xa0, 0xbe, 0x94, 0x05, 0x4c, 0xbe,
  0x1c, 0xdb, 0x72, 0x3e, 0x7a, 0xae, 0xb2, 0xbe, 0x34, 0x87, 0x35, 0xbe,
  0x00, 0x0c, 0xb5, 0xbb, 0xac, 0xba, 0xa1, 0xbd, 0x87, 0xc4, 0x73, 0xbe,
  0x3e, 0xf9, 0xbc, 0xbe, 0xa6, 0x6a, 0x9b, 0xbe, 0x07, 0xb5, 0x24, 0xbe,
  0x41, 0xa7, 0xbe, 0x3e, 0xf6, 0x3d, 0xa4, 0xbd, 0x50, 0x76, 0xb0, 0xbc,
  0xdd, 0x1a, 0x55, 0x3e, 0xb1, 0x05, 0x88, 0xbe, 0x12, 0xe7, 0x75, 0xbe,
  0x2a, 0x13, 0x70, 0xbe, 0x30, 0x67, 0x48, 0x3e, 0x2a, 0xe4, 0x92, 0x3e,
  0x09, 0x12, 0x10, 0xbe, 0xfb, 0x85, 0x60, 0xbe, 0xc0, 0x9f, 0x64, 0xbe,
  0x78, 0xcc, 0xca, 0xbd, 0x08, 0xf9, 0x0b, 0xbd, 0x6d, 0x1d, 0x9f, 0xbe,
  0x44, 0x2a, 0xb5, 0x3e, 0x2b, 0x60, 0xba, 0xbe, 0xd0, 0x16, 0xd8, 0xbc,
  0xb4, 0xb3, 0x0a, 0x3e, 0x88, 0xd5, 0x54, 0x3d, 0x08, 0xd5, 0x13, 0x3e,
  0xac, 0x60, 0x9e, 0xbd, 0x18, 0xe3, 0xa5, 0xbe, 0x10, 0x4a, 0xf6, 0xbc,
  0x8a, 0x35, 0x1a, 0xbe, 0x6e, 0x99, 0x90, 0xbe, 0x00, 0x00, 0x00, 0x00,
  0xf6, 0xec, 0xff, 0xff, 0x04, 0x00, 0x00, 0x00, 0x50, 0x00, 0x00, 0x00,
  0x19, 0x66, 0x01, 0x3e, 0x3a, 0xe2, 0x9e, 0x3e, 0x01, 0x77, 0x03, 0xbf,
  0x46, 0x5e, 0xf5, 0x3d, 0x4c, 0xc4, 0x08, 0x3f, 0x8a, 0xb5, 0xdf, 0xbe,
  0x40, 0x32, 0x1a, 0x3f, 0x9e, 0xd3, 0x27, 0x3e, 0xc3, 0xde, 0xe4, 0x3e,
  0x6f, 0x52, 0x87, 0xbd, 0x1f, 0x25, 0xf1, 0xbc, 0x3e, 0x0d, 0x4d, 0x3e,
  0x45, 0x57, 0x8c, 0x3d, 0xca, 0x21, 0xad, 0x3e, 0x33, 0x6e, 0x9e, 0x3e,
  0xee, 0xf5, 0xe2, 0x3e, 0xe3, 0x24, 0x2b, 0x3f, 0x9a, 0x62, 0xa0, 0xbc,
  0x3a, 0x0c, 0x6a, 0xbe, 0x83, 0xfd, 0x1f, 0x3e, 0x00, 0x00, 0x00, 0x00,
  0x56, 0xed, 0xff, 0xff, 0x04, 0x00, 0x00, 0x00, 0x50, 0x00, 0x00, 0x00,
  0x97, 0xf1, 0x8c, 0xbe, 0x61, 0x0a, 0xc8, 0x3e, 0xb3, 0xa9, 0xa5, 0xbe,
  0x6a, 0x30, 0x0b, 0xbe, 0x10, 0x15, 0x55, 0x3d, 0x34, 0x68, 0x37, 0x3e,
  0xb8, 0x98, 0xcb, 0x3e, 0x30, 0x52, 0x77, 0xbd, 0x7e, 0xd4, 0x59, 0x3e,
  0x0a, 0x93, 0x1e, 0x3e, 0x5d, 0x3a, 0xaf, 0x3d, 0xa3, 0xb6, 0x30, 0xbe,
  0x76, 0x3f, 0xec, 0x3e, 0x99, 0xf4, 0x71, 0x3e, 0x0b, 0x37, 0x28, 0x3f,
  0x19, 0x92, 0x0e, 0x3f, 0xea, 0x82, 0x47, 0xbe, 0xbe, 0x1b, 0xa2, 0x3e,
  0x63, 0x55, 0x34, 0x3f, 0x64, 0xd6, 0xa7, 0xbe, 0x00, 0x00, 0x00, 0x00,
  0xb6, 0xed, 0xff, 0xff, 0x04, 0x00, 0x00, 0x00, 0xb0, 0x04, 0x00, 0x00,
  0x22, 0x0b, 0xf0, 0x3c, 0x73, 0x1b, 0xf0, 0xbc, 0xe2, 0x3d, 0xad, 0xbb,
  0x55, 0x12, 0x47, 0x3d, 0xc0, 0x38, 0xf6, 0xbd, 0xed, 0xa5, 0x2b, 0x3d,
  0x91, 0xdf, 0xa4, 0xbd, 0x41, 0xc3, 0x7c, 0xbd, 0x3a, 0xac, 0x21, 0xbd,
  0x38, 0xb1, 0xa4, 0x3e, 0xda, 0x85, 0x94, 0x3e, 0xe5, 0x59, 0x85, 0xbe,
  0x57, 0x2c, 0xfd, 0x3c, 0x28, 0x3f, 0x82, 0x3e, 0x82, 0xa8, 0x4b, 0x3e,
  0x8f, 0xce, 0x46, 0x3e, 0xa0, 0xd3, 0xb9, 0x3d, 0x0c, 0x35, 0x1a, 0x3e,
  0xcf, 0xaa, 0xaa, 0xbe, 0x1e, 0x23, 0x15, 0xbe, 0x3c, 0xd4, 0xb8, 0xbd,
  0x90, 0xa8, 0x63, 0x3d, 0xda, 0x67, 0xc9, 0xbe, 0x47, 0xf3, 0x15, 0x3e,
  0xf3, 0x7e, 0x41, 0x3d, 0x59, 0x08, 0x2f, 0xbe, 0x22, 0x1d, 0x8d, 0xbe,
  0x99, 0xeb, 0xc9, 0xbe, 0xdb, 0x2a, 0x6d, 0xbd, 0x69, 0xa8, 0xbb, 0xbe,
  0x2c, 0x70, 0xd5, 0xbc, 0x42, 0x11, 0x30, 0xbe, 0x79, 0x85, 0x04, 0x3f,
  0x8a, 0x2b, 0xa7, 0x3d, 0xc4, 0x0a, 0xc8, 0xbe, 0x1d, 0x86, 0x4c, 0xbd,
  0x95, 0x4a, 0x8b, 0xbe, 0xfd, 0xdb, 0x97, 0xbe, 0x50, 0x6c, 0x8f, 0x3d,
  0x8c, 0x6f, 0x2f, 0x3d, 0x19, 0x41, 0xf0, 0x3d, 0xfe, 0x97, 0x7c, 0x3d,
  0x64, 0x8a, 0x1f, 0xbd, 0xad, 0x65, 0x67, 0xbe, 0x75, 0x32, 0x53, 0x3e,
  0xf8, 0x45, 0x56, 0x3e, 0x59, 0x23, 0xe6, 0x3d, 0x93, 0x34, 0x2c, 0xbe,
  0x07, 0xd0, 0x9f, 0xbe, 0xbd, 0x5a, 0x39, 0x3e, 0x78, 0xfe, 0xc6, 0xbd,
  0x7a, 0xe7, 0x9c, 0x3e, 0x0e, 0x43, 0xdb, 0x3e, 0xd8, 0x8f, 0x85, 0xbe,
  0x50, 0x88, 0x11, 0xbe, 0x47, 0xb6, 0xa2, 0x3e, 0xc3, 0xed, 0xea, 0xbd,
  0x89, 0x39, 0xeb, 0xbe, 0xb9, 0x3a, 0x9e, 0x3e, 0x31, 0x3a, 0x3b, 0xbd,
  0x32, 0x37, 0x8e, 0xbe, 0xe2, 0x27, 0x94, 0x3e, 0x60, 0x6d, 0x46, 0xbe,
  0x48, 0x20, 0x8d, 0xbe, 0x24, 0x78, 0x16, 0x3e, 0x80, 0x98, 0x18, 0xbb,
  0xa8, 0x93, 0x20, 0x3e, 0xc4, 0xb2, 0xcb, 0xbd, 0x08, 0x97, 0x53, 0x3e,
  0xd8, 0xac, 0x50, 0xbd, 0x00, 0xb7, 0x34, 0x3e, 0xb4, 0xf1, 0x7e, 0xbe,
  0xe8, 0x1d, 0xb5, 0x3e, 0x88, 0x79, 0x7b, 0x3e, 0x80, 0x57, 0xa9, 0xbe,
  0xeb, 0xe3, 0x1f, 0xbe, 0x60, 0xfe, 0x22, 0x3d, 0x28, 0x10, 0x73, 0x3e,
  0x58, 0x07, 0x37, 0x3d, 0x4f, 0xf3, 0xbb, 0xbe, 0x40, 0xc9, 0xba, 0xbd,
  0xd3, 0x6e, 0xac, 0xbe, 0xac, 0x4c, 0x31, 0x3e, 0x68, 0x2b, 0xb3, 0xbe,
  0xf8, 0xfd, 0x9b, 0x3e, 0xe8, 0xa0, 0x28, 0x3e, 0x6c, 0x77, 0x9e, 0xbe,
  0x20, 0xd3, 0x9b, 0x3c, 0xe3, 0x94, 0x0f, 0xbe, 0xf2, 0x2b, 0xbb, 0xbe,
  0x3c, 0xfc, 0x38, 0x3e, 0x3b, 0x10, 0x67, 0x3e, 0xa2, 0x37, 0x97, 0xbe,
  0xa7, 0x50, 0xba, 0x3d, 0x8f, 0x22, 0x8f, 0x3e, 0x5d, 0xb2, 0x31, 0xbd,
  0xed, 0x0c, 0x65, 0xbe, 0x53, 0xc9, 0xa7, 0x3e, 0x87, 0xfe, 0xb5, 0xbe,
  0xd2, 0x78, 0xc4, 0x3e, 0xc1, 0x4e, 0x59, 0xbe, 0x3a, 0xe4, 0x4c, 0xbd,
  0xe7, 0x37, 0x5f, 0xbe, 0x5c, 0x80, 0xac, 0x3e, 0xdf, 0x98, 0x86, 0xbd,
  0x1c, 0xd0, 0xb3, 0xbe, 0xd7, 0x19, 0x7b, 0xbe, 0xc8, 0x02, 0xbd, 0x3e,
  0x27, 0x7a, 0x8b, 0x3e, 0x32, 0x26, 0x84, 0xbd, 0xbc, 0xc7, 0xb6, 0xbd,
  0xf0, 0x12, 0x5c, 0xbd, 0x63, 0xbf, 0xd2, 0x3d, 0xcf, 0x05, 0x00, 0x3d,
  0x99, 0xd8, 0x9b, 0x3d, 0xe9, 0x42, 0xf9, 0xbd, 0x89, 0xb7, 0xa1, 0xbe,
  0x8b, 0xc5, 0x35, 0x3e, 0xcc, 0x21, 0x27, 0xbe, 0x2c, 0x07, 0xa9, 0xbc,
  0x98, 0xff, 0xc9, 0xbd, 0x69, 0x9b, 0x51, 0xbe, 0xd8, 0x2f, 0xa4, 0xbe,
  0xec, 0x16, 0xc0, 0xbe, 0x6a, 0x09, 0x9a, 0x3e, 0xdb, 0xf5, 0x42, 0xbe,
  0x7d, 0x1c, 0x87, 0xbe, 0xca, 0x57, 0x80, 0xbe, 0xe8, 0x5c, 0x5a, 0x3d,
  0xe0, 0xd7, 0x23, 0x3e, 0x90, 0xff, 0xc3, 0x3e, 0x2c, 0xff, 0xaa, 0x3e,
  0x06, 0x21, 0x68, 0xbe, 0xd2, 0x20, 0x9e, 0xbe, 0xac, 0x2a, 0xc5, 0x3e,
  0xe2, 0x6b, 0x5a, 0xbe, 0xb2, 0x49, 0x93, 0xbe, 0x21, 0xc5, 0x97, 0xbe,
  0x90, 0x65, 0x7d, 0x3d, 0x80, 0x12, 0x97, 0x3e, 0x90, 0x11, 0xcc, 0xbd,
  0x83, 0x18, 0x3c, 0xbe, 0x1c, 0xda, 0xb0, 0x3d, 0x14, 0x5b, 0xc7, 0x3d,
  0x4c, 0xc5, 0xbb, 0x3d, 0xaf, 0xe0, 0xb9, 0xbe, 0x38, 0x11, 0x95, 0x3e,
  0xd0, 0x48, 0x63, 0x3d, 0x70, 0x2f, 0x53, 0xbe, 0x27, 0xfa, 0x80, 0xbe,
  0xd8, 0xcf, 0x1c, 0x3e, 0x66, 0x15, 0xbb, 0x3e, 0x30, 0x9e, 0x33, 0x3d,
  0xb4, 0xa0, 0xb2, 0xbd, 0x6c, 0xd9, 0xce, 0xbd, 0xe0, 0x95, 0xe8, 0xbc,
  0xdc, 0x08, 0x4f, 0x3e, 0x6e, 0xcb, 0x82, 0xbe, 0x34, 0xf4, 0xbb, 0xbd,
  0xd0, 0xb4, 0xa6, 0x3c, 0xe4, 0xce, 0x16, 0x3e, 0x37, 0xde, 0x9f, 0xbe,
  0x70, 0xc8, 0xb6, 0x3c, 0x8f, 0xe5, 0x9b, 0xbe, 0x4c, 0x48, 0x69, 0x3e,
  0x27, 0xd1, 0x74, 0xbe, 0x7a, 0xbc, 0x62, 0xbe, 0x0b, 0x78, 0xae, 0xbe,
  0xa9, 0xde, 0x2a, 0xbe, 0xa8, 0x8d, 0xe9, 0x3d, 0x16, 0xb2, 0x88, 0xbe,
  0x6a, 0x57, 0x9a, 0x3e, 0x0d, 0xc3, 0xa6, 0xbe, 0xa0, 0x9b, 0x2c, 0x3e,
  0x03, 0xa5, 0x95, 0xbe, 0x80, 0x82, 0x6d, 0x3b, 0x48, 0xff, 0x4c, 0x3e,
  0x04, 0x2b, 0x79, 0x3e, 0xa2, 0x27, 0x0b, 0xbe, 0xf1, 0xea, 0x95, 0xbe,
  0x10, 0xa9, 0x22, 0xbe, 0x76, 0x17, 0x22, 0xbd, 0xc2, 0xdf, 0xbb, 0x3d,
  0x17, 0xff, 0x54, 0x3e, 0x1a, 0x4b, 0x85, 0xbe, 0xf2, 0xd2, 0x8a, 0xbe,
  0xf5, 0xc8, 0x4a, 0x3e, 0x1e, 0x8f, 0x6c, 0xbe, 0xd2, 0x9b, 0xc9, 0xbe,
  0x5d, 0x86, 0xfe, 0xbb, 0x0e, 0x1d, 0x9e, 0xbe, 0xf7, 0xbf, 0x65, 0xbe,
  0xdb, 0x16, 0x8c, 0x3e, 0x05, 0xfd, 0xd7, 0xbd, 0x43, 0xf5, 0x60, 0xbe,
  0xe3, 0x72, 0xf3, 0x3e, 0xfc, 0x4f, 0x48, 0x3e, 0xb6, 0xe1, 0x87, 0x3e,
  0xf8, 0x05, 0x1c, 0xbe, 0x31, 0x8f, 0xa8, 0x3d, 0xc7, 0xfe, 0xb7, 0xbe,
  0xbb, 0xaa, 0x39, 0xbe, 0x6b, 0xb7, 0x10, 0x3b, 0x3a, 0x3d, 0xa7, 0xbe,
  0x27, 0x6d, 0xb7, 0xbe, 0x20, 0xc5, 0x2a, 0xbe, 0x62, 0x6e, 0x32, 0xbd,
  0x7e, 0x9e, 0xbf, 0x3c, 0x19, 0xce, 0x44, 0xbd, 0x60, 0xb0, 0xa5, 0xbe,
  0xe8, 0x0b, 0x4d, 0x3d, 0x69, 0xa1, 0x11, 0xbe, 0xac, 0xc6, 0x69, 0x3e,
  0x4a, 0x8c, 0x9f, 0xbe, 0x38, 0x6f, 0xf7, 0x3d, 0xe6, 0xd2, 0x93, 0x3e,
  0x60, 0x87, 0x09, 0x3c, 0x54, 0xf6, 0x8f, 0xbe, 0x92, 0x93, 0xc1, 0x3e,
  0xdf, 0x7e, 0xb4, 0xbe, 0x69, 0x5e, 0x83, 0xbe, 0x4e, 0x93, 0x8d, 0xbe,
  0x05, 0x91, 0x66, 0xbe, 0xe0, 0x26, 0xaa, 0x3c, 0x8c, 0xb8, 0xda, 0xbd,
  0x4b, 0xfd, 0xaa, 0xbe, 0xe0, 0x0b, 0x4b, 0x3e, 0x88, 0x65, 0xa4, 0x3d,
  0x60, 0xdb, 0xaf, 0x3e, 0xf8, 0x30, 0x1a, 0xbd, 0x20, 0x90, 0x46, 0xbc,
  0x88, 0xeb, 0xbc, 0x3e, 0x9e, 0x02, 0xb0, 0x3e, 0xf4, 0x7f, 0x48, 0x3e,
  0x4f, 0x8c, 0xaf, 0xbe, 0x08, 0x35, 0xe1, 0x3d, 0x82, 0xe1, 0x33, 0xbe,
  0xa0, 0xec, 0x94, 0x3d, 0xa4, 0x90, 0x00, 0xbe, 0x90, 0x85, 0x31, 0x3e,
  0x12, 0xa9, 0x45, 0xbe, 0xd5, 0x3a, 0x7a, 0x3e, 0xf5, 0x1b, 0x59, 0x3e,
  0xc2, 0xc0, 0xc5, 0x3e, 0xc8, 0x04, 0x22, 0xbe, 0x7e, 0x92, 0x3f, 0xbe,
  0x5e, 0xa6, 0x8e, 0x3d, 0x01, 0xf5, 0xef, 0xbc, 0xd3, 0xa4, 0x9b, 0xbe,
  0x57, 0x3b, 0xc7, 0x3e, 0xfb, 0x13, 0x99, 0x3e, 0x75, 0x9d, 0x37, 0xbe,
  0x9e, 0xdb, 0xe2, 0xbd, 0x0a, 0xdb, 0x85, 0xbe, 0x18, 0x88, 0x1f, 0x3e,
  0x0c, 0x9d, 0x0b, 0xbe, 0xc3, 0x5b, 0x33, 0x3d, 0x14, 0xcd, 0x28, 0xbe,
  0xbe, 0xad, 0x42, 0x3e, 0x43, 0x21, 0xb1, 0x3d, 0xe0, 0x9e, 0x57, 0x3e,
  0xa4, 0x41, 0xcf, 0xbd, 0x1d, 0x2a, 0xb0, 0x3e, 0x9c, 0x6e, 0x27, 0xbd,
  0x1b, 0xe1, 0xa1, 0xbe, 0x91, 0xac, 0xd1, 0xbd, 0x1f, 0x78, 0xf9, 0x3d,
  0x59, 0x8b, 0x25, 0x3e, 0x41, 0x3d, 0xbc, 0x3e, 0x44, 0x92, 0xd3, 0x3d,
  0x21, 0xc5, 0x9f, 0x3e, 0x0b, 0xb9, 0xc2, 0x3e, 0x60, 0x30, 0x81, 0x3e,
  0xfc, 0x3e, 0x92, 0xbd, 0x35, 0x64, 0xb3, 0xbe, 0x73, 0x27, 0x90, 0x3e,
  0xd1, 0x04, 0x83, 0xbe, 0x25, 0x0e, 0x2d, 0x3e, 0xee, 0x12, 0x50, 0x3e,
  0x32, 0x36, 0xd7, 0x3d, 0x5c, 0x1a, 0x98, 0x3c, 0xb9, 0x1f, 0x64, 0x3e,
  0xb9, 0x1d, 0x81, 0xbe, 0x8e, 0xcd, 0x53, 0xbe, 0xcb, 0x31, 0x8b, 0xbe,
  0xc5, 0x72, 0xa8, 0x3e, 0xa2, 0x06, 0x91, 0xbe, 0x8c, 0x37, 0xa7, 0x3d,
  0x7b, 0x21, 0xe4, 0x3d, 0xa1, 0x23, 0x1d, 0xbe, 0xd8, 0x64, 0x57, 0x3e,
  0x73, 0x45, 0xa7, 0xbe, 0xd0, 0x34, 0xdf, 0x3d, 0x8a, 0xac, 0x19, 0xbe,
  0xa3, 0xfc, 0x65, 0x3b, 0xfd, 0x03, 0x0c, 0xbe, 0xd2, 0xdc, 0x26, 0x3e,
  0xf9, 0xb0, 0xed, 0xbe, 0x91, 0xe0, 0x5f, 0x3e, 0x3f, 0x07, 0xb7, 0x3c,
  0x00, 0x00, 0x00, 0x00, 0x76, 0xf2, 0xff, 0xff, 0x04, 0x00, 0x00, 0x00,
  0xb8, 0x0b, 0x00, 0x00, 0x6c, 0x62, 0x82, 0x3d, 0x4f, 0xe6, 0x30, 0x3d,
  0xb8, 0x18, 0x50, 0x3e, 0x8d, 0x56, 0x14, 0x3e, 0x6c, 0x2c, 0x34, 0xbe,
  0x8d, 0x02, 0x59, 0xbe, 0xf8, 0xef, 0x85, 0xbe, 0xf4, 0x86, 0x57, 0x3e,
  0x10, 0xae, 0xa6, 0x3d, 0x1c, 0xb9, 0xa3, 0x3d, 0xb2, 0xe6, 0xf4, 0xbd,
  0xe6, 0xd9, 0x65, 0x3d, 0xe6, 0xf1, 0x8b, 0x3e, 0x42, 0x6f, 0x8d, 0x3e,
  0x41, 0xcf, 0x54, 0xbe, 0xd4, 0x2c, 0xfa, 0x3d, 0xb1, 0x50, 0x82, 0x3d,
  0xfd, 0x5f, 0x10, 0xbc, 0x93, 0x27, 0xdb, 0x3d, 0xa0, 0xb2, 0x70, 0xbe,
  0xff, 0xbb, 0xbe, 0xbe, 0xb4, 0x89, 0xa8, 0xbe, 0x26, 0xf6, 0xd9, 0x3d,
  0xa4, 0x48, 0x6d, 0x3e, 0x38, 0x2a, 0xa1, 0xbe, 0x2b, 0x0b, 0x7d, 0x3e,
  0xfa, 0x46, 0xa0, 0x3e, 0x6d, 0xbd, 0x37, 0x3e, 0x52, 0xf4, 0x1e, 0x3e,
  0x08, 0x6e, 0x6d, 0x3d, 0xd2, 0x8e, 0xd4, 0x3d, 0xdd, 0x6e, 0x2e, 0xbe,
  0x14, 0x0e, 0x70, 0x3e, 0x96, 0xe5, 0x88, 0x3e, 0xcc, 0x30, 0x8d, 0xbd,
  0x49, 0xaa, 0xfb, 0x3d, 0x00, 0x5b, 0x8d, 0x3e, 0xde, 0x29, 0x62, 0x3e,
  0xe1, 0xfd, 0x68, 0xbd, 0xf0, 0x2b, 0xde, 0xbd, 0x2e, 0x5f, 0x7c, 0x3e,
  0x2d, 0x37, 0xcc, 0xbd, 0xc6, 0x3a, 0x9a, 0xbd, 0x55, 0x03, 0x22, 0xbe,
  0x9e, 0xde, 0x75, 0x3e, 0x36, 0xd5, 0x37, 0xbe, 0x25, 0xfb, 0x19, 0xbd,
  0xf0, 0x07, 0xd6, 0xbd, 0xb5, 0xbc, 0x87, 0xbe, 0xcb, 0xf3, 0xb1, 0x3e,
  0xeb, 0x22, 0x13, 0x3e, 0x45, 0x61, 0x9e, 0x3e, 0xab, 0xec, 0x7a, 0x3d,
  0xcd, 0x4e, 0x14, 0x3e, 0x0b, 0x92, 0xe8, 0x3c, 0x48, 0x3d, 0x32, 0x3e,
  0x87, 0xe0, 0x8f, 0xbe, 0xcf, 0xd5, 0x5b, 0xbe, 0xd0, 0x35, 0x85, 0x3d,
  0xea, 0x5e, 0x8d, 0xbe, 0x50, 0x93, 0xb3, 0x3e, 0x20, 0xa2, 0xb2, 0x3d,
  0x80, 0x4b, 0xa4, 0x3e, 0x3a, 0xc0, 0xfb, 0xbd, 0x4e, 0xd9, 0x68, 0x3e,
  0x4b, 0x63, 0xb3, 0x3e, 0x60, 0xd6, 0x23, 0xbe, 0x69, 0x9a, 0xe1, 0x3e,
  0x80, 0xc9, 0x0e, 0x3e, 0xac, 0xab, 0x6c, 0xbd, 0x99, 0xb9, 0x85, 0xbe,
  0x70, 0x79, 0xa7, 0x3e, 0x8b, 0x02, 0x63, 0xbe, 0xc0, 0x19, 0xc4, 0xbe,
  0xf1, 0xd5, 0xfa, 0xbd, 0x15, 0x35, 0xee, 0x3d, 0x21, 0x37, 0xb5, 0x3e,
  0x62, 0xbf, 0x97, 0x3e, 0x1e, 0x4c, 0x7c, 0x3d, 0x7b, 0x93, 0x6f, 0x3e,
  0x9d, 0x06, 0x60, 0x3d, 0x19, 0x2a, 0x9d, 0x3e, 0x7f, 0x12, 0xc3, 0x3e,
  0xf7, 0x24, 0xb7, 0x3b, 0xf7, 0x5a, 0xa2, 0x3d, 0xd7, 0xb1, 0x9a, 0x3e,
  0x48, 0x82, 0x44, 0x3e, 0x5a, 0x18, 0xb6, 0xbd, 0x56, 0x09, 0x7a, 0x3e,
  0x12, 0x55, 0x46, 0x3e, 0xd0, 0x1c, 0x9c, 0x3e, 0x7b, 0x84, 0x95, 0xbd,
  0x0c, 0x58, 0x06, 0xbe, 0x40, 0x98, 0x45, 0x3d, 0xfa, 0xb5, 0x92, 0x3e,
  0x0b, 0x75, 0x64, 0x3c, 0x8e, 0x89, 0x36, 0x3e, 0xc3, 0x62, 0x85, 0x3b,
  0x38, 0xd7, 0x90, 0x3e, 0x25, 0xfb, 0x0e, 0x3e, 0xeb, 0xd5, 0x0f, 0x3e,
  0x05, 0x14, 0x79, 0xbd, 0x18, 0x76, 0x31, 0x3b, 0xbd, 0x24, 0xa2, 0xbe,
  0x0c, 0x7a, 0x76, 0xbe, 0xd6, 0xb8, 0xa1, 0xbe, 0x13, 0xad, 0xec, 0x3d,
  0xdd, 0x16, 0x8c, 0x3d, 0x05, 0x43, 0x80, 0xbe, 0xe1, 0x39, 0xba, 0x3c,
  0xde, 0x61, 0xd9, 0x3d, 0x80, 0x23, 0x05, 0xbe, 0x8b, 0xcc, 0x96, 0x3e,
  0x62, 0xb0, 0xc2, 0x3d, 0x6c, 0x67, 0xee, 0x3d, 0xae, 0xbb, 0x5e, 0x3e,
  0xb3, 0x0d, 0xe2, 0xbd, 0x3e, 0x64, 0x1d, 0xbe, 0x84, 0x53, 0x59, 0xbb,
  0xf4, 0x25, 0xb2, 0x3e, 0x89, 0xeb, 0xa0, 0x3e, 0xd7, 0xec, 0x08, 0x3e,
  0xa6, 0xe1, 0x98, 0x3e, 0xcb, 0x0a, 0x2a, 0xbe, 0x83, 0xca, 0x2e, 0x3d,
  0xd0, 0xd0, 0x97, 0x3e, 0xd5, 0x1d, 0x9a, 0x3e, 0x88, 0x51, 0x67, 0x3c,
  0xee, 0xb9, 0x4c, 0xbe, 0xd8, 0x58, 0xa4, 0xbe, 0x09, 0x3d, 0xd4, 0xbd,
  0x6d, 0x98, 0x2a, 0xbe, 0x2b, 0x82, 0x42, 0xbe, 0x40, 0xce, 0xb8, 0x3c,
  0x45, 0xf3, 0x9a, 0x3d, 0x24, 0x77, 0x79, 0xbe, 0xcb, 0x3f, 0x29, 0xbd,
  0xc0, 0x59, 0xb6, 0xbe, 0x64, 0x58, 0x3a, 0xbd, 0x37, 0xf0, 0xcf, 0x3d,
  0xa1, 0xe2, 0xfd, 0xbd, 0x77, 0xf4, 0xf4, 0x3d, 0x72, 0xbb, 0xf2, 0x3c,
  0x81, 0x41, 0x8b, 0x3c, 0xce, 0x4f, 0x93, 0x3e, 0xda, 0xc5, 0x69, 0x3e,
  0xfd, 0x0b, 0x93, 0xbe, 0x54, 0xe3, 0x3f, 0x3e, 0x3a, 0x80, 0x9c, 0x3d,
  0x69, 0x3b, 0xaa, 0xbe, 0xd6, 0x9d, 0x8e, 0xbe, 0xd2, 0x6e, 0x04, 0xbe,
  0xcf, 0x5f, 0x55, 0x3e, 0xe7, 0xfe, 0x61, 0x3e, 0xfc, 0xc7, 0xf8, 0xbd,
  0xcf, 0xeb, 0x05, 0xbe, 0x15, 0xed, 0xec, 0x3d, 0x52, 0x07, 0xa7, 0xbd,
  0xa0, 0xdf, 0xa0, 0x3e, 0x6a, 0x3c, 0xe0, 0x3c, 0x9a, 0xe4, 0x32, 0xbe,
  0x1c, 0x43, 0x53, 0x3d, 0xf4, 0xbc, 0xa0, 0x3d, 0x20, 0xe1, 0x06, 0xbe,
  0x56, 0x3d, 0x30, 0x3d, 0x4e, 0xa5, 0x54, 0x3e, 0xbf, 0xe4, 0x98, 0xbd,
  0xb3, 0x45, 0x24, 0x3e, 0x62, 0xad, 0x56, 0xbe, 0x6e, 0x20, 0x4b, 0xbd,
  0x21, 0x6f, 0x62, 0xbe, 0x99, 0xfc, 0x6b, 0x3e, 0x5f, 0x3a, 0xed, 0x3d,
  0xd0, 0x2c, 0x8b, 0x3e, 0xf9, 0x91, 0x84, 0x3e, 0x9b, 0xd0, 0x9c, 0xbd,
  0x4a, 0x13, 0x81, 0x3e, 0x90, 0x6d, 0xea, 0xbb, 0x0c, 0xb9, 0x80, 0xbe,
  0xf5, 0x7e, 0x4c, 0x3e, 0x89, 0x68, 0x63, 0xbe, 0xf1, 0x2e, 0x06, 0xbe,
  0x31, 0xb3, 0x95, 0x3e, 0xf3, 0x44, 0x5f, 0x3e, 0x5e, 0x30, 0x8e, 0x3d,
  0xb1, 0x01, 0xae, 0xbe, 0xbd, 0x6b, 0x25, 0x3e, 0x21, 0x33, 0x39, 0xbd,
  0xc2, 0x25, 0x2c, 0x3d, 0x4e, 0x5c, 0xba, 0x3d, 0xb8, 0x2d, 0xd4, 0xbe,
  0x2b, 0xac, 0xb4, 0xbd, 0x6f, 0x67, 0x5e, 0x3e, 0xe4, 0xde, 0x1e, 0x3d,
  0x44, 0x03, 0xb6, 0x3e, 0x55, 0x11, 0x49, 0xbe, 0x83, 0xb5, 0x9f, 0xbd,
  0x5a, 0xac, 0x3e, 0x3d, 0xb2, 0x4d, 0x01, 0x3f, 0xfe, 0x93, 0xd9, 0x3c,
  0x5a, 0x37, 0x8e, 0x3c, 0xec, 0xc9, 0x83, 0xbc, 0x4e, 0xdd, 0xe8, 0x3d,
  0x79, 0x8c, 0x2b, 0x3e, 0xde, 0xa2, 0xbd, 0x3d, 0xa1, 0x6a, 0x8b, 0xbc,
  0x97, 0x18, 0xa3, 0x3d, 0xd7, 0x54, 0xb6, 0xbe, 0xab, 0x27, 0xda, 0x3d,
  0xb1, 0x7a, 0x67, 0xbe, 0x73, 0xf9, 0xb8, 0xbe, 0xb2, 0x49, 0xe6, 0x3d,
  0xe3, 0x18, 0x3c, 0xbe, 0x5c, 0xae, 0xba, 0xbc, 0xff, 0xaa, 0x67, 0x3e,
  0x2d, 0x16, 0xba, 0xbe, 0x5f, 0xad, 0x4a, 0xbe, 0x01, 0xc5, 0x27, 0x3d,
  0xe2, 0x67, 0x17, 0x3b, 0xe4, 0xaa, 0xc6, 0xbd, 0xc0, 0xb2, 0x8b, 0x3d,
  0x26, 0xcf, 0xfb, 0x3d, 0xb7, 0xca, 0xa5, 0x3c, 0x69, 0x3f, 0x25, 0xbe,
  0x63, 0xe3, 0x89, 0x3e, 0x7f, 0xc4, 0xd1, 0x3d, 0x35, 0x14, 0x94, 0x3e,
  0x51, 0x5f, 0xa3, 0xbd, 0x21, 0x45, 0x51, 0x3e, 0xb1, 0xaa, 0x8e, 0xbd,
  0x4d, 0xe9, 0xd1, 0xbd, 0xb5, 0x09, 0x65, 0xbd, 0x8d, 0x92, 0xbb, 0x3e,
  0x83, 0x62, 0xee, 0x3d, 0x24, 0x24, 0x9c, 0x3c, 0x38, 0xad, 0x00, 0x3e,
  0x67, 0xbc, 0x13, 0x3e, 0xeb, 0xca, 0x26, 0x3d, 0xe8, 0x2f, 0xa4, 0x3e,
  0xbd, 0x6f, 0x0f, 0xbe, 0xc7, 0x12, 0xad, 0x3d, 0xe9, 0xeb, 0xab, 0x3e,
  0xca, 0xb2, 0x93, 0x3e, 0xc5, 0xf9, 0x31, 0xbd, 0xd9, 0x51, 0x37, 0x3d,
  0xc5, 0x8e, 0xe2, 0x3c, 0xab, 0x54, 0x59, 0xbe, 0xbb, 0xef, 0x18, 0xbe,
  0x42, 0x2f, 0x99, 0x3e, 0x43, 0x79, 0x9a, 0x3e, 0xd3, 0x36, 0x8b, 0xbe,
  0x4f, 0x59, 0xce, 0xbd, 0x3a, 0x56, 0x84, 0x3d, 0x36, 0x76, 0x18, 0xbe,
  0x70, 0x0a, 0x6c, 0xbe, 0xb9, 0x9d, 0x93, 0xbe, 0xfc, 0x5a, 0xe0, 0x3d,
  0xc9, 0x9c, 0x61, 0xbe, 0xaf, 0x01, 0x54, 0x3e, 0x61, 0x5b, 0x0b, 0x3e,
  0xfd, 0x87, 0x97, 0x3e, 0xb6, 0x8e, 0xfa, 0xbd, 0xfe, 0x05, 0xb4, 0x3c,
  0xd4, 0x1a, 0xf8, 0xbd, 0x96, 0x0a, 0x34, 0x3e, 0xda, 0x66, 0x0e, 0x3c,
  0x61, 0x2d, 0x44, 0xbe, 0x4c, 0xfe, 0x91, 0xbd, 0x5e, 0x68, 0x8f, 0xbe,
  0x41, 0x8b, 0x47, 0x3e, 0x18, 0x80, 0x63, 0xbe, 0xc8, 0x9b, 0x5d, 0x3e,
  0x4a, 0x1e, 0x49, 0x3d, 0x3a, 0x26, 0x67, 0x3e, 0x08, 0x9f, 0x23, 0xbe,
  0xe5, 0x00, 0x28, 0x3d, 0x9e, 0x43, 0x85, 0x3e, 0xc4, 0xd8, 0x89, 0xbc,
  0x05, 0x70, 0x4b, 0x3e, 0x3f, 0xd4, 0x70, 0x3e, 0xf9, 0x1d, 0xb4, 0xbd,
  0x81, 0x3d, 0x58, 0x3e, 0xe3, 0x75, 0x39, 0x3c, 0x99, 0xec, 0x73, 0xbd,
  0x35, 0xa1, 0x61, 0xbd, 0x14, 0x89, 0x48, 0x3e, 0xb0, 0xde, 0x37, 0x3e,
  0xb8, 0x82, 0xaf, 0xbe, 0x21, 0x6f, 0xf4, 0xbd, 0x31, 0x21, 0xfb, 0xbd,
  0x12, 0xf3, 0x16, 0x3e, 0x76, 0x87, 0x99, 0x3e, 0x30, 0xb3, 0x02, 0x3c,
  0xaa, 0x07, 0xa3, 0xbe, 0xb2, 0x66, 0x73, 0xbe, 0xda, 0x9d, 0x18, 0xbc,
  0x36, 0xf4, 0x83, 0xbc, 0x31, 0x6b, 0x15, 0x3e, 0xdc, 0x79, 0x12, 0x3d,
  0x71, 0xcc, 0xa8, 0xbd, 0xcd, 0xcb, 0x3f, 0xbe, 0xfb, 0x97, 0x97, 0xbe,
  0x46, 0x0b, 0x6f, 0xbe, 0xb5, 0xac, 0x20, 0x3b, 0xfd, 0x3a, 0xc8, 0x3d,
  0xbd, 0x30, 0x36, 0xbe, 0x15, 0xe0, 0x84, 0x3d, 0x51, 0xcb, 0xab, 0xbe,
  0xd0, 0x36, 0x7b, 0x3e, 0xa4, 0xba, 0x6b, 0xbe, 0x3e, 0xf1, 0xcb, 0x3d,
  0x54, 0xc8, 0x15, 0x3e, 0xec, 0x8a, 0x86, 0xbd, 0x46, 0xcb, 0x81, 0x3e,
  0x0e, 0x48, 0xfe, 0xbc, 0xbc, 0x71, 0x50, 0x3e, 0xca, 0xfe, 0x52, 0xbe,
  0xbf, 0x73, 0x4f, 0x3e, 0xe1, 0x3f, 0xa6, 0xbe, 0x18, 0x06, 0x3e, 0xbe,
  0x49, 0x44, 0x46, 0x3e, 0xc4, 0x51, 0x98, 0xbd, 0xe2, 0xa7, 0x55, 0x3d,
  0xfe, 0x9f, 0x14, 0x3e, 0x9d, 0xf6, 0xcc, 0xbd, 0xc7, 0xdd, 0x73, 0xbe,
  0x37, 0x7e, 0xca, 0x3d, 0x8d, 0xe6, 0x5e, 0x3e, 0xa8, 0x5d, 0x8b, 0xbe,
  0x42, 0x57, 0xd6, 0xbd, 0x0e, 0xab, 0x65, 0x3e, 0x5c, 0xd1, 0x07, 0x3e,
  0xb2, 0x28, 0x8b, 0x3e, 0x74, 0x62, 0x27, 0x3e, 0xf1, 0x29, 0xe7, 0x3d,
  0x0d, 0xf2, 0x2b, 0x3e, 0x2a, 0xf7, 0x4c, 0xbe, 0x01, 0xdc, 0x02, 0xbd,
  0x2c, 0x70, 0x44, 0xbe, 0x70, 0xbb, 0x2b, 0x3e, 0x90, 0x15, 0x11, 0x3e,
  0x92, 0x92, 0x52, 0xbd, 0x57, 0x7f, 0x99, 0xbe, 0x85, 0xa8, 0x57, 0x3e,
  0x24, 0x6d, 0x21, 0x3e, 0x0a, 0x88, 0x1f, 0xbe, 0xfe, 0x51, 0x91, 0xbe,
  0xcd, 0x21, 0x6d, 0x3d, 0xc9, 0x0b, 0x00, 0xbe, 0x67, 0x05, 0x1d, 0x3e,
  0x80, 0x55, 0x07, 0x3e, 0xb9, 0xa4, 0x75, 0x3d, 0x2e, 0xe7, 0x09, 0x3e,
  0xba, 0x34, 0x5f, 0xbe, 0x18, 0x89, 0x1b, 0xbc, 0xf4, 0x3e, 0x5a, 0xbe,
  0x16, 0x3e, 0x18, 0x3d, 0xc5, 0xa5, 0x64, 0xbe, 0x37, 0x78, 0x54, 0x3e,
  0x48, 0xe4, 0x1c, 0x3d, 0xbe, 0xab, 0xa0, 0x3e, 0x48, 0xeb, 0x1a, 0x3d,
  0x8b, 0xc4, 0x6f, 0x3c, 0x59, 0x59, 0x0e, 0x3e, 0xef, 0x17, 0x26, 0x3e,
  0xe1, 0x5d, 0x92, 0xbd, 0x21, 0x95, 0x01, 0x3e, 0x56, 0x43, 0x22, 0x3d,
  0x05, 0x08, 0xc9, 0x3d, 0xa7, 0x50, 0x5f, 0xbe, 0x09, 0x73, 0xe4, 0x3e,
  0x5f, 0xcf, 0xa3, 0x3d, 0x50, 0x1d, 0x15, 0x3e, 0xf0, 0x40, 0xb3, 0xbc,
  0xdf, 0xe3, 0x86, 0xbe, 0x0b, 0xbe, 0xa0, 0xbe, 0xfa, 0x7e, 0x7a, 0x3e,
  0xb4, 0x33, 0x9d, 0x3c, 0xa3, 0xc4, 0x2a, 0x3e, 0x8c, 0xa3, 0x31, 0xbe,
  0x80, 0xa4, 0xb9, 0x3c, 0xf5, 0x19, 0x7c, 0xbe, 0xa0, 0x21, 0x37, 0xbe,
  0xc5, 0x5c, 0x1d, 0x3e, 0xf5, 0xe6, 0x2b, 0x3e, 0x1f, 0x8f, 0x17, 0x3d,
  0xbf, 0x7b, 0x41, 0xbe, 0x7b, 0x78, 0x7e, 0x3e, 0xcc, 0xf9, 0x16, 0x3e,
  0x88, 0x62, 0x31, 0x3e, 0x41, 0xd7, 0xa5, 0x3e, 0xac, 0xb8, 0x59, 0x3e,
  0xa9, 0x31, 0xc7, 0x3d, 0x8c, 0x84, 0x29, 0xbe, 0x78, 0x46, 0x47, 0x3e,
  0x18, 0x6e, 0x16, 0xbe, 0x35, 0xd6, 0x63, 0x3e, 0x01, 0xc6, 0x19, 0xbe,
  0xeb, 0x64, 0x19, 0xbe, 0x20, 0xa4, 0x05, 0xbe, 0x15, 0xae, 0x58, 0x3e,
  0xa7, 0xfa, 0x7f, 0xbe, 0x32, 0xff, 0x1c, 0xbe, 0x8b, 0xbd, 0x11, 0x3e,
  0xbf, 0x33, 0xb7, 0xbc, 0xe4, 0xa7, 0x69, 0xbe, 0xe5, 0x9f, 0x85, 0xbe,
  0x1c, 0x1f, 0x06, 0x3e, 0xb5, 0xae, 0x46, 0xbe, 0x4f, 0x37, 0x56, 0xbd,
  0xe9, 0xdc, 0x7b, 0x3b, 0xa1, 0x71, 0xb3, 0x3e, 0x8a, 0xeb, 0xec, 0x3d,
  0xe2, 0xad, 0x62, 0x3d, 0x96, 0x00, 0x5c, 0x3c, 0xba, 0x91, 0xaa, 0x3e,
  0x20, 0x90, 0x1b, 0x3e, 0x5c, 0x26, 0x9a, 0xbd, 0xfd, 0xb6, 0x44, 0x3e,
  0x5f, 0x33, 0x44, 0xbe, 0xc7, 0x2b, 0xb5, 0x3d, 0x3b, 0xd1, 0xad, 0x3e,
  0xee, 0x53, 0x5b, 0xbe, 0xb7, 0x52, 0x71, 0x3e, 0xda, 0x57, 0x86, 0x3e,
  0x38, 0x31, 0x93, 0xbe, 0x16, 0x18, 0x99, 0x3e, 0x80, 0x4e, 0x98, 0xbd,
  0x76, 0x0b, 0x23, 0xbe, 0x44, 0x8c, 0xa0, 0xbd, 0x6e, 0xe3, 0x37, 0xbe,
  0xdc, 0x17, 0x6c, 0x3e, 0x7a, 0x59, 0x2a, 0xbe, 0x66, 0x0e, 0x55, 0xbe,
  0x8a, 0x01, 0x8c, 0xbe, 0xd8, 0x48, 0x02, 0xbd, 0xec, 0x75, 0xa2, 0xbd,
  0x0a, 0x7d, 0x2b, 0x3e, 0xa4, 0xc2, 0xcd, 0x3d, 0x80, 0x8d, 0x01, 0xbd,
  0xc4, 0x58, 0x93, 0x3e, 0xb0, 0x76, 0xa6, 0xbe, 0x90, 0x49, 0xd6, 0x3d,
  0xca, 0x17, 0x03, 0x3e, 0xe0, 0xde, 0xe0, 0xbd, 0x4c, 0xe9, 0x9a, 0x3e,
  0x66, 0xa6, 0x21, 0xbe, 0x4a, 0x7f, 0xe2, 0xbd, 0x99, 0xb2, 0x02, 0xbe,
  0xa8, 0x88, 0x6e, 0xbe, 0x55, 0x7f, 0x9e, 0x3e, 0xdd, 0xb0, 0x74, 0x3e,
  0x06, 0xe2, 0x8f, 0x3e, 0xee, 0xda, 0x76, 0x3e, 0x3c, 0x64, 0xba, 0xbe,
  0xd0, 0x6c, 0x82, 0x3e, 0x06, 0xd4, 0xcc, 0x3d, 0x9b, 0x84, 0x47, 0x3e,
  0x9b, 0x4f, 0x7d, 0x3e, 0x1a, 0xa2, 0x35, 0x3c, 0x75, 0x51, 0x60, 0xbd,
  0x1a, 0x80, 0x9a, 0xbd, 0x32, 0x70, 0xc5, 0xbd, 0x6a, 0x70, 0xeb, 0x3c,
  0xc8, 0xa9, 0x07, 0xbd, 0x95, 0xc2, 0xf9, 0xbd, 0x08, 0x2e, 0xb1, 0xbd,
  0xcb, 0xfc, 0xc9, 0x3c, 0xb5, 0x47, 0x8b, 0x3c, 0xcb, 0x44, 0x05, 0x3e,
  0x37, 0x1f, 0xba, 0x3e, 0x0a, 0x2a, 0x65, 0xbe, 0xc3, 0x95, 0x5d, 0x3e,
  0x15, 0xef, 0x3b, 0xbd, 0xae, 0x02, 0x7d, 0x3e, 0xcf, 0x44, 0x4a, 0x3e,
  0x2f, 0xb4, 0x15, 0x3d, 0x4d, 0xdc, 0x51, 0x3e, 0xb6, 0x6c, 0x0a, 0xbe,
  0x66, 0xa1, 0xdc, 0xbd, 0xf3, 0xd7, 0xb1, 0xbd, 0xa8, 0xd7, 0x8f, 0xbd,
  0x14, 0x24, 0x99, 0xba, 0x5e, 0x20, 0x0e, 0x3e, 0xed, 0x9d, 0xe7, 0x3d,
  0x4a, 0xfb, 0x97, 0xbe, 0x67, 0x40, 0x57, 0x3d, 0x59, 0xe1, 0xa1, 0xbe,
  0x59, 0x58, 0x8c, 0x3d, 0x4c, 0x24, 0xd2, 0xbc, 0x4b, 0x94, 0x87, 0xbe,
  0xb5, 0xe1, 0x4a, 0x3b, 0x5c, 0xc3, 0xbe, 0x3d, 0xe3, 0x45, 0x1d, 0xbd,
  0x03, 0xa1, 0x8d, 0x3d, 0x38, 0xea, 0x44, 0xbe, 0x98, 0xe7, 0x79, 0xbe,
  0xfc, 0x5a, 0xbf, 0xbd, 0x81, 0x8a, 0x95, 0x3c, 0xf6, 0x53, 0x30, 0x3e,
  0xe8, 0x1d, 0x85, 0xbd, 0xb0, 0x79, 0x69, 0x3d, 0x2f, 0x59, 0x82, 0xbe,
  0xb8, 0xb9, 0x86, 0xbe, 0xa0, 0x00, 0xf3, 0xbc, 0x00, 0x0c, 0xef, 0x3c,
  0x98, 0x25, 0x0e, 0xbd, 0x5e, 0xd3, 0x14, 0xbe, 0xcf, 0x0a, 0x31, 0xbe,
  0x7c, 0x43, 0x3f, 0x3e, 0xfa, 0x10, 0xa8, 0x3e, 0xbc, 0xc2, 0x9e, 0x3d,
  0xb4, 0x74, 0x88, 0xbd, 0xc1, 0x3c, 0x72, 0xbe, 0x4e, 0x1d, 0xb9, 0xbd,
  0x29, 0x90, 0x1e, 0xbe, 0xae, 0xc7, 0xe6, 0xbd, 0x2c, 0x3e, 0x78, 0x3e,
  0x4d, 0x10, 0x9a, 0xbe, 0x68, 0xff, 0x4d, 0xbe, 0x38, 0x7b, 0x0e, 0xbd,
  0x41, 0x13, 0x54, 0xbe, 0x60, 0x19, 0x82, 0xbe, 0xbc, 0x18, 0x86, 0xbe,
  0xd0, 0xfb, 0x2b, 0x3e, 0x58, 0xed, 0x33, 0x3e, 0x1a, 0x95, 0x0a, 0x3e,
  0x03, 0xb5, 0x84, 0xbe, 0xfc, 0xd9, 0x3d, 0xbe, 0x22, 0xcb, 0x69, 0xbe,
  0x12, 0x58, 0x69, 0xbe, 0xe0, 0x9e, 0x59, 0xbc, 0xda, 0x1a, 0x63, 0xbe,
  0x16, 0xc0, 0xfe, 0xbd, 0xe0, 0x1c, 0x3c, 0xbc, 0xcf, 0xe6, 0x8f, 0xbe,
  0xaa, 0xdf, 0xe3, 0xbd, 0xb6, 0x0b, 0xd1, 0xbd, 0xec, 0x39, 0x9c, 0x3e,
  0x78, 0x7e, 0x40, 0xbd, 0xc5, 0x05, 0x55, 0xbe, 0xde, 0x7d, 0xa3, 0xbe,
  0x10, 0x32, 0xc6, 0x3d, 0xa8, 0x21, 0x13, 0x3e, 0xd8, 0x7b, 0x49, 0x3e,
  0xe2, 0xbb, 0x1a, 0xbe, 0xac, 0x76, 0xd0, 0x3d, 0xa8, 0xab, 0x70, 0xbe,
  0x70, 0x55, 0x78, 0x3e, 0x6b, 0xe6, 0x53, 0xbe, 0x1a, 0xa7, 0x98, 0xbc,
  0x8e, 0x8b, 0x36, 0xbd, 0x9b, 0x76, 0x9c, 0xbd, 0xd1, 0xfa, 0xa7, 0x3e,
  0x25, 0xa7, 0x93, 0x3e, 0x9d, 0x41, 0x52, 0x3e, 0x41, 0xe3, 0x4c, 0x3e,
  0xf4, 0xcb, 0x33, 0x3c, 0x3c, 0x23, 0x79, 0x3e, 0xbb, 0x70, 0xa3, 0x3e,
  0x20, 0xcd, 0xe4, 0xbd, 0xd0, 0xf1, 0x04, 0xbe, 0x4d, 0xc4, 0xfa, 0x3d,
  0x85, 0xd8, 0xce, 0xbd, 0x6b, 0x55, 0x34, 0x3d, 0xfc, 0xcc, 0x1e, 0x3e,
  0x55, 0x67, 0x33, 0x3e, 0xcc, 0xf0, 0x3e, 0x3d, 0x63, 0xcf, 0x03, 0x3d,
  0xa4, 0xcc, 0x84, 0xbd, 0xa1, 0x7a, 0x19, 0x3e, 0xab, 0xee, 0x8d, 0xbd,
  0xec, 0x8b, 0x33, 0x3e, 0x8c, 0xfa, 0x7d, 0xbe, 0x6b, 0x57, 0x52, 0x3e,
  0x6c, 0xbd, 0x0c, 0xbe, 0xab, 0x7e, 0x1b, 0xbe, 0x9d, 0xd0, 0x9b, 0x3e,
  0x44, 0x78, 0xb2, 0x3d, 0x5e, 0x06, 0x3c, 0x3d, 0x75, 0xf0, 0xac, 0x3d,
  0xa3, 0x04, 0xb9, 0xbd, 0x10, 0x0b, 0xb9, 0x3c, 0xfa, 0x33, 0x97, 0x3b,
  0x78, 0x7e, 0xb3, 0xbe, 0xa5, 0x5b, 0xc4, 0x3d, 0x3e, 0xed, 0xcd, 0xbd,
  0xc6, 0xed, 0x77, 0xbd, 0x69, 0x4e, 0x99, 0xbe, 0x37, 0x64, 0xec, 0x3d,
  0xfb, 0x60, 0x95, 0x3e, 0x00, 0xc0, 0x7b, 0xbe, 0x89, 0x99, 0xf4, 0xbd,
  0x36, 0xba, 0xee, 0x3c, 0x20, 0xa7, 0x86, 0xbe, 0x6b, 0x70, 0x8a, 0x3e,
  0xcc, 0x6c, 0x2d, 0x3e, 0xa9, 0x20, 0x48, 0xbe, 0x52, 0xa9, 0x9d, 0xbd,
  0xab, 0x15, 0x8e, 0xbe, 0x92, 0xdb, 0x46, 0xbd, 0xbd, 0xe8, 0xa6, 0x3d,
  0x2f, 0xee, 0xc8, 0xbc, 0x80, 0x18, 0x80, 0xbe, 0x4b, 0x5a, 0x90, 0xbe,
  0x62, 0xeb, 0x1c, 0xbe, 0x0d, 0x2f, 0xc0, 0xbd, 0x57, 0xbe, 0x57, 0x3e,
  0xcf, 0xb7, 0xa5, 0xbe, 0x96, 0xce, 0xe9, 0xbd, 0x68, 0x18, 0x3e, 0xbd,
  0x83, 0x4e, 0x1b, 0xbd, 0xfd, 0xb7, 0xd2, 0x3c, 0xd8, 0x21, 0x4e, 0xbe,
  0x03, 0x15, 0x4a, 0x3e, 0xca, 0x11, 0x86, 0xbe, 0xfb, 0xef, 0x88, 0x3e,
  0xb2, 0x95, 0xe8, 0xbd, 0x7b, 0x31, 0x44, 0x3c, 0x25, 0xea, 0x44, 0x3e,
  0x9c, 0x83, 0x0f, 0x3e, 0x3b, 0x55, 0x33, 0xbe, 0x34, 0x27, 0x37, 0x3e,
  0xff, 0xfb, 0x7b, 0x3e, 0xb7, 0x93, 0x5b, 0xbd, 0x92, 0x85, 0xf9, 0xbd,
  0x38, 0xd3, 0x69, 0x3e, 0xde, 0x7f, 0x6d, 0x3e, 0xc6, 0x50, 0xc6, 0x3d,
  0xea, 0xe2, 0x14, 0x3c, 0xed, 0xec, 0xda, 0xbc, 0xc5, 0x7c, 0x43, 0xbe,
  0x71, 0xd5, 0x1c, 0xbd, 0xf8, 0xd6, 0x28, 0xbe, 0xf5, 0xb5, 0x9e, 0x3e,
  0x03, 0x4e, 0xee, 0xbd, 0x84, 0x66, 0x6f, 0x3e, 0x5c, 0xa9, 0x7a, 0xbe,
  0x51, 0xb5, 0xd7, 0xbc, 0x67, 0xfd, 0x86, 0x3e, 0x58, 0x4a, 0xc6, 0xbc,
  0xd1, 0x45, 0x5b, 0x3c, 0xd8, 0x59, 0x0b, 0x3d, 0x41, 0x6e, 0x55, 0xbe,
  0x9d, 0xb8, 0x8d, 0x3e, 0xd5, 0xa8, 0xa8, 0xbe, 0xa9, 0x45, 0x4f, 0xbe,
  0xac, 0xbb, 0x8b, 0xbe, 0x41, 0x79, 0x53, 0xbe, 0x58, 0x51, 0x70, 0xbe,
  0x34, 0x60, 0x47, 0x3e, 0x0a, 0x67, 0x55, 0xbe, 0xb6, 0xa6, 0x89, 0x3e,
  0x7b, 0xa3, 0x56, 0xbe, 0x80, 0x4f, 0xd1, 0x3d, 0x18, 0x12, 0x0d, 0xbe,
  0x1a, 0x76, 0x1f, 0xbd, 0x57, 0x5c, 0x99, 0xbe, 0xf2, 0x44, 0x82, 0xbe,
  0x41, 0x68, 0xe3, 0x3c, 0xeb, 0xb5, 0xa2, 0xbe, 0xd4, 0x0d, 0xda, 0x3d,
  0x8e, 0x8f, 0x22, 0x3e, 0x4c, 0xba, 0xc2, 0xbd, 0x2a, 0x30, 0x1e, 0xbc,
  0xe0, 0x54, 0x6f, 0x3d, 0xa9, 0xa7, 0xa4, 0x3c, 0xd0, 0xac, 0x82, 0xbe,
  0x7f, 0xd3, 0x7d, 0x3e, 0xf5, 0x0c, 0x31, 0x3e, 0xdb, 0x70, 0x3c, 0xbd,
  0xba, 0x17, 0xa6, 0xbe, 0x00, 0xe0, 0x3e, 0x3e, 0x5a, 0x6e, 0x0e, 0xbd,
  0x1d, 0x59, 0x8b, 0xbe, 0xb5, 0x5b, 0xf0, 0xbd, 0xe4, 0xb7, 0xa9, 0xbd,
  0xba, 0x52, 0x9f, 0x3e, 0xfb, 0x6d, 0xa8, 0xbe, 0x01, 0x34, 0x6b, 0xbd,
  0x98, 0x5e, 0x55, 0x3e, 0xd4, 0x63, 0x9f, 0x3e, 0xd1, 0x33, 0xda, 0xbd,
  0x48, 0xc7, 0xea, 0x3c, 0x60, 0x71, 0x2c, 0x3e, 0xcb, 0xa9, 0xfc, 0xbd,
  0xd3, 0xbb, 0x57, 0xbe, 0xf8, 0xca, 0xc7, 0xbc, 0x8e, 0x8c, 0x7f, 0xbe,
  0xc4, 0xd2, 0x23, 0x3e, 0xea, 0xc5, 0x93, 0xbd, 0x58, 0x3f, 0x83, 0xbc,
  0x4e, 0xfb, 0xd1, 0x3d, 0xeb, 0xe0, 0xbd, 0x3d, 0xc8, 0x59, 0xef, 0x3d,
  0x6e, 0x30, 0x5a, 0x3e, 0x10, 0xde, 0x4c, 0x3e, 0xa7, 0x86, 0x02, 0x3f,
  0x51, 0xc2, 0xf7, 0x3d, 0x36, 0x90, 0x4a, 0xbe, 0xd4, 0xaf, 0x90, 0xbe,
  0x7d, 0x2f, 0xb1, 0xbd, 0x7f, 0xd0, 0xea, 0x3d, 0xed, 0x16, 0xab, 0x3d,
  0xb0, 0xac, 0x72, 0x3e, 0x36, 0x6c, 0xad, 0x3e, 0x32, 0x9b, 0x45, 0x3e,
  0x84, 0x01, 0xa6, 0xbd, 0x72, 0x29, 0x40, 0xbe, 0x7c, 0x0f, 0x9d, 0x3e,
  0xf5, 0xa9, 0x53, 0x3e, 0x3a, 0x0e, 0x3e, 0xbb, 0x24, 0x7c, 0x5a, 0x3e,
  0x4c, 0x96, 0xce, 0x3d, 0xc4, 0xf4, 0x10, 0x3e, 0xf9, 0x45, 0x1c, 0xbd,
  0x7f, 0x6d, 0x65, 0x3e, 0xb6, 0xcd, 0x27, 0xbe, 0xd3, 0x3d, 0xeb, 0x3d,
  0xc7, 0x7c, 0x7c, 0x3e, 0x29, 0x86, 0x34, 0xbe, 0x71, 0x13, 0xa4, 0x3e,
  0xc9, 0x47, 0xa6, 0x3e, 0x9a, 0xd9, 0x48, 0x3e, 0xf2, 0xb1, 0x93, 0xbe,
  0x2b, 0x88, 0x2b, 0x3d, 0x1b, 0xeb, 0x81, 0x3e, 0x2f, 0xcf, 0x3c, 0xbe,
  0x64, 0x92, 0x6d, 0xbd, 0xc5, 0x13, 0x74, 0xbd, 0x17, 0xcc, 0x7c, 0xbd,
  0x45, 0x83, 0x30, 0xbd, 0x28, 0x10, 0xeb, 0x3c, 0xbd, 0xa3, 0xa0, 0x3c,
  0xcd, 0x01, 0x55, 0xbe, 0xbc, 0x6f, 0x42, 0x3e, 0x35, 0xd2, 0x88, 0x3e,
  0xed, 0x0c, 0x25, 0xbe, 0x02, 0x92, 0x86, 0xbe, 0xc1, 0x9a, 0xdf, 0xbb,
  0xbf, 0x7c, 0x58, 0x3d, 0xda, 0xde, 0x7d, 0x3e, 0x86, 0xa0, 0x9d, 0x3d,
  0x2c, 0x72, 0x25, 0xbe, 0x8f, 0x62, 0xab, 0xbe, 0x8d, 0xcb, 0x4f, 0xbd,
  0x88, 0x10, 0x9e, 0xbe, 0x30, 0x12, 0x9f, 0xba, 0x3d, 0xa3, 0x05, 0xbd,
  0xd0, 0x03, 0x09, 0xbe, 0x00, 0x00, 0x00, 0x00, 0x00, 0x00, 0x00, 0x00,
  0x00, 0x00, 0x00, 0x00, 0x46, 0xfe, 0xff, 0xff, 0x04, 0x00, 0x00, 0x00,
  0x78, 0x00, 0x00, 0x00, 0x91, 0x01, 0x0d, 0xbd, 0x35, 0x0a, 0xc0, 0x3c,
  0x93, 0xab, 0x8b, 0x3c, 0x2f, 0x72, 0xd1, 0x3c, 0x39, 0x49, 0x99, 0xbb,
  0x36, 0xa1, 0xea, 0xbc, 0xe8, 0x94, 0xbf, 0x3c, 0xb5, 0xc4, 0xa8, 0x3d,
  0x61, 0xd6, 0x23, 0xbd, 0x60, 0x5b, 0x06, 0x3d, 0x58, 0x6a, 0x71, 0x3b,
  0xb9, 0x6c, 0xea, 0xba, 0x26, 0x66, 0xda, 0xbc, 0x9e, 0xbb, 0x82, 0xbc,
  0x8f, 0x77, 0xee, 0xbb, 0x67, 0xe1, 0x48, 0xbc, 0x4e, 0x6c, 0xeb, 0xba,
  0x00, 0x00, 0x00, 0x00, 0x52, 0x5d, 0x9b, 0x3c, 0x26, 0x47, 0x5f, 0xbc,
  0x00, 0x00, 0x00, 0x00, 0x00, 0x00, 0x00, 0x00, 0x62, 0x3c, 0xac, 0x3c,
  0x49, 0x15, 0xcd, 0xbc, 0xa3, 0x3d, 0xaf, 0xbc, 0x30, 0x17, 0xd1, 0xbb,
  0x66, 0xb3, 0x35, 0xbc, 0xf3, 0x99, 0x2d, 0xbb, 0xe3, 0xc0, 0x73, 0x3c,
  0xe1, 0x0c, 0x9d, 0xbc, 0x00, 0x00, 0x00, 0x00, 0x00, 0x00, 0x00, 0x00,
  0x00, 0x00, 0x00, 0x00, 0xd6, 0xfe, 0xff, 0xff, 0x04, 0x00, 0x00, 0x00,
  0x28, 0x00, 0x00, 0x00, 0x31, 0xd0, 0xbf, 0xbc, 0xad, 0xcf, 0x72, 0x3b,
  0x00, 0x00, 0x00, 0x00, 0x10, 0x9f, 0xf3, 0x3c, 0x00, 0x00, 0x00, 0x00,
  0x00, 0x00, 0x00, 0x00, 0x3c, 0x15, 0x4a, 0x3c, 0x00, 0x00, 0x00, 0x00,
  0x63, 0xa4, 0xbc, 0x3c, 0xbd, 0xe4, 0xd5, 0xbc, 0x00, 0x00, 0x00, 0x00,
  0x00, 0x00, 0x00, 0x00, 0x00, 0x00, 0x00, 0x00, 0x16, 0xff, 0xff, 0xff,
  0x04, 0x00, 0x00, 0x00, 0x08, 0x00, 0x00, 0x00, 0xd8, 0xd6, 0xb1, 0x3b,
  0x87, 0xba, 0x26, 0x3d, 0x00, 0x00, 0x00, 0x00, 0x00, 0x00, 0x00, 0x00,
  0x00, 0x00, 0x00, 0x00, 0x36, 0xff, 0xff, 0xff, 0x04, 0x00, 0x00, 0x00,
  0x28, 0x00, 0x00, 0x00, 0x59, 0x80, 0xe9, 0xbc, 0x4d, 0x16, 0x1d, 0xbd,
  0x2a, 0x9a, 0xb5, 0xbc, 0x16, 0xb8, 0x28, 0x3d, 0xa1, 0x0b, 0x4c, 0xbc,
  0x4c, 0xbc, 0xaf, 0xbc, 0x62, 0x70, 0x95, 0x3c, 0x1d, 0x3d, 0xad, 0x3c,
  0x83, 0xcf, 0x06, 0xbd, 0xcf, 0x2c, 0x9c, 0x3d, 0x00, 0x00, 0x00, 0x00,
  0x00, 0x00, 0x00, 0x00, 0x00, 0x00, 0x00, 0x00, 0x76, 0xff, 0xff, 0xff,
  0x04, 0x00, 0x00, 0x00, 0x78, 0x00, 0x00, 0x00, 0x00, 0x00, 0x00, 0x00,
  0x00, 0x00, 0x00, 0x00, 0x00, 0x00, 0x00, 0x00, 0x91, 0x77, 0x24, 0xbc,
  0x04, 0xf2, 0x93, 0xbd, 0x2e, 0x58, 0x83, 0xbd, 0x40, 0x72, 0x97, 0xbc,
  0x00, 0x00, 0x00, 0x00, 0x00, 0x00, 0x00, 0x00, 0xf1, 0x4f, 0x97, 0xbc,
  0x00, 0x00, 0x00, 0x00, 0xec, 0x07, 0x83, 0xba, 0x87, 0x89, 0x88, 0x3d,
  0xa4, 0xcc, 0xf0, 0x3a, 0x57, 0xbd, 0x12, 0x3d, 0x67, 0xaa, 0x3c, 0x3c,
  0x00, 0x00, 0x00, 0x00, 0x03, 0x28, 0x6a, 0x3c, 0x00, 0x00, 0x00, 0x00,
  0xe6, 0x0b, 0x1c, 0x3d, 0xb1, 0x6d, 0x4d, 0xbc, 0xee, 0x59, 0x88, 0xbc,
  0xfa, 0x04, 0x8b, 0x3d, 0x7b, 0xe6, 0x01, 0x3d, 0x45, 0xd2, 0x28, 0x3d,
  0xd4, 0xe5, 0x88, 0x3d, 0x00, 0x00, 0x00, 0x00, 0x79, 0x12, 0xb6, 0xbb,
  0x00, 0x00, 0x00, 0x00, 0x00, 0x00, 0x00, 0x00, 0x00, 0x00, 0x00, 0x00,
  0x00, 0x00, 0x06, 0x00, 0x08, 0x00, 0x04, 0x00, 0x06, 0x00, 0x00, 0x00,
  0x04, 0x00, 0x00, 0x00, 0x64, 0x00, 0x00, 0x00, 0xa7, 0x9b, 0xb3, 0x3d,
  0x06, 0xb4, 0x8e, 0x3d, 0x59, 0x6c, 0x23, 0x3d, 0x96, 0xa5, 0x49, 0x3d,
  0x76, 0x43, 0x24, 0x3d, 0xc8, 0x32, 0xb0, 0x3c, 0xf6, 0x2f, 0xfd, 0x3c,
  0x6f, 0xb7, 0xda, 0x3c, 0xad, 0x57, 0x76, 0x3d, 0xa6, 0x5c, 0x4d, 0x3d,
  0xde, 0x53, 0x17, 0x3d, 0x0d, 0x1f, 0x42, 0x3d, 0xd6, 0x2e, 0x48, 0x3d,
  0x80, 0xa5, 0x82, 0x3d, 0x65, 0x81, 0x77, 0x3d, 0xd2, 0x88, 0xea, 0x3c,
  0x5b, 0x04, 0xb8, 0x3d, 0x4c, 0xa2, 0xb8, 0x3d, 0xdb, 0xf5, 0xfd, 0x3c,
  0x5f, 0xbe, 0x49, 0x3d, 0xd4, 0x90, 0x45, 0x3d, 0x7b, 0xd7, 0xbe, 0x3d,
  0x70, 0xd5, 0x6d, 0x3d, 0xd7, 0xae, 0x16, 0x3d, 0x36, 0xc4, 0x2a, 0x3d,
  0x00, 0x00, 0x00, 0x00, 0x00, 0x00, 0x00, 0x00, 0xb8, 0xf7, 0xff, 0xff,
  0x00, 0x00, 0x00, 0x00, 0x00, 0x00, 0x00, 0x00, 0x00, 0x00, 0x00, 0x00,
  0xc8, 0xf7, 0xff, 0xff, 0x00, 0x00, 0x00, 0x00, 0x00, 0x00, 0x00, 0x00,
  0x0f, 0x00, 0x00, 0x00, 0x4d, 0x4c, 0x49, 0x52, 0x20, 0x43, 0x6f, 0x6e,
  0x76, 0x65, 0x72, 0x74, 0x65, 0x64, 0x2e, 0x00, 0x01, 0x00, 0x00, 0x00,
  0x14, 0x00, 0x00, 0x00, 0x00, 0x00, 0x0e, 0x00, 0x18, 0x00, 0x04, 0x00,
  0x08, 0x00, 0x0c, 0x00, 0x10, 0x00, 0x14, 0x00, 0x0e, 0x00, 0x00, 0x00,
  0xa8, 0x01, 0x00, 0x00, 0x9c, 0x01, 0x00, 0x00, 0x90, 0x01, 0x00, 0x00,
  0x14, 0x00, 0x00, 0x00, 0x04, 0x00, 0x00, 0x00, 0x04, 0x00, 0x00, 0x00,
  0x6d, 0x61, 0x69, 0x6e, 0x00, 0x00, 0x00, 0x00, 0x06, 0x00, 0x00, 0x00,
  0x38, 0x01, 0x00, 0x00, 0xf0, 0x00, 0x00, 0x00, 0xa8, 0x00, 0x00, 0x00,
  0x70, 0x00, 0x00, 0x00, 0x38, 0x00, 0x00, 0x00, 0x04, 0x00, 0x00, 0x00,
  0x32, 0xff, 0xff, 0xff, 0x00, 0x00, 0x00, 0x08, 0x18, 0x00, 0x00, 0x00,
  0x0c, 0x00, 0x00, 0x00, 0x04, 0x00, 0x00, 0x00, 0x54, 0xf8, 0xff, 0xff,
  0x01, 0x00, 0x00, 0x00, 0x12, 0x00, 0x00, 0x00, 0x03, 0x00, 0x00, 0x00,
  0x11, 0x00, 0x00, 0x00, 0x0c, 0x00, 0x00, 0x00, 0x01, 0x00, 0x00, 0x00,
  0x62, 0xff, 0xff, 0xff, 0x00, 0x00, 0x00, 0x08, 0x1c, 0x00, 0x00, 0x00,
  0x10, 0x00, 0x00, 0x00, 0x04, 0x00, 0x00, 0x00, 0x0e, 0xff, 0xff, 0xff,
  0x00, 0x00, 0x00, 0x01, 0x01, 0x00, 0x00, 0x00, 0x11, 0x00, 0x00, 0x00,
  0x03, 0x00, 0x00, 0x00, 0x10, 0x00, 0x00, 0x00, 0x0b, 0x00, 0x00, 0x00,
  0x02, 0x00, 0x00, 0x00, 0x96, 0xff, 0xff, 0xff, 0x00, 0x00, 0x00, 0x08,
  0x1c, 0x00, 0x00, 0x00, 0x10, 0x00, 0x00, 0x00, 0x04, 0x00, 0x00, 0x00,
  0x42, 0xff, 0xff, 0xff, 0x00, 0x00, 0x00, 0x01, 0x01, 0x00, 0x00, 0x00,
  0x10, 0x00, 0x00, 0x00, 0x03, 0x00, 0x00, 0x00, 0x0f, 0x00, 0x00, 0x00,
  0x0a, 0x00, 0x00, 0x00, 0x03, 0x00, 0x00, 0x00, 0xca, 0xff, 0xff, 0xff,
  0x00, 0x00, 0x00, 0x08, 0x1c, 0x00, 0x00, 0x00, 0x10, 0x00, 0x00, 0x00,
  0x04, 0x00, 0x00, 0x00, 0x76, 0xff, 0xff, 0xff, 0x00, 0x00, 0x00, 0x01,
  0x01, 0x00, 0x00, 0x00, 0x0f, 0x00, 0x00, 0x00, 0x03, 0x00, 0x00, 0x00,
  0x0e, 0x00, 0x00, 0x00, 0x09, 0x00, 0x00, 0x00, 0x04, 0x00, 0x00, 0x00,
  0x00, 0x00, 0x0e, 0x00, 0x14, 0x00, 0x00, 0x00, 0x08, 0x00, 0x0c, 0x00,
  0x07, 0x00, 0x10, 0x00, 0x0e, 0x00, 0x00, 0x00, 0x00, 0x00, 0x00, 0x08,
  0x1c, 0x00, 0x00, 0x00, 0x10, 0x00, 0x00, 0x00, 0x04, 0x00, 0x00, 0x00,
  0xba, 0xff, 0xff, 0xff, 0x00, 0x00, 0x00, 0x01, 0x01, 0x00, 0x00, 0x00,
  0x0e, 0x00, 0x00, 0x00, 0x03, 0x00, 0x00, 0x00, 0x0d, 0x00, 0x00, 0x00,
  0x08, 0x00, 0x00, 0x00, 0x05, 0x00, 0x00, 0x00, 0x00, 0x00, 0x0e, 0x00,
  0x16, 0x00, 0x00, 0x00, 0x08, 0x00, 0x0c, 0x00, 0x07, 0x00, 0x10, 0x00,
  0x0e, 0x00, 0x00, 0x00, 0x00, 0x00, 0x00, 0x08, 0x24, 0x00, 0x00, 0x00,
  0x18, 0x00, 0x00, 0x00, 0x0c, 0x00, 0x00, 0x00, 0x00, 0x00, 0x06, 0x00,
  0x08, 0x00, 0x07, 0x00, 0x06, 0x00, 0x00, 0x00, 0x00, 0x00, 0x00, 0x01,
  0x01, 0x00, 0x00, 0x00, 0x0d, 0x00, 0x00, 0x00, 0x03, 0x00, 0x00, 0x00,
  0x00, 0x00, 0x00, 0x00, 0x07, 0x00, 0x00, 0x00, 0x06, 0x00, 0x00, 0x00,
  0x01, 0x00, 0x00, 0x00, 0x12, 0x00, 0x00, 0x00, 0x01, 0x00, 0x00, 0x00,
  0x00, 0x00, 0x00, 0x00, 0x13, 0x00, 0x00, 0x00, 0x2c, 0x06, 0x00, 0x00,
  0xe0, 0x05, 0x00, 0x00, 0x98, 0x05, 0x00, 0x00, 0x60, 0x05, 0x00, 0x00,
  0x28, 0x05, 0x00, 0x00, 0xf0, 0x04, 0x00, 0x00, 0xbc, 0x04, 0x00, 0x00,
  0x78, 0x04, 0x00, 0x00, 0x30, 0x04, 0x00, 0x00, 0xe8, 0x03, 0x00, 0x00,
  0xa0, 0x03, 0x00, 0x00, 0x58, 0x03, 0x00, 0x00, 0x10, 0x03, 0x00, 0x00,
  0x8c, 0x02, 0x00, 0x00, 0x00, 0x02, 0x00, 0x00, 0x74, 0x01, 0x00, 0x00,
  0xe8, 0x00, 0x00, 0x00, 0x5c, 0x00, 0x00, 0x00, 0x04, 0x00, 0x00, 0x00,
  0x34, 0xfa, 0xff, 0xff, 0x44, 0x00, 0x00, 0x00, 0x13, 0x00, 0x00, 0x00,
  0x1c, 0x00, 0x00, 0x00, 0x14, 0x00, 0x00, 0x00, 0x04, 0x00, 0x00, 0x00,
  0x02, 0x00, 0x00, 0x00, 0xff, 0xff, 0xff, 0xff, 0x19, 0x00, 0x00, 0x00,
  0x20, 0xfa, 0xff, 0xff, 0x19, 0x00, 0x00, 0x00, 0x53, 0x74, 0x61, 0x74,
  0x65, 0x66, 0x75, 0x6c, 0x50, 0x61, 0x72, 0x74, 0x69, 0x74, 0x69, 0x6f,
  0x6e, 0x65, 0x64, 0x43, 0x61, 0x6c, 0x6c, 0x3a, 0x30, 0x00, 0x00, 0x00,
  0x02, 0x00, 0x00, 0x00, 0x01, 0x00, 0x00, 0x00, 0x19, 0x00, 0x00, 0x00,
  0x88, 0xfa, 0xff, 0xff, 0x78, 0x00, 0x00, 0x00, 0x12, 0x00, 0x00, 0x00,
  0x1c, 0x00, 0x00, 0x00, 0x14, 0x00, 0x00, 0x00, 0x04, 0x00, 0x00, 0x00,
  0x02, 0x00, 0x00, 0x00, 0xff, 0xff, 0xff, 0xff, 0x1e, 0x00, 0x00, 0x00,
  0x74, 0xfa, 0xff, 0xff, 0x4c, 0x00, 0x00, 0x00, 0x73, 0x65, 0x71, 0x75,
  0x65, 0x6e, 0x74, 0x69, 0x61, 0x6c, 0x2f, 0x64, 0x65, 0x6e, 0x73, 0x65,
  0x5f, 0x34, 0x2f, 0x4d, 0x61, 0x74, 0x4d, 0x75, 0x6c, 0x3b, 0x73, 0x65,
  0x71, 0x75, 0x65, 0x6e, 0x74, 0x69, 0x61, 0x6c, 0x2f, 0x64, 0x65, 0x6e,
  0x73, 0x65, 0x5f, 0x34, 0x2f, 0x52, 0x65, 0x6c, 0x75, 0x3b, 0x73, 0x65,
  0x71, 0x75, 0x65, 0x6e, 0x74, 0x69, 0x61, 0x6c, 0x2f, 0x64, 0x65, 0x6e,
  0x73, 0x65, 0x5f, 0x34, 0x2f, 0x42, 0x69, 0x61, 0x73, 0x41, 0x64, 0x64,
  0x00, 0x00, 0x00, 0x00, 0x02, 0x00, 0x00, 0x00, 0x01, 0x00, 0x00, 0x00,
  0x1e, 0x00, 0x00, 0x00, 0x10, 0xfb, 0xff, 0xff, 0x78, 0x00, 0x00, 0x00,
  0x11, 0x00, 0x00, 0x00, 0x1c, 0x00, 0x00, 0x00, 0x14, 0x00, 0x00, 0x00,
  0x04, 0x00, 0x00, 0x00, 0x02, 0x00, 0x00, 0x00, 0xff, 0xff, 0xff, 0xff,
  0x0a, 0x00, 0x00, 0x00, 0xfc, 0xfa, 0xff, 0xff, 0x4c, 0x00, 0x00, 0x00,
  0x73, 0x65, 0x71, 0x75, 0x65, 0x6e, 0x74, 0x69, 0x61, 0x6c, 0x2f, 0x64,
  0x65, 0x6e, 0x73, 0x65, 0x5f, 0x33, 0x2f, 0x4d, 0x61, 0x74, 0x4d, 0x75,
  0x6c, 0x3b, 0x73, 0x65, 0x71, 0x75, 0x65, 0x6e, 0x74, 0x69, 0x61, 0x6c,
  0x2f, 0x64, 0x65, 0x6e, 0x73, 0x65, 0x5f, 0x33, 0x2f, 0x52, 0x65, 0x6c,
  0x75, 0x3b, 0x73, 0x65, 0x71, 0x75, 0x65, 0x6e, 0x74, 0x69, 0x61, 0x6c,
  0x2f, 0x64, 0x65, 0x6e, 0x73, 0x65, 0x5f, 0x33, 0x2f, 0x42, 0x69, 0x61,
  0x73, 0x41, 0x64, 0x64, 0x00, 0x00, 0x00, 0x00, 0x02, 0x00, 0x00, 0x00,
  0x01, 0x00, 0x00, 0x00, 0x0a, 0x00, 0x00, 0x00, 0x98, 0xfb, 0xff, 0xff,
  0x78, 0x00, 0x00, 0x00, 0x10, 0x00, 0x00, 0x00, 0x1c, 0x00, 0x00, 0x00,
  0x14, 0x00, 0x00, 0x00, 0x04, 0x00, 0x00, 0x00, 0x02, 0x00, 0x00, 0x00,
  0xff, 0xff, 0xff, 0xff, 0x02, 0x00, 0x00, 0x00, 0x84, 0xfb, 0xff, 0xff,
  0x4c, 0x00, 0x00, 0x00, 0x73, 0x65, 0x71, 0x75, 0x65, 0x6e, 0x74, 0x69,
  0x61, 0x6c, 0x2f, 0x64, 0x65, 0x6e, 0x73, 0x65, 0x5f, 0x32, 0x2f, 0x4d,
  0x61, 0x74, 0x4d, 0x75, 0x6c, 0x3b, 0x73, 0x65, 0x71, 0x75, 0x65, 0x6e,
  0x74, 0x69, 0x61, 0x6c, 0x2f, 0x64, 0x65, 0x6e, 0x73, 0x65, 0x5f, 0x32,
  0x2f, 0x52, 0x65, 0x6c, 0x75, 0x3b, 0x73, 0x65, 0x71, 0x75, 0x65, 0x6e,
  0x74, 0x69, 0x61, 0x6c, 0x2f, 0x64, 0x65, 0x6e, 0x73, 0x65, 0x5f, 0x32,
  0x2f, 0x42, 0x69, 0x61, 0x73, 0x41, 0x64, 0x64, 0x00, 0x00, 0x00, 0x00,
  0x02, 0x00, 0x00, 0x00, 0x01, 0x00, 0x00, 0x00, 0x02, 0x00, 0x00, 0x00,
  0x20, 0xfc, 0xff, 0xff, 0x78, 0x00, 0x00, 0x00, 0x0f, 0x00, 0x00, 0x00,
  0x1c, 0x00, 0x00, 0x00, 0x14, 0x00, 0x00, 0x00, 0x04, 0x00, 0x00, 0x00,
  0x02, 0x00, 0x00, 0x00, 0xff, 0xff, 0xff, 0xff, 0x0a, 0x00, 0x00, 0x00,
  0x0c, 0xfc, 0xff, 0xff, 0x4c, 0x00, 0x00, 0x00, 0x73, 0x65, 0x71, 0x75,
  0x65, 0x6e, 0x74, 0x69, 0x61, 0x6c, 0x2f, 0x64, 0x65, 0x6e, 0x73, 0x65,
  0x5f, 0x31, 0x2f, 0x4d, 0x61, 0x74, 0x4d, 0x75, 0x6c, 0x3b, 0x73, 0x65,
  0x71, 0x75, 0x65, 0x6e, 0x74, 0x69, 0x61, 0x6c, 0x2f, 0x64, 0x65, 0x6e,
  0x73, 0x65, 0x5f, 0x31, 0x2f, 0x52, 0x65, 0x6c, 0x75, 0x3b, 0x73, 0x65,
  0x71, 0x75, 0x65, 0x6e, 0x74, 0x69, 0x61, 0x6c, 0x2f, 0x64, 0x65, 0x6e,
  0x73, 0x65, 0x5f, 0x31, 0x2f, 0x42, 0x69, 0x61, 0x73, 0x41, 0x64, 0x64,
  0x00, 0x00, 0x00, 0x00, 0x02, 0x00, 0x00, 0x00, 0x01, 0x00, 0x00, 0x00,
  0x0a, 0x00, 0x00, 0x00, 0xa8, 0xfc, 0xff, 0xff, 0x70, 0x00, 0x00, 0x00,
  0x0e, 0x00, 0x00, 0x00, 0x1c, 0x00, 0x00, 0x00, 0x14, 0x00, 0x00, 0x00,
  0x04, 0x00, 0x00, 0x00, 0x02, 0x00, 0x00, 0x00, 0xff, 0xff, 0xff, 0xff,
  0x1e, 0x00, 0x00, 0x00, 0x94, 0xfc, 0xff, 0xff, 0x46, 0x00, 0x00, 0x00,
  0x73, 0x65, 0x71, 0x75, 0x65, 0x6e, 0x74, 0x69, 0x61, 0x6c, 0x2f, 0x64,
  0x65, 0x6e, 0x73, 0x65, 0x2f, 0x4d, 0x61, 0x74, 0x4d, 0x75, 0x6c, 0x3b,
  0x73, 0x65, 0x71, 0x75, 0x65, 0x6e, 0x74, 0x69, 0x61, 0x6c, 0x2f, 0x64,
  0x65, 0x6e, 0x73, 0x65, 0x2f, 0x52, 0x65, 0x6c, 0x75, 0x3b, 0x73, 0x65,
  0x71, 0x75, 0x65, 0x6e, 0x74, 0x69, 0x61, 0x6c, 0x2f, 0x64, 0x65, 0x6e,
  0x73, 0x65, 0x2f, 0x42, 0x69, 0x61, 0x73, 0x41, 0x64, 0x64, 0x00, 0x00,
  0x02, 0x00, 0x00, 0x00, 0x01, 0x00, 0x00, 0x00, 0x1e, 0x00, 0x00, 0x00,
  0x6a, 0xfd, 0xff, 0xff, 0x34, 0x00, 0x00, 0x00, 0x0d, 0x00, 0x00, 0x00,
  0x0c, 0x00, 0x00, 0x00, 0x04, 0x00, 0x00, 0x00, 0x04, 0xfd, 0xff, 0xff,
  0x19, 0x00, 0x00, 0x00, 0x73, 0x65, 0x71, 0x75, 0x65, 0x6e, 0x74, 0x69,
  0x61, 0x6c, 0x2f, 0x64, 0x65, 0x6e, 0x73, 0x65, 0x5f, 0x35, 0x2f, 0x4d,
  0x61, 0x74, 0x4d, 0x75, 0x6c, 0x00, 0x00, 0x00, 0x02, 0x00, 0x00, 0x00,
  0x19, 0x00, 0x00, 0x00, 0x1e, 0x00, 0x00, 0x00, 0xae, 0xfd, 0xff, 0xff,
  0x34, 0x00, 0x00, 0x00, 0x0c, 0x00, 0x00, 0x00, 0x0c, 0x00, 0x00, 0x00,
  0x04, 0x00, 0x00, 0x00, 0x48, 0xfd, 0xff, 0xff, 0x19, 0x00, 0x00, 0x00,
  0x73, 0x65, 0x71, 0x75, 0x65, 0x6e, 0x74, 0x69, 0x61, 0x6c, 0x2f, 0x64,
  0x65, 0x6e, 0x73, 0x65, 0x5f, 0x34, 0x2f, 0x4d, 0x61, 0x74, 0x4d, 0x75,
  0x6c, 0x00, 0x00, 0x00, 0x02, 0x00, 0x00, 0x00, 0x1e, 0x00, 0x00, 0x00,
  0x0a, 0x00, 0x00, 0x00, 0xf2, 0xfd, 0xff, 0xff, 0x34, 0x00, 0x00, 0x00,
  0x0b, 0x00, 0x00, 0x00, 0x0c, 0x00, 0x00, 0x00, 0x04, 0x00, 0x00, 0x00,
  0x8c, 0xfd, 0xff, 0xff, 0x19, 0x00, 0x00, 0x00, 0x73, 0x65, 0x71, 0x75,
  0x65, 0x6e, 0x74, 0x69, 0x61, 0x6c, 0x2f, 0x64, 0x65, 0x6e, 0x73, 0x65,
  0x5f, 0x33, 0x2f, 0x4d, 0x61, 0x74, 0x4d, 0x75, 0x6c, 0x00, 0x00, 0x00,
  0x02, 0x00, 0x00, 0x00, 0x0a, 0x00, 0x00, 0x00, 0x02, 0x00, 0x00, 0x00,
  0x36, 0xfe, 0xff, 0xff, 0x34, 0x00, 0x00, 0x00, 0x0a, 0x00, 0x00, 0x00,
  0x0c, 0x00, 0x00, 0x00, 0x04, 0x00, 0x00, 0x00, 0xd0, 0xfd, 0xff, 0xff,
  0x19, 0x00, 0x00, 0x00, 0x73, 0x65, 0x71, 0x75, 0x65, 0x6e, 0x74, 0x69,
  0x61, 0x6c, 0x2f, 0x64, 0x65, 0x6e, 0x73, 0x65, 0x5f, 0x32, 0x2f, 0x4d,
  0x61, 0x74, 0x4d, 0x75, 0x6c, 0x00, 0x00, 0x00, 0x02, 0x00, 0x00, 0x00,
  0x02, 0x00, 0x00, 0x00, 0x0a, 0x00, 0x00, 0x00, 0x7a, 0xfe, 0xff, 0xff,
  0x34, 0x00, 0x00, 0x00, 0x09, 0x00, 0x00, 0x00, 0x0c, 0x00, 0x00, 0x00,
  0x04, 0x00, 0x00, 0x00, 0x14, 0xfe, 0xff, 0xff, 0x19, 0x00, 0x00, 0x00,
  0x73, 0x65, 0x71, 0x75, 0x65, 0x6e, 0x74, 0x69, 0x61, 0x6c, 0x2f, 0x64,
  0x65, 0x6e, 0x73, 0x65, 0x5f, 0x31, 0x2f, 0x4d, 0x61, 0x74, 0x4d, 0x75,
  0x6c, 0x00, 0x00, 0x00, 0x02, 0x00, 0x00, 0x00, 0x0a, 0x00, 0x00, 0x00,
  0x1e, 0x00, 0x00, 0x00, 0xbe, 0xfe, 0xff, 0xff, 0x30, 0x00, 0x00, 0x00,
  0x08, 0x00, 0x00, 0x00, 0x0c, 0x00, 0x00, 0x00, 0x04, 0x00, 0x00, 0x00,
  0x58, 0xfe, 0xff, 0xff, 0x17, 0x00, 0x00, 0x00, 0x73, 0x65, 0x71, 0x75,
  0x65, 0x6e, 0x74, 0x69, 0x61, 0x6c, 0x2f, 0x64, 0x65, 0x6e, 0x73, 0x65,
  0x2f, 0x4d, 0x61, 0x74, 0x4d, 0x75, 0x6c, 0x00, 0x02, 0x00, 0x00, 0x00,
  0x1e, 0x00, 0x00, 0x00, 0x19, 0x00, 0x00, 0x00, 0xfe, 0xfe, 0xff, 0xff,
  0x24, 0x00, 0x00, 0x00, 0x07, 0x00, 0x00, 0x00, 0x0c, 0x00, 0x00, 0x00,
  0x04, 0x00, 0x00, 0x00, 0x98, 0xfe, 0xff, 0xff, 0x0a, 0x00, 0x00, 0x00,
  0x64, 0x65, 0x6e, 0x73, 0x65, 0x2f, 0x62, 0x69, 0x61, 0x73, 0x00, 0x00,
  0x01, 0x00, 0x00, 0x00, 0x1e, 0x00, 0x00, 0x00, 0x2e, 0xff, 0xff, 0xff,
  0x28, 0x00, 0x00, 0x00, 0x06, 0x00, 0x00, 0x00, 0x0c, 0x00, 0x00, 0x00,
  0x04, 0x00, 0x00, 0x00, 0xc8, 0xfe, 0xff, 0xff, 0x0c, 0x00, 0x00, 0x00,
  0x64, 0x65, 0x6e, 0x73, 0x65, 0x5f, 0x31, 0x2f, 0x62, 0x69, 0x61, 0x73,
  0x00, 0x00, 0x00, 0x00, 0x01, 0x00, 0x00, 0x00, 0x0a, 0x00, 0x00, 0x00,
  0x62, 0xff, 0xff, 0xff, 0x28, 0x00, 0x00, 0x00, 0x05, 0x00, 0x00, 0x00,
  0x0c, 0x00, 0x00, 0x00, 0x04, 0x00, 0x00, 0x00, 0xfc, 0xfe, 0xff, 0xff,
  0x0c, 0x00, 0x00, 0x00, 0x64, 0x65, 0x6e, 0x73, 0x65, 0x5f, 0x32, 0x2f,
  0x62, 0x69, 0x61, 0x73, 0x00, 0x00, 0x00, 0x00, 0x01, 0x00, 0x00, 0x00,
  0x02, 0x00, 0x00, 0x00, 0x96, 0xff, 0xff, 0xff, 0x28, 0x00, 0x00, 0x00,
  0x04, 0x00, 0x00, 0x00, 0x0c, 0x00, 0x00, 0x00, 0x04, 0x00, 0x00, 0x00,
  0x30, 0xff, 0xff, 0xff, 0x0c, 0x00, 0x00, 0x00, 0x64, 0x65, 0x6e, 0x73,
  0x65, 0x5f, 0x33, 0x2f, 0x62, 0x69, 0x61, 0x73, 0x00, 0x00, 0x00, 0x00,
  0x01, 0x00, 0x00, 0x00, 0x0a, 0x00, 0x00, 0x00, 0xca, 0xff, 0xff, 0xff,
  0x28, 0x00, 0x00, 0x00, 0x03, 0x00, 0x00, 0x00, 0x0c, 0x00, 0x00, 0x00,
  0x04, 0x00, 0x00, 0x00, 0x64, 0xff, 0xff, 0xff, 0x0c, 0x00, 0x00, 0x00,
  0x64, 0x65, 0x6e, 0x73, 0x65, 0x5f, 0x34, 0x2f, 0x62, 0x69, 0x61, 0x73,
  0x00, 0x00, 0x00, 0x00, 0x01, 0x00, 0x00, 0x00, 0x1e, 0x00, 0x00, 0x00,
  0x00, 0x00, 0x0e, 0x00, 0x14, 0x00, 0x04, 0x00, 0x00, 0x00, 0x08, 0x00,
  0x0c, 0x00, 0x10, 0x00, 0x0e, 0x00, 0x00, 0x00, 0x28, 0x00, 0x00, 0x00,
  0x02, 0x00, 0x00, 0x00, 0x0c, 0x00, 0x00, 0x00, 0x04, 0x00, 0x00, 0x00,
  0xa8, 0xff, 0xff, 0xff, 0x0c, 0x00, 0x00, 0x00, 0x64, 0x65, 0x6e, 0x73,
  0x65, 0x5f, 0x35, 0x2f, 0x62, 0x69, 0x61, 0x73, 0x00, 0x00, 0x00, 0x00,
  0x01, 0x00, 0x00, 0x00, 0x19, 0x00, 0x00, 0x00, 0x14, 0x00, 0x18, 0x00,
  0x04, 0x00, 0x00, 0x00, 0x08, 0x00, 0x0c, 0x00, 0x10, 0x00, 0x00, 0x00,
  0x00, 0x00, 0x14, 0x00, 0x14, 0x00, 0x00, 0x00, 0x4c, 0x00, 0x00, 0x00,
  0x01, 0x00, 0x00, 0x00, 0x20, 0x00, 0x00, 0x00, 0x18, 0x00, 0x00, 0x00,
  0x04, 0x00, 0x00, 0x00, 0x02, 0x00, 0x00, 0x00, 0xff, 0xff, 0xff, 0xff,
  0x19, 0x00, 0x00, 0x00, 0x04, 0x00, 0x04, 0x00, 0x04, 0x00, 0x00, 0x00,
  0x1d, 0x00, 0x00, 0x00, 0x73, 0x65, 0x72, 0x76, 0x69, 0x6e, 0x67, 0x5f,
  0x64, 0x65, 0x66, 0x61, 0x75, 0x6c, 0x74, 0x5f, 0x64, 0x65, 0x6e, 0x73,
  0x65, 0x5f, 0x69, 0x6e, 0x70, 0x75, 0x74, 0x3a, 0x30, 0x00, 0x00, 0x00,
  0x02, 0x00, 0x00, 0x00, 0x01, 0x00, 0x00, 0x00, 0x19, 0x00, 0x00, 0x00,
  0x01, 0x00, 0x00, 0x00, 0x10, 0x00, 0x00, 0x00, 0x0c, 0x00, 0x10, 0x00,
  0x07, 0x00, 0x00, 0x00, 0x08, 0x00, 0x0c, 0x00, 0x0c, 0x00, 0x00, 0x00,
  0x00, 0x00, 0x00, 0x09, 0x09, 0x00, 0x00, 0x00, 0x09, 0x00, 0x00, 0x00
};
const int g_model_len = 11904;
