/* Copyright 2020 The TensorFlow Authors. All Rights Reserved.

Licensed under the Apache License, Version 2.0 (the "License");
you may not use this file except in compliance with the License.
You may obtain a copy of the License at

    http://www.apache.org/licenses/LICENSE-2.0

Unless required by applicable law or agreed to in writing, software
distributed under the License is distributed on an "AS IS" BASIS,
WITHOUT WARRANTIES OR CONDITIONS OF ANY KIND, either express or implied.
See the License for the specific language governing permissions and
limitations under the License.
==============================================================================*/

// Automatically created from a TensorFlow Lite flatbuffer using the command:
// xxd -i model.tflite > model.cc

// This is a standard TensorFlow Lite model file that has been converted into a
// C data array, so it can be easily compiled into a binary for devices that
// don't have a file system.

#include "model.h"

// *****************************************************************************
// modelo quantizado  
// *****************************************************************************

alignas(8) const unsigned char g_model[] = {
  0x1c, 0x00, 0x00, 0x00, 0x54, 0x46, 0x4c, 0x33, 0x14, 0x00, 0x20, 0x00,
  0x1c, 0x00, 0x18, 0x00, 0x14, 0x00, 0x10, 0x00, 0x0c, 0x00, 0x00, 0x00,
  0x08, 0x00, 0x04, 0x00, 0x14, 0x00, 0x00, 0x00, 0x1c, 0x00, 0x00, 0x00,
  0x8c, 0x00, 0x00, 0x00, 0xbc, 0x00, 0x00, 0x00, 0x50, 0x06, 0x00, 0x00,
  0x60, 0x06, 0x00, 0x00, 0xbc, 0x16, 0x00, 0x00, 0x03, 0x00, 0x00, 0x00,
  0x01, 0x00, 0x00, 0x00, 0x04, 0x00, 0x00, 0x00, 0x36, 0xeb, 0xff, 0xff,
  0x0c, 0x00, 0x00, 0x00, 0x1c, 0x00, 0x00, 0x00, 0x3c, 0x00, 0x00, 0x00,
  0x0f, 0x00, 0x00, 0x00, 0x73, 0x65, 0x72, 0x76, 0x69, 0x6e, 0x67, 0x5f,
  0x64, 0x65, 0x66, 0x61, 0x75, 0x6c, 0x74, 0x00, 0x01, 0x00, 0x00, 0x00,
  0x04, 0x00, 0x00, 0x00, 0xb8, 0xff, 0xff, 0xff, 0x17, 0x00, 0x00, 0x00,
  0x04, 0x00, 0x00, 0x00, 0x08, 0x00, 0x00, 0x00, 0x64, 0x65, 0x6e, 0x73,
  0x65, 0x5f, 0x31, 0x31, 0x00, 0x00, 0x00, 0x00, 0x01, 0x00, 0x00, 0x00,
  0x04, 0x00, 0x00, 0x00, 0x12, 0xeb, 0xff, 0xff, 0x04, 0x00, 0x00, 0x00,
  0x0d, 0x00, 0x00, 0x00, 0x64, 0x65, 0x6e, 0x73, 0x65, 0x5f, 0x36, 0x5f,
  0x69, 0x6e, 0x70, 0x75, 0x74, 0x00, 0x00, 0x00, 0x01, 0x00, 0x00, 0x00,
  0x0c, 0x00, 0x00, 0x00, 0x08, 0x00, 0x0c, 0x00, 0x08, 0x00, 0x04, 0x00,
  0x08, 0x00, 0x00, 0x00, 0x19, 0x00, 0x00, 0x00, 0x04, 0x00, 0x00, 0x00,
  0x13, 0x00, 0x00, 0x00, 0x6d, 0x69, 0x6e, 0x5f, 0x72, 0x75, 0x6e, 0x74,
  0x69, 0x6d, 0x65, 0x5f, 0x76, 0x65, 0x72, 0x73, 0x69, 0x6f, 0x6e, 0x00,
  0x1a, 0x00, 0x00, 0x00, 0x90, 0x05, 0x00, 0x00, 0x88, 0x05, 0x00, 0x00,
  0x00, 0x05, 0x00, 0x00, 0x78, 0x04, 0x00, 0x00, 0x70, 0x04, 0x00, 0x00,
  0x68, 0x04, 0x00, 0x00, 0x30, 0x04, 0x00, 0x00, 0x30, 0x03, 0x00, 0x00,
  0x28, 0x03, 0x00, 0x00, 0x20, 0x03, 0x00, 0x00, 0x08, 0x03, 0x00, 0x00,
  0xe8, 0x02, 0x00, 0x00, 0xe0, 0x02, 0x00, 0x00, 0xd8, 0x02, 0x00, 0x00,
  0xa0, 0x02, 0x00, 0x00, 0x80, 0x02, 0x00, 0x00, 0x78, 0x02, 0x00, 0x00,
  0xf0, 0x01, 0x00, 0x00, 0xf0, 0x00, 0x00, 0x00, 0xe8, 0x00, 0x00, 0x00,
  0xe0, 0x00, 0x00, 0x00, 0xbc, 0x00, 0x00, 0x00, 0x34, 0x00, 0x00, 0x00,
  0x2c, 0x00, 0x00, 0x00, 0x24, 0x00, 0x00, 0x00, 0x04, 0x00, 0x00, 0x00,
  0xce, 0xeb, 0xff, 0xff, 0x04, 0x00, 0x00, 0x00, 0x10, 0x00, 0x00, 0x00,
  0x32, 0x2e, 0x33, 0x2e, 0x30, 0x00, 0x00, 0x00, 0x00, 0x00, 0x00, 0x00,
  0x00, 0x00, 0x00, 0x00, 0xb4, 0xea, 0xff, 0xff, 0xb8, 0xea, 0xff, 0xff,
  0xf2, 0xeb, 0xff, 0xff, 0x04, 0x00, 0x00, 0x00, 0x78, 0x00, 0x00, 0x00,
  0x2b, 0xb4, 0xd0, 0x3e, 0x77, 0xd9, 0xb7, 0x3e, 0x01, 0xc1, 0xd2, 0x3e,
  0xbc, 0x74, 0x13, 0x3f, 0xad, 0xa7, 0xcc, 0x3e, 0x76, 0x48, 0xde, 0xbe,
  0x9c, 0x98, 0xe3, 0xbe, 0x55, 0x4c, 0xfa, 0x3e, 0x7c, 0x4f, 0x02, 0x3f,
  0x93, 0x64, 0xb1, 0xbe, 0xe3, 0xfe, 0xbb, 0x3e, 0xd9, 0x64, 0xe0, 0xbe,
  0x28, 0x47, 0xd0, 0x3e, 0x5b, 0xb9, 0x09, 0x3f, 0x16, 0xcb, 0xb4, 0xbe,
  0x35, 0xed, 0xb6, 0x3e, 0x35, 0x3e, 0xbe, 0x3e, 0xc4, 0xad, 0xb2, 0x3e,
  0xdd, 0x8e, 0xd8, 0x3e, 0x57, 0x29, 0xbc, 0x3e, 0xa1, 0x52, 0xb8, 0xbe,
  0x8b, 0xc0, 0xde, 0x3e, 0x51, 0x8d, 0x18, 0x3f, 0xef, 0x4c, 0xc8, 0xbe,
  0x16, 0x8a, 0xc6, 0xbe, 0xe7, 0x68, 0xbd, 0x3e, 0x3b, 0x6f, 0xfe, 0x3e,
  0xb5, 0xbd, 0xbb, 0x3e, 0x66, 0xfa, 0xc8, 0x3e, 0x7c, 0xf0, 0xf3, 0xbe,
  0x76, 0xec, 0xff, 0xff, 0x04, 0x00, 0x00, 0x00, 0x14, 0x00, 0x00, 0x00,
  0x0e, 0x58, 0xc5, 0x3d, 0x9c, 0xdb, 0x8c, 0x3d, 0x8a, 0xfe, 0xa7, 0x3d,
  0x21, 0x69, 0x67, 0x3e, 0x73, 0x01, 0xdc, 0xbc, 0x60, 0xeb, 0xff, 0xff,
  0x64, 0xeb, 0xff, 0xff, 0x9e, 0xec, 0xff, 0xff, 0x04, 0x00, 0x00, 0x00,
  0xf0, 0x00, 0x00, 0x00, 0xf0, 0xa8, 0xa8, 0xbe, 0xaf, 0x24, 0xb2, 0xbe,
  0xa6, 0x85, 0xa6, 0xbe, 0xad, 0x9f, 0xbb, 0x3e, 0x0d, 0x4e, 0xb4, 0x3e,
  0x23, 0x7b, 0xcd, 0x3e, 0x72, 0x25, 0xd6, 0xbe, 0xea, 0x6d, 0xc5, 0xbe,
  0x94, 0x4e, 0xe6, 0xbe, 0x4c, 0x39, 0xca, 0xbe, 0x59, 0xb5, 0xa6, 0xbe,
  0x99, 0x5a, 0xe1, 0x3e, 0x22, 0x76, 0xe6, 0x3e, 0x85, 0x6e, 0xb5, 0x3e,
  0x24, 0xc2, 0xb4, 0xbe, 0x74, 0x74, 0xc0, 0xbe, 0x39, 0x2b, 0xaa, 0xbe,
  0xd5, 0x8c, 0x2d, 0x3f, 0x3a, 0x81, 0xca, 0x3e, 0x78, 0x29, 0xa9, 0x3e,
  0xaa, 0x5c, 0xd4, 0x3e, 0xb4, 0x48, 0xda, 0x3e, 0xa4, 0xb5, 0xa9, 0xbe,
  0x48, 0x8a, 0x01, 0x3f, 0x00, 0xf5, 0xf5, 0x3e, 0xcf, 0x75, 0xab, 0x3e,
  0x27, 0x5d, 0xf6, 0xbe, 0x8b, 0x0d, 0x1a, 0x3f, 0x65, 0x24, 0xf6, 0x3e,
  0x59, 0x6c, 0xed, 0x3e, 0x77, 0x1a, 0xe1, 0x3e, 0x44, 0x91, 0xa5, 0x3e,
  0x8e, 0xa8, 0xc6, 0x3e, 0xf1, 0x46, 0xc5, 0xbe, 0xfe, 0xbf, 0xac, 0x3e,
  0x2c, 0x42, 0x03, 0x3f, 0x4d, 0xfa, 0x17, 0x3f, 0x1a, 0xad, 0xe1, 0x3e,
  0xaa, 0x4c, 0xaa, 0x3e, 0xe2, 0xd4, 0xb8, 0x3e, 0x97, 0x29, 0xdd, 0x3e,
  0x90, 0xc0, 0xb1, 0xbe, 0xa4, 0xe9, 0xbf, 0xbe, 0x73, 0x7d, 0xad, 0x3e,
  0xfe, 0xd6, 0xeb, 0x3e, 0x65, 0x93, 0xbd, 0xbe, 0xf1, 0x93, 0xb3, 0x3e,
  0xf8, 0x92, 0xb8, 0xbe, 0x77, 0x78, 0xba, 0x3e, 0x46, 0xb2, 0xad, 0xbe,
  0x50, 0x59, 0xa7, 0xbe, 0xd8, 0xc3, 0xb0, 0x3e, 0x75, 0x9a, 0xb2, 0xbe,
  0x90, 0xcb, 0xe0, 0xbe, 0x7a, 0xae, 0xb2, 0xbe, 0x3e, 0xf9, 0xbc, 0xbe,
  0x16, 0x24, 0xde, 0x3e, 0x74, 0x74, 0xf8, 0x3e, 0x44, 0x2a, 0xb5, 0x3e,
  0x4f, 0x07, 0xb0, 0xbe, 0x9a, 0xed, 0xff, 0xff, 0x04, 0x00, 0x00, 0x00,
  0x78, 0x00, 0x00, 0x00, 0x00, 0x00, 0x00, 0x00, 0x00, 0x00, 0x00, 0x00,
  0x3a, 0xfd, 0x71, 0xbd, 0xab, 0x92, 0x5e, 0x3e, 0xec, 0xfe, 0x94, 0xbd,
  0x34, 0xc6, 0xff, 0xbc, 0xd9, 0x90, 0x67, 0xbd, 0x00, 0x00, 0x00, 0x00,
  0x0f, 0xa6, 0x9d, 0xbc, 0x7a, 0x71, 0x2b, 0x3e, 0x00, 0x00, 0x00, 0x00,
  0x12, 0xfd, 0x4e, 0xbd, 0xfc, 0xb1, 0xcf, 0xbd, 0xc6, 0xf7, 0x2d, 0x3e,
  0x30, 0xba, 0x50, 0xbc, 0x49, 0x5a, 0x83, 0xbd, 0x00, 0x00, 0x00, 0x00,
  0xc9, 0x09, 0x1a, 0x3d, 0x00, 0x00, 0x00, 0x00, 0x79, 0x68, 0xa8, 0xbc,
  0xff, 0xb2, 0xda, 0x3d, 0x21, 0x48, 0x85, 0x3d, 0x12, 0x5b, 0xe3, 0x3c,
  0xa4, 0x60, 0x55, 0xbd, 0x00, 0x00, 0x00, 0x00, 0x84, 0x04, 0xa9, 0xbd,
  0x00, 0x00, 0x00, 0x00, 0x2d, 0x1f, 0x78, 0x3d, 0xd4, 0x1e, 0xf7, 0x3d,
  0x39, 0x10, 0xb0, 0xbc, 0xe8, 0xec, 0xff, 0xff, 0x22, 0xee, 0xff, 0xff,
  0x04, 0x00, 0x00, 0x00, 0x10, 0x00, 0x00, 0x00, 0x00, 0x00, 0x00, 0x00,
  0xe9, 0x03, 0x3d, 0x3f, 0x00, 0x00, 0x00, 0x80, 0x00, 0x00, 0x00, 0x00,
  0x3e, 0xee, 0xff, 0xff, 0x04, 0x00, 0x00, 0x00, 0x28, 0x00, 0x00, 0x00,
  0x1c, 0x14, 0xc0, 0xbc, 0x00, 0x00, 0x00, 0x00, 0x8a, 0x78, 0x0f, 0x3d,
  0x06, 0xbd, 0xd3, 0xbc, 0xe9, 0xf1, 0xa0, 0x3d, 0x11, 0x08, 0x47, 0xbc,
  0xd2, 0xf2, 0xdd, 0x3d, 0x30, 0x00, 0x09, 0xbe, 0x3a, 0x14, 0x1a, 0xbd,
  0x00, 0x00, 0x00, 0x00, 0x3c, 0xed, 0xff, 0xff, 0x40, 0xed, 0xff, 0xff,
  0x7a, 0xee, 0xff, 0xff, 0x04, 0x00, 0x00, 0x00, 0x10, 0x00, 0x00, 0x00,
  0x82, 0xc4, 0xfb, 0x3e, 0x0b, 0x37, 0x28, 0x3f, 0xa3, 0x90, 0x56, 0x3f,
  0xce, 0xc5, 0x33, 0x3f, 0x96, 0xee, 0xff, 0xff, 0x04, 0x00, 0x00, 0x00,
  0x08, 0x00, 0x00, 0x00, 0x03, 0x09, 0x8a, 0xbc, 0xcc, 0xe2, 0x63, 0x3d,
  0x74, 0xed, 0xff, 0xff, 0x78, 0xed, 0xff, 0xff, 0xb2, 0xee, 0xff, 0xff,
  0x04, 0x00, 0x00, 0x00, 0xf0, 0x00, 0x00, 0x00, 0x3a, 0x41, 0xac, 0x3e,
  0xc4, 0xa7, 0xc2, 0xbe, 0xdf, 0x0b, 0xbd, 0xbe, 0xce, 0x21, 0xc8, 0xbe,
  0xc8, 0xee, 0x03, 0x3f, 0x55, 0x53, 0xb3, 0xbe, 0x02, 0xff, 0xe2, 0x3e,
  0xca, 0xc9, 0xc6, 0x3e, 0x44, 0x28, 0x0c, 0x3f, 0x8d, 0x74, 0x1b, 0x3f,
  0x3b, 0x64, 0x13, 0x3f, 0xe8, 0x1d, 0xb5, 0x3e, 0x80, 0x57, 0xa9, 0xbe,
  0x4f, 0xf3, 0xbb, 0xbe, 0xd3, 0x6e, 0xac, 0xbe, 0x68, 0x2b, 0xb3, 0xbe,
  0xf2, 0x2b, 0xbb, 0xbe, 0x54, 0xc0, 0xa5, 0xbe, 0xf9, 0x9b, 0xd5, 0xbe,
  0x75, 0x71, 0xb0, 0x3e, 0xae, 0x14, 0x00, 0x3f, 0x51, 0xb8, 0xad, 0xbe,
  0xf9, 0x1f, 0xe5, 0x3e, 0xec, 0x16, 0xc0, 0xbe, 0x90, 0xff, 0xc3, 0x3e,
  0x2c, 0xff, 0xaa, 0x3e, 0xac, 0x2a, 0xc5, 0x3e, 0xaf, 0xe0, 0xb9, 0xbe,
  0x80, 0xec, 0x0e, 0x3f, 0x5e, 0x61, 0xe0, 0x3e, 0x62, 0x17, 0xdf, 0xbe,
  0x16, 0x2f, 0x0c, 0xbf, 0xf3, 0x53, 0xca, 0xbe, 0xc7, 0xfe, 0xb7, 0xbe,
  0x7e, 0x94, 0xa8, 0xbe, 0x40, 0x2c, 0xb3, 0xbe, 0x81, 0xfb, 0xc9, 0xbe,
  0xa2, 0x6e, 0xac, 0xbe, 0xfa, 0x28, 0xb4, 0x3e, 0x86, 0x29, 0xbd, 0xbe,
  0x1b, 0xbe, 0xb0, 0xbe, 0xd2, 0x24, 0xb9, 0x3e, 0x4f, 0x8c, 0xaf, 0xbe,
  0xd4, 0x65, 0xbf, 0x3e, 0xb8, 0xdb, 0xdc, 0x3e, 0xa1, 0x8a, 0xc7, 0x3e,
  0xa6, 0xa1, 0xc6, 0xbe, 0xfe, 0x0f, 0xda, 0xbe, 0x88, 0x12, 0x03, 0xbf,
  0xe0, 0x0a, 0xda, 0x3e, 0x8a, 0xc8, 0xab, 0xbe, 0xcf, 0x42, 0x05, 0x3f,
  0xc0, 0xab, 0xe0, 0x3e, 0x8d, 0xbd, 0xca, 0x3e, 0x6a, 0x8e, 0xb7, 0x3e,
  0x83, 0x3b, 0xb8, 0x3e, 0x28, 0xb8, 0x1f, 0x3f, 0x6a, 0x00, 0x31, 0xbf,
  0x62, 0x32, 0xad, 0xbe, 0x79, 0xea, 0xe0, 0x3e, 0xae, 0xef, 0xff, 0xff,
  0x04, 0x00, 0x00, 0x00, 0x28, 0x00, 0x00, 0x00, 0x5b, 0x25, 0x8d, 0xbc,
  0xae, 0xcc, 0x3f, 0xbd, 0x00, 0x00, 0x00, 0x00, 0x17, 0x11, 0xa2, 0x3d,
  0x00, 0x00, 0x00, 0x00, 0xca, 0xa8, 0x0f, 0x3e, 0x29, 0x66, 0xac, 0xbc,
  0x3f, 0x2b, 0xc5, 0xbc, 0x2c, 0xb5, 0xf1, 0x3c, 0x23, 0xa5, 0x2e, 0xbd,
  0xac, 0xee, 0xff, 0xff, 0xb0, 0xee, 0xff, 0xff, 0xea, 0xef, 0xff, 0xff,
  0x04, 0x00, 0x00, 0x00, 0x78, 0x00, 0x00, 0x00, 0x7a, 0x3e, 0xd6, 0x3e,
  0x41, 0xe5, 0x2f, 0x3f, 0x5d, 0xa4, 0xee, 0x3e, 0x20, 0xf1, 0x19, 0x3f,
  0xd1, 0xf7, 0xe4, 0x3e, 0xcf, 0x0a, 0xcd, 0x3e, 0xe3, 0xc0, 0xe1, 0x3e,
  0x44, 0x84, 0x0f, 0x3f, 0x7b, 0xbd, 0xe3, 0xbe, 0x0b, 0xbf, 0xbb, 0xbe,
  0xc6, 0x91, 0xb7, 0xbe, 0x70, 0x8f, 0xeb, 0x3e, 0xa2, 0xad, 0x05, 0x3f,
  0x8c, 0x82, 0xcc, 0xbe, 0xee, 0x65, 0x0d, 0x3f, 0x85, 0x82, 0xef, 0x3e,
  0xea, 0x4a, 0xcb, 0xbe, 0xb9, 0x4a, 0xdc, 0xbe, 0xa1, 0x29, 0xdc, 0x3e,
  0xfe, 0x5f, 0xff, 0xbe, 0xac, 0x59, 0xed, 0x3e, 0xb3, 0x08, 0xdd, 0x3e,
  0x03, 0x09, 0xc5, 0x3e, 0xc8, 0x5c, 0x26, 0x3f, 0xdb, 0xee, 0x1b, 0x3f,
  0x9a, 0x00, 0xf5, 0x3e, 0x86, 0x4b, 0xe4, 0x3e, 0x5c, 0x34, 0xc0, 0xbe,
  0xef, 0x34, 0x10, 0x3f, 0x81, 0x24, 0xe1, 0x3e, 0x6e, 0xf0, 0xff, 0xff,
  0x04, 0x00, 0x00, 0x00, 0x78, 0x00, 0x00, 0x00, 0x4c, 0xd2, 0xa7, 0xbd,
  0x2f, 0x1a, 0xae, 0x3d, 0xd9, 0x7e, 0x87, 0xbd, 0x6e, 0x02, 0x07, 0x3c,
  0x00, 0x00, 0x00, 0x00, 0xc7, 0x6a, 0x57, 0xbd, 0xc7, 0xd5, 0x59, 0x3b,
  0x75, 0x67, 0xd9, 0x3b, 0x2a, 0xd2, 0x03, 0xbe, 0x96, 0x16, 0x3c, 0xbc,
  0x00, 0x00, 0x00, 0x00, 0x5a, 0xe7, 0xc5, 0xbd, 0x00, 0x00, 0x00, 0x00,
  0x12, 0xea, 0x31, 0x3e, 0x1a, 0x6b, 0x00, 0x3d, 0xba, 0x1b, 0x77, 0x3d,
  0xa4, 0x90, 0x61, 0x3e, 0x24, 0x72, 0x5b, 0x3e, 0x78, 0x1d, 0x6d, 0xbd,
  0xff, 0xf9, 0x2b, 0xbd, 0x00, 0x00, 0x00, 0x00, 0x10, 0x23, 0xe0, 0xbc,
  0xd5, 0xad, 0x49, 0xbd, 0x12, 0xf6, 0x83, 0xbd, 0x00, 0x00, 0x00, 0x00,
  0x90, 0x78, 0x02, 0xbe, 0x09, 0x45, 0xa6, 0xbc, 0x76, 0x33, 0x44, 0xbd,
  0x99, 0x13, 0x38, 0xbd, 0x91, 0xe3, 0x2e, 0xbd, 0xbc, 0xef, 0xff, 0xff,
  0xc0, 0xef, 0xff, 0xff, 0x0f, 0x00, 0x00, 0x00, 0x4d, 0x4c, 0x49, 0x52,
  0x20, 0x43, 0x6f, 0x6e, 0x76, 0x65, 0x72, 0x74, 0x65, 0x64, 0x2e, 0x00,
  0x01, 0x00, 0x00, 0x00, 0x14, 0x00, 0x00, 0x00, 0x00, 0x00, 0x0e, 0x00,
  0x18, 0x00, 0x14, 0x00, 0x10, 0x00, 0x0c, 0x00, 0x08, 0x00, 0x04, 0x00,
  0x0e, 0x00, 0x00, 0x00, 0x14, 0x00, 0x00, 0x00, 0x1c, 0x00, 0x00, 0x00,
  0x44, 0x02, 0x00, 0x00, 0x48, 0x02, 0x00, 0x00, 0x4c, 0x02, 0x00, 0x00,
  0x04, 0x00, 0x00, 0x00, 0x6d, 0x61, 0x69, 0x6e, 0x00, 0x00, 0x00, 0x00,
  0x0b, 0x00, 0x00, 0x00, 0x0c, 0x02, 0x00, 0x00, 0xbc, 0x01, 0x00, 0x00,
  0x8c, 0x01, 0x00, 0x00, 0x50, 0x01, 0x00, 0x00, 0x30, 0x01, 0x00, 0x00,
  0xf4, 0x00, 0x00, 0x00, 0xb8, 0x00, 0x00, 0x00, 0x98, 0x00, 0x00, 0x00,
  0x5c, 0x00, 0x00, 0x00, 0x3c, 0x00, 0x00, 0x00, 0x04, 0x00, 0x00, 0x00,
  0x7a, 0xfe, 0xff, 0xff, 0x14, 0x00, 0x00, 0x00, 0x00, 0x00, 0x00, 0x08,
  0x10, 0x00, 0x00, 0x00, 0x14, 0x00, 0x00, 0x00, 0x01, 0x00, 0x00, 0x00,
  0x5c, 0xf0, 0xff, 0xff, 0x01, 0x00, 0x00, 0x00, 0x17, 0x00, 0x00, 0x00,
  0x03, 0x00, 0x00, 0x00, 0x13, 0x00, 0x00, 0x00, 0x16, 0x00, 0x00, 0x00,
  0x14, 0x00, 0x00, 0x00, 0x5e, 0xfe, 0xff, 0xff, 0x08, 0x00, 0x00, 0x00,
  0x0c, 0x00, 0x00, 0x00, 0x01, 0x00, 0x00, 0x00, 0x16, 0x00, 0x00, 0x00,
  0x01, 0x00, 0x00, 0x00, 0x15, 0x00, 0x00, 0x00, 0xca, 0xfe, 0xff, 0xff,
  0x14, 0x00, 0x00, 0x00, 0x00, 0x00, 0x00, 0x08, 0x14, 0x00, 0x00, 0x00,
  0x18, 0x00, 0x00, 0x00, 0x01, 0x00, 0x00, 0x00, 0xba, 0xfe, 0xff, 0xff,
  0x00, 0x00, 0x00, 0x01, 0x01, 0x00, 0x00, 0x00, 0x13, 0x00, 0x00, 0x00,
  0x03, 0x00, 0x00, 0x00, 0x0f, 0x00, 0x00, 0x00, 0x12, 0x00, 0x00, 0x00,
  0x10, 0x00, 0x00, 0x00, 0xb2, 0xfe, 0xff, 0xff, 0x08, 0x00, 0x00, 0x00,
  0x0c, 0x00, 0x00, 0x00, 0x01, 0x00, 0x00, 0x00, 0x12, 0x00, 0x00, 0x00,
  0x01, 0x00, 0x00, 0x00, 0x11, 0x00, 0x00, 0x00, 0x1e, 0xff, 0xff, 0xff,
  0x14, 0x00, 0x00, 0x00, 0x00, 0x00, 0x00, 0x08, 0x14, 0x00, 0x00, 0x00,
  0x18, 0x00, 0x00, 0x00, 0x01, 0x00, 0x00, 0x00, 0x0e, 0xff, 0xff, 0xff,
  0x00, 0x00, 0x00, 0x01, 0x01, 0x00, 0x00, 0x00, 0x0f, 0x00, 0x00, 0x00,
  0x03, 0x00, 0x00, 0x00, 0x0c, 0x00, 0x00, 0x00, 0x0e, 0x00, 0x00, 0x00,
  0x0d, 0x00, 0x00, 0x00, 0x56, 0xff, 0xff, 0xff, 0x14, 0x00, 0x00, 0x00,
  0x00, 0x00, 0x00, 0x08, 0x14, 0x00, 0x00, 0x00, 0x18, 0x00, 0x00, 0x00,
  0x01, 0x00, 0x00, 0x00, 0x46, 0xff, 0xff, 0xff, 0x00, 0x00, 0x00, 0x01,
  0x01, 0x00, 0x00, 0x00, 0x0c, 0x00, 0x00, 0x00, 0x03, 0x00, 0x00, 0x00,
  0x08, 0x00, 0x00, 0x00, 0x0b, 0x00, 0x00, 0x00, 0x09, 0x00, 0x00, 0x00,
  0x3e, 0xff, 0xff, 0xff, 0x08, 0x00, 0x00, 0x00, 0x0c, 0x00, 0x00, 0x00,
  0x01, 0x00, 0x00, 0x00, 0x0b, 0x00, 0x00, 0x00, 0x01, 0x00, 0x00, 0x00,
  0x0a, 0x00, 0x00, 0x00, 0xaa, 0xff, 0xff, 0xff, 0x14, 0x00, 0x00, 0x00,
  0x00, 0x00, 0x00, 0x08, 0x14, 0x00, 0x00, 0x00, 0x18, 0x00, 0x00, 0x00,
  0x01, 0x00, 0x00, 0x00, 0x9a, 0xff, 0xff, 0xff, 0x00, 0x00, 0x00, 0x01,
  0x01, 0x00, 0x00, 0x00, 0x08, 0x00, 0x00, 0x00, 0x03, 0x00, 0x00, 0x00,
  0x04, 0x00, 0x00, 0x00, 0x07, 0x00, 0x00, 0x00, 0x05, 0x00, 0x00, 0x00,
  0x92, 0xff, 0xff, 0xff, 0x08, 0x00, 0x00, 0x00, 0x0c, 0x00, 0x00, 0x00,
  0x01, 0x00, 0x00, 0x00, 0x07, 0x00, 0x00, 0x00, 0x01, 0x00, 0x00, 0x00,
  0x06, 0x00, 0x00, 0x00, 0x00, 0x00, 0x0e, 0x00, 0x1a, 0x00, 0x14, 0x00,
  0x10, 0x00, 0x0c, 0x00, 0x0b, 0x00, 0x04, 0x00, 0x0e, 0x00, 0x00, 0x00,
  0x1c, 0x00, 0x00, 0x00, 0x00, 0x00, 0x00, 0x08, 0x1c, 0x00, 0x00, 0x00,
  0x20, 0x00, 0x00, 0x00, 0x01, 0x00, 0x00, 0x00, 0x00, 0x00, 0x06, 0x00,
  0x08, 0x00, 0x07, 0x00, 0x06, 0x00, 0x00, 0x00, 0x00, 0x00, 0x00, 0x01,
  0x01, 0x00, 0x00, 0x00, 0x04, 0x00, 0x00, 0x00, 0x03, 0x00, 0x00, 0x00,
  0x00, 0x00, 0x00, 0x00, 0x03, 0x00, 0x00, 0x00, 0x01, 0x00, 0x00, 0x00,
  0x00, 0x00, 0x0a, 0x00, 0x0c, 0x00, 0x00, 0x00, 0x08, 0x00, 0x04, 0x00,
  0x0a, 0x00, 0x00, 0x00, 0x08, 0x00, 0x00, 0x00, 0x0c, 0x00, 0x00, 0x00,
  0x01, 0x00, 0x00, 0x00, 0x03, 0x00, 0x00, 0x00, 0x01, 0x00, 0x00, 0x00,
  0x02, 0x00, 0x00, 0x00, 0x01, 0x00, 0x00, 0x00, 0x17, 0x00, 0x00, 0x00,
  0x01, 0x00, 0x00, 0x00, 0x00, 0x00, 0x00, 0x00, 0x18, 0x00, 0x00, 0x00,
  0x88, 0x0d, 0x00, 0x00, 0x3c, 0x0d, 0x00, 0x00, 0xe0, 0x0b, 0x00, 0x00,
  0x4c, 0x0b, 0x00, 0x00, 0xbc, 0x0a, 0x00, 0x00, 0x84, 0x0a, 0x00, 0x00,
  0x58, 0x09, 0x00, 0x00, 0xd8, 0x08, 0x00, 0x00, 0x48, 0x08, 0x00, 0x00,
  0x10, 0x08, 0x00, 0x00, 0x24, 0x07, 0x00, 0x00, 0xa4, 0x06, 0x00, 0x00,
  0x14, 0x06, 0x00, 0x00, 0xdc, 0x05, 0x00, 0x00, 0xd4, 0x04, 0x00, 0x00,
  0x44, 0x04, 0x00, 0x00, 0x0c, 0x04, 0x00, 0x00, 0xc8, 0x02, 0x00, 0x00,
  0x44, 0x02, 0x00, 0x00, 0xb0, 0x01, 0x00, 0x00, 0x78, 0x01, 0x00, 0x00,
  0xa4, 0x00, 0x00, 0x00, 0x5c, 0x00, 0x00, 0x00, 0x04, 0x00, 0x00, 0x00,
  0xec, 0xf2, 0xff, 0xff, 0x14, 0x00, 0x00, 0x00, 0x1c, 0x00, 0x00, 0x00,
  0x1c, 0x00, 0x00, 0x00, 0x18, 0x00, 0x00, 0x00, 0x34, 0x00, 0x00, 0x00,
  0x02, 0x00, 0x00, 0x00, 0xff, 0xff, 0xff, 0xff, 0x05, 0x00, 0x00, 0x00,
  0xd8, 0xf2, 0xff, 0xff, 0x19, 0x00, 0x00, 0x00, 0x53, 0x74, 0x61, 0x74,
  0x65, 0x66, 0x75, 0x6c, 0x50, 0x61, 0x72, 0x74, 0x69, 0x74, 0x69, 0x6f,
  0x6e, 0x65, 0x64, 0x43, 0x61, 0x6c, 0x6c, 0x3a, 0x30, 0x00, 0x00, 0x00,
  0x02, 0x00, 0x00, 0x00, 0x01, 0x00, 0x00, 0x00, 0x05, 0x00, 0x00, 0x00,
  0x82, 0xf3, 0xff, 0xff, 0x10, 0x00, 0x00, 0x00, 0x10, 0x00, 0x00, 0x00,
  0x17, 0x00, 0x00, 0x00, 0x28, 0x00, 0x00, 0x00, 0x1c, 0xf3, 0xff, 0xff,
  0x1a, 0x00, 0x00, 0x00, 0x53, 0x74, 0x61, 0x74, 0x65, 0x66, 0x75, 0x6c,
  0x50, 0x61, 0x72, 0x74, 0x69, 0x74, 0x69, 0x6f, 0x6e, 0x65, 0x64, 0x43,
  0x61, 0x6c, 0x6c, 0x3a, 0x30, 0x32, 0x00, 0x00, 0x02, 0x00, 0x00, 0x00,
  0x05, 0x00, 0x00, 0x00, 0x1e, 0x00, 0x00, 0x00, 0x22, 0xf5, 0xff, 0xff,
  0x14, 0x00, 0x00, 0x00, 0x98, 0x00, 0x00, 0x00, 0x98, 0x00, 0x00, 0x00,
  0x16, 0x00, 0x00, 0x00, 0xb0, 0x00, 0x00, 0x00, 0x0e, 0xf5, 0xff, 0xff,
  0x0c, 0x00, 0x00, 0x00, 0x70, 0x00, 0x00, 0x00, 0x70, 0x00, 0x00, 0x00,
  0x02, 0x00, 0x00, 0x00, 0x5c, 0x00, 0x00, 0x00, 0x04, 0x00, 0x00, 0x00,
  0x04, 0xf5, 0xff, 0xff, 0x10, 0x00, 0x00, 0x00, 0x00, 0x00, 0x00, 0x03,
  0x34, 0x00, 0x00, 0x00, 0x00, 0x00, 0x03, 0x01, 0xca, 0xf4, 0xff, 0xff,
  0x04, 0x00, 0x00, 0x00, 0x1e, 0x00, 0x00, 0x00, 0x01, 0x03, 0x09, 0x0b,
  0x0c, 0x0d, 0x14, 0x16, 0x06, 0x08, 0x0a, 0x0b, 0x0d, 0x11, 0x17, 0x07,
  0x08, 0x0d, 0x11, 0x15, 0x16, 0x1b, 0x03, 0x1a, 0x00, 0x06, 0x0b, 0x0e,
  0x11, 0x14, 0x00, 0x00, 0xf6, 0xf4, 0xff, 0xff, 0x04, 0x00, 0x00, 0x00,
  0x06, 0x00, 0x00, 0x00, 0x00, 0x08, 0x0f, 0x16, 0x18, 0x1e, 0x00, 0x00,
  0xd8, 0xf4, 0xff, 0xff, 0x05, 0x00, 0x00, 0x00, 0x00, 0x00, 0x00, 0x00,
  0x02, 0x00, 0x00, 0x00, 0x00, 0x00, 0x00, 0x00, 0x01, 0x00, 0x00, 0x00,
  0xec, 0xf3, 0xff, 0xff, 0x1a, 0x00, 0x00, 0x00, 0x53, 0x74, 0x61, 0x74,
  0x65, 0x66, 0x75, 0x6c, 0x50, 0x61, 0x72, 0x74, 0x69, 0x74, 0x69, 0x6f,
  0x6e, 0x65, 0x64, 0x43, 0x61, 0x6c, 0x6c, 0x3a, 0x30, 0x31, 0x00, 0x00,
  0x02, 0x00, 0x00, 0x00, 0x05, 0x00, 0x00, 0x00, 0x1e, 0x00, 0x00, 0x00,
  0x96, 0xf4, 0xff, 0xff, 0x10, 0x00, 0x00, 0x00, 0x10, 0x00, 0x00, 0x00,
  0x15, 0x00, 0x00, 0x00, 0x1c, 0x00, 0x00, 0x00, 0x30, 0xf4, 0xff, 0xff,
  0x0d, 0x00, 0x00, 0x00, 0x64, 0x65, 0x6e, 0x73, 0x65, 0x5f, 0x31, 0x31,
  0x2f, 0x62, 0x69, 0x61, 0x73, 0x00, 0x00, 0x00, 0x01, 0x00, 0x00, 0x00,
  0x05, 0x00, 0x00, 0x00, 0x88, 0xf4, 0xff, 0xff, 0x14, 0x00, 0x00, 0x00,
  0x1c, 0x00, 0x00, 0x00, 0x1c, 0x00, 0x00, 0x00, 0x14, 0x00, 0x00, 0x00,
  0x70, 0x00, 0x00, 0x00, 0x02, 0x00, 0x00, 0x00, 0xff, 0xff, 0xff, 0xff,
  0x1e, 0x00, 0x00, 0x00, 0x74, 0xf4, 0xff, 0xff, 0x56, 0x00, 0x00, 0x00,
  0x73, 0x65, 0x71, 0x75, 0x65, 0x6e, 0x74, 0x69, 0x61, 0x6c, 0x5f, 0x31,
  0x2f, 0x64, 0x65, 0x6e, 0x73, 0x65, 0x5f, 0x31, 0x30, 0x2f, 0x4d, 0x61,
  0x74, 0x4d, 0x75, 0x6c, 0x3b, 0x73, 0x65, 0x71, 0x75, 0x65, 0x6e, 0x74,
  0x69, 0x61, 0x6c, 0x5f, 0x31, 0x2f, 0x64, 0x65, 0x6e, 0x73, 0x65, 0x5f,
  0x31, 0x30, 0x2f, 0x52, 0x65, 0x6c, 0x75, 0x3b, 0x73, 0x65, 0x71, 0x75,
  0x65, 0x6e, 0x74, 0x69, 0x61, 0x6c, 0x5f, 0x31, 0x2f, 0x64, 0x65, 0x6e,
  0x73, 0x65, 0x5f, 0x31, 0x30, 0x2f, 0x42, 0x69, 0x61, 0x73, 0x41, 0x64,
  0x64, 0x32, 0x00, 0x00, 0x02, 0x00, 0x00, 0x00, 0x01, 0x00, 0x00, 0x00,
  0x1e, 0x00, 0x00, 0x00, 0x5a, 0xf5, 0xff, 0xff, 0x10, 0x00, 0x00, 0x00,
  0x10, 0x00, 0x00, 0x00, 0x13, 0x00, 0x00, 0x00, 0x64, 0x00, 0x00, 0x00,
  0xf4, 0xf4, 0xff, 0xff, 0x56, 0x00, 0x00, 0x00, 0x73, 0x65, 0x71, 0x75,
  0x65, 0x6e, 0x74, 0x69, 0x61, 0x6c, 0x5f, 0x31, 0x2f, 0x64, 0x65, 0x6e,
  0x73, 0x65, 0x5f, 0x31, 0x30, 0x2f, 0x4d, 0x61, 0x74, 0x4d, 0x75, 0x6c,
  0x3b, 0x73, 0x65, 0x71, 0x75, 0x65, 0x6e, 0x74, 0x69, 0x61, 0x6c, 0x5f,
  0x31, 0x2f, 0x64, 0x65, 0x6e, 0x73, 0x65, 0x5f, 0x31, 0x30, 0x2f, 0x52,
  0x65, 0x6c, 0x75, 0x3b, 0x73, 0x65, 0x71, 0x75, 0x65, 0x6e, 0x74, 0x69,
  0x61, 0x6c, 0x5f, 0x31, 0x2f, 0x64, 0x65, 0x6e, 0x73, 0x65, 0x5f, 0x31,
  0x30, 0x2f, 0x42, 0x69, 0x61, 0x73, 0x41, 0x64, 0x64, 0x31, 0x00, 0x00,
  0x02, 0x00, 0x00, 0x00, 0x1e, 0x00, 0x00, 0x00, 0x0a, 0x00, 0x00, 0x00,
  0x36, 0xf7, 0xff, 0xff, 0x14, 0x00, 0x00, 0x00, 0xcc, 0x00, 0x00, 0x00,
  0xcc, 0x00, 0x00, 0x00, 0x12, 0x00, 0x00, 0x00, 0x20, 0x01, 0x00, 0x00,
  0x22, 0xf7, 0xff, 0xff, 0x0c, 0x00, 0x00, 0x00, 0xa4, 0x00, 0x00, 0x00,
  0xa4, 0x00, 0x00, 0x00, 0x02, 0x00, 0x00, 0x00, 0x90, 0x00, 0x00, 0x00,
  0x04, 0x00, 0x00, 0x00, 0x18, 0xf7, 0xff, 0xff, 0x10, 0x00, 0x00, 0x00,
  0x00, 0x00, 0x00, 0x03, 0x50, 0x00, 0x00, 0x00, 0x00, 0x00, 0x03, 0x01,
  0xde, 0xf6, 0xff, 0xff, 0x04, 0x00, 0x00, 0x00, 0x3c, 0x00, 0x00, 0x00,
  0x02, 0x08, 0x01, 0x02, 0x04, 0x06, 0x04, 0x09, 0x02, 0x06, 0x00, 0x02,
  0x03, 0x08, 0x02, 0x08, 0x01, 0x00, 0x04, 0x05, 0x07, 0x08, 0x04, 0x00,
  0x05, 0x06, 0x00, 0x03, 0x02, 0x03, 0x05, 0x06, 0x07, 0x07, 0x01, 0x02,
  0x03, 0x06, 0x01, 0x07, 0x06, 0x07, 0x09, 0x06, 0x08, 0x02, 0x03, 0x04,
  0x07, 0x02, 0x06, 0x03, 0x04, 0x04, 0x06, 0x01, 0x04, 0x02, 0x09, 0x00,
  0x26, 0xf7, 0xff, 0xff, 0x04, 0x00, 0x00, 0x00, 0x1f, 0x00, 0x00, 0x00,
  0x00, 0x02, 0x02, 0x02, 0x06, 0x08, 0x0a, 0x0e, 0x10, 0x11, 0x16, 0x17,
  0x1a, 0x1a, 0x1c, 0x21, 0x21, 0x22, 0x26, 0x27, 0x28, 0x2b, 0x2d, 0x31,
  0x33, 0x35, 0x36, 0x37, 0x39, 0x3b, 0x3c, 0x00, 0x20, 0xf7, 0xff, 0xff,
  0x1e, 0x00, 0x00, 0x00, 0x00, 0x00, 0x00, 0x00, 0x02, 0x00, 0x00, 0x00,
  0x00, 0x00, 0x00, 0x00, 0x01, 0x00, 0x00, 0x00, 0x34, 0xf6, 0xff, 0xff,
  0x55, 0x00, 0x00, 0x00, 0x73, 0x65, 0x71, 0x75, 0x65, 0x6e, 0x74, 0x69,
  0x61, 0x6c, 0x5f, 0x31, 0x2f, 0x64, 0x65, 0x6e, 0x73, 0x65, 0x5f, 0x31,
  0x30, 0x2f, 0x4d, 0x61, 0x74, 0x4d, 0x75, 0x6c, 0x3b, 0x73, 0x65, 0x71,
  0x75, 0x65, 0x6e, 0x74, 0x69, 0x61, 0x6c, 0x5f, 0x31, 0x2f, 0x64, 0x65,
  0x6e, 0x73, 0x65, 0x5f, 0x31, 0x30, 0x2f, 0x52, 0x65, 0x6c, 0x75, 0x3b,
  0x73, 0x65, 0x71, 0x75, 0x65, 0x6e, 0x74, 0x69, 0x61, 0x6c, 0x5f, 0x31,
  0x2f, 0x64, 0x65, 0x6e, 0x73, 0x65, 0x5f, 0x31, 0x30, 0x2f, 0x42, 0x69,
  0x61, 0x73, 0x41, 0x64, 0x64, 0x00, 0x00, 0x00, 0x02, 0x00, 0x00, 0x00,
  0x1e, 0x00, 0x00, 0x00, 0x0a, 0x00, 0x00, 0x00, 0x1a, 0xf7, 0xff, 0xff,
  0x10, 0x00, 0x00, 0x00, 0x10, 0x00, 0x00, 0x00, 0x11, 0x00, 0x00, 0x00,
  0x1c, 0x00, 0x00, 0x00, 0xb4, 0xf6, 0xff, 0xff, 0x0d, 0x00, 0x00, 0x00,
  0x64, 0x65, 0x6e, 0x73, 0x65, 0x5f, 0x31, 0x30, 0x2f, 0x62, 0x69, 0x61,
  0x73, 0x00, 0x00, 0x00, 0x01, 0x00, 0x00, 0x00, 0x1e, 0x00, 0x00, 0x00,
  0x0c, 0xf7, 0xff, 0xff, 0x14, 0x00, 0x00, 0x00, 0x1c, 0x00, 0x00, 0x00,
  0x1c, 0x00, 0x00, 0x00, 0x10, 0x00, 0x00, 0x00, 0x6c, 0x00, 0x00, 0x00,
  0x02, 0x00, 0x00, 0x00, 0xff, 0xff, 0xff, 0xff, 0x0a, 0x00, 0x00, 0x00,
  0xf8, 0xf6, 0xff, 0xff, 0x53, 0x00, 0x00, 0x00, 0x73, 0x65, 0x71, 0x75,
  0x65, 0x6e, 0x74, 0x69, 0x61, 0x6c, 0x5f, 0x31, 0x2f, 0x64, 0x65, 0x6e,
  0x73, 0x65, 0x5f, 0x39, 0x2f, 0x4d, 0x61, 0x74, 0x4d, 0x75, 0x6c, 0x3b,
  0x73, 0x65, 0x71, 0x75, 0x65, 0x6e, 0x74, 0x69, 0x61, 0x6c, 0x5f, 0x31,
  0x2f, 0x64, 0x65, 0x6e, 0x73, 0x65, 0x5f, 0x39, 0x2f, 0x52, 0x65, 0x6c,
  0x75, 0x3b, 0x73, 0x65, 0x71, 0x75, 0x65, 0x6e, 0x74, 0x69, 0x61, 0x6c,
  0x5f, 0x31, 0x2f, 0x64, 0x65, 0x6e, 0x73, 0x65, 0x5f, 0x39, 0x2f, 0x42,
  0x69, 0x61, 0x73, 0x41, 0x64, 0x64, 0x31, 0x00, 0x02, 0x00, 0x00, 0x00,
  0x01, 0x00, 0x00, 0x00, 0x0a, 0x00, 0x00, 0x00, 0x36, 0xf9, 0xff, 0xff,
  0x14, 0x00, 0x00, 0x00, 0x94, 0x00, 0x00, 0x00, 0x94, 0x00, 0x00, 0x00,
  0x0f, 0x00, 0x00, 0x00, 0xe4, 0x00, 0x00, 0x00, 0x22, 0xf9, 0xff, 0xff,
  0x0c, 0x00, 0x00, 0x00, 0x64, 0x00, 0x00, 0x00, 0x68, 0x00, 0x00, 0x00,
  0x03, 0x00, 0x00, 0x00, 0x50, 0x00, 0x00, 0x00, 0x10, 0x00, 0x00, 0x00,
  0x04, 0x00, 0x00, 0x00, 0x9c, 0xf8, 0xff, 0xff, 0x04, 0x00, 0x00, 0x00,
  0x24, 0xf9, 0xff, 0xff, 0x10, 0x00, 0x00, 0x00, 0x00, 0x00, 0x00, 0x03,
  0x18, 0x00, 0x00, 0x00, 0x00, 0x00, 0x03, 0x01, 0xea, 0xf8, 0xff, 0xff,
  0x04, 0x00, 0x00, 0x00, 0x01, 0x00, 0x00, 0x00, 0x00, 0x00, 0x00, 0x00,
  0xfa, 0xf8, 0xff, 0xff, 0x04, 0x00, 0x00, 0x00, 0x0b, 0x00, 0x00, 0x00,
  0x00, 0x01, 0x01, 0x01, 0x01, 0x01, 0x01, 0x01, 0x01, 0x01, 0x01, 0x00,
  0xe0, 0xf8, 0xff, 0xff, 0x0a, 0x00, 0x00, 0x00, 0x01, 0x00, 0x00, 0x00,
  0x01, 0x00, 0x00, 0x00, 0x03, 0x00, 0x00, 0x00, 0x00, 0x00, 0x00, 0x00,
  0x01, 0x00, 0x00, 0x00, 0x02, 0x00, 0x00, 0x00, 0xfc, 0xf7, 0xff, 0xff,
  0x52, 0x00, 0x00, 0x00, 0x73, 0x65, 0x71, 0x75, 0x65, 0x6e, 0x74, 0x69,
  0x61, 0x6c, 0x5f, 0x31, 0x2f, 0x64, 0x65, 0x6e, 0x73, 0x65, 0x5f, 0x39,
  0x2f, 0x4d, 0x61, 0x74, 0x4d, 0x75, 0x6c, 0x3b, 0x73, 0x65, 0x71, 0x75,
  0x65, 0x6e, 0x74, 0x69, 0x61, 0x6c, 0x5f, 0x31, 0x2f, 0x64, 0x65, 0x6e,
  0x73, 0x65, 0x5f, 0x39, 0x2f, 0x52, 0x65, 0x6c, 0x75, 0x3b, 0x73, 0x65,
  0x71, 0x75, 0x65, 0x6e, 0x74, 0x69, 0x61, 0x6c, 0x5f, 0x31, 0x2f, 0x64,
  0x65, 0x6e, 0x73, 0x65, 0x5f, 0x39, 0x2f, 0x42, 0x69, 0x61, 0x73, 0x41,
  0x64, 0x64, 0x00, 0x00, 0x02, 0x00, 0x00, 0x00, 0x0a, 0x00, 0x00, 0x00,
  0x02, 0x00, 0x00, 0x00, 0xde, 0xf8, 0xff, 0xff, 0x10, 0x00, 0x00, 0x00,
  0x10, 0x00, 0x00, 0x00, 0x0e, 0x00, 0x00, 0x00, 0x1c, 0x00, 0x00, 0x00,
  0x78, 0xf8, 0xff, 0xff, 0x0c, 0x00, 0x00, 0x00, 0x64, 0x65, 0x6e, 0x73,
  0x65, 0x5f, 0x39, 0x2f, 0x62, 0x69, 0x61, 0x73, 0x00, 0x00, 0x00, 0x00,
  0x01, 0x00, 0x00, 0x00, 0x0a, 0x00, 0x00, 0x00, 0xd0, 0xf8, 0xff, 0xff,
  0x14, 0x00, 0x00, 0x00, 0x1c, 0x00, 0x00, 0x00, 0x1c, 0x00, 0x00, 0x00,
  0x0d, 0x00, 0x00, 0x00, 0x6c, 0x00, 0x00, 0x00, 0x02, 0x00, 0x00, 0x00,
  0xff, 0xff, 0xff, 0xff, 0x02, 0x00, 0x00, 0x00, 0xbc, 0xf8, 0xff, 0xff,
  0x53, 0x00, 0x00, 0x00, 0x73, 0x65, 0x71, 0x75, 0x65, 0x6e, 0x74, 0x69,
  0x61, 0x6c, 0x5f, 0x31, 0x2f, 0x64, 0x65, 0x6e, 0x73, 0x65, 0x5f, 0x38,
  0x2f, 0x4d, 0x61, 0x74, 0x4d, 0x75, 0x6c, 0x3b, 0x73, 0x65, 0x71, 0x75,
  0x65, 0x6e, 0x74, 0x69, 0x61, 0x6c, 0x5f, 0x31, 0x2f, 0x64, 0x65, 0x6e,
  0x73, 0x65, 0x5f, 0x38, 0x2f, 0x52, 0x65, 0x6c, 0x75, 0x3b, 0x73, 0x65,
  0x71, 0x75, 0x65, 0x6e, 0x74, 0x69, 0x61, 0x6c, 0x5f, 0x31, 0x2f, 0x64,
  0x65, 0x6e, 0x73, 0x65, 0x5f, 0x38, 0x2f, 0x42, 0x69, 0x61, 0x73, 0x41,
  0x64, 0x64, 0x32, 0x00, 0x02, 0x00, 0x00, 0x00, 0x01, 0x00, 0x00, 0x00,
  0x02, 0x00, 0x00, 0x00, 0x9e, 0xf9, 0xff, 0xff, 0x10, 0x00, 0x00, 0x00,
  0x10, 0x00, 0x00, 0x00, 0x0c, 0x00, 0x00, 0x00, 0x60, 0x00, 0x00, 0x00,
  0x38, 0xf9, 0xff, 0xff, 0x53, 0x00, 0x00, 0x00, 0x73, 0x65, 0x71, 0x75,
  0x65, 0x6e, 0x74, 0x69, 0x61, 0x6c, 0x5f, 0x31, 0x2f, 0x64, 0x65, 0x6e,
  0x73, 0x65, 0x5f, 0x38, 0x2f, 0x4d, 0x61, 0x74, 0x4d, 0x75, 0x6c, 0x3b,
  0x73, 0x65, 0x71, 0x75, 0x65, 0x6e, 0x74, 0x69, 0x61, 0x6c, 0x5f, 0x31,
  0x2f, 0x64, 0x65, 0x6e, 0x73, 0x65, 0x5f, 0x38, 0x2f, 0x52, 0x65, 0x6c,
  0x75, 0x3b, 0x73, 0x65, 0x71, 0x75, 0x65, 0x6e, 0x74, 0x69, 0x61, 0x6c,
  0x5f, 0x31, 0x2f, 0x64, 0x65, 0x6e, 0x73, 0x65, 0x5f, 0x38, 0x2f, 0x42,
  0x69, 0x61, 0x73, 0x41, 0x64, 0x64, 0x31, 0x00, 0x02, 0x00, 0x00, 0x00,
  0x02, 0x00, 0x00, 0x00, 0x0a, 0x00, 0x00, 0x00, 0x76, 0xfb, 0xff, 0xff,
  0x14, 0x00, 0x00, 0x00, 0x78, 0x00, 0x00, 0x00, 0x78, 0x00, 0x00, 0x00,
  0x0b, 0x00, 0x00, 0x00, 0xc8, 0x00, 0x00, 0x00, 0x62, 0xfb, 0xff, 0xff,
  0x0c, 0x00, 0x00, 0x00, 0x50, 0x00, 0x00, 0x00, 0x50, 0x00, 0x00, 0x00,
  0x02, 0x00, 0x00, 0x00, 0x3c, 0x00, 0x00, 0x00, 0x04, 0x00, 0x00, 0x00,
  0x58, 0xfb, 0xff, 0xff, 0x10, 0x00, 0x00, 0x00, 0x00, 0x00, 0x00, 0x03,
  0x18, 0x00, 0x00, 0x00, 0x00, 0x00, 0x03, 0x01, 0x1e, 0xfb, 0xff, 0xff,
  0x04, 0x00, 0x00, 0x00, 0x04, 0x00, 0x00, 0x00, 0x01, 0x04, 0x05, 0x08,
  0x2e, 0xfb, 0xff, 0xff, 0x04, 0x00, 0x00, 0x00, 0x03, 0x00, 0x00, 0x00,
  0x00, 0x01, 0x04, 0x00, 0x0c, 0xfb, 0xff, 0xff, 0x02, 0x00, 0x00, 0x00,
  0x00, 0x00, 0x00, 0x00, 0x02, 0x00, 0x00, 0x00, 0x00, 0x00, 0x00, 0x00,
  0x01, 0x00, 0x00, 0x00, 0x20, 0xfa, 0xff, 0xff, 0x52, 0x00, 0x00, 0x00,
  0x73, 0x65, 0x71, 0x75, 0x65, 0x6e, 0x74, 0x69, 0x61, 0x6c, 0x5f, 0x31,
  0x2f, 0x64, 0x65, 0x6e, 0x73, 0x65, 0x5f, 0x38, 0x2f, 0x4d, 0x61, 0x74,
  0x4d, 0x75, 0x6c, 0x3b, 0x73, 0x65, 0x71, 0x75, 0x65, 0x6e, 0x74, 0x69,
  0x61, 0x6c, 0x5f, 0x31, 0x2f, 0x64, 0x65, 0x6e, 0x73, 0x65, 0x5f, 0x38,
  0x2f, 0x52, 0x65, 0x6c, 0x75, 0x3b, 0x73, 0x65, 0x71, 0x75, 0x65, 0x6e,
  0x74, 0x69, 0x61, 0x6c, 0x5f, 0x31, 0x2f, 0x64, 0x65, 0x6e, 0x73, 0x65,
  0x5f, 0x38, 0x2f, 0x42, 0x69, 0x61, 0x73, 0x41, 0x64, 0x64, 0x00, 0x00,
  0x02, 0x00, 0x00, 0x00, 0x02, 0x00, 0x00, 0x00, 0x0a, 0x00, 0x00, 0x00,
  0x02, 0xfb, 0xff, 0xff, 0x10, 0x00, 0x00, 0x00, 0x10, 0x00, 0x00, 0x00,
  0x0a, 0x00, 0x00, 0x00, 0x1c, 0x00, 0x00, 0x00, 0x9c, 0xfa, 0xff, 0xff,
  0x0c, 0x00, 0x00, 0x00, 0x64, 0x65, 0x6e, 0x73, 0x65, 0x5f, 0x38, 0x2f,
  0x62, 0x69, 0x61, 0x73, 0x00, 0x00, 0x00, 0x00, 0x01, 0x00, 0x00, 0x00,
  0x02, 0x00, 0x00, 0x00, 0xf4, 0xfa, 0xff, 0xff, 0x14, 0x00, 0x00, 0x00,
  0x1c, 0x00, 0x00, 0x00, 0x1c, 0x00, 0x00, 0x00, 0x09, 0x00, 0x00, 0x00,
  0x6c, 0x00, 0x00, 0x00, 0x02, 0x00, 0x00, 0x00, 0xff, 0xff, 0xff, 0xff,
  0x0a, 0x00, 0x00, 0x00, 0xe0, 0xfa, 0xff, 0xff, 0x53, 0x00, 0x00, 0x00,
  0x73, 0x65, 0x71, 0x75, 0x65, 0x6e, 0x74, 0x69, 0x61, 0x6c, 0x5f, 0x31,
  0x2f, 0x64, 0x65, 0x6e, 0x73, 0x65, 0x5f, 0x37, 0x2f, 0x4d, 0x61, 0x74,
  0x4d, 0x75, 0x6c, 0x3b, 0x73, 0x65, 0x71, 0x75, 0x65, 0x6e, 0x74, 0x69,
  0x61, 0x6c, 0x5f, 0x31, 0x2f, 0x64, 0x65, 0x6e, 0x73, 0x65, 0x5f, 0x37,
  0x2f, 0x52, 0x65, 0x6c, 0x75, 0x3b, 0x73, 0x65, 0x71, 0x75, 0x65, 0x6e,
  0x74, 0x69, 0x61, 0x6c, 0x5f, 0x31, 0x2f, 0x64, 0x65, 0x6e, 0x73, 0x65,
  0x5f, 0x37, 0x2f, 0x42, 0x69, 0x61, 0x73, 0x41, 0x64, 0x64, 0x32, 0x00,
  0x02, 0x00, 0x00, 0x00, 0x01, 0x00, 0x00, 0x00, 0x0a, 0x00, 0x00, 0x00,
  0xc2, 0xfb, 0xff, 0xff, 0x10, 0x00, 0x00, 0x00, 0x10, 0x00, 0x00, 0x00,
  0x08, 0x00, 0x00, 0x00, 0x60, 0x00, 0x00, 0x00, 0x5c, 0xfb, 0xff, 0xff,
  0x53, 0x00, 0x00, 0x00, 0x73, 0x65, 0x71, 0x75, 0x65, 0x6e, 0x74, 0x69,
  0x61, 0x6c, 0x5f, 0x31, 0x2f, 0x64, 0x65, 0x6e, 0x73, 0x65, 0x5f, 0x37,
  0x2f, 0x4d, 0x61, 0x74, 0x4d, 0x75, 0x6c, 0x3b, 0x73, 0x65, 0x71, 0x75,
  0x65, 0x6e, 0x74, 0x69, 0x61, 0x6c, 0x5f, 0x31, 0x2f, 0x64, 0x65, 0x6e,
  0x73, 0x65, 0x5f, 0x37, 0x2f, 0x52, 0x65, 0x6c, 0x75, 0x3b, 0x73, 0x65,
  0x71, 0x75, 0x65, 0x6e, 0x74, 0x69, 0x61, 0x6c, 0x5f, 0x31, 0x2f, 0x64,
  0x65, 0x6e, 0x73, 0x65, 0x5f, 0x37, 0x2f, 0x42, 0x69, 0x61, 0x73, 0x41,
  0x64, 0x64, 0x31, 0x00, 0x02, 0x00, 0x00, 0x00, 0x0a, 0x00, 0x00, 0x00,
  0x1e, 0x00, 0x00, 0x00, 0x9a, 0xfd, 0xff, 0xff, 0x14, 0x00, 0x00, 0x00,
  0xb8, 0x00, 0x00, 0x00, 0xb8, 0x00, 0x00, 0x00, 0x07, 0x00, 0x00, 0x00,
  0x08, 0x01, 0x00, 0x00, 0x86, 0xfd, 0xff, 0xff, 0x0c, 0x00, 0x00, 0x00,
  0x90, 0x00, 0x00, 0x00, 0x90, 0x00, 0x00, 0x00, 0x02, 0x00, 0x00, 0x00,
  0x7c, 0x00, 0x00, 0x00, 0x04, 0x00, 0x00, 0x00, 0x7c, 0xfd, 0xff, 0xff,
  0x10, 0x00, 0x00, 0x00, 0x00, 0x00, 0x00, 0x03, 0x50, 0x00, 0x00, 0x00,
  0x00, 0x00, 0x03, 0x01, 0x42, 0xfd, 0xff, 0xff, 0x04, 0x00, 0x00, 0x00,
  0x3c, 0x00, 0x00, 0x00, 0x09, 0x16, 0x1b, 0x1d, 0x02, 0x04, 0x0e, 0x13,
  0x16, 0x19, 0x1c, 0x0c, 0x0e, 0x13, 0x15, 0x17, 0x1d, 0x06, 0x08, 0x09,
  0x0d, 0x0f, 0x11, 0x03, 0x0a, 0x0b, 0x0e, 0x19, 0x01, 0x0e, 0x0f, 0x11,
  0x08, 0x14, 0x17, 0x18, 0x1d, 0x03, 0x08, 0x09, 0x0f, 0x15, 0x18, 0x01,
  0x03, 0x09, 0x0d, 0x0f, 0x11, 0x16, 0x18, 0x00, 0x01, 0x05, 0x08, 0x0b,
  0x0f, 0x10, 0x15, 0x1c, 0x8a, 0xfd, 0xff, 0xff, 0x04, 0x00, 0x00, 0x00,
  0x0b, 0x00, 0x00, 0x00, 0x00, 0x04, 0x0b, 0x11, 0x17, 0x1c, 0x20, 0x25,
  0x2b, 0x33, 0x3c, 0x00, 0x70, 0xfd, 0xff, 0xff, 0x0a, 0x00, 0x00, 0x00,
  0x00, 0x00, 0x00, 0x00, 0x02, 0x00, 0x00, 0x00, 0x00, 0x00, 0x00, 0x00,
  0x01, 0x00, 0x00, 0x00, 0x84, 0xfc, 0xff, 0xff, 0x52, 0x00, 0x00, 0x00,
  0x73, 0x65, 0x71, 0x75, 0x65, 0x6e, 0x74, 0x69, 0x61, 0x6c, 0x5f, 0x31,
  0x2f, 0x64, 0x65, 0x6e, 0x73, 0x65, 0x5f, 0x37, 0x2f, 0x4d, 0x61, 0x74,
  0x4d, 0x75, 0x6c, 0x3b, 0x73, 0x65, 0x71, 0x75, 0x65, 0x6e, 0x74, 0x69,
  0x61, 0x6c, 0x5f, 0x31, 0x2f, 0x64, 0x65, 0x6e, 0x73, 0x65, 0x5f, 0x37,
  0x2f, 0x52, 0x65, 0x6c, 0x75, 0x3b, 0x73, 0x65, 0x71, 0x75, 0x65, 0x6e,
  0x74, 0x69, 0x61, 0x6c, 0x5f, 0x31, 0x2f, 0x64, 0x65, 0x6e, 0x73, 0x65,
  0x5f, 0x37, 0x2f, 0x42, 0x69, 0x61, 0x73, 0x41, 0x64, 0x64, 0x00, 0x00,
  0x02, 0x00, 0x00, 0x00, 0x0a, 0x00, 0x00, 0x00, 0x1e, 0x00, 0x00, 0x00,
  0x66, 0xfd, 0xff, 0xff, 0x10, 0x00, 0x00, 0x00, 0x10, 0x00, 0x00, 0x00,
  0x06, 0x00, 0x00, 0x00, 0x1c, 0x00, 0x00, 0x00, 0x00, 0xfd, 0xff, 0xff,
  0x0c, 0x00, 0x00, 0x00, 0x64, 0x65, 0x6e, 0x73, 0x65, 0x5f, 0x37, 0x2f,
  0x62, 0x69, 0x61, 0x73, 0x00, 0x00, 0x00, 0x00, 0x01, 0x00, 0x00, 0x00,
  0x0a, 0x00, 0x00, 0x00, 0x58, 0xfd, 0xff, 0xff, 0x14, 0x00, 0x00, 0x00,
  0x1c, 0x00, 0x00, 0x00, 0x1c, 0x00, 0x00, 0x00, 0x05, 0x00, 0x00, 0x00,
  0x6c, 0x00, 0x00, 0x00, 0x02, 0x00, 0x00, 0x00, 0xff, 0xff, 0xff, 0xff,
  0x1e, 0x00, 0x00, 0x00, 0x44, 0xfd, 0xff, 0xff, 0x53, 0x00, 0x00, 0x00,
  0x73, 0x65, 0x71, 0x75, 0x65, 0x6e, 0x74, 0x69, 0x61, 0x6c, 0x5f, 0x31,
  0x2f, 0x64, 0x65, 0x6e, 0x73, 0x65, 0x5f, 0x36, 0x2f, 0x4d, 0x61, 0x74,
  0x4d, 0x75, 0x6c, 0x3b, 0x73, 0x65, 0x71, 0x75, 0x65, 0x6e, 0x74, 0x69,
  0x61, 0x6c, 0x5f, 0x31, 0x2f, 0x64, 0x65, 0x6e, 0x73, 0x65, 0x5f, 0x36,
  0x2f, 0x52, 0x65, 0x6c, 0x75, 0x3b, 0x73, 0x65, 0x71, 0x75, 0x65, 0x6e,
  0x74, 0x69, 0x61, 0x6c, 0x5f, 0x31, 0x2f, 0x64, 0x65, 0x6e, 0x73, 0x65,
  0x5f, 0x36, 0x2f, 0x42, 0x69, 0x61, 0x73, 0x41, 0x64, 0x64, 0x32, 0x00,
  0x02, 0x00, 0x00, 0x00, 0x01, 0x00, 0x00, 0x00, 0x1e, 0x00, 0x00, 0x00,
  0x26, 0xfe, 0xff, 0xff, 0x10, 0x00, 0x00, 0x00, 0x10, 0x00, 0x00, 0x00,
  0x04, 0x00, 0x00, 0x00, 0x60, 0x00, 0x00, 0x00, 0xc0, 0xfd, 0xff, 0xff,
  0x53, 0x00, 0x00, 0x00, 0x73, 0x65, 0x71, 0x75, 0x65, 0x6e, 0x74, 0x69,
  0x61, 0x6c, 0x5f, 0x31, 0x2f, 0x64, 0x65, 0x6e, 0x73, 0x65, 0x5f, 0x36,
  0x2f, 0x4d, 0x61, 0x74, 0x4d, 0x75, 0x6c, 0x3b, 0x73, 0x65, 0x71, 0x75,
  0x65, 0x6e, 0x74, 0x69, 0x61, 0x6c, 0x5f, 0x31, 0x2f, 0x64, 0x65, 0x6e,
  0x73, 0x65, 0x5f, 0x36, 0x2f, 0x52, 0x65, 0x6c, 0x75, 0x3b, 0x73, 0x65,
  0x71, 0x75, 0x65, 0x6e, 0x74, 0x69, 0x61, 0x6c, 0x5f, 0x31, 0x2f, 0x64,
  0x65, 0x6e, 0x73, 0x65, 0x5f, 0x36, 0x2f, 0x42, 0x69, 0x61, 0x73, 0x41,
  0x64, 0x64, 0x31, 0x00, 0x02, 0x00, 0x00, 0x00, 0x1e, 0x00, 0x00, 0x00,
  0x05, 0x00, 0x00, 0x00, 0x00, 0x00, 0x12, 0x00, 0x1a, 0x00, 0x14, 0x00,
  0x00, 0x00, 0x10, 0x00, 0x0c, 0x00, 0x08, 0x00, 0x00, 0x00, 0x04, 0x00,
  0x12, 0x00, 0x00, 0x00, 0x20, 0x00, 0x00, 0x00, 0xd8, 0x00, 0x00, 0x00,
  0xd8, 0x00, 0x00, 0x00, 0x03, 0x00, 0x00, 0x00, 0x28, 0x01, 0x00, 0x00,
  0x00, 0x00, 0x0a, 0x00, 0x10, 0x00, 0x0c, 0x00, 0x08, 0x00, 0x04, 0x00,
  0x0a, 0x00, 0x00, 0x00, 0x0c, 0x00, 0x00, 0x00, 0xa4, 0x00, 0x00, 0x00,
  0xa4, 0x00, 0x00, 0x00, 0x02, 0x00, 0x00, 0x00, 0x90, 0x00, 0x00, 0x00,
  0x14, 0x00, 0x00, 0x00, 0x10, 0x00, 0x14, 0x00, 0x13, 0x00, 0x00, 0x00,
  0x12, 0x00, 0x0c, 0x00, 0x0b, 0x00, 0x04, 0x00, 0x10, 0x00, 0x00, 0x00,
  0x10, 0x00, 0x00, 0x00, 0x00, 0x00, 0x00, 0x03, 0x38, 0x00, 0x00, 0x00,
  0x00, 0x00, 0x03, 0x01, 0xd6, 0xff, 0xff, 0xff, 0x04, 0x00, 0x00, 0x00,
  0x1e, 0x00, 0x00, 0x00, 0x02, 0x00, 0x00, 0x01, 0x00, 0x01, 0x04, 0x01,
  0x00, 0x00, 0x02, 0x01, 0x04, 0x00, 0x01, 0x00, 0x01, 0x00, 0x01, 0x04,
  0x00, 0x02, 0x03, 0x04, 0x01, 0x02, 0x00, 0x03, 0x04, 0x01, 0x06, 0x00,
  0x08, 0x00, 0x04, 0x00, 0x06, 0x00, 0x00, 0x00, 0x04, 0x00, 0x00, 0x00,
  0x1f, 0x00, 0x00, 0x00, 0x00, 0x01, 0x02, 0x04, 0x07, 0x07, 0x08, 0x09,
  0x0b, 0x0b, 0x0b, 0x0b, 0x0c, 0x0c, 0x0c, 0x0d, 0x0f, 0x11, 0x13, 0x14,
  0x16, 0x16, 0x16, 0x18, 0x18, 0x18, 0x1a, 0x1b, 0x1c, 0x1d, 0x1e, 0x00,
  0x08, 0x00, 0x08, 0x00, 0x00, 0x00, 0x04, 0x00, 0x08, 0x00, 0x00, 0x00,
  0x1e, 0x00, 0x00, 0x00, 0x00, 0x00, 0x00, 0x00, 0x02, 0x00, 0x00, 0x00,
  0x00, 0x00, 0x00, 0x00, 0x01, 0x00, 0x00, 0x00, 0x1c, 0xff, 0xff, 0xff,
  0x52, 0x00, 0x00, 0x00, 0x73, 0x65, 0x71, 0x75, 0x65, 0x6e, 0x74, 0x69,
  0x61, 0x6c, 0x5f, 0x31, 0x2f, 0x64, 0x65, 0x6e, 0x73, 0x65, 0x5f, 0x36,
  0x2f, 0x4d, 0x61, 0x74, 0x4d, 0x75, 0x6c, 0x3b, 0x73, 0x65, 0x71, 0x75,
  0x65, 0x6e, 0x74, 0x69, 0x61, 0x6c, 0x5f, 0x31, 0x2f, 0x64, 0x65, 0x6e,
  0x73, 0x65, 0x5f, 0x36, 0x2f, 0x52, 0x65, 0x6c, 0x75, 0x3b, 0x73, 0x65,
  0x71, 0x75, 0x65, 0x6e, 0x74, 0x69, 0x61, 0x6c, 0x5f, 0x31, 0x2f, 0x64,
  0x65, 0x6e, 0x73, 0x65, 0x5f, 0x36, 0x2f, 0x42, 0x69, 0x61, 0x73, 0x41,
  0x64, 0x64, 0x00, 0x00, 0x02, 0x00, 0x00, 0x00, 0x1e, 0x00, 0x00, 0x00,
  0x05, 0x00, 0x00, 0x00, 0x00, 0x00, 0x0e, 0x00, 0x14, 0x00, 0x10, 0x00,
  0x00, 0x00, 0x0c, 0x00, 0x08, 0x00, 0x04, 0x00, 0x0e, 0x00, 0x00, 0x00,
  0x10, 0x00, 0x00, 0x00, 0x10, 0x00, 0x00, 0x00, 0x02, 0x00, 0x00, 0x00,
  0x1c, 0x00, 0x00, 0x00, 0xa8, 0xff, 0xff, 0xff, 0x0c, 0x00, 0x00, 0x00,
  0x64, 0x65, 0x6e, 0x73, 0x65, 0x5f, 0x36, 0x2f, 0x62, 0x69, 0x61, 0x73,
  0x00, 0x00, 0x00, 0x00, 0x01, 0x00, 0x00, 0x00, 0x1e, 0x00, 0x00, 0x00,
  0x14, 0x00, 0x18, 0x00, 0x14, 0x00, 0x00, 0x00, 0x10, 0x00, 0x0c, 0x00,
  0x08, 0x00, 0x00, 0x00, 0x00, 0x00, 0x04, 0x00, 0x14, 0x00, 0x00, 0x00,
  0x14, 0x00, 0x00, 0x00, 0x20, 0x00, 0x00, 0x00, 0x20, 0x00, 0x00, 0x00,
  0x01, 0x00, 0x00, 0x00, 0x3c, 0x00, 0x00, 0x00, 0x02, 0x00, 0x00, 0x00,
  0xff, 0xff, 0xff, 0xff, 0x05, 0x00, 0x00, 0x00, 0x04, 0x00, 0x04, 0x00,
  0x04, 0x00, 0x00, 0x00, 0x1f, 0x00, 0x00, 0x00, 0x73, 0x65, 0x72, 0x76,
  0x69, 0x6e, 0x67, 0x5f, 0x64, 0x65, 0x66, 0x61, 0x75, 0x6c, 0x74, 0x5f,
  0x64, 0x65, 0x6e, 0x73, 0x65, 0x5f, 0x36, 0x5f, 0x69, 0x6e, 0x70, 0x75,
  0x74, 0x3a, 0x30, 0x00, 0x02, 0x00, 0x00, 0x00, 0x01, 0x00, 0x00, 0x00,
  0x05, 0x00, 0x00, 0x00, 0x02, 0x00, 0x00, 0x00, 0x30, 0x00, 0x00, 0x00,
  0x10, 0x00, 0x00, 0x00, 0x0c, 0x00, 0x10, 0x00, 0x0f, 0x00, 0x00, 0x00,
  0x08, 0x00, 0x04, 0x00, 0x0c, 0x00, 0x00, 0x00, 0x09, 0x00, 0x00, 0x00,
  0x08, 0x00, 0x00, 0x00, 0x00, 0x00, 0x00, 0x09, 0x0c, 0x00, 0x0c, 0x00,
  0x0b, 0x00, 0x00, 0x00, 0x00, 0x00, 0x04, 0x00, 0x0c, 0x00, 0x00, 0x00,
  0x7c, 0x00, 0x00, 0x00, 0x00, 0x00, 0x00, 0x7c
};
const int g_model_len = 5936;

