alignas(8) const unsigned char g_model[] = {
  0x1c, 0x00, 0x00, 0x00, 0x54, 0x46, 0x4c, 0x33, 0x14, 0x00, 0x20, 0x00,
  0x04, 0x00, 0x08, 0x00, 0x0c, 0x00, 0x10, 0x00, 0x14, 0x00, 0x00, 0x00,
  0x18, 0x00, 0x1c, 0x00, 0x14, 0x00, 0x00, 0x00, 0x03, 0x00, 0x00, 0x00,
  0x18, 0x00, 0x00, 0x00, 0x20, 0x00, 0x00, 0x00, 0x58, 0x01, 0x00, 0x00,
  0x20, 0x00, 0x00, 0x00, 0x00, 0x01, 0x00, 0x00, 0x74, 0x00, 0x00, 0x00,
  0x02, 0x00, 0x00, 0x00, 0x74, 0x06, 0x00, 0x00, 0xbc, 0x02, 0x00, 0x00,
  0x01, 0x00, 0x00, 0x00, 0x5c, 0x01, 0x00, 0x00, 0x16, 0x00, 0x00, 0x00,
  0x90, 0x1f, 0x00, 0x00, 0x8c, 0x1f, 0x00, 0x00, 0xa8, 0x1e, 0x00, 0x00,
  0xe8, 0x1d, 0x00, 0x00, 0x84, 0x1d, 0x00, 0x00, 0x40, 0x1d, 0x00, 0x00,
  0xdc, 0x1c, 0x00, 0x00, 0x28, 0x1c, 0x00, 0x00, 0x24, 0x17, 0x00, 0x00,
  0x20, 0x12, 0x00, 0x00, 0x7c, 0x11, 0x00, 0x00, 0xd8, 0x10, 0x00, 0x00,
  0xd0, 0x0b, 0x00, 0x00, 0xc8, 0x06, 0x00, 0x00, 0x58, 0x1f, 0x00, 0x00,
  0x54, 0x1f, 0x00, 0x00, 0x50, 0x1f, 0x00, 0x00, 0x4c, 0x1f, 0x00, 0x00,
  0x48, 0x1f, 0x00, 0x00, 0x44, 0x1f, 0x00, 0x00, 0x40, 0x1f, 0x00, 0x00,
  0xc0, 0x00, 0x00, 0x00, 0x01, 0x00, 0x00, 0x00, 0x10, 0x00, 0x00, 0x00,
  0x00, 0x00, 0x0a, 0x00, 0x10, 0x00, 0x0c, 0x00, 0x08, 0x00, 0x04, 0x00,
  0x0a, 0x00, 0x00, 0x00, 0x0c, 0x00, 0x00, 0x00, 0x1c, 0x00, 0x00, 0x00,
  0x20, 0x00, 0x00, 0x00, 0x0f, 0x00, 0x00, 0x00, 0x73, 0x65, 0x72, 0x76,
  0x69, 0x6e, 0x67, 0x5f, 0x64, 0x65, 0x66, 0x61, 0x75, 0x6c, 0x74, 0x00,
  0x01, 0x00, 0x00, 0x00, 0x14, 0x00, 0x00, 0x00, 0x01, 0x00, 0x00, 0x00,
  0x28, 0x00, 0x00, 0x00, 0x08, 0x00, 0x0c, 0x00, 0x08, 0x00, 0x04, 0x00,
  0x08, 0x00, 0x00, 0x00, 0x13, 0x00, 0x00, 0x00, 0x04, 0x00, 0x00, 0x00,
  0x08, 0x00, 0x00, 0x00, 0x64, 0x65, 0x6e, 0x73, 0x65, 0x5f, 0x31, 0x31,
  0x00, 0x00, 0x00, 0x00, 0x1a, 0xe2, 0xff, 0xff, 0x04, 0x00, 0x00, 0x00,
  0x0d, 0x00, 0x00, 0x00, 0x64, 0x65, 0x6e, 0x73, 0x65, 0x5f, 0x36, 0x5f,
  0x69, 0x6e, 0x70, 0x75, 0x74, 0x00, 0x00, 0x00, 0x01, 0x00, 0x00, 0x00,
  0x0c, 0x00, 0x00, 0x00, 0x08, 0x00, 0x0c, 0x00, 0x04, 0x00, 0x08, 0x00,
  0x08, 0x00, 0x00, 0x00, 0x08, 0x00, 0x00, 0x00, 0x15, 0x00, 0x00, 0x00,
  0x13, 0x00, 0x00, 0x00, 0x6d, 0x69, 0x6e, 0x5f, 0x72, 0x75, 0x6e, 0x74,
  0x69, 0x6d, 0x65, 0x5f, 0x76, 0x65, 0x72, 0x73, 0x69, 0x6f, 0x6e, 0x00,
  0x6a, 0xe2, 0xff, 0xff, 0x04, 0x00, 0x00, 0x00, 0x10, 0x00, 0x00, 0x00,
  0x31, 0x2e, 0x31, 0x34, 0x2e, 0x30, 0x00, 0x00, 0x00, 0x00, 0x00, 0x00,
  0x00, 0x00, 0x00, 0x00, 0x0f, 0x00, 0x00, 0x00, 0x4d, 0x4c, 0x49, 0x52,
  0x20, 0x43, 0x6f, 0x6e, 0x76, 0x65, 0x72, 0x74, 0x65, 0x64, 0x2e, 0x00,
  0x00, 0x00, 0x0e, 0x00, 0x18, 0x00, 0x04, 0x00, 0x08, 0x00, 0x0c, 0x00,
  0x10, 0x00, 0x14, 0x00, 0x0e, 0x00, 0x00, 0x00, 0x14, 0x00, 0x00, 0x00,
  0x64, 0x00, 0x00, 0x00, 0x68, 0x00, 0x00, 0x00, 0x6c, 0x00, 0x00, 0x00,
  0x88, 0x00, 0x00, 0x00, 0x14, 0x00, 0x00, 0x00, 0xc4, 0x1d, 0x00, 0x00,
  0x80, 0x1d, 0x00, 0x00, 0x00, 0x1d, 0x00, 0x00, 0x4c, 0x1c, 0x00, 0x00,
  0xe8, 0x1b, 0x00, 0x00, 0xa4, 0x1b, 0x00, 0x00, 0x40, 0x1b, 0x00, 0x00,
  0x74, 0x1a, 0x00, 0x00, 0x70, 0x15, 0x00, 0x00, 0x6c, 0x10, 0x00, 0x00,
  0xc8, 0x0f, 0x00, 0x00, 0x20, 0x0f, 0x00, 0x00, 0x18, 0x0a, 0x00, 0x00,
  0xcc, 0x04, 0x00, 0x00, 0xd4, 0x03, 0x00, 0x00, 0x00, 0x03, 0x00, 0x00,
  0x3c, 0x02, 0x00, 0x00, 0x90, 0x01, 0x00, 0x00, 0x04, 0x01, 0x00, 0x00,
  0x70, 0x00, 0x00, 0x00, 0x01, 0x00, 0x00, 0x00, 0x00, 0x00, 0x00, 0x00,
  0x01, 0x00, 0x00, 0x00, 0x13, 0x00, 0x00, 0x00, 0x07, 0x00, 0x00, 0x00,
  0x44, 0x04, 0x00, 0x00, 0x70, 0x03, 0x00, 0x00, 0x9c, 0x02, 0x00, 0x00,
  0xd8, 0x01, 0x00, 0x00, 0x30, 0x01, 0x00, 0x00, 0xa4, 0x00, 0x00, 0x00,
  0x10, 0x00, 0x00, 0x00, 0x04, 0x00, 0x00, 0x00, 0x6d, 0x61, 0x69, 0x6e,
  0x00, 0x00, 0x00, 0x00, 0xc2, 0xfc, 0xff, 0xff, 0x00, 0x00, 0x00, 0x08,
  0x18, 0x00, 0x00, 0x00, 0x0c, 0x00, 0x00, 0x00, 0x04, 0x00, 0x00, 0x00,
  0x84, 0xe2, 0xff, 0xff, 0x01, 0x00, 0x00, 0x00, 0x13, 0x00, 0x00, 0x00,
  0x03, 0x00, 0x00, 0x00, 0x12, 0x00, 0x00, 0x00, 0x0c, 0x00, 0x00, 0x00,
  0x01, 0x00, 0x00, 0x00, 0x0c, 0xe3, 0xff, 0xff, 0x14, 0x00, 0x00, 0x00,
  0x14, 0x00, 0x00, 0x00, 0x18, 0x00, 0x00, 0x00, 0x40, 0x00, 0x00, 0x00,
  0x30, 0x00, 0x00, 0x00, 0x02, 0x00, 0x00, 0x00, 0x01, 0x00, 0x00, 0x00,
  0x0a, 0x00, 0x00, 0x00, 0x19, 0x00, 0x00, 0x00, 0x53, 0x74, 0x61, 0x74,
  0x65, 0x66, 0x75, 0x6c, 0x50, 0x61, 0x72, 0x74, 0x69, 0x74, 0x69, 0x6f,
  0x6e, 0x65, 0x64, 0x43, 0x61, 0x6c, 0x6c, 0x3a, 0x30, 0x00, 0x00, 0x00,
  0x02, 0x00, 0x00, 0x00, 0xff, 0xff, 0xff, 0xff, 0x0a, 0x00, 0x00, 0x00,
  0xdc, 0xe3, 0xff, 0xff, 0x00, 0x00, 0x0a, 0x00, 0x10, 0x00, 0x04, 0x00,
  0x08, 0x00, 0x0c, 0x00, 0x0a, 0x00, 0x00, 0x00, 0x01, 0x00, 0x00, 0x00,
  0x10, 0x00, 0x00, 0x00, 0x04, 0x00, 0x00, 0x00, 0x01, 0x00, 0x00, 0x00,
  0x12, 0x00, 0x00, 0x00, 0x01, 0x00, 0x00, 0x00, 0x11, 0x00, 0x00, 0x00,
  0x58, 0xfc, 0xff, 0xff, 0x0e, 0x00, 0x00, 0x00, 0x00, 0x00, 0x00, 0x0e,
  0x01, 0x00, 0x00, 0x00, 0x9c, 0xe3, 0xff, 0xff, 0x14, 0x00, 0x00, 0x00,
  0x13, 0x00, 0x00, 0x00, 0x18, 0x00, 0x00, 0x00, 0x44, 0x00, 0x00, 0x00,
  0x34, 0x00, 0x00, 0x00, 0x02, 0x00, 0x00, 0x00, 0x01, 0x00, 0x00, 0x00,
  0x1e, 0x00, 0x00, 0x00, 0x1d, 0x00, 0x00, 0x00, 0x73, 0x65, 0x71, 0x75,
  0x65, 0x6e, 0x74, 0x69, 0x61, 0x6c, 0x5f, 0x31, 0x2f, 0x64, 0x65, 0x6e,
  0x73, 0x65, 0x5f, 0x31, 0x30, 0x2f, 0x53, 0x69, 0x67, 0x6d, 0x6f, 0x69,
  0x64, 0x00, 0x00, 0x00, 0x02, 0x00, 0x00, 0x00, 0xff, 0xff, 0xff, 0xff,
  0x1e, 0x00, 0x00, 0x00, 0x84, 0xe3, 0xff, 0xff, 0xda, 0xfd, 0xff, 0xff,
  0x00, 0x00, 0x00, 0x08, 0x18, 0x00, 0x00, 0x00, 0x0c, 0x00, 0x00, 0x00,
  0x04, 0x00, 0x00, 0x00, 0x9c, 0xe3, 0xff, 0xff, 0x01, 0x00, 0x00, 0x00,
  0x11, 0x00, 0x00, 0x00, 0x03, 0x00, 0x00, 0x00, 0x10, 0x00, 0x00, 0x00,
  0x0b, 0x00, 0x00, 0x00, 0x02, 0x00, 0x00, 0x00, 0x24, 0xe4, 0xff, 0xff,
  0x14, 0x00, 0x00, 0x00, 0x12, 0x00, 0x00, 0x00, 0x18, 0x00, 0x00, 0x00,
  0x60, 0x00, 0x00, 0x00, 0x50, 0x00, 0x00, 0x00, 0x02, 0x00, 0x00, 0x00,
  0x01, 0x00, 0x00, 0x00, 0x1e, 0x00, 0x00, 0x00, 0x3a, 0x00, 0x00, 0x00,
  0x73, 0x65, 0x71, 0x75, 0x65, 0x6e, 0x74, 0x69, 0x61, 0x6c, 0x5f, 0x31,
  0x2f, 0x64, 0x65, 0x6e, 0x73, 0x65, 0x5f, 0x31, 0x30, 0x2f, 0x4d, 0x61,
  0x74, 0x4d, 0x75, 0x6c, 0x3b, 0x73, 0x65, 0x71, 0x75, 0x65, 0x6e, 0x74,
  0x69, 0x61, 0x6c, 0x5f, 0x31, 0x2f, 0x64, 0x65, 0x6e, 0x73, 0x65, 0x5f,
  0x31, 0x30, 0x2f, 0x42, 0x69, 0x61, 0x73, 0x41, 0x64, 0x64, 0x00, 0x00,
  0x02, 0x00, 0x00, 0x00, 0xff, 0xff, 0xff, 0xff, 0x1e, 0x00, 0x00, 0x00,
  0x28, 0xe4, 0xff, 0xff, 0x7e, 0xfe, 0xff, 0xff, 0x00, 0x00, 0x00, 0x08,
  0x1c, 0x00, 0x00, 0x00, 0x10, 0x00, 0x00, 0x00, 0x04, 0x00, 0x00, 0x00,
  0x9e, 0xfd, 0xff, 0xff, 0x00, 0x00, 0x00, 0x01, 0x01, 0x00, 0x00, 0x00,
  0x10, 0x00, 0x00, 0x00, 0x03, 0x00, 0x00, 0x00, 0x0f, 0x00, 0x00, 0x00,
  0x0a, 0x00, 0x00, 0x00, 0x03, 0x00, 0x00, 0x00, 0xcc, 0xe4, 0xff, 0xff,
  0x14, 0x00, 0x00, 0x00, 0x11, 0x00, 0x00, 0x00, 0x18, 0x00, 0x00, 0x00,
  0x78, 0x00, 0x00, 0x00, 0x68, 0x00, 0x00, 0x00, 0x02, 0x00, 0x00, 0x00,
  0x01, 0x00, 0x00, 0x00, 0x0a, 0x00, 0x00, 0x00, 0x52, 0x00, 0x00, 0x00,
  0x73, 0x65, 0x71, 0x75, 0x65, 0x6e, 0x74, 0x69, 0x61, 0x6c, 0x5f, 0x31,
  0x2f, 0x64, 0x65, 0x6e, 0x73, 0x65, 0x5f, 0x39, 0x2f, 0x4d, 0x61, 0x74,
  0x4d, 0x75, 0x6c, 0x3b, 0x73, 0x65, 0x71, 0x75, 0x65, 0x6e, 0x74, 0x69,
  0x61, 0x6c, 0x5f, 0x31, 0x2f, 0x64, 0x65, 0x6e, 0x73, 0x65, 0x5f, 0x39,
  0x2f, 0x52, 0x65, 0x6c, 0x75, 0x3b, 0x73, 0x65, 0x71, 0x75, 0x65, 0x6e,
  0x74, 0x69, 0x61, 0x6c, 0x5f, 0x31, 0x2f, 0x64, 0x65, 0x6e, 0x73, 0x65,
  0x5f, 0x39, 0x2f, 0x42, 0x69, 0x61, 0x73, 0x41, 0x64, 0x64, 0x00, 0x00,
  0x02, 0x00, 0x00, 0x00, 0xff, 0xff, 0xff, 0xff, 0x0a, 0x00, 0x00, 0x00,
  0xe8, 0xe4, 0xff, 0xff, 0x3e, 0xff, 0xff, 0xff, 0x00, 0x00, 0x00, 0x08,
  0x1c, 0x00, 0x00, 0x00, 0x10, 0x00, 0x00, 0x00, 0x04, 0x00, 0x00, 0x00,
  0x5e, 0xfe, 0xff, 0xff, 0x00, 0x00, 0x00, 0x01, 0x01, 0x00, 0x00, 0x00,
  0x0f, 0x00, 0x00, 0x00, 0x03, 0x00, 0x00, 0x00, 0x0e, 0x00, 0x00, 0x00,
  0x09, 0x00, 0x00, 0x00, 0x04, 0x00, 0x00, 0x00, 0x8c, 0xe5, 0xff, 0xff,
  0x14, 0x00, 0x00, 0x00, 0x10, 0x00, 0x00, 0x00, 0x18, 0x00, 0x00, 0x00,
  0x78, 0x00, 0x00, 0x00, 0x68, 0x00, 0x00, 0x00, 0x02, 0x00, 0x00, 0x00,
  0x01, 0x00, 0x00, 0x00, 0x02, 0x00, 0x00, 0x00, 0x52, 0x00, 0x00, 0x00,
  0x73, 0x65, 0x71, 0x75, 0x65, 0x6e, 0x74, 0x69, 0x61, 0x6c, 0x5f, 0x31,
  0x2f, 0x64, 0x65, 0x6e, 0x73, 0x65, 0x5f, 0x38, 0x2f, 0x4d, 0x61, 0x74,
  0x4d, 0x75, 0x6c, 0x3b, 0x73, 0x65, 0x71, 0x75, 0x65, 0x6e, 0x74, 0x69,
  0x61, 0x6c, 0x5f, 0x31, 0x2f, 0x64, 0x65, 0x6e, 0x73, 0x65, 0x5f, 0x38,
  0x2f, 0x52, 0x65, 0x6c, 0x75, 0x3b, 0x73, 0x65, 0x71, 0x75, 0x65, 0x6e,
  0x74, 0x69, 0x61, 0x6c, 0x5f, 0x31, 0x2f, 0x64, 0x65, 0x6e, 0x73, 0x65,
  0x5f, 0x38, 0x2f, 0x42, 0x69, 0x61, 0x73, 0x41, 0x64, 0x64, 0x00, 0x00,
  0x02, 0x00, 0x00, 0x00, 0xff, 0xff, 0xff, 0xff, 0x02, 0x00, 0x00, 0x00,
  0x94, 0xe6, 0xff, 0xff, 0x00, 0x00, 0x0e, 0x00, 0x14, 0x00, 0x00, 0x00,
  0x08, 0x00, 0x0c, 0x00, 0x07, 0x00, 0x10, 0x00, 0x0e, 0x00, 0x00, 0x00,
  0x00, 0x00, 0x00, 0x08, 0x1c, 0x00, 0x00, 0x00, 0x10, 0x00, 0x00, 0x00,
  0x04, 0x00, 0x00, 0x00, 0x2e, 0xff, 0xff, 0xff, 0x00, 0x00, 0x00, 0x01,
  0x01, 0x00, 0x00, 0x00, 0x0e, 0x00, 0x00, 0x00, 0x03, 0x00, 0x00, 0x00,
  0x0d, 0x00, 0x00, 0x00, 0x08, 0x00, 0x00, 0x00, 0x05, 0x00, 0x00, 0x00,
  0x5c, 0xe6, 0xff, 0xff, 0x14, 0x00, 0x00, 0x00, 0x0f, 0x00, 0x00, 0x00,
  0x18, 0x00, 0x00, 0x00, 0x78, 0x00, 0x00, 0x00, 0x68, 0x00, 0x00, 0x00,
  0x02, 0x00, 0x00, 0x00, 0x01, 0x00, 0x00, 0x00, 0x0a, 0x00, 0x00, 0x00,
  0x52, 0x00, 0x00, 0x00, 0x73, 0x65, 0x71, 0x75, 0x65, 0x6e, 0x74, 0x69,
  0x61, 0x6c, 0x5f, 0x31, 0x2f, 0x64, 0x65, 0x6e, 0x73, 0x65, 0x5f, 0x37,
  0x2f, 0x4d, 0x61, 0x74, 0x4d, 0x75, 0x6c, 0x3b, 0x73, 0x65, 0x71, 0x75,
  0x65, 0x6e, 0x74, 0x69, 0x61, 0x6c, 0x5f, 0x31, 0x2f, 0x64, 0x65, 0x6e,
  0x73, 0x65, 0x5f, 0x37, 0x2f, 0x52, 0x65, 0x6c, 0x75, 0x3b, 0x73, 0x65,
  0x71, 0x75, 0x65, 0x6e, 0x74, 0x69, 0x61, 0x6c, 0x5f, 0x31, 0x2f, 0x64,
  0x65, 0x6e, 0x73, 0x65, 0x5f, 0x37, 0x2f, 0x42, 0x69, 0x61, 0x73, 0x41,
  0x64, 0x64, 0x00, 0x00, 0x02, 0x00, 0x00, 0x00, 0xff, 0xff, 0xff, 0xff,
  0x0a, 0x00, 0x00, 0x00, 0x64, 0xe7, 0xff, 0xff, 0x00, 0x00, 0x0e, 0x00,
  0x16, 0x00, 0x00, 0x00, 0x08, 0x00, 0x0c, 0x00, 0x07, 0x00, 0x10, 0x00,
  0x0e, 0x00, 0x00, 0x00, 0x00, 0x00, 0x00, 0x08, 0x24, 0x00, 0x00, 0x00,
  0x18, 0x00, 0x00, 0x00, 0x0c, 0x00, 0x00, 0x00, 0x00, 0x00, 0x06, 0x00,
  0x08, 0x00, 0x07, 0x00, 0x06, 0x00, 0x00, 0x00, 0x00, 0x00, 0x00, 0x01,
  0x01, 0x00, 0x00, 0x00, 0x0d, 0x00, 0x00, 0x00, 0x03, 0x00, 0x00, 0x00,
  0x00, 0x00, 0x00, 0x00, 0x07, 0x00, 0x00, 0x00, 0x06, 0x00, 0x00, 0x00,
  0x0c, 0x00, 0x10, 0x00, 0x0b, 0x00, 0x00, 0x00, 0x0c, 0x00, 0x04, 0x00,
  0x0c, 0x00, 0x00, 0x00, 0x09, 0x00, 0x00, 0x00, 0x00, 0x00, 0x00, 0x09,
  0x01, 0x00, 0x00, 0x00, 0x50, 0xe7, 0xff, 0xff, 0x14, 0x00, 0x00, 0x00,
  0x0e, 0x00, 0x00, 0x00, 0x18, 0x00, 0x00, 0x00, 0x78, 0x00, 0x00, 0x00,
  0x68, 0x00, 0x00, 0x00, 0x02, 0x00, 0x00, 0x00, 0x01, 0x00, 0x00, 0x00,
  0x1e, 0x00, 0x00, 0x00, 0x52, 0x00, 0x00, 0x00, 0x73, 0x65, 0x71, 0x75,
  0x65, 0x6e, 0x74, 0x69, 0x61, 0x6c, 0x5f, 0x31, 0x2f, 0x64, 0x65, 0x6e,
  0x73, 0x65, 0x5f, 0x36, 0x2f, 0x4d, 0x61, 0x74, 0x4d, 0x75, 0x6c, 0x3b,
  0x73, 0x65, 0x71, 0x75, 0x65, 0x6e, 0x74, 0x69, 0x61, 0x6c, 0x5f, 0x31,
  0x2f, 0x64, 0x65, 0x6e, 0x73, 0x65, 0x5f, 0x36, 0x2f, 0x52, 0x65, 0x6c,
  0x75, 0x3b, 0x73, 0x65, 0x71, 0x75, 0x65, 0x6e, 0x74, 0x69, 0x61, 0x6c,
  0x5f, 0x31, 0x2f, 0x64, 0x65, 0x6e, 0x73, 0x65, 0x5f, 0x36, 0x2f, 0x42,
  0x69, 0x61, 0x73, 0x41, 0x64, 0x64, 0x00, 0x00, 0x02, 0x00, 0x00, 0x00,
  0xff, 0xff, 0xff, 0xff, 0x1e, 0x00, 0x00, 0x00, 0x6c, 0xe7, 0xff, 0xff,
  0x52, 0xe8, 0xff, 0xff, 0x04, 0x00, 0x00, 0x00, 0xb0, 0x04, 0x00, 0x00,
  0xb1, 0x29, 0x50, 0x3e, 0x2f, 0xdd, 0x8e, 0xbd, 0x2f, 0xdd, 0x8e, 0xbd,
  0xb1, 0x29, 0x50, 0x3e, 0x2f, 0xdd, 0x8e, 0xbd, 0x2f, 0xdd, 0x8e, 0xbd,
  0xaf, 0xd5, 0x20, 0x3f, 0xb1, 0x29, 0x50, 0x3e, 0xb1, 0x29, 0x50, 0x3e,
  0x2f, 0xdd, 0x8e, 0xbd, 0x2f, 0xdd, 0x8e, 0xbd, 0xb1, 0x29, 0x50, 0x3e,
  0x2f, 0xdd, 0x8e, 0xbd, 0x2f, 0xdd, 0x8e, 0xbd, 0xb1, 0x29, 0x50, 0x3e,
  0x2f, 0xdd, 0x8e, 0xbd, 0xb1, 0x29, 0x50, 0x3e, 0x2f, 0xdd, 0x8e, 0xbd,
  0x2f, 0xdd, 0x8e, 0xbd, 0x2f, 0xdd, 0x8e, 0xbd, 0x2f, 0xdd, 0x8e, 0xbd,
  0xb1, 0x29, 0x50, 0x3e, 0x2f, 0xdd, 0x8e, 0xbd, 0x2f, 0xdd, 0x8e, 0xbd,
  0x2f, 0xdd, 0x8e, 0xbd, 0x2f, 0xdd, 0x8e, 0xbd, 0x2f, 0xdd, 0x8e, 0xbd,
  0x2f, 0xdd, 0x8e, 0xbd, 0x2f, 0xdd, 0x8e, 0xbd, 0x2f, 0xdd, 0x8e, 0xbd,
  0xb1, 0x29, 0x50, 0x3e, 0x2f, 0xdd, 0x8e, 0xbd, 0x2f, 0xdd, 0x8e, 0xbd,
  0xb1, 0x29, 0x50, 0x3e, 0x2f, 0xdd, 0x8e, 0xbd, 0xaf, 0xd5, 0x20, 0x3f,
  0x2f, 0xdd, 0x8e, 0xbd, 0xb1, 0x29, 0x50, 0x3e, 0x2f, 0xdd, 0x8e, 0xbd,
  0x2f, 0xdd, 0x8e, 0xbd, 0x2f, 0xdd, 0x8e, 0xbd, 0xaf, 0xd5, 0x20, 0x3f,
  0x2f, 0xdd, 0x8e, 0xbd, 0x2f, 0xdd, 0x8e, 0xbd, 0x2f, 0xdd, 0x8e, 0xbd,
  0x2f, 0xdd, 0x8e, 0xbd, 0xfb, 0x09, 0xf9, 0xbe, 0x2f, 0xdd, 0x8e, 0xbd,
  0xb1, 0x29, 0x50, 0x3e, 0x2f, 0xdd, 0x8e, 0xbd, 0x2f, 0xdd, 0x8e, 0xbd,
  0xb1, 0x29, 0x50, 0x3e, 0x2f, 0xdd, 0x8e, 0xbd, 0x2f, 0xdd, 0x8e, 0xbd,
  0x2f, 0xdd, 0x8e, 0xbd, 0x2f, 0xdd, 0x8e, 0xbd, 0x2f, 0xdd, 0x8e, 0xbd,
  0x2f, 0xdd, 0x8e, 0xbd, 0xaf, 0xd5, 0x20, 0x3f, 0x2f, 0xdd, 0x8e, 0xbd,
  0xb1, 0x29, 0x50, 0x3e, 0xfb, 0x09, 0xf9, 0xbe, 0x2f, 0xdd, 0x8e, 0xbd,
  0xb1, 0x29, 0x50, 0x3e, 0xaf, 0xd5, 0x20, 0x3f, 0x2f, 0xdd, 0x8e, 0xbd,
  0x2f, 0xdd, 0x8e, 0xbd, 0xfb, 0x09, 0xf9, 0xbe, 0x2f, 0xdd, 0x8e, 0xbd,
  0x2f, 0xdd, 0x8e, 0xbd, 0x2f, 0xdd, 0x8e, 0xbd, 0xfb, 0x09, 0xf9, 0xbe,
  0x2f, 0xdd, 0x8e, 0xbd, 0xb1, 0x29, 0x50, 0x3e, 0xb1, 0x29, 0x50, 0x3e,
  0x2f, 0xdd, 0x8e, 0xbd, 0xb1, 0x29, 0x50, 0x3e, 0x2f, 0xdd, 0x8e, 0xbd,
  0xb1, 0x29, 0x50, 0x3e, 0x2f, 0xdd, 0x8e, 0xbd, 0x2f, 0xdd, 0x8e, 0xbd,
  0xaf, 0xd5, 0x20, 0x3f, 0x2f, 0xdd, 0x8e, 0xbd, 0x2f, 0xdd, 0x8e, 0xbd,
  0x2f, 0xdd, 0x8e, 0xbd, 0x2f, 0xdd, 0x8e, 0xbd, 0x2f, 0xdd, 0x8e, 0xbd,
  0xfb, 0x09, 0xf9, 0xbe, 0xaf, 0xd5, 0x20, 0x3f, 0x2f, 0xdd, 0x8e, 0xbd,
  0xb1, 0x29, 0x50, 0x3e, 0x2f, 0xdd, 0x8e, 0xbd, 0x2f, 0xdd, 0x8e, 0xbd,
  0xb1, 0x29, 0x50, 0x3e, 0x2f, 0xdd, 0x8e, 0xbd, 0x2f, 0xdd, 0x8e, 0xbd,
  0x2f, 0xdd, 0x8e, 0xbd, 0xb1, 0x29, 0x50, 0x3e, 0x2f, 0xdd, 0x8e, 0xbd,
  0x2f, 0xdd, 0x8e, 0xbd, 0x2f, 0xdd, 0x8e, 0xbd, 0x2f, 0xdd, 0x8e, 0xbd,
  0x2f, 0xdd, 0x8e, 0xbd, 0x2f, 0xdd, 0x8e, 0xbd, 0xb1, 0x29, 0x50, 0x3e,
  0x2f, 0xdd, 0x8e, 0xbd, 0xb1, 0x29, 0x50, 0x3e, 0x2f, 0xdd, 0x8e, 0xbd,
  0xb1, 0x29, 0x50, 0x3e, 0x2f, 0xdd, 0x8e, 0xbd, 0x2f, 0xdd, 0x8e, 0xbd,
  0xaf, 0xd5, 0x20, 0x3f, 0x2f, 0xdd, 0x8e, 0xbd, 0x2f, 0xdd, 0x8e, 0xbd,
  0xb1, 0x29, 0x50, 0x3e, 0x2f, 0xdd, 0x8e, 0xbd, 0x2f, 0xdd, 0x8e, 0xbd,
  0x2f, 0xdd, 0x8e, 0xbd, 0x2f, 0xdd, 0x8e, 0xbd, 0x2f, 0xdd, 0x8e, 0xbd,
  0xb1, 0x29, 0x50, 0x3e, 0xb1, 0x29, 0x50, 0x3e, 0x2f, 0xdd, 0x8e, 0xbd,
  0xb1, 0x29, 0x50, 0x3e, 0x2f, 0xdd, 0x8e, 0xbd, 0xb1, 0x29, 0x50, 0x3e,
  0x2f, 0xdd, 0x8e, 0xbd, 0xb1, 0x29, 0x50, 0x3e, 0x2f, 0xdd, 0x8e, 0xbd,
  0x2f, 0xdd, 0x8e, 0xbd, 0x2f, 0xdd, 0x8e, 0xbd, 0xb1, 0x29, 0x50, 0x3e,
  0x2f, 0xdd, 0x8e, 0xbd, 0x2f, 0xdd, 0x8e, 0xbd, 0xb1, 0x29, 0x50, 0x3e,
  0x2f, 0xdd, 0x8e, 0xbd, 0xb1, 0x29, 0x50, 0x3e, 0x2f, 0xdd, 0x8e, 0xbd,
  0xb1, 0x29, 0x50, 0x3e, 0x2f, 0xdd, 0x8e, 0xbd, 0x2f, 0xdd, 0x8e, 0xbd,
  0xb1, 0x29, 0x50, 0x3e, 0x2f, 0xdd, 0x8e, 0xbd, 0xb1, 0x29, 0x50, 0x3e,
  0xb1, 0x29, 0x50, 0x3e, 0x2f, 0xdd, 0x8e, 0xbd, 0x2f, 0xdd, 0x8e, 0xbd,
  0xb1, 0x29, 0x50, 0x3e, 0x2f, 0xdd, 0x8e, 0xbd, 0x2f, 0xdd, 0x8e, 0xbd,
  0xaf, 0xd5, 0x20, 0x3f, 0xb1, 0x29, 0x50, 0x3e, 0x2f, 0xdd, 0x8e, 0xbd,
  0x2f, 0xdd, 0x8e, 0xbd, 0x2f, 0xdd, 0x8e, 0xbd, 0x2f, 0xdd, 0x8e, 0xbd,
  0x2f, 0xdd, 0x8e, 0xbd, 0xb1, 0x29, 0x50, 0x3e, 0x2f, 0xdd, 0x8e, 0xbd,
  0x2f, 0xdd, 0x8e, 0xbd, 0xb1, 0x29, 0x50, 0x3e, 0x2f, 0xdd, 0x8e, 0xbd,
  0xfb, 0x09, 0xf9, 0xbe, 0x2f, 0xdd, 0x8e, 0xbd, 0xaf, 0xd5, 0x20, 0x3f,
  0x2f, 0xdd, 0x8e, 0xbd, 0xb1, 0x29, 0x50, 0x3e, 0x2f, 0xdd, 0x8e, 0xbd,
  0xaf, 0xd5, 0x20, 0x3f, 0xb1, 0x29, 0x50, 0x3e, 0xfb, 0x09, 0xf9, 0xbe,
  0x2f, 0xdd, 0x8e, 0xbd, 0xaf, 0xd5, 0x20, 0x3f, 0x2f, 0xdd, 0x8e, 0xbd,
  0x2f, 0xdd, 0x8e, 0xbd, 0x2f, 0xdd, 0x8e, 0xbd, 0x2f, 0xdd, 0x8e, 0xbd,
  0x2f, 0xdd, 0x8e, 0xbd, 0x2f, 0xdd, 0x8e, 0xbd, 0x2f, 0xdd, 0x8e, 0xbd,
  0x2f, 0xdd, 0x8e, 0xbd, 0x2f, 0xdd, 0x8e, 0xbd, 0x2f, 0xdd, 0x8e, 0xbd,
  0xb1, 0x29, 0x50, 0x3e, 0x2f, 0xdd, 0x8e, 0xbd, 0x2f, 0xdd, 0x8e, 0xbd,
  0x2f, 0xdd, 0x8e, 0xbd, 0x2f, 0xdd, 0x8e, 0xbd, 0xaf, 0xd5, 0x20, 0x3f,
  0xfb, 0x09, 0xf9, 0xbe, 0x2f, 0xdd, 0x8e, 0xbd, 0xfb, 0x09, 0xf9, 0xbe,
  0xaf, 0xd5, 0x20, 0x3f, 0x2f, 0xdd, 0x8e, 0xbd, 0x2f, 0xdd, 0x8e, 0xbd,
  0x2f, 0xdd, 0x8e, 0xbd, 0xfb, 0x09, 0xf9, 0xbe, 0x2f, 0xdd, 0x8e, 0xbd,
  0x2f, 0xdd, 0x8e, 0xbd, 0xaf, 0xd5, 0x20, 0x3f, 0xb1, 0x29, 0x50, 0x3e,
  0xb1, 0x29, 0x50, 0x3e, 0x2f, 0xdd, 0x8e, 0xbd, 0x2f, 0xdd, 0x8e, 0xbd,
  0x2f, 0xdd, 0x8e, 0xbd, 0x2f, 0xdd, 0x8e, 0xbd, 0x2f, 0xdd, 0x8e, 0xbd,
  0xaf, 0xd5, 0x20, 0x3f, 0x2f, 0xdd, 0x8e, 0xbd, 0x2f, 0xdd, 0x8e, 0xbd,
  0xb1, 0x29, 0x50, 0x3e, 0x2f, 0xdd, 0x8e, 0xbd, 0x2f, 0xdd, 0x8e, 0xbd,
  0xb1, 0x29, 0x50, 0x3e, 0x2f, 0xdd, 0x8e, 0xbd, 0x2f, 0xdd, 0x8e, 0xbd,
  0x2f, 0xdd, 0x8e, 0xbd, 0xb1, 0x29, 0x50, 0x3e, 0x2f, 0xdd, 0x8e, 0xbd,
  0x2f, 0xdd, 0x8e, 0xbd, 0x2f, 0xdd, 0x8e, 0xbd, 0x2f, 0xdd, 0x8e, 0xbd,
  0x2f, 0xdd, 0x8e, 0xbd, 0xb1, 0x29, 0x50, 0x3e, 0xb1, 0x29, 0x50, 0x3e,
  0xb1, 0x29, 0x50, 0x3e, 0xb1, 0x29, 0x50, 0x3e, 0x2f, 0xdd, 0x8e, 0xbd,
  0xaf, 0xd5, 0x20, 0x3f, 0x2f, 0xdd, 0x8e, 0xbd, 0x2f, 0xdd, 0x8e, 0xbd,
  0xb1, 0x29, 0x50, 0x3e, 0x2f, 0xdd, 0x8e, 0xbd, 0x2f, 0xdd, 0x8e, 0xbd,
  0xb1, 0x29, 0x50, 0x3e, 0x2f, 0xdd, 0x8e, 0xbd, 0x2f, 0xdd, 0x8e, 0xbd,
  0x2f, 0xdd, 0x8e, 0xbd, 0x2f, 0xdd, 0x8e, 0xbd, 0x2f, 0xdd, 0x8e, 0xbd,
  0x2f, 0xdd, 0x8e, 0xbd, 0xaf, 0xd5, 0x20, 0x3f, 0x2f, 0xdd, 0x8e, 0xbd,
  0x2f, 0xdd, 0x8e, 0xbd, 0x2f, 0xdd, 0x8e, 0xbd, 0x2f, 0xdd, 0x8e, 0xbd,
  0x2f, 0xdd, 0x8e, 0xbd, 0xb1, 0x29, 0x50, 0x3e, 0x2f, 0xdd, 0x8e, 0xbd,
  0x2f, 0xdd, 0x8e, 0xbd, 0x2f, 0xdd, 0x8e, 0xbd, 0x2f, 0xdd, 0x8e, 0xbd,
  0xaf, 0xd5, 0x20, 0x3f, 0x2f, 0xdd, 0x8e, 0xbd, 0x2f, 0xdd, 0x8e, 0xbd,
  0x2f, 0xdd, 0x8e, 0xbd, 0xb1, 0x29, 0x50, 0x3e, 0x2f, 0xdd, 0x8e, 0xbd,
  0xaf, 0xd5, 0x20, 0x3f, 0x2f, 0xdd, 0x8e, 0xbd, 0x2f, 0xdd, 0x8e, 0xbd,
  0xb1, 0x29, 0x50, 0x3e, 0x2f, 0xdd, 0x8e, 0xbd, 0x2f, 0xdd, 0x8e, 0xbd,
  0x2f, 0xdd, 0x8e, 0xbd, 0x2f, 0xdd, 0x8e, 0xbd, 0x2f, 0xdd, 0x8e, 0xbd,
  0x2f, 0xdd, 0x8e, 0xbd, 0x2f, 0xdd, 0x8e, 0xbd, 0x2f, 0xdd, 0x8e, 0xbd,
  0x2f, 0xdd, 0x8e, 0xbd, 0x2f, 0xdd, 0x8e, 0xbd, 0x2f, 0xdd, 0x8e, 0xbd,
  0x2f, 0xdd, 0x8e, 0xbd, 0x2f, 0xdd, 0x8e, 0xbd, 0xb1, 0x29, 0x50, 0x3e,
  0x2f, 0xdd, 0x8e, 0xbd, 0xb1, 0x29, 0x50, 0x3e, 0xb1, 0x29, 0x50, 0x3e,
  0x2f, 0xdd, 0x8e, 0xbd, 0x2f, 0xdd, 0x8e, 0xbd, 0x2f, 0xdd, 0x8e, 0xbd,
  0x2f, 0xdd, 0x8e, 0xbd, 0x2f, 0xdd, 0x8e, 0xbd, 0x2f, 0xdd, 0x8e, 0xbd,
  0x2f, 0xdd, 0x8e, 0xbd, 0xb1, 0x29, 0x50, 0x3e, 0x2f, 0xdd, 0x8e, 0xbd,
  0x2f, 0xdd, 0x8e, 0xbd, 0x2f, 0xdd, 0x8e, 0xbd, 0x2f, 0xdd, 0x8e, 0xbd,
  0x2f, 0xdd, 0x8e, 0xbd, 0x2f, 0xdd, 0x8e, 0xbd, 0x2f, 0xdd, 0x8e, 0xbd,
  0x2f, 0xdd, 0x8e, 0xbd, 0xb1, 0x29, 0x50, 0x3e, 0xaf, 0xd5, 0x20, 0x3f,
  0xaf, 0xd5, 0x20, 0x3f, 0x2f, 0xdd, 0x8e, 0xbd, 0x2f, 0xdd, 0x8e, 0xbd,
  0xd2, 0xec, 0xff, 0xff, 0x10, 0x00, 0x00, 0x00, 0x0d, 0x00, 0x00, 0x00,
  0x14, 0x00, 0x00, 0x00, 0x34, 0x00, 0x00, 0x00, 0x02, 0x00, 0x00, 0x00,
  0x0a, 0x00, 0x00, 0x00, 0x1e, 0x00, 0x00, 0x00, 0x1c, 0x00, 0x00, 0x00,
  0x73, 0x65, 0x71, 0x75, 0x65, 0x6e, 0x74, 0x69, 0x61, 0x6c, 0x5f, 0x31,
  0x2f, 0x64, 0x65, 0x6e, 0x73, 0x65, 0x5f, 0x31, 0x31, 0x2f, 0x4d, 0x61,
  0x74, 0x4d, 0x75, 0x6c, 0x00, 0x00, 0x00, 0x00, 0x70, 0xec, 0xff, 0xff,
  0x56, 0xed, 0xff, 0xff, 0x04, 0x00, 0x00, 0x00, 0xb0, 0x04, 0x00, 0x00,
  0x4d, 0x84, 0x7d, 0x3d, 0x4d, 0x84, 0x7d, 0x3d, 0xaa, 0x40, 0xed, 0xbe,
  0x4d, 0x84, 0x7d, 0x3d, 0xaa, 0x40, 0xed, 0xbe, 0x4d, 0x84, 0x7d, 0x3d,
  0x4d, 0x84, 0x7d, 0x3d, 0x4d, 0x84, 0x7d, 0x3d, 0xaa, 0x40, 0xed, 0xbe,
  0x4d, 0x84, 0x7d, 0x3d, 0x4d, 0x84, 0x7d, 0x3d, 0x4d, 0x84, 0x7d, 0x3d,
  0x4d, 0x84, 0x7d, 0x3d, 0x4d, 0x84, 0x7d, 0x3d, 0x4d, 0x84, 0x7d, 0x3d,
  0x9a, 0xe5, 0x09, 0x3f, 0x4d, 0x84, 0x7d, 0x3d, 0x4d, 0x84, 0x7d, 0x3d,
  0x4d, 0x84, 0x7d, 0x3d, 0x4d, 0x84, 0x7d, 0x3d, 0x4d, 0x84, 0x7d, 0x3d,
  0x4d, 0x84, 0x7d, 0x3d, 0x4d, 0x84, 0x7d, 0x3d, 0x4d, 0x84, 0x7d, 0x3d,
  0x4d, 0x84, 0x7d, 0x3d, 0xaa, 0x40, 0xed, 0xbe, 0x4d, 0x84, 0x7d, 0x3d,
  0x4d, 0x84, 0x7d, 0x3d, 0x4d, 0x84, 0x7d, 0x3d, 0x4d, 0x84, 0x7d, 0x3d,
  0x4d, 0x84, 0x7d, 0x3d, 0x4d, 0x84, 0x7d, 0x3d, 0x4d, 0x84, 0x7d, 0x3d,
  0x4d, 0x84, 0x7d, 0x3d, 0x4d, 0x84, 0x7d, 0x3d, 0x4d, 0x84, 0x7d, 0x3d,
  0x4d, 0x84, 0x7d, 0x3d, 0xaa, 0x40, 0xed, 0xbe, 0x4d, 0x84, 0x7d, 0x3d,
  0x4d, 0x84, 0x7d, 0x3d, 0x4d, 0x84, 0x7d, 0x3d, 0x4d, 0x84, 0x7d, 0x3d,
  0x9a, 0xe5, 0x09, 0x3f, 0x4d, 0x84, 0x7d, 0x3d, 0x4d, 0x84, 0x7d, 0x3d,
  0x4d, 0x84, 0x7d, 0x3d, 0x4d, 0x84, 0x7d, 0x3d, 0x4d, 0x84, 0x7d, 0x3d,
  0x4d, 0x84, 0x7d, 0x3d, 0xaa, 0x40, 0xed, 0xbe, 0x4d, 0x84, 0x7d, 0x3d,
  0x4d, 0x84, 0x7d, 0x3d, 0xaa, 0x40, 0xed, 0xbe, 0x4d, 0x84, 0x7d, 0x3d,
  0x4d, 0x84, 0x7d, 0x3d, 0x4d, 0x84, 0x7d, 0x3d, 0xaa, 0x40, 0xed, 0xbe,
  0x4d, 0x84, 0x7d, 0x3d, 0x4d, 0x84, 0x7d, 0x3d, 0x4d, 0x84, 0x7d, 0x3d,
  0x4d, 0x84, 0x7d, 0x3d, 0x4d, 0x84, 0x7d, 0x3d, 0x4d, 0x84, 0x7d, 0x3d,
  0x9a, 0xe5, 0x09, 0x3f, 0x4d, 0x84, 0x7d, 0x3d, 0x4d, 0x84, 0x7d, 0x3d,
  0x9a, 0xe5, 0x09, 0x3f, 0x4d, 0x84, 0x7d, 0x3d, 0x4d, 0x84, 0x7d, 0x3d,
  0x4d, 0x84, 0x7d, 0x3d, 0x4d, 0x84, 0x7d, 0x3d, 0x4d, 0x84, 0x7d, 0x3d,
  0xe4, 0xd3, 0x6f, 0xbf, 0x4d, 0x84, 0x7d, 0x3d, 0x4d, 0x84, 0x7d, 0x3d,
  0x4d, 0x84, 0x7d, 0x3d, 0x9a, 0xe5, 0x09, 0x3f, 0x4d, 0x84, 0x7d, 0x3d,
  0xaa, 0x40, 0xed, 0xbe, 0x4d, 0x84, 0x7d, 0x3d, 0x4d, 0x84, 0x7d, 0x3d,
  0x4d, 0x84, 0x7d, 0x3d, 0x4d, 0x84, 0x7d, 0x3d, 0x4d, 0x84, 0x7d, 0x3d,
  0x4d, 0x84, 0x7d, 0x3d, 0x4d, 0x84, 0x7d, 0x3d, 0x9a, 0xe5, 0x09, 0x3f,
  0x4d, 0x84, 0x7d, 0x3d, 0x4d, 0x84, 0x7d, 0x3d, 0x4d, 0x84, 0x7d, 0x3d,
  0x4d, 0x84, 0x7d, 0x3d, 0x4d, 0x84, 0x7d, 0x3d, 0x4d, 0x84, 0x7d, 0x3d,
  0xaa, 0x40, 0xed, 0xbe, 0x4d, 0x84, 0x7d, 0x3d, 0x4d, 0x84, 0x7d, 0x3d,
  0x4d, 0x84, 0x7d, 0x3d, 0x4d, 0x84, 0x7d, 0x3d, 0x4d, 0x84, 0x7d, 0x3d,
  0x4d, 0x84, 0x7d, 0x3d, 0x4d, 0x84, 0x7d, 0x3d, 0x4d, 0x84, 0x7d, 0x3d,
  0x4d, 0x84, 0x7d, 0x3d, 0x4d, 0x84, 0x7d, 0x3d, 0xaa, 0x40, 0xed, 0xbe,
  0x4d, 0x84, 0x7d, 0x3d, 0x4d, 0x84, 0x7d, 0x3d, 0x4d, 0x84, 0x7d, 0x3d,
  0x4d, 0x84, 0x7d, 0x3d, 0x4d, 0x84, 0x7d, 0x3d, 0x4d, 0x84, 0x7d, 0x3d,
  0x4d, 0x84, 0x7d, 0x3d, 0x4d, 0x84, 0x7d, 0x3d, 0x4d, 0x84, 0x7d, 0x3d,
  0x4d, 0x84, 0x7d, 0x3d, 0x9a, 0xe5, 0x09, 0x3f, 0x4d, 0x84, 0x7d, 0x3d,
  0x4d, 0x84, 0x7d, 0x3d, 0xaa, 0x40, 0xed, 0xbe, 0x4d, 0x84, 0x7d, 0x3d,
  0x4d, 0x84, 0x7d, 0x3d, 0x4d, 0x84, 0x7d, 0x3d, 0x4d, 0x84, 0x7d, 0x3d,
  0x9a, 0xe5, 0x09, 0x3f, 0x4d, 0x84, 0x7d, 0x3d, 0x4d, 0x84, 0x7d, 0x3d,
  0x4d, 0x84, 0x7d, 0x3d, 0x4d, 0x84, 0x7d, 0x3d, 0x4d, 0x84, 0x7d, 0x3d,
  0x4d, 0x84, 0x7d, 0x3d, 0xaa, 0x40, 0xed, 0xbe, 0x4d, 0x84, 0x7d, 0x3d,
  0x4d, 0x84, 0x7d, 0x3d, 0x4d, 0x84, 0x7d, 0x3d, 0x4d, 0x84, 0x7d, 0x3d,
  0x4d, 0x84, 0x7d, 0x3d, 0x4d, 0x84, 0x7d, 0x3d, 0x4d, 0x84, 0x7d, 0x3d,
  0x4d, 0x84, 0x7d, 0x3d, 0x4d, 0x84, 0x7d, 0x3d, 0xaa, 0x40, 0xed, 0xbe,
  0x4d, 0x84, 0x7d, 0x3d, 0x4d, 0x84, 0x7d, 0x3d, 0x4d, 0x84, 0x7d, 0x3d,
  0xaa, 0x40, 0xed, 0xbe, 0x4d, 0x84, 0x7d, 0x3d, 0x4d, 0x84, 0x7d, 0x3d,
  0x4d, 0x84, 0x7d, 0x3d, 0xaa, 0x40, 0xed, 0xbe, 0x4d, 0x84, 0x7d, 0x3d,
  0xaa, 0x40, 0xed, 0xbe, 0x4d, 0x84, 0x7d, 0x3d, 0x4d, 0x84, 0x7d, 0x3d,
  0xaa, 0x40, 0xed, 0xbe, 0xaa, 0x40, 0xed, 0xbe, 0x4d, 0x84, 0x7d, 0x3d,
  0xaa, 0x40, 0xed, 0xbe, 0x4d, 0x84, 0x7d, 0x3d, 0x4d, 0x84, 0x7d, 0x3d,
  0x4d, 0x84, 0x7d, 0x3d, 0x4d, 0x84, 0x7d, 0x3d, 0x4d, 0x84, 0x7d, 0x3d,
  0x4d, 0x84, 0x7d, 0x3d, 0xaa, 0x40, 0xed, 0xbe, 0x4d, 0x84, 0x7d, 0x3d,
  0x4d, 0x84, 0x7d, 0x3d, 0xaa, 0x40, 0xed, 0xbe, 0xe4, 0xd3, 0x6f, 0xbf,
  0x4d, 0x84, 0x7d, 0x3d, 0x4d, 0x84, 0x7d, 0x3d, 0xaa, 0x40, 0xed, 0xbe,
  0x4d, 0x84, 0x7d, 0x3d, 0x4d, 0x84, 0x7d, 0x3d, 0x4d, 0x84, 0x7d, 0x3d,
  0x4d, 0x84, 0x7d, 0x3d, 0x4d, 0x84, 0x7d, 0x3d, 0x4d, 0x84, 0x7d, 0x3d,
  0x4d, 0x84, 0x7d, 0x3d, 0x4d, 0x84, 0x7d, 0x3d, 0x4d, 0x84, 0x7d, 0x3d,
  0x4d, 0x84, 0x7d, 0x3d, 0x9a, 0xe5, 0x09, 0x3f, 0x4d, 0x84, 0x7d, 0x3d,
  0x4d, 0x84, 0x7d, 0x3d, 0x4d, 0x84, 0x7d, 0x3d, 0x4d, 0x84, 0x7d, 0x3d,
  0x4d, 0x84, 0x7d, 0x3d, 0x4d, 0x84, 0x7d, 0x3d, 0x4d, 0x84, 0x7d, 0x3d,
  0x4d, 0x84, 0x7d, 0x3d, 0x4d, 0x84, 0x7d, 0x3d, 0x4d, 0x84, 0x7d, 0x3d,
  0x4d, 0x84, 0x7d, 0x3d, 0x4d, 0x84, 0x7d, 0x3d, 0x4d, 0x84, 0x7d, 0x3d,
  0x4d, 0x84, 0x7d, 0x3d, 0x4d, 0x84, 0x7d, 0x3d, 0x4d, 0x84, 0x7d, 0x3d,
  0x4d, 0x84, 0x7d, 0x3d, 0x4d, 0x84, 0x7d, 0x3d, 0x4d, 0x84, 0x7d, 0x3d,
  0x4d, 0x84, 0x7d, 0x3d, 0x4d, 0x84, 0x7d, 0x3d, 0x9a, 0xe5, 0x09, 0x3f,
  0x4d, 0x84, 0x7d, 0x3d, 0x4d, 0x84, 0x7d, 0x3d, 0x9a, 0xe5, 0x09, 0x3f,
  0x4d, 0x84, 0x7d, 0x3d, 0x4d, 0x84, 0x7d, 0x3d, 0xaa, 0x40, 0xed, 0xbe,
  0x4d, 0x84, 0x7d, 0x3d, 0x4d, 0x84, 0x7d, 0x3d, 0x9a, 0xe5, 0x09, 0x3f,
  0x4d, 0x84, 0x7d, 0x3d, 0x4d, 0x84, 0x7d, 0x3d, 0x4d, 0x84, 0x7d, 0x3d,
  0x4d, 0x84, 0x7d, 0x3d, 0xaa, 0x40, 0xed, 0xbe, 0x9a, 0xe5, 0x09, 0x3f,
  0x4d, 0x84, 0x7d, 0x3d, 0x4d, 0x84, 0x7d, 0x3d, 0x4d, 0x84, 0x7d, 0x3d,
  0xaa, 0x40, 0xed, 0xbe, 0x4d, 0x84, 0x7d, 0x3d, 0xaa, 0x40, 0xed, 0xbe,
  0x4d, 0x84, 0x7d, 0x3d, 0x4d, 0x84, 0x7d, 0x3d, 0x4d, 0x84, 0x7d, 0x3d,
  0x4d, 0x84, 0x7d, 0x3d, 0x4d, 0x84, 0x7d, 0x3d, 0x4d, 0x84, 0x7d, 0x3d,
  0x4d, 0x84, 0x7d, 0x3d, 0xaa, 0x40, 0xed, 0xbe, 0x4d, 0x84, 0x7d, 0x3d,
  0x4d, 0x84, 0x7d, 0x3d, 0x4d, 0x84, 0x7d, 0x3d, 0xaa, 0x40, 0xed, 0xbe,
  0x4d, 0x84, 0x7d, 0x3d, 0x4d, 0x84, 0x7d, 0x3d, 0x4d, 0x84, 0x7d, 0x3d,
  0x4d, 0x84, 0x7d, 0x3d, 0x4d, 0x84, 0x7d, 0x3d, 0xaa, 0x40, 0xed, 0xbe,
  0x4d, 0x84, 0x7d, 0x3d, 0xaa, 0x40, 0xed, 0xbe, 0x4d, 0x84, 0x7d, 0x3d,
  0x4d, 0x84, 0x7d, 0x3d, 0x4d, 0x84, 0x7d, 0x3d, 0x4d, 0x84, 0x7d, 0x3d,
  0x4d, 0x84, 0x7d, 0x3d, 0x4d, 0x84, 0x7d, 0x3d, 0x4d, 0x84, 0x7d, 0x3d,
  0x4d, 0x84, 0x7d, 0x3d, 0x4d, 0x84, 0x7d, 0x3d, 0xaa, 0x40, 0xed, 0xbe,
  0x4d, 0x84, 0x7d, 0x3d, 0x4d, 0x84, 0x7d, 0x3d, 0x4d, 0x84, 0x7d, 0x3d,
  0x4d, 0x84, 0x7d, 0x3d, 0x4d, 0x84, 0x7d, 0x3d, 0x4d, 0x84, 0x7d, 0x3d,
  0x4d, 0x84, 0x7d, 0x3d, 0x4d, 0x84, 0x7d, 0x3d, 0xaa, 0x40, 0xed, 0xbe,
  0xaa, 0x40, 0xed, 0xbe, 0x4d, 0x84, 0x7d, 0x3d, 0xaa, 0x40, 0xed, 0xbe,
  0x4d, 0x84, 0x7d, 0x3d, 0x4d, 0x84, 0x7d, 0x3d, 0x4d, 0x84, 0x7d, 0x3d,
  0x4d, 0x84, 0x7d, 0x3d, 0xaa, 0x40, 0xed, 0xbe, 0xaa, 0x40, 0xed, 0xbe,
  0x4d, 0x84, 0x7d, 0x3d, 0x4d, 0x84, 0x7d, 0x3d, 0x4d, 0x84, 0x7d, 0x3d,
  0x4d, 0x84, 0x7d, 0x3d, 0x9a, 0xe5, 0x09, 0x3f, 0x4d, 0x84, 0x7d, 0x3d,
  0x4d, 0x84, 0x7d, 0x3d, 0x4d, 0x84, 0x7d, 0x3d, 0x4d, 0x84, 0x7d, 0x3d,
  0x4d, 0x84, 0x7d, 0x3d, 0x4d, 0x84, 0x7d, 0x3d, 0x4d, 0x84, 0x7d, 0x3d,
  0xaa, 0x40, 0xed, 0xbe, 0x4d, 0x84, 0x7d, 0x3d, 0x4d, 0x84, 0x7d, 0x3d,
  0x4d, 0x84, 0x7d, 0x3d, 0x9a, 0xe5, 0x09, 0x3f, 0xaa, 0x40, 0xed, 0xbe,
  0x4d, 0x84, 0x7d, 0x3d, 0x4d, 0x84, 0x7d, 0x3d, 0x4d, 0x84, 0x7d, 0x3d,
  0x4d, 0x84, 0x7d, 0x3d, 0x4d, 0x84, 0x7d, 0x3d, 0xaa, 0x40, 0xed, 0xbe,
  0x4d, 0x84, 0x7d, 0x3d, 0x4d, 0x84, 0x7d, 0x3d, 0x4d, 0x84, 0x7d, 0x3d,
  0xd6, 0xf1, 0xff, 0xff, 0x10, 0x00, 0x00, 0x00, 0x0c, 0x00, 0x00, 0x00,
  0x14, 0x00, 0x00, 0x00, 0x34, 0x00, 0x00, 0x00, 0x02, 0x00, 0x00, 0x00,
  0x1e, 0x00, 0x00, 0x00, 0x0a, 0x00, 0x00, 0x00, 0x1c, 0x00, 0x00, 0x00,
  0x73, 0x65, 0x71, 0x75, 0x65, 0x6e, 0x74, 0x69, 0x61, 0x6c, 0x5f, 0x31,
  0x2f, 0x64, 0x65, 0x6e, 0x73, 0x65, 0x5f, 0x31, 0x30, 0x2f, 0x4d, 0x61,
  0x74, 0x4d, 0x75, 0x6c, 0x00, 0x00, 0x00, 0x00, 0x74, 0xf1, 0xff, 0xff,
  0x5a, 0xf2, 0xff, 0xff, 0x04, 0x00, 0x00, 0x00, 0x50, 0x00, 0x00, 0x00,
  0xc1, 0xa8, 0x4f, 0xbd, 0xc1, 0xa8, 0x4f, 0xbd, 0xc1, 0xa8, 0x4f, 0xbd,
  0xc1, 0xa8, 0x4f, 0xbd, 0x55, 0xe4, 0x54, 0x3f, 0xc1, 0xa8, 0x4f, 0xbd,
  0x9f, 0xd0, 0x10, 0x3f, 0xc1, 0xa8, 0x4f, 0xbd, 0xc1, 0xa8, 0x4f, 0xbd,
  0xc1, 0xa8, 0x4f, 0xbd, 0xc1, 0xa8, 0x4f, 0xbd, 0xc1, 0xa8, 0x4f, 0xbd,
  0xc1, 0xa8, 0x4f, 0xbd, 0xc1, 0xa8, 0x4f, 0xbd, 0xc1, 0xa8, 0x4f, 0xbd,
  0x55, 0xe4, 0x54, 0x3f, 0x55, 0xe4, 0x54, 0x3f, 0xc1, 0xa8, 0x4f, 0xbd,
  0xc1, 0xa8, 0x4f, 0xbd, 0xc1, 0xa8, 0x4f, 0xbd, 0x7a, 0xf2, 0xff, 0xff,
  0x10, 0x00, 0x00, 0x00, 0x0b, 0x00, 0x00, 0x00, 0x14, 0x00, 0x00, 0x00,
  0x30, 0x00, 0x00, 0x00, 0x02, 0x00, 0x00, 0x00, 0x0a, 0x00, 0x00, 0x00,
  0x02, 0x00, 0x00, 0x00, 0x1b, 0x00, 0x00, 0x00, 0x73, 0x65, 0x71, 0x75,
  0x65, 0x6e, 0x74, 0x69, 0x61, 0x6c, 0x5f, 0x31, 0x2f, 0x64, 0x65, 0x6e,
  0x73, 0x65, 0x5f, 0x39, 0x2f, 0x4d, 0x61, 0x74, 0x4d, 0x75, 0x6c, 0x00,
  0x14, 0xf2, 0xff, 0xff, 0xfa, 0xf2, 0xff, 0xff, 0x04, 0x00, 0x00, 0x00,
  0x50, 0x00, 0x00, 0x00, 0x0e, 0xaf, 0x41, 0xbd, 0xb8, 0xb0, 0x05, 0x3f,
  0x0e, 0xaf, 0x41, 0xbd, 0x0e, 0xaf, 0x41, 0xbd, 0x0e, 0xaf, 0x41, 0xbd,
  0x0e, 0xaf, 0x41, 0xbd, 0x0e, 0xaf, 0x41, 0xbd, 0x0e, 0xaf, 0x41, 0xbd,
  0x0e, 0xaf, 0x41, 0xbd, 0x0e, 0xaf, 0x41, 0xbd, 0x0e, 0xaf, 0x41, 0xbd,
  0x0e, 0xaf, 0x41, 0xbd, 0x0e, 0xaf, 0x41, 0xbd, 0x0e, 0xaf, 0x41, 0xbd,
  0xf3, 0x37, 0x89, 0x3f, 0x0e, 0xaf, 0x41, 0xbd, 0x0e, 0xaf, 0x41, 0xbd,
  0x0e, 0xaf, 0x41, 0xbd, 0xb8, 0xb0, 0x05, 0x3f, 0xa6, 0xe7, 0x16, 0xbf,
  0x1a, 0xf3, 0xff, 0xff, 0x10, 0x00, 0x00, 0x00, 0x0a, 0x00, 0x00, 0x00,
  0x14, 0x00, 0x00, 0x00, 0x30, 0x00, 0x00, 0x00, 0x02, 0x00, 0x00, 0x00,
  0x02, 0x00, 0x00, 0x00, 0x0a, 0x00, 0x00, 0x00, 0x1b, 0x00, 0x00, 0x00,
  0x73, 0x65, 0x71, 0x75, 0x65, 0x6e, 0x74, 0x69, 0x61, 0x6c, 0x5f, 0x31,
  0x2f, 0x64, 0x65, 0x6e, 0x73, 0x65, 0x5f, 0x38, 0x2f, 0x4d, 0x61, 0x74,
  0x4d, 0x75, 0x6c, 0x00, 0xb4, 0xf2, 0xff, 0xff, 0x9a, 0xf3, 0xff, 0xff,
  0x04, 0x00, 0x00, 0x00, 0xb0, 0x04, 0x00, 0x00, 0x9d, 0xe0, 0xe7, 0xbd,
  0x9d, 0xe0, 0xe7, 0xbd, 0x9d, 0xe0, 0xe7, 0xbd, 0x9d, 0xe0, 0xe7, 0xbd,
  0x9d, 0xe0, 0xe7, 0xbd, 0x9d, 0xe0, 0xe7, 0xbd, 0x9d, 0xe0, 0xe7, 0xbd,
  0x9d, 0xe0, 0xe7, 0xbd, 0x9d, 0xe0, 0xe7, 0xbd, 0xd5, 0x36, 0xe7, 0x3e,
  0x9d, 0xe0, 0xe7, 0xbd, 0x9d, 0xe0, 0xe7, 0xbd, 0x9d, 0xe0, 0xe7, 0xbd,
  0x9d, 0xe0, 0xe7, 0xbd, 0x9d, 0xe0, 0xe7, 0xbd, 0x9d, 0xe0, 0xe7, 0xbd,
  0x9d, 0xe0, 0xe7, 0xbd, 0x9d, 0xe0, 0xe7, 0xbd, 0x9d, 0xe0, 0xe7, 0xbd,
  0x9d, 0xe0, 0xe7, 0xbd, 0x9d, 0xe0, 0xe7, 0xbd, 0x9d, 0xe0, 0xe7, 0xbd,
  0x9d, 0xe0, 0xe7, 0xbd, 0x9d, 0xe0, 0xe7, 0xbd, 0x9d, 0xe0, 0xe7, 0xbd,
  0x9d, 0xe0, 0xe7, 0xbd, 0x9d, 0xe0, 0xe7, 0xbd, 0x9d, 0xe0, 0xe7, 0xbd,
  0x9d, 0xe0, 0xe7, 0xbd, 0x9d, 0xe0, 0xe7, 0xbd, 0x9d, 0xe0, 0xe7, 0xbd,
  0x9d, 0xe0, 0xe7, 0xbd, 0xd5, 0x36, 0xe7, 0x3e, 0x9d, 0xe0, 0xe7, 0xbd,
  0x9d, 0xe0, 0xe7, 0xbd, 0x9d, 0xe0, 0xe7, 0xbd, 0x9d, 0xe0, 0xe7, 0xbd,
  0x9d, 0xe0, 0xe7, 0xbd, 0xd5, 0x36, 0xe7, 0x3e, 0x9d, 0xe0, 0xe7, 0xbd,
  0x71, 0xc6, 0x86, 0x3f, 0x9d, 0xe0, 0xe7, 0xbd, 0x9d, 0xe0, 0xe7, 0xbd,
  0x1b, 0x27, 0x27, 0xbf, 0x71, 0xc6, 0x86, 0x3f, 0x9d, 0xe0, 0xe7, 0xbd,
  0x9d, 0xe0, 0xe7, 0xbd, 0x9d, 0xe0, 0xe7, 0xbd, 0x9d, 0xe0, 0xe7, 0xbd,
  0x9d, 0xe0, 0xe7, 0xbd, 0x9d, 0xe0, 0xe7, 0xbd, 0x9d, 0xe0, 0xe7, 0xbd,
  0xd5, 0x36, 0xe7, 0x3e, 0x9d, 0xe0, 0xe7, 0xbd, 0x9d, 0xe0, 0xe7, 0xbd,
  0xd5, 0x36, 0xe7, 0x3e, 0x71, 0xc6, 0x86, 0x3f, 0x9d, 0xe0, 0xe7, 0xbd,
  0xd5, 0x36, 0xe7, 0x3e, 0x9d, 0xe0, 0xe7, 0xbd, 0x9d, 0xe0, 0xe7, 0xbd,
  0x9d, 0xe0, 0xe7, 0xbd, 0x9d, 0xe0, 0xe7, 0xbd, 0x9d, 0xe0, 0xe7, 0xbd,
  0x9d, 0xe0, 0xe7, 0xbd, 0x9d, 0xe0, 0xe7, 0xbd, 0x9d, 0xe0, 0xe7, 0xbd,
  0x9d, 0xe0, 0xe7, 0xbd, 0x9d, 0xe0, 0xe7, 0xbd, 0x9d, 0xe0, 0xe7, 0xbd,
  0x9d, 0xe0, 0xe7, 0xbd, 0x9d, 0xe0, 0xe7, 0xbd, 0xd5, 0x36, 0xe7, 0x3e,
  0x9d, 0xe0, 0xe7, 0xbd, 0x9d, 0xe0, 0xe7, 0xbd, 0x9d, 0xe0, 0xe7, 0xbd,
  0x9d, 0xe0, 0xe7, 0xbd, 0x9d, 0xe0, 0xe7, 0xbd, 0x9d, 0xe0, 0xe7, 0xbd,
  0x9d, 0xe0, 0xe7, 0xbd, 0x9d, 0xe0, 0xe7, 0xbd, 0x9d, 0xe0, 0xe7, 0xbd,
  0x9d, 0xe0, 0xe7, 0xbd, 0x9d, 0xe0, 0xe7, 0xbd, 0x9d, 0xe0, 0xe7, 0xbd,
  0x9d, 0xe0, 0xe7, 0xbd, 0x9d, 0xe0, 0xe7, 0xbd, 0x9d, 0xe0, 0xe7, 0xbd,
  0x9d, 0xe0, 0xe7, 0xbd, 0x9d, 0xe0, 0xe7, 0xbd, 0x9d, 0xe0, 0xe7, 0xbd,
  0x9d, 0xe0, 0xe7, 0xbd, 0x9d, 0xe0, 0xe7, 0xbd, 0x9d, 0xe0, 0xe7, 0xbd,
  0x9d, 0xe0, 0xe7, 0xbd, 0x9d, 0xe0, 0xe7, 0xbd, 0x9d, 0xe0, 0xe7, 0xbd,
  0x9d, 0xe0, 0xe7, 0xbd, 0x1b, 0x27, 0x27, 0xbf, 0xd5, 0x36, 0xe7, 0x3e,
  0x9d, 0xe0, 0xe7, 0xbd, 0x9d, 0xe0, 0xe7, 0xbd, 0x9d, 0xe0, 0xe7, 0xbd,
  0xd5, 0x36, 0xe7, 0x3e, 0x9d, 0xe0, 0xe7, 0xbd, 0x1b, 0x27, 0x27, 0xbf,
  0x9d, 0xe0, 0xe7, 0xbd, 0xd5, 0x36, 0xe7, 0x3e, 0x9d, 0xe0, 0xe7, 0xbd,
  0x9d, 0xe0, 0xe7, 0xbd, 0x9d, 0xe0, 0xe7, 0xbd, 0x9d, 0xe0, 0xe7, 0xbd,
  0x9d, 0xe0, 0xe7, 0xbd, 0x9d, 0xe0, 0xe7, 0xbd, 0x9d, 0xe0, 0xe7, 0xbd,
  0x9d, 0xe0, 0xe7, 0xbd, 0x1b, 0x27, 0x27, 0xbf, 0x9d, 0xe0, 0xe7, 0xbd,
  0x9d, 0xe0, 0xe7, 0xbd, 0xd5, 0x36, 0xe7, 0x3e, 0x9d, 0xe0, 0xe7, 0xbd,
  0x9d, 0xe0, 0xe7, 0xbd, 0x1b, 0x27, 0x27, 0xbf, 0x9d, 0xe0, 0xe7, 0xbd,
  0x9d, 0xe0, 0xe7, 0xbd, 0x1b, 0x27, 0x27, 0xbf, 0x9d, 0xe0, 0xe7, 0xbd,
  0x9d, 0xe0, 0xe7, 0xbd, 0x9d, 0xe0, 0xe7, 0xbd, 0x9d, 0xe0, 0xe7, 0xbd,
  0x71, 0xc6, 0x86, 0x3f, 0xd5, 0x36, 0xe7, 0x3e, 0x9d, 0xe0, 0xe7, 0xbd,
  0x9d, 0xe0, 0xe7, 0xbd, 0xd5, 0x36, 0xe7, 0x3e, 0x9d, 0xe0, 0xe7, 0xbd,
  0x9d, 0xe0, 0xe7, 0xbd, 0x9d, 0xe0, 0xe7, 0xbd, 0x9d, 0xe0, 0xe7, 0xbd,
  0xd5, 0x36, 0xe7, 0x3e, 0x9d, 0xe0, 0xe7, 0xbd, 0x9d, 0xe0, 0xe7, 0xbd,
  0x9d, 0xe0, 0xe7, 0xbd, 0x9d, 0xe0, 0xe7, 0xbd, 0x9d, 0xe0, 0xe7, 0xbd,
  0x9d, 0xe0, 0xe7, 0xbd, 0xd5, 0x36, 0xe7, 0x3e, 0x9d, 0xe0, 0xe7, 0xbd,
  0x9d, 0xe0, 0xe7, 0xbd, 0x9d, 0xe0, 0xe7, 0xbd, 0x9d, 0xe0, 0xe7, 0xbd,
  0x9d, 0xe0, 0xe7, 0xbd, 0x9d, 0xe0, 0xe7, 0xbd, 0x9d, 0xe0, 0xe7, 0xbd,
  0x9d, 0xe0, 0xe7, 0xbd, 0x9d, 0xe0, 0xe7, 0xbd, 0x9d, 0xe0, 0xe7, 0xbd,
  0x9d, 0xe0, 0xe7, 0xbd, 0x9d, 0xe0, 0xe7, 0xbd, 0x9d, 0xe0, 0xe7, 0xbd,
  0x9d, 0xe0, 0xe7, 0xbd, 0x9d, 0xe0, 0xe7, 0xbd, 0x9d, 0xe0, 0xe7, 0xbd,
  0x9d, 0xe0, 0xe7, 0xbd, 0x9d, 0xe0, 0xe7, 0xbd, 0x9d, 0xe0, 0xe7, 0xbd,
  0x9d, 0xe0, 0xe7, 0xbd, 0x1b, 0x27, 0x27, 0xbf, 0x9d, 0xe0, 0xe7, 0xbd,
  0x9d, 0xe0, 0xe7, 0xbd, 0x9d, 0xe0, 0xe7, 0xbd, 0x9d, 0xe0, 0xe7, 0xbd,
  0x9d, 0xe0, 0xe7, 0xbd, 0x9d, 0xe0, 0xe7, 0xbd, 0x9d, 0xe0, 0xe7, 0xbd,
  0x9d, 0xe0, 0xe7, 0xbd, 0x9d, 0xe0, 0xe7, 0xbd, 0x9d, 0xe0, 0xe7, 0xbd,
  0x9d, 0xe0, 0xe7, 0xbd, 0x9d, 0xe0, 0xe7, 0xbd, 0x9d, 0xe0, 0xe7, 0xbd,
  0x9d, 0xe0, 0xe7, 0xbd, 0x9d, 0xe0, 0xe7, 0xbd, 0x9d, 0xe0, 0xe7, 0xbd,
  0x9d, 0xe0, 0xe7, 0xbd, 0x9d, 0xe0, 0xe7, 0xbd, 0x9d, 0xe0, 0xe7, 0xbd,
  0x9d, 0xe0, 0xe7, 0xbd, 0x9d, 0xe0, 0xe7, 0xbd, 0x9d, 0xe0, 0xe7, 0xbd,
  0x9d, 0xe0, 0xe7, 0xbd, 0x9d, 0xe0, 0xe7, 0xbd, 0x9d, 0xe0, 0xe7, 0xbd,
  0x9d, 0xe0, 0xe7, 0xbd, 0x9d, 0xe0, 0xe7, 0xbd, 0x9d, 0xe0, 0xe7, 0xbd,
  0x9d, 0xe0, 0xe7, 0xbd, 0x9d, 0xe0, 0xe7, 0xbd, 0x9d, 0xe0, 0xe7, 0xbd,
  0x9d, 0xe0, 0xe7, 0xbd, 0x9d, 0xe0, 0xe7, 0xbd, 0x9d, 0xe0, 0xe7, 0xbd,
  0x9d, 0xe0, 0xe7, 0xbd, 0x9d, 0xe0, 0xe7, 0xbd, 0x9d, 0xe0, 0xe7, 0xbd,
  0x9d, 0xe0, 0xe7, 0xbd, 0x9d, 0xe0, 0xe7, 0xbd, 0x9d, 0xe0, 0xe7, 0xbd,
  0x9d, 0xe0, 0xe7, 0xbd, 0x9d, 0xe0, 0xe7, 0xbd, 0x9d, 0xe0, 0xe7, 0xbd,
  0x9d, 0xe0, 0xe7, 0xbd, 0x9d, 0xe0, 0xe7, 0xbd, 0x9d, 0xe0, 0xe7, 0xbd,
  0x9d, 0xe0, 0xe7, 0xbd, 0x9d, 0xe0, 0xe7, 0xbd, 0x9d, 0xe0, 0xe7, 0xbd,
  0x9d, 0xe0, 0xe7, 0xbd, 0xd5, 0x36, 0xe7, 0x3e, 0x9d, 0xe0, 0xe7, 0xbd,
  0x9d, 0xe0, 0xe7, 0xbd, 0x9d, 0xe0, 0xe7, 0xbd, 0x9d, 0xe0, 0xe7, 0xbd,
  0x9d, 0xe0, 0xe7, 0xbd, 0x9d, 0xe0, 0xe7, 0xbd, 0x9d, 0xe0, 0xe7, 0xbd,
  0x9d, 0xe0, 0xe7, 0xbd, 0x9d, 0xe0, 0xe7, 0xbd, 0x9d, 0xe0, 0xe7, 0xbd,
  0x9d, 0xe0, 0xe7, 0xbd, 0x9d, 0xe0, 0xe7, 0xbd, 0xd5, 0x36, 0xe7, 0x3e,
  0x9d, 0xe0, 0xe7, 0xbd, 0x9d, 0xe0, 0xe7, 0xbd, 0x9d, 0xe0, 0xe7, 0xbd,
  0x9d, 0xe0, 0xe7, 0xbd, 0x9d, 0xe0, 0xe7, 0xbd, 0x9d, 0xe0, 0xe7, 0xbd,
  0x9d, 0xe0, 0xe7, 0xbd, 0x9d, 0xe0, 0xe7, 0xbd, 0x1b, 0x27, 0x27, 0xbf,
  0x9d, 0xe0, 0xe7, 0xbd, 0x9d, 0xe0, 0xe7, 0xbd, 0xd5, 0x36, 0xe7, 0x3e,
  0x9d, 0xe0, 0xe7, 0xbd, 0x9d, 0xe0, 0xe7, 0xbd, 0x9d, 0xe0, 0xe7, 0xbd,
  0x9d, 0xe0, 0xe7, 0xbd, 0x1b, 0x27, 0x27, 0xbf, 0xd5, 0x36, 0xe7, 0x3e,
  0x71, 0xc6, 0x86, 0x3f, 0x9d, 0xe0, 0xe7, 0xbd, 0x9d, 0xe0, 0xe7, 0xbd,
  0x9d, 0xe0, 0xe7, 0xbd, 0x9d, 0xe0, 0xe7, 0xbd, 0x9d, 0xe0, 0xe7, 0xbd,
  0x9d, 0xe0, 0xe7, 0xbd, 0x9d, 0xe0, 0xe7, 0xbd, 0x9d, 0xe0, 0xe7, 0xbd,
  0x9d, 0xe0, 0xe7, 0xbd, 0x9d, 0xe0, 0xe7, 0xbd, 0x9d, 0xe0, 0xe7, 0xbd,
  0xd5, 0x36, 0xe7, 0x3e, 0x9d, 0xe0, 0xe7, 0xbd, 0x9d, 0xe0, 0xe7, 0xbd,
  0x9d, 0xe0, 0xe7, 0xbd, 0x9d, 0xe0, 0xe7, 0xbd, 0x9d, 0xe0, 0xe7, 0xbd,
  0xd5, 0x36, 0xe7, 0x3e, 0xd5, 0x36, 0xe7, 0x3e, 0x71, 0xc6, 0x86, 0x3f,
  0xd5, 0x36, 0xe7, 0x3e, 0xd5, 0x36, 0xe7, 0x3e, 0x9d, 0xe0, 0xe7, 0xbd,
  0x9d, 0xe0, 0xe7, 0xbd, 0xd5, 0x36, 0xe7, 0x3e, 0x9d, 0xe0, 0xe7, 0xbd,
  0xd5, 0x36, 0xe7, 0x3e, 0x71, 0xc6, 0x86, 0x3f, 0x9d, 0xe0, 0xe7, 0xbd,
  0xd5, 0x36, 0xe7, 0x3e, 0x9d, 0xe0, 0xe7, 0xbd, 0x9d, 0xe0, 0xe7, 0xbd,
  0x9d, 0xe0, 0xe7, 0xbd, 0x9d, 0xe0, 0xe7, 0xbd, 0xd5, 0x36, 0xe7, 0x3e,
  0x9d, 0xe0, 0xe7, 0xbd, 0x9d, 0xe0, 0xe7, 0xbd, 0x9d, 0xe0, 0xe7, 0xbd,
  0x9d, 0xe0, 0xe7, 0xbd, 0x9d, 0xe0, 0xe7, 0xbd, 0x9d, 0xe0, 0xe7, 0xbd,
  0x9d, 0xe0, 0xe7, 0xbd, 0x9d, 0xe0, 0xe7, 0xbd, 0x9d, 0xe0, 0xe7, 0xbd,
  0x9d, 0xe0, 0xe7, 0xbd, 0x71, 0xc6, 0x86, 0x3f, 0x9d, 0xe0, 0xe7, 0xbd,
  0x9d, 0xe0, 0xe7, 0xbd, 0x1b, 0x27, 0x27, 0xbf, 0x1a, 0xf8, 0xff, 0xff,
  0x10, 0x00, 0x00, 0x00, 0x09, 0x00, 0x00, 0x00, 0x14, 0x00, 0x00, 0x00,
  0x30, 0x00, 0x00, 0x00, 0x02, 0x00, 0x00, 0x00, 0x0a, 0x00, 0x00, 0x00,
  0x1e, 0x00, 0x00, 0x00, 0x1b, 0x00, 0x00, 0x00, 0x73, 0x65, 0x71, 0x75,
  0x65, 0x6e, 0x74, 0x69, 0x61, 0x6c, 0x5f, 0x31, 0x2f, 0x64, 0x65, 0x6e,
  0x73, 0x65, 0x5f, 0x37, 0x2f, 0x4d, 0x61, 0x74, 0x4d, 0x75, 0x6c, 0x00,
  0xb4, 0xf7, 0xff, 0xff, 0x9a, 0xf8, 0xff, 0xff, 0x04, 0x00, 0x00, 0x00,
  0xb0, 0x04, 0x00, 0x00, 0x19, 0x55, 0x63, 0xbe, 0x19, 0x55, 0x63, 0xbe,
  0xd2, 0x93, 0x56, 0x3f, 0x19, 0x55, 0x63, 0xbe, 0x19, 0x55, 0x63, 0xbe,
  0x19, 0x55, 0x63, 0xbe, 0x22, 0x31, 0x41, 0xbf, 0xac, 0xb7, 0xa3, 0x3e,
  0x19, 0x55, 0x63, 0xbe, 0x19, 0x55, 0x63, 0xbe, 0x19, 0x55, 0x63, 0xbe,
  0x19, 0x55, 0x63, 0xbe, 0xac, 0xb7, 0xa3, 0x3e, 0x19, 0x55, 0x63, 0xbe,
  0x19, 0x55, 0x63, 0xbe, 0x19, 0x55, 0x63, 0xbe, 0x19, 0x55, 0x63, 0xbe,
  0x19, 0x55, 0x63, 0xbe, 0xac, 0xb7, 0xa3, 0x3e, 0x19, 0x55, 0x63, 0xbe,
  0x19, 0x55, 0x63, 0xbe, 0x19, 0x55, 0x63, 0xbe, 0xd2, 0x93, 0x56, 0x3f,
  0x19, 0x55, 0x63, 0xbe, 0x19, 0x55, 0x63, 0xbe, 0x19, 0x55, 0x63, 0xbe,
  0x19, 0x55, 0x63, 0xbe, 0x19, 0x55, 0x63, 0xbe, 0x19, 0x55, 0x63, 0xbe,
  0x19, 0x55, 0x63, 0xbe, 0x19, 0x55, 0x63, 0xbe, 0xac, 0xb7, 0xa3, 0x3e,
  0x19, 0x55, 0x63, 0xbe, 0x19, 0x55, 0x63, 0xbe, 0xac, 0xb7, 0xa3, 0x3e,
  0x19, 0x55, 0x63, 0xbe, 0xd2, 0x93, 0x56, 0x3f, 0x19, 0x55, 0x63, 0xbe,
  0x19, 0x55, 0x63, 0xbe, 0x19, 0x55, 0x63, 0xbe, 0x19, 0x55, 0x63, 0xbe,
  0x19, 0x55, 0x63, 0xbe, 0x19, 0x55, 0x63, 0xbe, 0x19, 0x55, 0x63, 0xbe,
  0x19, 0x55, 0x63, 0xbe, 0x19, 0x55, 0x63, 0xbe, 0x19, 0x55, 0x63, 0xbe,
  0x19, 0x55, 0x63, 0xbe, 0x19, 0x55, 0x63, 0xbe, 0x19, 0x55, 0x63, 0xbe,
  0x19, 0x55, 0x63, 0xbe, 0x19, 0x55, 0x63, 0xbe, 0xd2, 0x93, 0x56, 0x3f,
  0x19, 0x55, 0x63, 0xbe, 0x19, 0x55, 0x63, 0xbe, 0x19, 0x55, 0x63, 0xbe,
  0x22, 0x31, 0x41, 0xbf, 0x19, 0x55, 0x63, 0xbe, 0x19, 0x55, 0x63, 0xbe,
  0x19, 0x55, 0x63, 0xbe, 0x19, 0x55, 0x63, 0xbe, 0x19, 0x55, 0x63, 0xbe,
  0x19, 0x55, 0x63, 0xbe, 0x19, 0x55, 0x63, 0xbe, 0x19, 0x55, 0x63, 0xbe,
  0x19, 0x55, 0x63, 0xbe, 0x19, 0x55, 0x63, 0xbe, 0x19, 0x55, 0x63, 0xbe,
  0x19, 0x55, 0x63, 0xbe, 0x19, 0x55, 0x63, 0xbe, 0xac, 0xb7, 0xa3, 0x3e,
  0x19, 0x55, 0x63, 0xbe, 0x19, 0x55, 0x63, 0xbe, 0x19, 0x55, 0x63, 0xbe,
  0xac, 0xb7, 0xa3, 0x3e, 0x19, 0x55, 0x63, 0xbe, 0x19, 0x55, 0x63, 0xbe,
  0xd2, 0x93, 0x56, 0x3f, 0x19, 0x55, 0x63, 0xbe, 0x19, 0x55, 0x63, 0xbe,
  0x19, 0x55, 0x63, 0xbe, 0x19, 0x55, 0x63, 0xbe, 0xd2, 0x93, 0x56, 0x3f,
  0xac, 0xb7, 0xa3, 0x3e, 0x19, 0x55, 0x63, 0xbe, 0x19, 0x55, 0x63, 0xbe,
  0x19, 0x55, 0x63, 0xbe, 0x19, 0x55, 0x63, 0xbe, 0x19, 0x55, 0x63, 0xbe,
  0x22, 0x31, 0x41, 0xbf, 0x19, 0x55, 0x63, 0xbe, 0x19, 0x55, 0x63, 0xbe,
  0x19, 0x55, 0x63, 0xbe, 0x19, 0x55, 0x63, 0xbe, 0x19, 0x55, 0x63, 0xbe,
  0x19, 0x55, 0x63, 0xbe, 0x19, 0x55, 0x63, 0xbe, 0xac, 0xb7, 0xa3, 0x3e,
  0x19, 0x55, 0x63, 0xbe, 0x19, 0x55, 0x63, 0xbe, 0x19, 0x55, 0x63, 0xbe,
  0x19, 0x55, 0x63, 0xbe, 0x19, 0x55, 0x63, 0xbe, 0x19, 0x55, 0x63, 0xbe,
  0x19, 0x55, 0x63, 0xbe, 0x22, 0x31, 0x41, 0xbf, 0xd2, 0x93, 0x56, 0x3f,
  0x19, 0x55, 0x63, 0xbe, 0xac, 0xb7, 0xa3, 0x3e, 0x19, 0x55, 0x63, 0xbe,
  0x19, 0x55, 0x63, 0xbe, 0x19, 0x55, 0x63, 0xbe, 0x19, 0x55, 0x63, 0xbe,
  0x19, 0x55, 0x63, 0xbe, 0x19, 0x55, 0x63, 0xbe, 0x19, 0x55, 0x63, 0xbe,
  0xd2, 0x93, 0x56, 0x3f, 0x19, 0x55, 0x63, 0xbe, 0x19, 0x55, 0x63, 0xbe,
  0x19, 0x55, 0x63, 0xbe, 0x19, 0x55, 0x63, 0xbe, 0x19, 0x55, 0x63, 0xbe,
  0x19, 0x55, 0x63, 0xbe, 0x19, 0x55, 0x63, 0xbe, 0x19, 0x55, 0x63, 0xbe,
  0x19, 0x55, 0x63, 0xbe, 0x19, 0x55, 0x63, 0xbe, 0x19, 0x55, 0x63, 0xbe,
  0xac, 0xb7, 0xa3, 0x3e, 0x19, 0x55, 0x63, 0xbe, 0x19, 0x55, 0x63, 0xbe,
  0x19, 0x55, 0x63, 0xbe, 0x19, 0x55, 0x63, 0xbe, 0x19, 0x55, 0x63, 0xbe,
  0x19, 0x55, 0x63, 0xbe, 0xd2, 0x93, 0x56, 0x3f, 0x19, 0x55, 0x63, 0xbe,
  0xac, 0xb7, 0xa3, 0x3e, 0x19, 0x55, 0x63, 0xbe, 0x19, 0x55, 0x63, 0xbe,
  0xac, 0xb7, 0xa3, 0x3e, 0x19, 0x55, 0x63, 0xbe, 0xac, 0xb7, 0xa3, 0x3e,
  0xac, 0xb7, 0xa3, 0x3e, 0x19, 0x55, 0x63, 0xbe, 0x22, 0x31, 0x41, 0xbf,
  0xd2, 0x93, 0x56, 0x3f, 0xac, 0xb7, 0xa3, 0x3e, 0xac, 0xb7, 0xa3, 0x3e,
  0x19, 0x55, 0x63, 0xbe, 0x19, 0x55, 0x63, 0xbe, 0x19, 0x55, 0x63, 0xbe,
  0xac, 0xb7, 0xa3, 0x3e, 0x19, 0x55, 0x63, 0xbe, 0x19, 0x55, 0x63, 0xbe,
  0x19, 0x55, 0x63, 0xbe, 0x19, 0x55, 0x63, 0xbe, 0x19, 0x55, 0x63, 0xbe,
  0xac, 0xb7, 0xa3, 0x3e, 0x19, 0x55, 0x63, 0xbe, 0x19, 0x55, 0x63, 0xbe,
  0x19, 0x55, 0x63, 0xbe, 0x19, 0x55, 0x63, 0xbe, 0x19, 0x55, 0x63, 0xbe,
  0x19, 0x55, 0x63, 0xbe, 0x19, 0x55, 0x63, 0xbe, 0x19, 0x55, 0x63, 0xbe,
  0x19, 0x55, 0x63, 0xbe, 0x19, 0x55, 0x63, 0xbe, 0x19, 0x55, 0x63, 0xbe,
  0x19, 0x55, 0x63, 0xbe, 0xac, 0xb7, 0xa3, 0x3e, 0x19, 0x55, 0x63, 0xbe,
  0x19, 0x55, 0x63, 0xbe, 0x19, 0x55, 0x63, 0xbe, 0x19, 0x55, 0x63, 0xbe,
  0x19, 0x55, 0x63, 0xbe, 0x19, 0x55, 0x63, 0xbe, 0x19, 0x55, 0x63, 0xbe,
  0x19, 0x55, 0x63, 0xbe, 0x19, 0x55, 0x63, 0xbe, 0x19, 0x55, 0x63, 0xbe,
  0x19, 0x55, 0x63, 0xbe, 0x19, 0x55, 0x63, 0xbe, 0x19, 0x55, 0x63, 0xbe,
  0x19, 0x55, 0x63, 0xbe, 0x19, 0x55, 0x63, 0xbe, 0x19, 0x55, 0x63, 0xbe,
  0x19, 0x55, 0x63, 0xbe, 0x19, 0x55, 0x63, 0xbe, 0x19, 0x55, 0x63, 0xbe,
  0x19, 0x55, 0x63, 0xbe, 0xac, 0xb7, 0xa3, 0x3e, 0x19, 0x55, 0x63, 0xbe,
  0x19, 0x55, 0x63, 0xbe, 0x19, 0x55, 0x63, 0xbe, 0x19, 0x55, 0x63, 0xbe,
  0x19, 0x55, 0x63, 0xbe, 0x19, 0x55, 0x63, 0xbe, 0x19, 0x55, 0x63, 0xbe,
  0x19, 0x55, 0x63, 0xbe, 0x19, 0x55, 0x63, 0xbe, 0x19, 0x55, 0x63, 0xbe,
  0x19, 0x55, 0x63, 0xbe, 0x19, 0x55, 0x63, 0xbe, 0x19, 0x55, 0x63, 0xbe,
  0x19, 0x55, 0x63, 0xbe, 0x19, 0x55, 0x63, 0xbe, 0x19, 0x55, 0x63, 0xbe,
  0x19, 0x55, 0x63, 0xbe, 0x19, 0x55, 0x63, 0xbe, 0x19, 0x55, 0x63, 0xbe,
  0x19, 0x55, 0x63, 0xbe, 0x19, 0x55, 0x63, 0xbe, 0x19, 0x55, 0x63, 0xbe,
  0x19, 0x55, 0x63, 0xbe, 0x19, 0x55, 0x63, 0xbe, 0x19, 0x55, 0x63, 0xbe,
  0x19, 0x55, 0x63, 0xbe, 0x19, 0x55, 0x63, 0xbe, 0x19, 0x55, 0x63, 0xbe,
  0x19, 0x55, 0x63, 0xbe, 0x19, 0x55, 0x63, 0xbe, 0xac, 0xb7, 0xa3, 0x3e,
  0x19, 0x55, 0x63, 0xbe, 0x19, 0x55, 0x63, 0xbe, 0xac, 0xb7, 0xa3, 0x3e,
  0x19, 0x55, 0x63, 0xbe, 0x19, 0x55, 0x63, 0xbe, 0x19, 0x55, 0x63, 0xbe,
  0x19, 0x55, 0x63, 0xbe, 0x19, 0x55, 0x63, 0xbe, 0xac, 0xb7, 0xa3, 0x3e,
  0x19, 0x55, 0x63, 0xbe, 0x19, 0x55, 0x63, 0xbe, 0x19, 0x55, 0x63, 0xbe,
  0x19, 0x55, 0x63, 0xbe, 0x19, 0x55, 0x63, 0xbe, 0x19, 0x55, 0x63, 0xbe,
  0x19, 0x55, 0x63, 0xbe, 0x19, 0x55, 0x63, 0xbe, 0x19, 0x55, 0x63, 0xbe,
  0x19, 0x55, 0x63, 0xbe, 0x19, 0x55, 0x63, 0xbe, 0x19, 0x55, 0x63, 0xbe,
  0x19, 0x55, 0x63, 0xbe, 0x19, 0x55, 0x63, 0xbe, 0x19, 0x55, 0x63, 0xbe,
  0x19, 0x55, 0x63, 0xbe, 0x19, 0x55, 0x63, 0xbe, 0x19, 0x55, 0x63, 0xbe,
  0x19, 0x55, 0x63, 0xbe, 0xd2, 0x93, 0x56, 0x3f, 0x19, 0x55, 0x63, 0xbe,
  0x19, 0x55, 0x63, 0xbe, 0x19, 0x55, 0x63, 0xbe, 0x19, 0x55, 0x63, 0xbe,
  0x19, 0x55, 0x63, 0xbe, 0x19, 0x55, 0x63, 0xbe, 0x19, 0x55, 0x63, 0xbe,
  0x19, 0x55, 0x63, 0xbe, 0x19, 0x55, 0x63, 0xbe, 0xd2, 0x93, 0x56, 0x3f,
  0x19, 0x55, 0x63, 0xbe, 0x19, 0x55, 0x63, 0xbe, 0x22, 0x31, 0x41, 0xbf,
  0xd2, 0x93, 0x56, 0x3f, 0x19, 0x55, 0x63, 0xbe, 0x19, 0x55, 0x63, 0xbe,
  0x19, 0x55, 0x63, 0xbe, 0x19, 0x55, 0x63, 0xbe, 0x19, 0x55, 0x63, 0xbe,
  0x19, 0x55, 0x63, 0xbe, 0x19, 0x55, 0x63, 0xbe, 0x19, 0x55, 0x63, 0xbe,
  0x19, 0x55, 0x63, 0xbe, 0x19, 0x55, 0x63, 0xbe, 0x19, 0x55, 0x63, 0xbe,
  0x19, 0x55, 0x63, 0xbe, 0x19, 0x55, 0x63, 0xbe, 0x19, 0x55, 0x63, 0xbe,
  0x19, 0x55, 0x63, 0xbe, 0xac, 0xb7, 0xa3, 0x3e, 0x19, 0x55, 0x63, 0xbe,
  0x19, 0x55, 0x63, 0xbe, 0x19, 0x55, 0x63, 0xbe, 0xac, 0xb7, 0xa3, 0x3e,
  0x19, 0x55, 0x63, 0xbe, 0x19, 0x55, 0x63, 0xbe, 0x19, 0x55, 0x63, 0xbe,
  0x19, 0x55, 0x63, 0xbe, 0xac, 0xb7, 0xa3, 0x3e, 0x22, 0x31, 0x41, 0xbf,
  0x19, 0x55, 0x63, 0xbe, 0x19, 0x55, 0x63, 0xbe, 0x19, 0x55, 0x63, 0xbe,
  0xac, 0xb7, 0xa3, 0x3e, 0x19, 0x55, 0x63, 0xbe, 0x19, 0x55, 0x63, 0xbe,
  0x19, 0x55, 0x63, 0xbe, 0x1a, 0xfd, 0xff, 0xff, 0x10, 0x00, 0x00, 0x00,
  0x08, 0x00, 0x00, 0x00, 0x14, 0x00, 0x00, 0x00, 0x30, 0x00, 0x00, 0x00,
  0x02, 0x00, 0x00, 0x00, 0x1e, 0x00, 0x00, 0x00, 0x0a, 0x00, 0x00, 0x00,
  0x1b, 0x00, 0x00, 0x00, 0x73, 0x65, 0x71, 0x75, 0x65, 0x6e, 0x74, 0x69,
  0x61, 0x6c, 0x5f, 0x31, 0x2f, 0x64, 0x65, 0x6e, 0x73, 0x65, 0x5f, 0x36,
  0x2f, 0x4d, 0x61, 0x74, 0x4d, 0x75, 0x6c, 0x00, 0xb4, 0xfc, 0xff, 0xff,
  0x9a, 0xfd, 0xff, 0xff, 0x04, 0x00, 0x00, 0x00, 0x78, 0x00, 0x00, 0x00,
  0x4f, 0xe6, 0x02, 0x3e, 0x8e, 0x0f, 0xb6, 0xbc, 0x58, 0x2b, 0x4d, 0x3e,
  0x8f, 0x1e, 0x36, 0x3d, 0x00, 0x00, 0x00, 0x00, 0x1e, 0x49, 0xfd, 0x3d,
  0x2f, 0xa1, 0xa5, 0xbd, 0x72, 0xc4, 0x7c, 0x3e, 0x7a, 0x09, 0x98, 0x3d,
  0xa4, 0x92, 0xa9, 0x3d, 0x8e, 0x1d, 0x56, 0x3e, 0xec, 0x1e, 0x87, 0x3d,
  0x00, 0x00, 0x00, 0x00, 0xd9, 0xb3, 0x01, 0x3c, 0x34, 0xa7, 0x7a, 0x3e,
  0x71, 0xa5, 0xaa, 0x3d, 0x00, 0x00, 0x00, 0x00, 0x91, 0x0e, 0x26, 0x3d,
  0x55, 0xb2, 0x92, 0x3b, 0xc8, 0x7b, 0xb6, 0x3d, 0x00, 0x00, 0x00, 0x00,
  0x00, 0x00, 0x00, 0x00, 0x20, 0xf6, 0xc0, 0x3c, 0x7d, 0xe5, 0x70, 0xbd,
  0x00, 0x00, 0x00, 0x00, 0xf1, 0x38, 0x43, 0x3b, 0x1b, 0x3d, 0x65, 0x3e,
  0xbe, 0xb7, 0x9d, 0xbd, 0xcf, 0x86, 0x1f, 0x3d, 0xd8, 0xcf, 0xb7, 0x3d,
  0xe2, 0xfd, 0xff, 0xff, 0x10, 0x00, 0x00, 0x00, 0x07, 0x00, 0x00, 0x00,
  0x10, 0x00, 0x00, 0x00, 0x18, 0x00, 0x00, 0x00, 0x01, 0x00, 0x00, 0x00,
  0x1e, 0x00, 0x00, 0x00, 0x04, 0x00, 0x00, 0x00, 0x62, 0x69, 0x61, 0x73,
  0x00, 0x00, 0x00, 0x00, 0x64, 0xfd, 0xff, 0xff, 0x4a, 0xfe, 0xff, 0xff,
  0x04, 0x00, 0x00, 0x00, 0x28, 0x00, 0x00, 0x00, 0x00, 0x00, 0x00, 0x00,
  0x48, 0xec, 0x1c, 0xbc, 0x00, 0x00, 0x00, 0x00, 0x8a, 0x47, 0x0f, 0x3d,
  0xb4, 0x0f, 0xbe, 0x3d, 0x85, 0x6e, 0x5a, 0xbd, 0x00, 0x00, 0x00, 0x00,
  0x82, 0x70, 0x31, 0xbd, 0x86, 0x56, 0x4f, 0x3c, 0x0d, 0xd8, 0xd3, 0x3d,
  0x42, 0xfe, 0xff, 0xff, 0x10, 0x00, 0x00, 0x00, 0x06, 0x00, 0x00, 0x00,
  0x10, 0x00, 0x00, 0x00, 0x18, 0x00, 0x00, 0x00, 0x01, 0x00, 0x00, 0x00,
  0x0a, 0x00, 0x00, 0x00, 0x06, 0x00, 0x00, 0x00, 0x62, 0x69, 0x61, 0x73,
  0x5f, 0x31, 0x00, 0x00, 0xc4, 0xfd, 0xff, 0xff, 0xaa, 0xfe, 0xff, 0xff,
  0x04, 0x00, 0x00, 0x00, 0x08, 0x00, 0x00, 0x00, 0x18, 0x96, 0xb3, 0xbb,
  0x01, 0x51, 0x1b, 0xbd, 0x82, 0xfe, 0xff, 0xff, 0x10, 0x00, 0x00, 0x00,
  0x05, 0x00, 0x00, 0x00, 0x10, 0x00, 0x00, 0x00, 0x18, 0x00, 0x00, 0x00,
  0x01, 0x00, 0x00, 0x00, 0x02, 0x00, 0x00, 0x00, 0x06, 0x00, 0x00, 0x00,
  0x62, 0x69, 0x61, 0x73, 0x5f, 0x32, 0x00, 0x00, 0x04, 0xfe, 0xff, 0xff,
  0xea, 0xfe, 0xff, 0xff, 0x04, 0x00, 0x00, 0x00, 0x28, 0x00, 0x00, 0x00,
  0xec, 0xdc, 0x73, 0xbc, 0x19, 0xee, 0x8f, 0xbb, 0x60, 0xe9, 0x1a, 0x3e,
  0x0e, 0xe6, 0x2c, 0xbe, 0x9c, 0xd6, 0xd7, 0x3d, 0x7a, 0x90, 0x9d, 0xbd,
  0x9b, 0x4a, 0xb6, 0xb9, 0x6d, 0xde, 0x9e, 0xbd, 0xaa, 0xa1, 0x46, 0xbd,
  0x00, 0x00, 0x00, 0x00, 0xe2, 0xfe, 0xff, 0xff, 0x10, 0x00, 0x00, 0x00,
  0x04, 0x00, 0x00, 0x00, 0x10, 0x00, 0x00, 0x00, 0x18, 0x00, 0x00, 0x00,
  0x01, 0x00, 0x00, 0x00, 0x0a, 0x00, 0x00, 0x00, 0x06, 0x00, 0x00, 0x00,
  0x62, 0x69, 0x61, 0x73, 0x5f, 0x33, 0x00, 0x00, 0x64, 0xfe, 0xff, 0xff,
  0x4a, 0xff, 0xff, 0xff, 0x04, 0x00, 0x00, 0x00, 0x78, 0x00, 0x00, 0x00,
  0x9c, 0xed, 0x7a, 0xbe, 0x2b, 0x6e, 0xc3, 0xbd, 0xfd, 0x3f, 0x89, 0xbe,
  0xe2, 0xdf, 0xac, 0xbe, 0xd7, 0x88, 0x92, 0xbd, 0x39, 0x6f, 0x94, 0xbe,
  0x2d, 0xe8, 0x2b, 0xbe, 0xdc, 0x8d, 0x87, 0xbe, 0x74, 0x1b, 0x6a, 0xbd,
  0x6d, 0xfc, 0x64, 0xbe, 0x8a, 0x55, 0x8b, 0xbe, 0xc5, 0xe7, 0x87, 0xbe,
  0x93, 0x04, 0x60, 0xbe, 0xf6, 0x23, 0xa3, 0xbe, 0x7d, 0x62, 0x9d, 0xbe,
  0x85, 0x58, 0x97, 0xbe, 0x45, 0x43, 0x25, 0xbe, 0xbe, 0x76, 0x7c, 0xbe,
  0x70, 0x94, 0x7e, 0x3d, 0x85, 0x67, 0x85, 0xbe, 0xbe, 0x2d, 0x98, 0xbe,
  0xba, 0xe4, 0x22, 0x3d, 0x62, 0xd3, 0x30, 0xbe, 0x59, 0xf8, 0xae, 0xbe,
  0x22, 0xda, 0x6e, 0xbe, 0xda, 0x09, 0x9b, 0xbe, 0x24, 0x2b, 0x9f, 0xbe,
  0x2f, 0xdf, 0x33, 0xbe, 0xc7, 0x49, 0xca, 0xbd, 0x39, 0x13, 0x69, 0xbe,
  0x92, 0xff, 0xff, 0xff, 0x10, 0x00, 0x00, 0x00, 0x03, 0x00, 0x00, 0x00,
  0x10, 0x00, 0x00, 0x00, 0x1c, 0x00, 0x00, 0x00, 0x01, 0x00, 0x00, 0x00,
  0x1e, 0x00, 0x00, 0x00, 0x06, 0x00, 0x00, 0x00, 0x62, 0x69, 0x61, 0x73,
  0x5f, 0x34, 0x00, 0x00, 0x04, 0x00, 0x06, 0x00, 0x04, 0x00, 0x00, 0x00,
  0x00, 0x00, 0x06, 0x00, 0x08, 0x00, 0x04, 0x00, 0x06, 0x00, 0x00, 0x00,
  0x04, 0x00, 0x00, 0x00, 0x28, 0x00, 0x00, 0x00, 0xfd, 0x5b, 0xd5, 0x3d,
  0xd3, 0xcc, 0x02, 0x3e, 0xc3, 0x14, 0x06, 0x3e, 0x90, 0x36, 0x83, 0x3e,
  0x36, 0xa9, 0xbe, 0x3d, 0x73, 0x37, 0xe0, 0x3d, 0x88, 0xf4, 0xf7, 0x3d,
  0xd1, 0xa9, 0x79, 0x3d, 0x7d, 0xe1, 0x00, 0x3e, 0xc8, 0x3f, 0xdf, 0x3d,
  0x00, 0x00, 0x0e, 0x00, 0x14, 0x00, 0x04, 0x00, 0x00, 0x00, 0x08, 0x00,
  0x0c, 0x00, 0x10, 0x00, 0x0e, 0x00, 0x00, 0x00, 0x10, 0x00, 0x00, 0x00,
  0x02, 0x00, 0x00, 0x00, 0x10, 0x00, 0x00, 0x00, 0x18, 0x00, 0x00, 0x00,
  0x01, 0x00, 0x00, 0x00, 0x0a, 0x00, 0x00, 0x00, 0x06, 0x00, 0x00, 0x00,
  0x62, 0x69, 0x61, 0x73, 0x5f, 0x35, 0x00, 0x00, 0x90, 0xff, 0xff, 0xff,
  0x14, 0x00, 0x18, 0x00, 0x04, 0x00, 0x00, 0x00, 0x08, 0x00, 0x0c, 0x00,
  0x10, 0x00, 0x00, 0x00, 0x00, 0x00, 0x14, 0x00, 0x14, 0x00, 0x00, 0x00,
  0x14, 0x00, 0x00, 0x00, 0x01, 0x00, 0x00, 0x00, 0x18, 0x00, 0x00, 0x00,
  0x44, 0x00, 0x00, 0x00, 0x34, 0x00, 0x00, 0x00, 0x02, 0x00, 0x00, 0x00,
  0x01, 0x00, 0x00, 0x00, 0x0a, 0x00, 0x00, 0x00, 0x1f, 0x00, 0x00, 0x00,
  0x73, 0x65, 0x72, 0x76, 0x69, 0x6e, 0x67, 0x5f, 0x64, 0x65, 0x66, 0x61,
  0x75, 0x6c, 0x74, 0x5f, 0x64, 0x65, 0x6e, 0x73, 0x65, 0x5f, 0x36, 0x5f,
  0x69, 0x6e, 0x70, 0x75, 0x74, 0x3a, 0x30, 0x00, 0x02, 0x00, 0x00, 0x00,
  0xff, 0xff, 0xff, 0xff, 0x0a, 0x00, 0x00, 0x00, 0xfc, 0xff, 0xff, 0xff,
  0x04, 0x00, 0x04, 0x00, 0x04, 0x00, 0x00, 0x00
};
const int g_model_len = 8168;
