alignas(8) const unsigned char g_model[] = {
  0x20, 0x00, 0x00, 0x00, 0x54, 0x46, 0x4c, 0x33, 0x00, 0x00, 0x00, 0x00,
  0x14, 0x00, 0x20, 0x00, 0x04, 0x00, 0x08, 0x00, 0x0c, 0x00, 0x10, 0x00,
  0x14, 0x00, 0x00, 0x00, 0x18, 0x00, 0x1c, 0x00, 0x14, 0x00, 0x00, 0x00,
  0x03, 0x00, 0x00, 0x00, 0x78, 0x25, 0x00, 0x00, 0x64, 0x1c, 0x00, 0x00,
  0x4c, 0x1c, 0x00, 0x00, 0xb4, 0x00, 0x00, 0x00, 0x7c, 0x00, 0x00, 0x00,
  0x04, 0x00, 0x00, 0x00, 0x01, 0x00, 0x00, 0x00, 0x04, 0x00, 0x00, 0x00,
  0x2a, 0xe3, 0xff, 0xff, 0x44, 0x00, 0x00, 0x00, 0x1c, 0x00, 0x00, 0x00,
  0x04, 0x00, 0x00, 0x00, 0x0f, 0x00, 0x00, 0x00, 0x73, 0x65, 0x72, 0x76,
  0x69, 0x6e, 0x67, 0x5f, 0x64, 0x65, 0x66, 0x61, 0x75, 0x6c, 0x74, 0x00,
  0x01, 0x00, 0x00, 0x00, 0x04, 0x00, 0x00, 0x00, 0xb8, 0xff, 0xff, 0xff,
  0x08, 0x00, 0x00, 0x00, 0x13, 0x00, 0x00, 0x00, 0x08, 0x00, 0x00, 0x00,
  0x64, 0x65, 0x6e, 0x73, 0x65, 0x5f, 0x31, 0x37, 0x00, 0x00, 0x00, 0x00,
  0x01, 0x00, 0x00, 0x00, 0x04, 0x00, 0x00, 0x00, 0x8a, 0xe4, 0xff, 0xff,
  0x04, 0x00, 0x00, 0x00, 0x0e, 0x00, 0x00, 0x00, 0x64, 0x65, 0x6e, 0x73,
  0x65, 0x5f, 0x31, 0x32, 0x5f, 0x69, 0x6e, 0x70, 0x75, 0x74, 0x00, 0x00,
  0x01, 0x00, 0x00, 0x00, 0x0c, 0x00, 0x00, 0x00, 0x08, 0x00, 0x0c, 0x00,
  0x04, 0x00, 0x08, 0x00, 0x08, 0x00, 0x00, 0x00, 0x08, 0x00, 0x00, 0x00,
  0x15, 0x00, 0x00, 0x00, 0x13, 0x00, 0x00, 0x00, 0x6d, 0x69, 0x6e, 0x5f,
  0x72, 0x75, 0x6e, 0x74, 0x69, 0x6d, 0x65, 0x5f, 0x76, 0x65, 0x72, 0x73,
  0x69, 0x6f, 0x6e, 0x00, 0x16, 0x00, 0x00, 0x00, 0x80, 0x1b, 0x00, 0x00,
  0x6c, 0x1b, 0x00, 0x00, 0x20, 0x1b, 0x00, 0x00, 0x8c, 0x1a, 0x00, 0x00,
  0x48, 0x1a, 0x00, 0x00, 0x24, 0x1a, 0x00, 0x00, 0xe0, 0x19, 0x00, 0x00,
  0x4c, 0x19, 0x00, 0x00, 0x28, 0x12, 0x00, 0x00, 0x64, 0x0d, 0x00, 0x00,
  0x00, 0x0d, 0x00, 0x00, 0x9c, 0x0c, 0x00, 0x00, 0xd8, 0x07, 0x00, 0x00,
  0xb4, 0x00, 0x00, 0x00, 0xa8, 0x00, 0x00, 0x00, 0x94, 0x00, 0x00, 0x00,
  0x80, 0x00, 0x00, 0x00, 0x6c, 0x00, 0x00, 0x00, 0x58, 0x00, 0x00, 0x00,
  0x44, 0x00, 0x00, 0x00, 0x30, 0x00, 0x00, 0x00, 0x04, 0x00, 0x00, 0x00,
  0x36, 0xe5, 0xff, 0xff, 0x04, 0x00, 0x00, 0x00, 0x10, 0x00, 0x00, 0x00,
  0x31, 0x2e, 0x31, 0x34, 0x2e, 0x30, 0x00, 0x00, 0x00, 0x00, 0x00, 0x00,
  0x00, 0x00, 0x00, 0x00, 0x00, 0x00, 0x00, 0x00, 0x00, 0x00, 0x00, 0x00,
  0x00, 0x00, 0x00, 0x00, 0x08, 0xdc, 0xff, 0xff, 0x00, 0x00, 0x00, 0x00,
  0x00, 0x00, 0x00, 0x00, 0x00, 0x00, 0x00, 0x00, 0x18, 0xdc, 0xff, 0xff,
  0x00, 0x00, 0x00, 0x00, 0x00, 0x00, 0x00, 0x00, 0x00, 0x00, 0x00, 0x00,
  0x28, 0xdc, 0xff, 0xff, 0x00, 0x00, 0x00, 0x00, 0x00, 0x00, 0x00, 0x00,
  0x00, 0x00, 0x00, 0x00, 0x38, 0xdc, 0xff, 0xff, 0x00, 0x00, 0x00, 0x00,
  0x00, 0x00, 0x00, 0x00, 0x00, 0x00, 0x00, 0x00, 0x48, 0xdc, 0xff, 0xff,
  0x00, 0x00, 0x00, 0x00, 0x00, 0x00, 0x00, 0x00, 0x00, 0x00, 0x00, 0x00,
  0x58, 0xdc, 0xff, 0xff, 0x00, 0x00, 0x00, 0x00, 0x00, 0x00, 0x00, 0x00,
  0x00, 0x00, 0x00, 0x00, 0x68, 0xdc, 0xff, 0xff, 0x00, 0x00, 0x00, 0x00,
  0xc6, 0xe5, 0xff, 0xff, 0x04, 0x00, 0x00, 0x00, 0x08, 0x07, 0x00, 0x00,
  0x84, 0xb8, 0xcc, 0xbd, 0xac, 0xb2, 0x85, 0x3e, 0xe5, 0xec, 0x15, 0xbe,
  0x13, 0x86, 0x42, 0x3e, 0x11, 0x08, 0xa1, 0x3e, 0xf6, 0xd1, 0x75, 0xbe,
  0x31, 0xe7, 0x79, 0x3e, 0x3e, 0x1d, 0x6e, 0x3e, 0x5a, 0x6b, 0x74, 0x3e,
  0x61, 0x26, 0x94, 0x3d, 0x2b, 0x16, 0x26, 0x3d, 0x97, 0xe1, 0x8b, 0xbe,
  0x46, 0x75, 0x4e, 0xbe, 0xa0, 0x8b, 0x7b, 0x3e, 0xfe, 0xcf, 0x26, 0x3e,
  0x1b, 0xbb, 0xbf, 0x3e, 0x76, 0xb5, 0x81, 0x3d, 0xda, 0x79, 0x08, 0x3d,
  0xd6, 0xac, 0x17, 0x3e, 0x72, 0xba, 0x17, 0x3e, 0xc6, 0x26, 0xaa, 0xbe,
  0x7d, 0x9b, 0x89, 0x3e, 0x51, 0x14, 0xec, 0x3d, 0x31, 0x0e, 0x56, 0x3d,
  0x75, 0x8a, 0x3e, 0xbd, 0x3a, 0xfd, 0xa7, 0x3d, 0x56, 0xe3, 0xa5, 0x3d,
  0x33, 0x69, 0xc9, 0x3d, 0x36, 0x5d, 0x6e, 0xbd, 0x5b, 0x7b, 0xa1, 0x3d,
  0xdb, 0x64, 0x4a, 0x3e, 0xb8, 0x59, 0xcd, 0xbd, 0xeb, 0x69, 0xa1, 0x3e,
  0xbf, 0xfc, 0x67, 0xbe, 0xc8, 0x11, 0x08, 0xbe, 0x6a, 0x72, 0x5e, 0x3e,
  0x8e, 0x9d, 0x5e, 0x3d, 0x24, 0x87, 0xe0, 0xbb, 0x6f, 0x18, 0x26, 0x3e,
  0xf2, 0x91, 0xa0, 0x3d, 0xeb, 0x96, 0x82, 0xbe, 0x92, 0xeb, 0x8b, 0xbe,
  0x0e, 0xdf, 0x8b, 0x3e, 0x05, 0x46, 0xbc, 0x3e, 0x35, 0x16, 0x4e, 0x3d,
  0xf8, 0x7f, 0x95, 0xbe, 0xd8, 0x7c, 0x42, 0x3e, 0x56, 0x0c, 0x80, 0xbe,
  0xa4, 0x59, 0xcd, 0xbd, 0x2a, 0x63, 0x6f, 0xbe, 0xcc, 0x88, 0xd2, 0x3e,
  0xd0, 0x41, 0x43, 0x3e, 0x0e, 0xbe, 0x9c, 0xbe, 0xce, 0x1c, 0xaf, 0x3e,
  0xd3, 0x2d, 0x1e, 0xbd, 0x6f, 0xe8, 0x10, 0xbe, 0x37, 0xf2, 0x5a, 0x3e,
  0x24, 0xed, 0xfd, 0xbd, 0x2a, 0x21, 0xb1, 0x3d, 0x1d, 0xaf, 0x5a, 0xbe,
  0x3d, 0x7f, 0x0d, 0x3c, 0x7f, 0xc2, 0x04, 0xbe, 0x40, 0x2f, 0x02, 0x3e,
  0xf0, 0xd9, 0xba, 0x3d, 0xe1, 0x5c, 0x2c, 0xbe, 0x37, 0x0d, 0x00, 0xbe,
  0xd7, 0x40, 0x88, 0x3d, 0x2c, 0xf1, 0x74, 0x3e, 0x2a, 0xb1, 0x01, 0x3e,
  0x2d, 0xc9, 0xc5, 0x3e, 0x08, 0x5f, 0x09, 0xbc, 0xfe, 0x8f, 0x75, 0xbe,
  0xa9, 0xe8, 0x50, 0xbe, 0xcf, 0xdc, 0x81, 0x3e, 0x25, 0xdc, 0xbd, 0x3e,
  0x6d, 0x1e, 0x8d, 0x3d, 0x5d, 0x50, 0x90, 0xbe, 0x2e, 0x8b, 0xd8, 0x3c,
  0xf1, 0x50, 0x92, 0xbe, 0x94, 0x86, 0x30, 0x3e, 0x67, 0x2b, 0x32, 0x3e,
  0xf8, 0xda, 0x41, 0xbe, 0x22, 0x42, 0x3b, 0xbe, 0xa6, 0xc1, 0x5a, 0xbe,
  0xec, 0x42, 0xb0, 0x3e, 0xaf, 0xb2, 0x65, 0x3e, 0xd4, 0x71, 0x7c, 0xbe,
  0xfa, 0x42, 0x97, 0x3e, 0x6d, 0x16, 0x09, 0x3e, 0xde, 0x47, 0x89, 0xbd,
  0x18, 0x4d, 0xb2, 0x3d, 0x2d, 0xac, 0xbb, 0x3e, 0xa1, 0xd4, 0x8a, 0xbe,
  0xa8, 0xa9, 0x42, 0x3e, 0xef, 0x9e, 0xa9, 0xbd, 0x87, 0x72, 0x3a, 0xbe,
  0x4e, 0xd8, 0x7c, 0x3c, 0x7e, 0x16, 0x11, 0xbe, 0xd8, 0xb3, 0x8b, 0x3d,
  0xf6, 0xb8, 0x4b, 0xbe, 0x3d, 0xd0, 0x5d, 0xbe, 0x12, 0xf5, 0x73, 0xbe,
  0xa4, 0x6d, 0x3b, 0xbe, 0x5d, 0xc2, 0x42, 0xbe, 0x9a, 0x2e, 0xd4, 0x3e,
  0x8c, 0x7f, 0x5c, 0xbd, 0x51, 0x8d, 0x1a, 0xbe, 0xe9, 0xc3, 0x93, 0x3e,
  0xf2, 0xc0, 0x8e, 0x3e, 0x07, 0x97, 0x2f, 0x3e, 0x87, 0xae, 0xe7, 0x3d,
  0x31, 0x4b, 0x1c, 0x3e, 0xe3, 0xac, 0x89, 0x3d, 0x23, 0x2a, 0x94, 0x3e,
  0xbf, 0x68, 0x2b, 0xbe, 0x04, 0x10, 0x9c, 0x3e, 0x38, 0xdb, 0x8d, 0xbe,
  0x38, 0x5c, 0x28, 0xbd, 0x45, 0xab, 0x8a, 0x3e, 0x35, 0x6b, 0xcf, 0x3c,
  0xc9, 0x7d, 0xa1, 0xbe, 0xfd, 0xae, 0x65, 0xbe, 0xab, 0xb8, 0x9c, 0x3e,
  0x8d, 0x2a, 0x80, 0x3d, 0x4b, 0x4c, 0xfd, 0x3c, 0xeb, 0xb5, 0xb2, 0xbd,
  0x3c, 0x72, 0x07, 0xbe, 0x7f, 0xfa, 0xb7, 0x3d, 0x45, 0xea, 0x6b, 0x3e,
  0x8e, 0xbf, 0x7a, 0x3d, 0x7e, 0x84, 0x31, 0x3e, 0x66, 0x58, 0xa1, 0xbd,
  0x47, 0x1c, 0x4c, 0x3e, 0x92, 0xfc, 0x05, 0x3b, 0xd0, 0x72, 0x12, 0x38,
  0x9a, 0x2e, 0x2c, 0x3d, 0x60, 0x4c, 0x59, 0xbe, 0x07, 0xad, 0x9d, 0x3e,
  0x0a, 0x07, 0x91, 0x3e, 0xf9, 0x24, 0xd2, 0xbd, 0x02, 0x38, 0x96, 0x3e,
  0x75, 0x14, 0x92, 0xbe, 0x3a, 0x79, 0xef, 0xbc, 0x70, 0xc6, 0x92, 0x3e,
  0xa4, 0x88, 0xde, 0x3d, 0x64, 0x91, 0xb3, 0xbe, 0x7d, 0x45, 0x15, 0xbd,
  0xee, 0xf9, 0x50, 0xbe, 0x97, 0xd9, 0x9e, 0x3e, 0x99, 0x8d, 0x14, 0xbe,
  0x94, 0x2e, 0xdb, 0x3e, 0xc9, 0x0d, 0x8b, 0xbe, 0xa4, 0x6f, 0x52, 0xbd,
  0x58, 0xa7, 0x0b, 0xbe, 0x72, 0x34, 0x80, 0xbe, 0xec, 0xae, 0xaf, 0x3e,
  0x3e, 0x2c, 0x60, 0x3e, 0xd3, 0xa9, 0xb5, 0x3e, 0x7c, 0xcb, 0x8c, 0xbe,
  0x14, 0xaa, 0xb9, 0xbb, 0x4e, 0xd9, 0x36, 0x3d, 0xfc, 0x38, 0x03, 0xbe,
  0x51, 0xab, 0xbf, 0x3e, 0x3f, 0x05, 0xd1, 0xbd, 0x7f, 0xbc, 0x0d, 0xbe,
  0x4e, 0xb1, 0x76, 0x3d, 0x34, 0x2f, 0x40, 0xbd, 0xd1, 0xa8, 0x9a, 0x3e,
  0x60, 0xe4, 0xd5, 0xbd, 0x14, 0x41, 0x1d, 0x3e, 0xbc, 0x9b, 0x76, 0xbe,
  0x41, 0x85, 0x9a, 0xbe, 0x7f, 0x35, 0x10, 0xbe, 0xcd, 0x86, 0xe1, 0xbd,
  0x70, 0x1e, 0x7e, 0x3e, 0x3e, 0xa8, 0xcd, 0xbb, 0xb5, 0x2e, 0x0d, 0x3d,
  0xd4, 0x63, 0xc8, 0x3b, 0x5b, 0x64, 0x8a, 0x3e, 0xb1, 0xae, 0xae, 0x3e,
  0xc5, 0x59, 0xb4, 0xbd, 0x6a, 0x0a, 0xcf, 0x3d, 0x4e, 0x10, 0xd0, 0xbd,
  0x04, 0x25, 0xbf, 0x3e, 0xad, 0xfc, 0x7b, 0x3e, 0x29, 0x4a, 0x1b, 0xbe,
  0x0c, 0x7a, 0x9d, 0xbe, 0xb5, 0xaf, 0xc3, 0x3e, 0xe9, 0x8e, 0xbd, 0x3e,
  0x1b, 0x7d, 0xb9, 0x3d, 0x4b, 0xbb, 0x63, 0xbc, 0xea, 0xc0, 0x7b, 0xbd,
  0x38, 0xde, 0x0f, 0xbe, 0x26, 0xe4, 0x1a, 0x3e, 0xd3, 0x59, 0xd7, 0x3d,
  0x14, 0xf5, 0xfe, 0x3d, 0x23, 0xb0, 0x47, 0x3e, 0x68, 0x90, 0x83, 0xbe,
  0xeb, 0x33, 0xa2, 0x3e, 0xaa, 0xa4, 0x22, 0xbe, 0x69, 0x11, 0x51, 0x3e,
  0x48, 0x77, 0x19, 0x3e, 0xd0, 0x0a, 0x1a, 0x3d, 0xdf, 0xcd, 0x3c, 0xbe,
  0xcb, 0x9d, 0xa7, 0x3d, 0xde, 0x16, 0x2e, 0x3e, 0x5d, 0x3d, 0x5d, 0x3e,
  0x22, 0xf0, 0xd0, 0x3e, 0xef, 0xd2, 0x8d, 0xbe, 0x7a, 0x02, 0x89, 0xbe,
  0xa3, 0x3a, 0x90, 0x3d, 0xf7, 0x24, 0x2b, 0x3e, 0x43, 0xf5, 0xcc, 0x3e,
  0xa0, 0x50, 0x14, 0x3e, 0x12, 0x83, 0x8d, 0x3e, 0x75, 0x3e, 0x1c, 0xbe,
  0x60, 0x85, 0x9e, 0x3d, 0xc7, 0x68, 0xa2, 0xbe, 0x62, 0x2e, 0x65, 0xbe,
  0x76, 0x1a, 0x77, 0x3e, 0x16, 0xe8, 0xc1, 0x3e, 0x91, 0x75, 0x65, 0x3e,
  0xed, 0x0b, 0xd4, 0x3e, 0x84, 0x9e, 0x20, 0xbe, 0xa0, 0xd6, 0x2d, 0xbe,
  0x39, 0xae, 0x79, 0xbd, 0xec, 0x36, 0x4e, 0xbd, 0x6c, 0x2d, 0x8f, 0xbe,
  0x81, 0x7b, 0xfc, 0x3d, 0xb9, 0x78, 0x92, 0xbd, 0xaf, 0x4e, 0x8a, 0xbe,
  0x92, 0xf3, 0x95, 0xbd, 0x39, 0xea, 0x92, 0xbe, 0xa6, 0x54, 0x7d, 0xbc,
  0x64, 0x57, 0x64, 0x3d, 0xb7, 0x0a, 0xbf, 0x3d, 0x7c, 0x84, 0xb5, 0x3e,
  0x9f, 0xbd, 0x02, 0xbe, 0xe6, 0x29, 0x97, 0x3e, 0xdb, 0x70, 0xa5, 0x3e,
  0xcf, 0xb6, 0x2e, 0x3d, 0x0f, 0x3c, 0x44, 0xbd, 0x1d, 0x32, 0x12, 0x3e,
  0x28, 0x0b, 0x76, 0xbe, 0x34, 0x2d, 0x17, 0x3e, 0xd6, 0xbd, 0xd5, 0xbc,
  0x09, 0xd7, 0x74, 0xbd, 0xfd, 0xba, 0x83, 0xbd, 0x36, 0x5d, 0x86, 0x3e,
  0xa4, 0xf3, 0xa6, 0x3d, 0xfb, 0xe4, 0xb3, 0x3d, 0x2e, 0x75, 0xe3, 0xbc,
  0x1a, 0x50, 0xb4, 0x3e, 0xed, 0x74, 0x0a, 0x3d, 0x20, 0xa2, 0x2b, 0xbe,
  0x4c, 0xd1, 0x02, 0xba, 0x27, 0x30, 0x1b, 0x3d, 0x78, 0x71, 0x93, 0xbd,
  0xbe, 0xcf, 0x9b, 0xbe, 0x59, 0x28, 0x28, 0x3e, 0x67, 0x54, 0x72, 0x3e,
  0x25, 0xfa, 0x8e, 0xbc, 0xe1, 0x85, 0x93, 0x3e, 0x77, 0x14, 0xb8, 0x3c,
  0xd7, 0xf9, 0x8c, 0x3e, 0x5a, 0xfc, 0xa7, 0x3e, 0x74, 0xd2, 0x24, 0xbe,
  0x23, 0x0d, 0xa8, 0xbe, 0xdb, 0xbf, 0x8b, 0xbd, 0x50, 0x63, 0x02, 0xba,
  0x6e, 0x78, 0x51, 0x3c, 0xaf, 0x7b, 0x1f, 0xbe, 0x77, 0x6b, 0x53, 0xbe,
  0xf5, 0x5a, 0xbe, 0x3d, 0x28, 0xfb, 0x51, 0xbe, 0x13, 0xe9, 0x3d, 0x3c,
  0x2c, 0xc9, 0x4d, 0xbe, 0xa8, 0xce, 0x5f, 0x3d, 0xbd, 0xeb, 0x32, 0xbe,
  0xec, 0xd7, 0x22, 0xbe, 0x67, 0x97, 0x10, 0xbc, 0xc9, 0x30, 0x45, 0x3d,
  0x65, 0xcc, 0x31, 0x3e, 0xa3, 0xd5, 0x7e, 0x3e, 0xe8, 0x01, 0x09, 0xbe,
  0x20, 0xe9, 0x0d, 0xbe, 0xc3, 0xa5, 0x58, 0xbd, 0x78, 0xec, 0x49, 0x3e,
  0xa0, 0x6b, 0xe9, 0x3e, 0x1d, 0xc4, 0x83, 0xbd, 0x6a, 0x69, 0x40, 0xbc,
  0x40, 0x6f, 0x8c, 0xbe, 0x24, 0xa2, 0x0b, 0xbe, 0x3f, 0x8c, 0x3d, 0xbe,
  0x81, 0x04, 0xdc, 0x3e, 0x10, 0x19, 0x90, 0x3e, 0x2b, 0x6f, 0x8a, 0xbd,
  0xec, 0x27, 0x09, 0xbe, 0x21, 0xca, 0x5d, 0x3e, 0x09, 0x20, 0x80, 0xbd,
  0xe0, 0xcb, 0x25, 0x3e, 0xe8, 0x6a, 0x1a, 0x3d, 0x1b, 0xcd, 0xf6, 0xbd,
  0x0a, 0xa7, 0x9b, 0x3e, 0x50, 0x93, 0x65, 0x3e, 0x70, 0x0d, 0x04, 0xbd,
  0x3f, 0x2b, 0x42, 0xbe, 0x23, 0xd7, 0x8d, 0xbe, 0xb7, 0x58, 0x95, 0x3e,
  0x92, 0x37, 0xd2, 0x3e, 0xe1, 0xff, 0x82, 0x3e, 0xa0, 0xc3, 0xef, 0x3d,
  0xcb, 0x19, 0x74, 0xbe, 0xe7, 0x3f, 0x85, 0xbe, 0xe8, 0xf9, 0x99, 0xbd,
  0x40, 0x0e, 0x2f, 0x3e, 0x6f, 0x26, 0x73, 0xbe, 0xbe, 0x3f, 0x49, 0xbd,
  0x4e, 0xe8, 0x6c, 0xbe, 0xf2, 0x8c, 0x58, 0x3e, 0x22, 0x8d, 0x9d, 0x3e,
  0x2c, 0x5c, 0x68, 0xbd, 0x03, 0x4e, 0xe3, 0x3c, 0x3d, 0x23, 0xda, 0x3e,
  0xe8, 0x96, 0xa3, 0x3e, 0xa8, 0xd3, 0x49, 0xbe, 0x90, 0xff, 0xff, 0xbd,
  0x39, 0x64, 0x81, 0xbd, 0x52, 0x3d, 0x71, 0xbe, 0x22, 0xcf, 0x55, 0xbe,
  0x27, 0x73, 0xf5, 0x3c, 0x75, 0xc5, 0x86, 0x3d, 0xdf, 0x13, 0x95, 0xbe,
  0x75, 0xb2, 0xed, 0xbd, 0xba, 0x20, 0x67, 0x3e, 0x89, 0x50, 0xcf, 0x3e,
  0xb9, 0x21, 0x8a, 0xbe, 0x9f, 0xe0, 0x8c, 0xbe, 0xbc, 0x96, 0x29, 0x3e,
  0x0d, 0x39, 0x32, 0xbe, 0xae, 0xdf, 0x88, 0xbe, 0xab, 0x0f, 0x89, 0xbd,
  0xf3, 0xa2, 0x8e, 0xbe, 0x05, 0x60, 0x83, 0x3e, 0x5c, 0x18, 0x46, 0x3e,
  0x82, 0xae, 0x6c, 0xbe, 0xe5, 0x39, 0xf5, 0x3c, 0xb2, 0xb6, 0xe0, 0xbd,
  0x75, 0x7d, 0xd0, 0x3e, 0xd8, 0x77, 0x8a, 0xbe, 0x72, 0x98, 0x89, 0x3d,
  0x05, 0xa2, 0x60, 0x3e, 0x0a, 0xeb, 0x37, 0xbe, 0x8c, 0x21, 0x6f, 0x3e,
  0xa7, 0x62, 0xe7, 0xbd, 0x74, 0xf8, 0xa4, 0x3e, 0x0a, 0x0c, 0x99, 0x3e,
  0xe8, 0x9e, 0x74, 0x3e, 0x3a, 0x4d, 0x92, 0xbe, 0xef, 0x9b, 0x46, 0x3e,
  0x25, 0x3e, 0xc4, 0xbe, 0x14, 0xfe, 0x9a, 0xbe, 0x63, 0x6f, 0x8a, 0x3e,
  0x39, 0xed, 0x33, 0xbe, 0x48, 0x36, 0x9f, 0xbe, 0x76, 0x73, 0x6e, 0x3e,
  0x22, 0x75, 0xde, 0x3d, 0xa9, 0x3e, 0x9c, 0xbe, 0x13, 0x89, 0xd5, 0x3d,
  0x4f, 0x82, 0x12, 0xbe, 0x80, 0x82, 0x95, 0x3d, 0x8f, 0x5d, 0x52, 0x3e,
  0x18, 0x9d, 0x30, 0x3e, 0xa5, 0xb4, 0x6e, 0xbe, 0x2f, 0x0e, 0x46, 0xbe,
  0x8d, 0xa6, 0xc4, 0xbe, 0x58, 0x43, 0x34, 0xbe, 0x21, 0xe3, 0xcb, 0x3d,
  0x03, 0x66, 0xa5, 0x3e, 0x55, 0x22, 0xeb, 0x3d, 0xe7, 0x89, 0x7f, 0x3e,
  0xcb, 0xde, 0x9e, 0x3e, 0xcc, 0x44, 0xc5, 0xbd, 0x6c, 0xd9, 0x5e, 0x3e,
  0x32, 0x35, 0x9b, 0x3e, 0xcb, 0x33, 0x17, 0x3e, 0xd7, 0xec, 0x1a, 0x3e,
  0x82, 0x36, 0x8b, 0xbe, 0xc8, 0x01, 0x20, 0x3d, 0x8d, 0x68, 0xd7, 0xbe,
  0xfa, 0x6b, 0x4d, 0x3e, 0x80, 0x3c, 0x22, 0xbe, 0x25, 0x90, 0x80, 0x3e,
  0x60, 0xb3, 0x51, 0xbe, 0x51, 0x19, 0xbf, 0xbc, 0xed, 0x4a, 0x14, 0x3d,
  0x1e, 0x7b, 0x8f, 0x3e, 0x14, 0x6c, 0x85, 0xbe, 0x68, 0xe2, 0xa2, 0xbe,
  0xfe, 0xaf, 0x84, 0xbe, 0x6a, 0xd9, 0x2c, 0x3d, 0xd7, 0xb0, 0xb6, 0xbe,
  0x6b, 0xe8, 0xc8, 0xbd, 0xe2, 0xc6, 0x47, 0x3e, 0xf7, 0xbd, 0x89, 0xbe,
  0xb4, 0x99, 0x83, 0xbe, 0x0d, 0x95, 0xfb, 0xbd, 0x08, 0xcd, 0x22, 0xbd,
  0x4c, 0x3c, 0xf4, 0x3c, 0x45, 0xbe, 0x04, 0xbe, 0x20, 0xc8, 0x8b, 0x3e,
  0x49, 0xb1, 0xf6, 0x3d, 0xa7, 0xc1, 0x2f, 0x3d, 0x40, 0xff, 0x95, 0x3e,
  0xfa, 0x88, 0x31, 0xbd, 0x04, 0x49, 0x8a, 0x3e, 0xb4, 0x0a, 0xaf, 0x3e,
  0x07, 0x52, 0xf6, 0x3d, 0xb3, 0x75, 0xc2, 0x3e, 0x8b, 0xea, 0x07, 0xbe,
  0x62, 0x4e, 0x7a, 0x3e, 0xac, 0xbb, 0x77, 0xbe, 0xd6, 0x20, 0x70, 0x3e,
  0x2c, 0x9c, 0x82, 0x3e, 0x26, 0x69, 0x4f, 0x3e, 0x9b, 0xb1, 0x6a, 0x3e,
  0x63, 0x6c, 0x93, 0xbe, 0xf7, 0xb7, 0x00, 0xbe, 0xaf, 0x9c, 0xcf, 0xbd,
  0x7d, 0x65, 0x49, 0xbe, 0xc4, 0x41, 0x66, 0x3e, 0x94, 0xed, 0x4b, 0x3d,
  0x50, 0x92, 0x3e, 0xbe, 0xbf, 0x0d, 0x33, 0x3e, 0x88, 0x91, 0x89, 0x3c,
  0xbe, 0xf7, 0x96, 0x3d, 0xa0, 0x28, 0x62, 0xbe, 0xa2, 0xea, 0xa6, 0x3e,
  0xf1, 0x2b, 0x5f, 0x3e, 0x7b, 0x78, 0xb5, 0x3d, 0x04, 0x0c, 0x36, 0x3c,
  0xb3, 0xa5, 0x32, 0xbe, 0xba, 0x75, 0xa2, 0xbd, 0xa3, 0x28, 0xb9, 0xbe,
  0xe3, 0xf9, 0x13, 0x3e, 0xce, 0x34, 0x8a, 0x3e, 0x40, 0xbd, 0xac, 0x3d,
  0x88, 0x01, 0x89, 0xbe, 0xa2, 0xfc, 0x63, 0x3e, 0xb2, 0x78, 0x89, 0xbc,
  0x00, 0x00, 0x00, 0x00, 0x00, 0x00, 0x00, 0x00, 0x00, 0x00, 0x00, 0x00,
  0xe6, 0xec, 0xff, 0xff, 0x04, 0x00, 0x00, 0x00, 0xb0, 0x04, 0x00, 0x00,
  0xc6, 0xd1, 0x2d, 0xbe, 0x53, 0x4b, 0x90, 0xbe, 0x5a, 0x45, 0x83, 0xbe,
  0xfc, 0x43, 0x78, 0xbd, 0x0d, 0xae, 0x60, 0xbe, 0x8f, 0x4a, 0xfc, 0xbd,
  0x90, 0x97, 0x81, 0x3d, 0x34, 0xb4, 0xf6, 0x3d, 0x86, 0xc1, 0x92, 0xbe,
  0x23, 0x73, 0x02, 0x3e, 0x83, 0xce, 0x4f, 0xbe, 0x48, 0x99, 0x48, 0x3c,
  0x11, 0xd3, 0x91, 0xbe, 0x16, 0x59, 0x8e, 0xbe, 0x6b, 0x54, 0x62, 0xbe,
  0x52, 0x10, 0x3d, 0x3e, 0xed, 0x1c, 0x69, 0xbe, 0xa5, 0x48, 0x0f, 0xbe,
  0xef, 0xa7, 0x94, 0xbe, 0x15, 0x20, 0x8c, 0x3e, 0x13, 0xd8, 0xa0, 0xbe,
  0x4f, 0x39, 0x45, 0xbe, 0x7d, 0xf9, 0x0c, 0xbe, 0xe0, 0x89, 0xbd, 0xbc,
  0xda, 0xb6, 0x48, 0x3e, 0x33, 0xc1, 0x03, 0xbf, 0x51, 0x84, 0xc3, 0xbe,
  0x15, 0x3f, 0x53, 0xbe, 0xf5, 0xba, 0x16, 0xbd, 0x87, 0x7b, 0x0d, 0xbe,
  0xb4, 0x1a, 0x3f, 0xbe, 0x88, 0xf9, 0x9b, 0xbe, 0x1c, 0x02, 0xb0, 0x3d,
  0x36, 0xb4, 0x6d, 0x3d, 0xd7, 0xab, 0x5e, 0x3e, 0xce, 0x96, 0xb1, 0xbe,
  0x13, 0xe3, 0x75, 0x3e, 0xd2, 0x01, 0xaa, 0xbe, 0x86, 0xed, 0xea, 0xbc,
  0xe3, 0xed, 0x84, 0xbe, 0x02, 0x63, 0x57, 0xbe, 0x9c, 0x5a, 0xa7, 0xbc,
  0x12, 0x99, 0x3c, 0x3e, 0x68, 0xf1, 0x9e, 0x3d, 0x98, 0x6c, 0x07, 0xbf,
  0xca, 0xc2, 0x89, 0x3c, 0xc3, 0xf7, 0xd8, 0x3d, 0x4a, 0xf5, 0x0f, 0x3e,
  0xde, 0xe7, 0x6d, 0xbe, 0x7e, 0x16, 0x8f, 0xbe, 0x17, 0xa7, 0x9b, 0x3e,
  0x37, 0x61, 0xf2, 0xbd, 0xfe, 0x7c, 0xaf, 0xbe, 0x77, 0xf3, 0xbb, 0xbc,
  0xdd, 0x55, 0x01, 0x3e, 0x23, 0x03, 0x40, 0x3e, 0x52, 0xdd, 0x9a, 0xbe,
  0x0c, 0xaa, 0x29, 0x3e, 0x1b, 0x47, 0xa6, 0x3e, 0x90, 0x48, 0x3e, 0xbe,
  0xcb, 0xe6, 0xf7, 0xbe, 0xba, 0xbd, 0xbd, 0xbd, 0x1d, 0xd8, 0xb4, 0x3e,
  0x2d, 0xa9, 0x84, 0x3e, 0xe0, 0x21, 0xc9, 0xbe, 0x86, 0x34, 0x71, 0xbe,
  0x1d, 0x18, 0x7f, 0x3d, 0xe7, 0x59, 0x3b, 0xbe, 0x5a, 0xb5, 0x3c, 0x3e,
  0xd5, 0xdd, 0xf8, 0xbe, 0x61, 0x9d, 0x97, 0xbe, 0x5e, 0x68, 0xf6, 0xbd,
  0xcc, 0x84, 0x04, 0xbf, 0x8e, 0x9c, 0xad, 0xbe, 0x7f, 0xcf, 0x86, 0x3d,
  0x4b, 0xf9, 0xc1, 0xbd, 0x34, 0x37, 0x9e, 0x3e, 0x51, 0x77, 0x7b, 0xbe,
  0x07, 0x2a, 0xe4, 0xbe, 0x9a, 0x87, 0xac, 0xbe, 0xb3, 0x7f, 0xc8, 0xbe,
  0x34, 0x62, 0x9d, 0xbe, 0x78, 0x89, 0xc8, 0xbe, 0xee, 0x98, 0x45, 0xbe,
  0x48, 0xfc, 0xd7, 0xbe, 0xe3, 0x03, 0x29, 0x3e, 0x30, 0xe8, 0x42, 0x3e,
  0x9d, 0x41, 0x75, 0xbe, 0x1a, 0x71, 0xf2, 0xbe, 0x6a, 0xb3, 0x20, 0x3e,
  0x94, 0x4b, 0x57, 0x3e, 0x99, 0x5e, 0x85, 0x3a, 0xd7, 0x6b, 0xb6, 0x3c,
  0x43, 0x32, 0xe2, 0xbe, 0xcc, 0x40, 0x3d, 0x3e, 0xdf, 0xc5, 0x8b, 0x3d,
  0x94, 0xa9, 0xed, 0xbd, 0x8f, 0xf6, 0x8b, 0x3d, 0x19, 0xfd, 0x38, 0x3e,
  0x6a, 0x74, 0x3b, 0x3e, 0xaf, 0xc6, 0xa8, 0xbe, 0xc3, 0xab, 0x80, 0xbd,
  0x70, 0x88, 0x15, 0xbd, 0x66, 0x39, 0x6a, 0x3d, 0x15, 0xc0, 0xc9, 0xbe,
  0xc0, 0xf1, 0xbe, 0xbe, 0xb3, 0x49, 0xab, 0xbe, 0x8c, 0x2e, 0x84, 0xbe,
  0x5c, 0xe9, 0xdd, 0x3d, 0x9d, 0xca, 0xbc, 0xbe, 0x8c, 0x20, 0x34, 0xbd,
  0xa5, 0x7c, 0x00, 0xbe, 0xd3, 0x6b, 0x51, 0xbe, 0xa3, 0xf8, 0xe2, 0x3c,
  0x5a, 0xdd, 0xcb, 0xbd, 0xaa, 0xb0, 0x8e, 0x3e, 0x0f, 0x7b, 0x42, 0x3e,
  0x81, 0x96, 0xf3, 0xbd, 0xa4, 0xd7, 0xbf, 0xbe, 0xfd, 0x52, 0x44, 0x3e,
  0xf5, 0x3c, 0xc7, 0xbe, 0x21, 0x5a, 0x2d, 0xbe, 0xa2, 0xd0, 0x4b, 0x3e,
  0x12, 0x4f, 0xa8, 0x3e, 0x09, 0xe6, 0xcf, 0x3d, 0xd3, 0x7b, 0x7b, 0x3c,
  0xc0, 0xb1, 0x64, 0x3e, 0x64, 0x4b, 0xc2, 0xbd, 0x99, 0x9e, 0xd1, 0xbd,
  0xa5, 0x21, 0xc3, 0xbd, 0x6c, 0x3a, 0x63, 0xbe, 0xe1, 0xe9, 0xfe, 0xbd,
  0xa2, 0x82, 0x68, 0x3d, 0x67, 0x67, 0xe5, 0x3e, 0x3c, 0xb2, 0x18, 0xbd,
  0x20, 0x25, 0x83, 0x3e, 0xef, 0x37, 0x57, 0x3e, 0xc8, 0xf9, 0x74, 0xbd,
  0xaf, 0x48, 0x09, 0xbe, 0xc2, 0x53, 0x80, 0xbe, 0xf0, 0x46, 0x96, 0xbe,
  0x16, 0x71, 0x25, 0xbe, 0x6a, 0x36, 0x21, 0x3e, 0xf4, 0xe1, 0x5f, 0x3e,
  0xe2, 0x56, 0xa5, 0xbe, 0xdc, 0x4e, 0xa6, 0x3e, 0x59, 0x14, 0x4f, 0x3e,
  0x95, 0x1b, 0x40, 0x3e, 0xe7, 0xb3, 0xe4, 0xbe, 0x22, 0x33, 0xc8, 0x3d,
  0x3c, 0x6c, 0xa2, 0xbe, 0x3a, 0x75, 0x3a, 0x3d, 0x1e, 0x22, 0xa5, 0xbe,
  0x78, 0xb4, 0xd9, 0xbe, 0xf2, 0x9d, 0xdd, 0xbe, 0x45, 0x3a, 0x02, 0x3e,
  0x33, 0x13, 0xad, 0xbe, 0x84, 0xf4, 0x35, 0x3e, 0x50, 0x26, 0x6c, 0x3d,
  0xc9, 0x76, 0x5f, 0x3d, 0x64, 0x9b, 0x79, 0xbe, 0x10, 0xfe, 0x2d, 0x3e,
  0x24, 0xd7, 0xc7, 0xbe, 0xab, 0x2e, 0xc2, 0xbe, 0xa8, 0xb7, 0xb2, 0x3c,
  0xcc, 0xa4, 0x09, 0x3d, 0xc1, 0x4f, 0x37, 0xbe, 0x78, 0xd6, 0xe7, 0xbe,
  0xef, 0xc3, 0x20, 0xbe, 0x29, 0x7d, 0x01, 0x3e, 0x35, 0xcb, 0xa0, 0xbe,
  0x2c, 0x7e, 0x96, 0x3e, 0x42, 0xf7, 0x5c, 0x3e, 0x75, 0x94, 0x9d, 0x3e,
  0xd3, 0x19, 0x2f, 0xbe, 0x84, 0x68, 0x84, 0x3d, 0x81, 0xc9, 0xa2, 0x3e,
  0xe4, 0x3a, 0xd2, 0xbd, 0xf3, 0x68, 0x29, 0xbe, 0x0b, 0xcb, 0x29, 0xbe,
  0x7d, 0x8f, 0xb3, 0x3d, 0xdd, 0x23, 0x96, 0x3e, 0xe9, 0x13, 0x1d, 0xbe,
  0x02, 0x28, 0x2e, 0x3d, 0xcf, 0xd5, 0x7e, 0x3e, 0xb8, 0x47, 0xd8, 0xbd,
  0xf7, 0x42, 0x6c, 0x3d, 0x6c, 0xf8, 0x00, 0x3b, 0xd6, 0xfc, 0x65, 0x3b,
  0xca, 0x33, 0xc5, 0xbe, 0x5d, 0x89, 0x67, 0xbe, 0xea, 0x7c, 0x86, 0xbe,
  0x2f, 0x57, 0xce, 0xbc, 0xa3, 0x7e, 0xcf, 0x3d, 0x39, 0xb0, 0x92, 0x3d,
  0xd0, 0xa2, 0x63, 0x3e, 0xcc, 0xbb, 0x5d, 0xbd, 0x05, 0x8f, 0x95, 0x3e,
  0x21, 0xae, 0x4a, 0xbe, 0xe6, 0x1f, 0x4e, 0xbe, 0xbd, 0x34, 0xbc, 0xbd,
  0x48, 0x67, 0x47, 0xbc, 0xde, 0xb8, 0x8b, 0x3e, 0x20, 0xc9, 0xc1, 0x3e,
  0x84, 0x67, 0x8d, 0xbd, 0x73, 0xb3, 0x14, 0xbe, 0x80, 0x4c, 0xf1, 0x3e,
  0x9c, 0xe3, 0x3a, 0xbe, 0x40, 0xaa, 0x4e, 0x3e, 0xc8, 0xa0, 0x1f, 0xbe,
  0xe0, 0x2a, 0x55, 0xbe, 0xa9, 0x31, 0x03, 0x3e, 0x69, 0x71, 0x21, 0x3e,
  0x0d, 0x59, 0xe4, 0xbc, 0xb2, 0x46, 0x55, 0xbe, 0xaa, 0x6c, 0xd6, 0x3d,
  0xde, 0xcd, 0x14, 0x3e, 0x35, 0x7c, 0x9f, 0xbe, 0xa2, 0x41, 0x88, 0x3e,
  0x18, 0x4b, 0x22, 0xbd, 0x2b, 0x33, 0xa5, 0xbe, 0x16, 0x29, 0x61, 0xbe,
  0xf3, 0xce, 0x02, 0xbf, 0xbe, 0x0e, 0x88, 0x3e, 0xb0, 0xd3, 0xef, 0xbe,
  0x3e, 0xa9, 0x3b, 0xbe, 0x63, 0xcd, 0x19, 0x3c, 0x1e, 0x65, 0x7f, 0x3e,
  0xae, 0xc2, 0x8e, 0xbd, 0x5e, 0x08, 0x80, 0x3e, 0x39, 0xc0, 0xb3, 0x3d,
  0xb1, 0x20, 0x89, 0xbd, 0x19, 0x35, 0x5e, 0xbd, 0x60, 0x8e, 0x92, 0x3e,
  0xa2, 0xb5, 0xa3, 0x3e, 0xc5, 0x9c, 0xfa, 0xbd, 0x75, 0x6f, 0x80, 0xbe,
  0x5c, 0x2c, 0xd0, 0x3c, 0xe7, 0x3f, 0xbe, 0x3e, 0x75, 0x47, 0x50, 0xbe,
  0x04, 0x9c, 0x2c, 0x3e, 0x07, 0x27, 0x0c, 0x3d, 0x31, 0xb0, 0x50, 0xbe,
  0xbf, 0xe1, 0xea, 0x3e, 0x20, 0x72, 0x70, 0xbe, 0x18, 0x9c, 0xf5, 0xbd,
  0x75, 0xbf, 0x42, 0x3e, 0xa2, 0xfa, 0x9a, 0x3e, 0xac, 0x68, 0xda, 0xbd,
  0x23, 0xda, 0x5f, 0x3e, 0xfb, 0x14, 0xf5, 0x3e, 0xa2, 0x7d, 0x06, 0xbe,
  0x2b, 0x5f, 0x95, 0xbb, 0xd9, 0x62, 0x93, 0x3e, 0xef, 0x1b, 0x89, 0xbe,
  0xd5, 0xcd, 0x45, 0x3d, 0x4d, 0x36, 0xa2, 0x3e, 0xa5, 0x3e, 0x2a, 0xbd,
  0x85, 0xa9, 0xdf, 0xbd, 0x28, 0x82, 0xb3, 0x3e, 0x10, 0xdd, 0xaa, 0xbe,
  0x92, 0x24, 0x25, 0x3e, 0xe6, 0x01, 0xe0, 0x3d, 0xef, 0x32, 0xa8, 0xbe,
  0x00, 0x04, 0x57, 0xbe, 0x10, 0x56, 0x12, 0x3d, 0x36, 0x40, 0xf5, 0xbe,
  0xd4, 0x3c, 0x88, 0xbe, 0x29, 0xdc, 0xd5, 0x3c, 0xea, 0x82, 0xe0, 0xbd,
  0x91, 0x08, 0xa2, 0xbe, 0xd0, 0xd1, 0xa9, 0xbe, 0xb7, 0xc6, 0xe9, 0xbe,
  0x54, 0x9a, 0x87, 0xbe, 0x17, 0x5b, 0x87, 0x3e, 0x40, 0x36, 0xef, 0xbd,
  0x09, 0x0d, 0xc8, 0xbd, 0x5a, 0x1c, 0x0b, 0x3e, 0x11, 0xbc, 0xc2, 0xbe,
  0x03, 0xaa, 0x9f, 0xbd, 0x3f, 0x78, 0x66, 0xbe, 0x82, 0xd8, 0x24, 0x3e,
  0x92, 0xe0, 0xf2, 0x3e, 0x41, 0x82, 0xb9, 0xbd, 0x85, 0xb8, 0x21, 0xbe,
  0xfb, 0x2d, 0x7c, 0xbe, 0x0e, 0x13, 0xc3, 0xbd, 0x6f, 0xb2, 0xaf, 0xbc,
  0xfe, 0x43, 0x71, 0xbe, 0x0c, 0xfb, 0x2f, 0x3e, 0x09, 0x20, 0xe3, 0xbe,
  0x0a, 0x7d, 0x72, 0xbb, 0x4e, 0xdb, 0x60, 0xbd, 0x91, 0x61, 0x6f, 0xbd,
  0xfd, 0x1d, 0xe9, 0x3c, 0x56, 0xcf, 0xcd, 0xbd, 0x74, 0xfc, 0xc4, 0xbe,
  0x96, 0xa6, 0xe8, 0xbd, 0x6e, 0x0b, 0x8f, 0xbe, 0x50, 0xff, 0xd3, 0xbe,
  0x00, 0x00, 0x00, 0x00, 0xa6, 0xf1, 0xff, 0xff, 0x04, 0x00, 0x00, 0x00,
  0x50, 0x00, 0x00, 0x00, 0x8f, 0x3b, 0xa1, 0x3e, 0x1e, 0xac, 0xff, 0x3e,
  0xdb, 0x86, 0x08, 0xbf, 0x34, 0xb9, 0x9c, 0x3d, 0xfc, 0x8e, 0x35, 0x3f,
  0x8a, 0xae, 0x78, 0xbe, 0xfb, 0xd5, 0x10, 0x3f, 0xda, 0x36, 0xe7, 0x3d,
  0x07, 0x97, 0x01, 0x3f, 0x58, 0xb0, 0xdc, 0x3d, 0x65, 0x59, 0x34, 0xbd,
  0xeb, 0xd3, 0x4e, 0x3e, 0x00, 0x65, 0xa2, 0xbb, 0xf6, 0x08, 0xb8, 0x3e,
  0x50, 0x99, 0x54, 0x3e, 0xfb, 0x84, 0xc5, 0x3e, 0xc2, 0xda, 0x3a, 0x3f,
  0xc8, 0x23, 0xe6, 0xbc, 0xd0, 0x68, 0xac, 0xbe, 0x5d, 0x31, 0xdb, 0x3d,
  0x00, 0x00, 0x00, 0x00, 0x06, 0xf2, 0xff, 0xff, 0x04, 0x00, 0x00, 0x00,
  0x50, 0x00, 0x00, 0x00, 0x22, 0xb2, 0x93, 0xbe, 0x25, 0x69, 0xbe, 0x3e,
  0xb3, 0xa9, 0xa5, 0xbe, 0xb1, 0xdf, 0x2e, 0xbe, 0x10, 0x15, 0x55, 0x3d,
  0x77, 0xea, 0x6e, 0x3e, 0xde, 0xf9, 0xb6, 0x3e, 0xf6, 0x0d, 0x8e, 0xbe,
  0x22, 0x11, 0x84, 0x3e, 0xb9, 0x69, 0x61, 0x3e, 0xe3, 0xef, 0x66, 0x3d,
  0x5b, 0x09, 0x35, 0xbd, 0x76, 0x3f, 0xec, 0x3e, 0xd1, 0xa4, 0x21, 0x3e,
  0x0b, 0x37, 0x28, 0x3f, 0x5e, 0xec, 0x43, 0x3f, 0x30, 0x0a, 0x24, 0xbe,
  0xdc, 0x60, 0xb1, 0x3e, 0x07, 0x74, 0x39, 0x3f, 0x2f, 0x0e, 0xd3, 0xbe,
  0x00, 0x00, 0x00, 0x00, 0x66, 0xf2, 0xff, 0xff, 0x04, 0x00, 0x00, 0x00,
  0xb0, 0x04, 0x00, 0x00, 0x97, 0x76, 0xf1, 0x3c, 0xe2, 0x81, 0x52, 0xbc,
  0xab, 0x98, 0xe1, 0x3c, 0xab, 0x31, 0x7b, 0x3d, 0xc3, 0xd8, 0xe5, 0xbd,
  0xd8, 0x7c, 0x27, 0x3d, 0x18, 0x17, 0x17, 0xbd, 0x8a, 0x48, 0x36, 0xbd,
  0xa2, 0x76, 0x45, 0xbd, 0x91, 0xa6, 0xad, 0x3e, 0xd9, 0xc9, 0x90, 0x3e,
  0xe1, 0xbf, 0x84, 0xbe, 0xfa, 0x04, 0x03, 0x3d, 0xba, 0x4e, 0x86, 0x3e,
  0x39, 0x34, 0x72, 0x3e, 0xb2, 0x33, 0x49, 0x3e, 0xd8, 0x8a, 0xfb, 0x3d,
  0x0c, 0x35, 0x1a, 0x3e, 0x8a, 0x25, 0xa4, 0xbe, 0x44, 0x18, 0x26, 0xbe,
  0x3c, 0xd4, 0xb8, 0xbd, 0x90, 0xa8, 0x63, 0x3d, 0x6f, 0xac, 0xc1, 0xbe,
  0xb6, 0x41, 0x17, 0x3e, 0xa8, 0x99, 0x4f, 0x3d, 0x71, 0xcb, 0x3e, 0xbe,
  0x22, 0x1d, 0x8d, 0xbe, 0xdf, 0x0b, 0xbd, 0xbe, 0x83, 0xd0, 0x31, 0xbd,
  0x8b, 0x73, 0xc6, 0xbe, 0x50, 0x2f, 0xb7, 0x3d, 0xd3, 0x70, 0xf7, 0xbd,
  0x45, 0x72, 0xd4, 0x3e, 0xc1, 0xac, 0x02, 0x3e, 0xa7, 0xbc, 0x8b, 0xbe,
  0x91, 0x79, 0x90, 0xbd, 0xf4, 0x68, 0xf0, 0xbe, 0xc2, 0xa5, 0xca, 0x3d,
  0x5a, 0x22, 0xd1, 0x3d, 0x22, 0x36, 0xe9, 0x3d, 0x7d, 0xe2, 0x8b, 0x3e,
  0x76, 0x54, 0x85, 0x3d, 0x22, 0xdf, 0x48, 0xbb, 0x02, 0x5f, 0x89, 0xbe,
  0x02, 0x60, 0x91, 0x3e, 0x71, 0xd5, 0x82, 0x3d, 0x67, 0x2c, 0x86, 0xbe,
  0x93, 0x34, 0x2c, 0xbe, 0x1e, 0xbf, 0x78, 0xbe, 0x12, 0x42, 0x68, 0x3e,
  0x78, 0xfe, 0xc6, 0xbd, 0x7a, 0xe7, 0x9c, 0x3e, 0xd5, 0x6d, 0xf8, 0x3e,
  0x1e, 0x54, 0xa3, 0xbe, 0xfc, 0xec, 0x01, 0xbe, 0x3a, 0xf3, 0xd9, 0x3e,
  0xb2, 0x47, 0x21, 0x3e, 0x32, 0x07, 0x34, 0xbf, 0x12, 0x14, 0xdb, 0x3e,
  0x3e, 0x25, 0x35, 0xbd, 0x32, 0x37, 0x8e, 0xbe, 0xe2, 0x27, 0x94, 0x3e,
  0x60, 0x6d, 0x46, 0xbe, 0x48, 0x20, 0x8d, 0xbe, 0x24, 0x78, 0x16, 0x3e,
  0x80, 0x98, 0x18, 0xbb, 0xa8, 0x93, 0x20, 0x3e, 0xc4, 0xb2, 0xcb, 0xbd,
  0x08, 0x97, 0x53, 0x3e, 0xd8, 0xac, 0x50, 0xbd, 0x00, 0xb7, 0x34, 0x3e,
  0xb4, 0xf1, 0x7e, 0xbe, 0xe8, 0x1d, 0xb5, 0x3e, 0x88, 0x79, 0x7b, 0x3e,
  0x80, 0x57, 0xa9, 0xbe, 0xeb, 0xe3, 0x1f, 0xbe, 0x60, 0xfe, 0x22, 0x3d,
  0x28, 0x10, 0x73, 0x3e, 0x58, 0x07, 0x37, 0x3d, 0x4f, 0xf3, 0xbb, 0xbe,
  0x40, 0xc9, 0xba, 0xbd, 0xd3, 0x6e, 0xac, 0xbe, 0xac, 0x4c, 0x31, 0x3e,
  0x68, 0x2b, 0xb3, 0xbe, 0xf8, 0xfd, 0x9b, 0x3e, 0xe8, 0xa0, 0x28, 0x3e,
  0x6c, 0x77, 0x9e, 0xbe, 0x20, 0xd3, 0x9b, 0x3c, 0xe3, 0x94, 0x0f, 0xbe,
  0xf2, 0x2b, 0xbb, 0xbe, 0x7a, 0x69, 0xc4, 0xbc, 0x11, 0x27, 0x4e, 0x3e,
  0x40, 0x16, 0x83, 0xbe, 0xc8, 0xdd, 0x34, 0x3d, 0xaa, 0x29, 0x85, 0x3d,
  0x85, 0x06, 0x3f, 0x3b, 0xb5, 0x90, 0xef, 0x3e, 0x5a, 0x6b, 0x2c, 0xbe,
  0x51, 0xf4, 0xa0, 0xbe, 0x39, 0x4c, 0x91, 0x3e, 0xa1, 0x1b, 0x83, 0x3d,
  0x9c, 0x81, 0xdc, 0xbc, 0xb3, 0x05, 0x6f, 0xbe, 0x68, 0xd2, 0x99, 0x3e,
  0x34, 0x42, 0x9f, 0xbd, 0x40, 0x9c, 0xbb, 0xbe, 0x53, 0x22, 0x64, 0x3e,
  0xc8, 0x02, 0xbd, 0x3e, 0xd6, 0x50, 0x40, 0x3e, 0x01, 0x02, 0x82, 0x3c,
  0xbc, 0xc7, 0xb6, 0xbd, 0xf0, 0x12, 0x5c, 0xbd, 0x8d, 0xa9, 0x90, 0x3d,
  0xee, 0xf2, 0x79, 0x3e, 0xc8, 0x16, 0x53, 0x3d, 0x81, 0x2e, 0x92, 0xbd,
  0xad, 0x85, 0xe8, 0xbd, 0xc1, 0x75, 0x16, 0x3f, 0x96, 0xd9, 0x6d, 0xbe,
  0x01, 0x40, 0x2e, 0x3e, 0x98, 0xff, 0xc9, 0xbd, 0x69, 0x9b, 0x51, 0xbe,
  0xd8, 0x2f, 0xa4, 0xbe, 0xec, 0x16, 0xc0, 0xbe, 0x6a, 0x09, 0x9a, 0x3e,
  0xdb, 0xf5, 0x42, 0xbe, 0x7d, 0x1c, 0x87, 0xbe, 0xca, 0x57, 0x80, 0xbe,
  0xe8, 0x5c, 0x5a, 0x3d, 0xe0, 0xd7, 0x23, 0x3e, 0x90, 0xff, 0xc3, 0x3e,
  0x2c, 0xff, 0xaa, 0x3e, 0x06, 0x21, 0x68, 0xbe, 0xd2, 0x20, 0x9e, 0xbe,
  0xac, 0x2a, 0xc5, 0x3e, 0xe2, 0x6b, 0x5a, 0xbe, 0xb2, 0x49, 0x93, 0xbe,
  0x21, 0xc5, 0x97, 0xbe, 0x90, 0x65, 0x7d, 0x3d, 0x80, 0x12, 0x97, 0x3e,
  0x90, 0x11, 0xcc, 0xbd, 0x83, 0x18, 0x3c, 0xbe, 0x1c, 0xda, 0xb0, 0x3d,
  0x14, 0x5b, 0xc7, 0x3d, 0x4c, 0xc5, 0xbb, 0x3d, 0xaf, 0xe0, 0xb9, 0xbe,
  0x38, 0x11, 0x95, 0x3e, 0xd0, 0x48, 0x63, 0x3d, 0x70, 0x2f, 0x53, 0xbe,
  0x27, 0xfa, 0x80, 0xbe, 0x2f, 0x76, 0x2b, 0x3e, 0x7a, 0xa1, 0xd0, 0x3e,
  0xd0, 0xfd, 0xd5, 0x3d, 0xd0, 0x17, 0x93, 0xbd, 0xbb, 0xcc, 0x1f, 0x3e,
  0xae, 0x4b, 0x6b, 0x3d, 0xab, 0x49, 0x20, 0x3f, 0x4e, 0xf6, 0x9d, 0xbe,
  0x28, 0xc1, 0x84, 0xbe, 0x8c, 0xc7, 0x58, 0x3d, 0x36, 0x8e, 0xbe, 0x3e,
  0x3d, 0x6f, 0x9f, 0xbe, 0x03, 0x6e, 0xa0, 0x3d, 0xdf, 0x33, 0x9d, 0xbe,
  0xb7, 0x80, 0x93, 0x3e, 0xd3, 0x04, 0x51, 0xbc, 0xe0, 0x49, 0x80, 0xbe,
  0x0b, 0x78, 0xae, 0xbe, 0xdb, 0xad, 0x46, 0xbe, 0x60, 0xa5, 0xeb, 0x3d,
  0x16, 0xb2, 0x88, 0xbe, 0x6a, 0x57, 0x9a, 0x3e, 0x5a, 0xfd, 0x8c, 0xbe,
  0x07, 0xa4, 0x8f, 0xbd, 0x03, 0xa5, 0x95, 0xbe, 0x9d, 0x12, 0x13, 0x3e,
  0x20, 0x9b, 0x16, 0x3f, 0x80, 0xff, 0xa5, 0x3e, 0xa6, 0x4e, 0x05, 0xbd,
  0x73, 0xb4, 0x70, 0xbe, 0x61, 0x5d, 0x53, 0xbe, 0xd4, 0x5d, 0xae, 0xbd,
  0x10, 0x98, 0xfe, 0xbd, 0x84, 0xf1, 0x3f, 0x3e, 0x31, 0x8e, 0x67, 0xbe,
  0xbe, 0x1e, 0x81, 0xbe, 0x04, 0x53, 0x70, 0x3e, 0x10, 0x9a, 0xd3, 0xbd,
  0xc3, 0x90, 0xc3, 0xbe, 0xa8, 0xf0, 0x5b, 0xbd, 0xd7, 0x89, 0x63, 0xbe,
  0x9d, 0x4d, 0x92, 0xbe, 0xac, 0x16, 0x8a, 0x3e, 0xf7, 0x9e, 0x39, 0xbe,
  0x41, 0xe2, 0x5a, 0xbe, 0xb4, 0x7f, 0x88, 0x3e, 0x4c, 0x1a, 0x19, 0x3e,
  0xb6, 0xe1, 0x87, 0x3e, 0x60, 0x22, 0xff, 0xbd, 0xa4, 0x8a, 0xce, 0x3d,
  0xc7, 0xfe, 0xb7, 0xbe, 0xbb, 0xaa, 0x39, 0xbe, 0xd8, 0x2a, 0x42, 0xbd,
  0x70, 0x92, 0xb0, 0xbe, 0x40, 0x2c, 0xb3, 0xbe, 0xa7, 0xb8, 0x5d, 0xbe,
  0xf0, 0xa2, 0x09, 0xbd, 0xf2, 0x5a, 0xa1, 0x3e, 0x98, 0xc4, 0x70, 0xbd,
  0x14, 0x78, 0xbf, 0xbe, 0x55, 0x12, 0x18, 0x3d, 0x1f, 0xc7, 0xf4, 0xbd,
  0xdd, 0x46, 0x81, 0x3e, 0x03, 0x3f, 0x8e, 0xbe, 0x53, 0x14, 0x68, 0xbd,
  0x84, 0x61, 0xca, 0x3e, 0x66, 0xec, 0x8f, 0x3d, 0x39, 0xc2, 0xbe, 0xbe,
  0xe7, 0x5b, 0x10, 0x3f, 0xf5, 0x89, 0xb6, 0xbe, 0xc1, 0x88, 0x80, 0xbe,
  0x98, 0x75, 0x43, 0x3d, 0x5b, 0x0d, 0x78, 0xbe, 0x17, 0xd5, 0x93, 0xbd,
  0xb9, 0x9f, 0x90, 0xbd, 0x75, 0xbf, 0x1a, 0xbf, 0xd2, 0x71, 0x3f, 0x3e,
  0x88, 0x65, 0xa4, 0x3d, 0x3f, 0xc9, 0xd0, 0x3e, 0xc6, 0x3b, 0xbf, 0x3d,
  0x20, 0x90, 0x46, 0xbc, 0x88, 0xeb, 0xbc, 0x3e, 0x78, 0xbf, 0xe0, 0x3e,
  0x1c, 0xcd, 0xb0, 0x3e, 0x4f, 0x8c, 0xaf, 0xbe, 0x4a, 0xa8, 0x86, 0x3e,
  0x2a, 0x27, 0x8d, 0xbd, 0xfb, 0x90, 0xfb, 0x3d, 0xa9, 0xfa, 0x78, 0xbd,
  0x81, 0xc5, 0xad, 0x3d, 0x38, 0x7c, 0x48, 0xbe, 0xbb, 0xd7, 0x8d, 0x3e,
  0xbc, 0x7b, 0x3f, 0x3e, 0x9e, 0x7e, 0xc3, 0x3e, 0xc1, 0x94, 0x3b, 0xbe,
  0xcf, 0x2d, 0xa8, 0xbe, 0xb3, 0x23, 0x04, 0x3f, 0x3c, 0x2f, 0x1a, 0xbe,
  0xbf, 0xdd, 0xb4, 0xbe, 0xf7, 0xbe, 0xc7, 0x3e, 0x98, 0x8c, 0x09, 0x3f,
  0x99, 0xeb, 0x1a, 0xbe, 0xf9, 0xf8, 0xd4, 0xbd, 0xaa, 0x68, 0x86, 0xbe,
  0xf5, 0x0f, 0x19, 0x3e, 0x4a, 0xe3, 0x0c, 0xbe, 0x5b, 0x56, 0xac, 0xbd,
  0x14, 0xcd, 0x28, 0xbe, 0x18, 0x4d, 0x19, 0x3e, 0x5e, 0xd6, 0xf6, 0x3d,
  0xe0, 0x9e, 0x57, 0x3e, 0xa4, 0x41, 0xcf, 0xbd, 0x76, 0x59, 0xbd, 0x3e,
  0xf0, 0x6e, 0xf0, 0xbd, 0x8a, 0xc8, 0xab, 0xbe, 0xd0, 0xf1, 0x8d, 0xbc,
  0x89, 0x34, 0x01, 0x3f, 0xb5, 0xe1, 0xe2, 0x3d, 0x54, 0x44, 0xcd, 0x3e,
  0x5a, 0xd3, 0x3a, 0x3e, 0xb5, 0xa4, 0x53, 0x3f, 0xf0, 0x69, 0xf9, 0x3e,
  0xd5, 0x90, 0x8d, 0x3e, 0x4d, 0x33, 0x52, 0x3d, 0x84, 0xc1, 0x7c, 0xbe,
  0x4b, 0xa4, 0x7b, 0x3e, 0xe6, 0x99, 0x4b, 0xbf, 0x0d, 0x78, 0x56, 0x3f,
  0x02, 0xdf, 0xc9, 0x3e, 0x4b, 0xaa, 0x98, 0x3e, 0x81, 0xb2, 0x48, 0xbe,
  0xd1, 0x67, 0xff, 0x3d, 0x66, 0x58, 0x80, 0xbe, 0x56, 0xd6, 0xa9, 0xbd,
  0x54, 0xa8, 0x58, 0xbe, 0x95, 0x99, 0xbc, 0x3e, 0x94, 0x81, 0x1b, 0xbf,
  0x8c, 0x37, 0xa7, 0x3d, 0xc1, 0xd4, 0x83, 0x3e, 0x6e, 0x0b, 0x24, 0xbe,
  0xd8, 0x64, 0x57, 0x3e, 0x73, 0x45, 0xa7, 0xbe, 0xe3, 0x19, 0x78, 0x3e,
  0xf9, 0xf0, 0xef, 0xbd, 0xf8, 0xc0, 0x07, 0x3d, 0x45, 0x63, 0xb7, 0xbd,
  0x8a, 0xdf, 0x05, 0x3e, 0xcf, 0x3c, 0x33, 0xbf, 0xea, 0x58, 0xbf, 0x3e,
  0xfa, 0x68, 0x03, 0xbe, 0x00, 0x00, 0x00, 0x00, 0x26, 0xf7, 0xff, 0xff,
  0x04, 0x00, 0x00, 0x00, 0x08, 0x07, 0x00, 0x00, 0x97, 0xab, 0xd1, 0x3d,
  0x39, 0x36, 0x13, 0x3e, 0x26, 0x2c, 0x6e, 0x3e, 0xfe, 0x1c, 0x35, 0x3e,
  0x5b, 0xab, 0xbf, 0xbd, 0xff, 0x8f, 0x2f, 0xbe, 0x68, 0x8c, 0x91, 0xbe,
  0xe8, 0x4d, 0xc6, 0x3e, 0x24, 0x51, 0x03, 0x3e, 0x7c, 0x58, 0xd1, 0x3d,
  0x7d, 0x4d, 0xa9, 0xbd, 0x2c, 0x96, 0x65, 0x3d, 0xa2, 0x89, 0xcf, 0x3e,
  0xe2, 0xf1, 0xe2, 0x3e, 0xba, 0x16, 0x1f, 0xbe, 0x4e, 0x7e, 0x0d, 0x3e,
  0xbf, 0xcd, 0xca, 0x3e, 0xee, 0xab, 0x37, 0x3e, 0x4e, 0xa4, 0x81, 0x3e,
  0x81, 0x2f, 0x07, 0x3e, 0x29, 0x5e, 0x11, 0x3e, 0xdd, 0x70, 0x6a, 0xbe,
  0x53, 0x46, 0x46, 0x3e, 0x7d, 0xfd, 0xb8, 0x3e, 0xcf, 0x2c, 0xcd, 0x3c,
  0x1d, 0x77, 0x3c, 0x3e, 0x22, 0xe5, 0xcb, 0x3e, 0x2c, 0xa7, 0xaa, 0x3e,
  0xa9, 0xf3, 0x94, 0xbc, 0xaf, 0x2b, 0x8b, 0xbd, 0x69, 0x53, 0x54, 0x3e,
  0x95, 0xc9, 0xce, 0x3e, 0xdb, 0xda, 0x6d, 0x3e, 0x42, 0x64, 0x9d, 0x3d,
  0xc0, 0xaa, 0x9f, 0x3d, 0x43, 0x75, 0x19, 0x3e, 0x46, 0x33, 0xc2, 0xbe,
  0x5d, 0xca, 0x7d, 0xbe, 0x8c, 0x33, 0x12, 0x3e, 0xf5, 0x5f, 0x59, 0xbe,
  0x34, 0xdb, 0x89, 0x3e, 0x9a, 0x6d, 0xac, 0x3d, 0xbe, 0xe3, 0xec, 0x3e,
  0x1f, 0x19, 0x59, 0xbe, 0xeb, 0x3f, 0x06, 0x3e, 0xd3, 0x14, 0x88, 0x3d,
  0xd6, 0x17, 0xc5, 0x3e, 0x0e, 0x2d, 0xab, 0x3e, 0xb2, 0x4f, 0x9e, 0x3d,
  0xd1, 0x56, 0x97, 0x3e, 0xe1, 0x27, 0x00, 0x3d, 0xa7, 0x96, 0x9d, 0x3e,
  0x7a, 0x04, 0xbb, 0x3e, 0x27, 0xe1, 0x3d, 0x3d, 0x23, 0x43, 0xf3, 0x3d,
  0xb2, 0x89, 0xa4, 0x3e, 0x62, 0x8d, 0x67, 0x3e, 0x12, 0x54, 0xa5, 0xbd,
  0xc4, 0x07, 0x7c, 0x3e, 0x57, 0xf0, 0x43, 0x3e, 0x8c, 0xd9, 0x87, 0x3d,
  0xd0, 0x76, 0xc7, 0xbd, 0xef, 0x99, 0x82, 0xbd, 0x6a, 0x4a, 0xa8, 0xbe,
  0xa4, 0x8d, 0x87, 0xbe, 0x4e, 0x15, 0xa9, 0xbe, 0xa1, 0x13, 0xb8, 0x3d,
  0xdb, 0x06, 0x79, 0x3d, 0xf2, 0xa8, 0xab, 0xbe, 0x64, 0x8a, 0xcc, 0xba,
  0xab, 0x50, 0x12, 0x3e, 0x62, 0xe0, 0x29, 0xbe, 0x87, 0xbf, 0x9b, 0x3e,
  0x82, 0x6f, 0x1c, 0x3e, 0x64, 0x03, 0x2a, 0x3e, 0xff, 0x70, 0x07, 0x3f,
  0xcd, 0xaf, 0xdf, 0x3e, 0xb8, 0xd8, 0x8a, 0x3d, 0xc4, 0x54, 0xb8, 0xbd,
  0x30, 0x7f, 0xa8, 0xbb, 0xd4, 0x2c, 0x2c, 0xbd, 0xa6, 0xf2, 0x53, 0xbd,
  0x75, 0x9c, 0x48, 0xbc, 0x85, 0x81, 0xc5, 0x3d, 0x07, 0x9b, 0x78, 0x3e,
  0x42, 0x39, 0xa4, 0xbd, 0x4a, 0x38, 0x46, 0x3d, 0x0d, 0x0f, 0xca, 0xbe,
  0x39, 0x3d, 0xc9, 0x3d, 0xc1, 0x5b, 0xb1, 0x3e, 0x77, 0xb9, 0xc8, 0xbe,
  0x34, 0x53, 0x77, 0xbe, 0x22, 0xff, 0xb6, 0x3d, 0x5b, 0x3a, 0x5f, 0x3e,
  0x09, 0x2a, 0xc2, 0xbe, 0x49, 0x83, 0x55, 0xbe, 0x32, 0xbf, 0x94, 0x3e,
  0x10, 0xdc, 0xbb, 0xbe, 0xe5, 0x53, 0xcd, 0x3e, 0x26, 0x94, 0xc1, 0x3e,
  0x1d, 0x27, 0x18, 0x3d, 0x50, 0xcb, 0x0a, 0x3f, 0x85, 0xea, 0x51, 0x3d,
  0x07, 0xc5, 0x8b, 0xbe, 0x9a, 0x53, 0x50, 0x3e, 0x98, 0x5d, 0x12, 0xbe,
  0x72, 0x38, 0x8e, 0x3e, 0x02, 0x61, 0xa8, 0xbe, 0x19, 0xab, 0x89, 0xbe,
  0x77, 0x0f, 0xb0, 0x3e, 0x06, 0xcc, 0x22, 0xbe, 0x54, 0x66, 0x46, 0xbe,
  0x52, 0x84, 0x26, 0x3f, 0xb3, 0xd5, 0x8b, 0x3e, 0xca, 0x65, 0xdd, 0x3c,
  0xcf, 0x01, 0xf3, 0xbd, 0x87, 0x22, 0x21, 0x3e, 0x9b, 0x5f, 0xc4, 0x3d,
  0x2d, 0xdc, 0xc8, 0x3e, 0x2f, 0xbc, 0xfd, 0x3e, 0x0f, 0x2c, 0x2b, 0x3e,
  0x06, 0x0c, 0xa8, 0x3d, 0x43, 0xd5, 0x2a, 0x3e, 0xf6, 0xf6, 0x78, 0x3e,
  0x67, 0xd2, 0xa5, 0x3e, 0xc3, 0x71, 0x79, 0x3d, 0x88, 0x82, 0x08, 0x3e,
  0x3b, 0xef, 0x2e, 0xbe, 0xc2, 0xea, 0x49, 0x3e, 0xfc, 0x14, 0x3f, 0xbe,
  0xfc, 0xfd, 0xa5, 0xbe, 0xa1, 0x79, 0xd2, 0x3d, 0x98, 0x99, 0xeb, 0xbd,
  0xc1, 0x62, 0x1d, 0x3e, 0x09, 0x7c, 0xc3, 0x3e, 0x7a, 0x5f, 0x5e, 0x3c,
  0xb1, 0xcb, 0xa0, 0x3e, 0xa7, 0x2e, 0xde, 0xbd, 0x82, 0x5c, 0x86, 0x3e,
  0xcc, 0x80, 0x75, 0xbc, 0x3f, 0x70, 0x0c, 0xbe, 0xa6, 0x39, 0xd7, 0xbd,
  0xb7, 0x37, 0xae, 0x3e, 0x75, 0x45, 0x33, 0x3e, 0x20, 0x5e, 0x4a, 0x3d,
  0x07, 0x60, 0x17, 0x3e, 0x5c, 0x4a, 0x34, 0x3e, 0x93, 0x4e, 0x84, 0x3d,
  0xa4, 0xf8, 0xb2, 0x3e, 0x9d, 0xbc, 0x28, 0xbe, 0x86, 0x56, 0xe1, 0xbe,
  0xd2, 0x06, 0x45, 0xbc, 0x21, 0xad, 0x83, 0x3d, 0xc1, 0x93, 0x39, 0xbd,
  0x7d, 0xb0, 0x58, 0xbe, 0x4b, 0x62, 0x6b, 0xbe, 0xac, 0x62, 0x96, 0x3d,
  0xac, 0xcf, 0x96, 0xbe, 0xd9, 0x69, 0x93, 0x3e, 0x5f, 0x1d, 0x9d, 0x3e,
  0x85, 0x99, 0xd5, 0x3e, 0x6e, 0x0a, 0x10, 0x3d, 0xb6, 0x19, 0x4f, 0x3e,
  0xe3, 0xcc, 0x88, 0xbd, 0x5d, 0x09, 0x8e, 0x3e, 0x16, 0xf1, 0xa0, 0xbc,
  0x66, 0xec, 0x79, 0x3e, 0xc4, 0xca, 0xd2, 0xbd, 0x40, 0x59, 0x15, 0x3e,
  0xbe, 0xcb, 0x01, 0x3e, 0x65, 0xb5, 0x08, 0xbe, 0xf6, 0x26, 0x32, 0x3e,
  0x11, 0xe7, 0xac, 0xbc, 0x5c, 0xbe, 0x25, 0xbe, 0x9a, 0x59, 0x0c, 0xbe,
  0x1e, 0x8a, 0x21, 0x3e, 0x7c, 0xab, 0x09, 0x3e, 0xaa, 0x01, 0xd8, 0xbe,
  0x31, 0x6a, 0x38, 0xbe, 0xf2, 0xf1, 0x34, 0xbe, 0xf5, 0x12, 0x50, 0xbe,
  0x69, 0xf6, 0xa7, 0xbe, 0xc6, 0x01, 0x81, 0xbe, 0xd0, 0x31, 0xba, 0xbb,
  0x61, 0xcf, 0xdf, 0x3d, 0x27, 0xf2, 0x3f, 0xbe, 0x8a, 0xab, 0xa5, 0x3d,
  0xb0, 0x33, 0xb9, 0xbe, 0x5a, 0xb8, 0x91, 0x3e, 0x30, 0x68, 0x80, 0xbe,
  0x39, 0xa6, 0xe1, 0x3d, 0x67, 0x6d, 0x28, 0x3e, 0xec, 0x10, 0x91, 0xbd,
  0x4b, 0x4d, 0x90, 0x3e, 0x35, 0x21, 0xe7, 0xbc, 0x30, 0x5f, 0x39, 0xbe,
  0x52, 0x47, 0xa2, 0x3d, 0xc1, 0x2c, 0x54, 0x3e, 0xc0, 0x4a, 0x8c, 0xbe,
  0x98, 0xa4, 0xc0, 0xbd, 0x0d, 0x10, 0x82, 0x3e, 0x95, 0x85, 0x5c, 0x3e,
  0x45, 0xee, 0xa1, 0x3e, 0x19, 0x26, 0x2e, 0x3e, 0x53, 0xc7, 0xe0, 0x3d,
  0x32, 0xb7, 0x77, 0x3e, 0x18, 0xb4, 0x52, 0xbe, 0x3d, 0x01, 0xc0, 0xbd,
  0x84, 0xe7, 0x41, 0xbe, 0x93, 0x5c, 0x6c, 0x3e, 0x65, 0xe4, 0xf3, 0xbc,
  0xf6, 0x13, 0xbb, 0x3d, 0x86, 0xa9, 0xed, 0x3d, 0x1c, 0xbe, 0xaf, 0xbd,
  0x0a, 0x27, 0x11, 0x3e, 0x76, 0x89, 0x57, 0xbe, 0xe3, 0xb0, 0x2e, 0xbd,
  0x32, 0x15, 0xb8, 0xbe, 0xaf, 0xc7, 0x9f, 0x3e, 0x23, 0x0b, 0xbe, 0x3d,
  0x21, 0x65, 0xc8, 0x3e, 0x3d, 0xa6, 0x81, 0x3d, 0x94, 0x54, 0x31, 0x3d,
  0xa4, 0x50, 0x4a, 0x3e, 0x01, 0xeb, 0x3f, 0x3e, 0x04, 0x4e, 0xa5, 0xbe,
  0x1d, 0xd8, 0x6c, 0x3e, 0x7f, 0x64, 0xdb, 0x3b, 0x22, 0xcd, 0xa8, 0x3d,
  0x45, 0xa6, 0x9d, 0xbe, 0x72, 0xcb, 0xe2, 0xbc, 0x3c, 0x4c, 0x9b, 0xbe,
  0x2e, 0xab, 0x71, 0xbe, 0xed, 0x7a, 0xc9, 0x3d, 0x4c, 0x2b, 0x29, 0x3e,
  0xf6, 0xda, 0x21, 0xbd, 0x8f, 0xac, 0x72, 0xbe, 0x17, 0x93, 0x83, 0x3e,
  0x78, 0xb4, 0x8a, 0x3d, 0x26, 0xfa, 0xd5, 0x3d, 0x8a, 0xca, 0x02, 0x3f,
  0xa9, 0xa9, 0xaa, 0xbe, 0x7a, 0xd4, 0xe3, 0x3c, 0xda, 0x6f, 0x14, 0x3e,
  0x79, 0x57, 0x05, 0xbd, 0xb2, 0xfb, 0x95, 0xbe, 0x1e, 0xe1, 0xef, 0x3c,
  0x9e, 0xec, 0x41, 0x3c, 0xd7, 0xd7, 0xe4, 0xbd, 0x85, 0x0c, 0xea, 0x3d,
  0x12, 0x71, 0x9b, 0x3d, 0x6f, 0x73, 0x0a, 0x3f, 0x40, 0xc6, 0xa5, 0xbd,
  0x42, 0xda, 0xfc, 0xbd, 0xe8, 0x83, 0xbe, 0xbc, 0x28, 0xba, 0xa2, 0xbe,
  0x7c, 0x40, 0xa9, 0x3e, 0xa0, 0x61, 0xa8, 0xbd, 0xb6, 0x40, 0x34, 0xbe,
  0x10, 0x7e, 0xb1, 0xbd, 0xd8, 0x4b, 0x4b, 0xbe, 0x62, 0x81, 0x82, 0x3e,
  0x17, 0x54, 0x3c, 0xbe, 0xe4, 0x8a, 0x6b, 0xbe, 0x50, 0xc8, 0x9a, 0xbe,
  0xf8, 0x08, 0x10, 0xbd, 0x64, 0x9b, 0xb3, 0xbd, 0x6c, 0x96, 0x3d, 0x3e,
  0x00, 0x7a, 0xe3, 0x3d, 0xd0, 0x39, 0x0f, 0xbd, 0xa9, 0xe8, 0xec, 0x3e,
  0x6e, 0x41, 0x48, 0x3e, 0xd0, 0xc7, 0xb8, 0x3e, 0x52, 0x6b, 0xbb, 0x3e,
  0xcb, 0x67, 0x92, 0xbe, 0x2b, 0x35, 0x96, 0x3e, 0x5d, 0x84, 0x72, 0x3e,
  0x6d, 0xa3, 0x3a, 0x3e, 0xe5, 0xd5, 0xb1, 0x3e, 0x68, 0x3c, 0xa6, 0x3d,
  0x7d, 0x78, 0xd9, 0x3c, 0x0e, 0xb5, 0x4d, 0xbd, 0xf3, 0xdf, 0x6b, 0xbe,
  0xae, 0x54, 0x44, 0x3c, 0xda, 0x54, 0x22, 0x3d, 0x17, 0xec, 0x1f, 0x3e,
  0x7a, 0xd9, 0x01, 0x3e, 0x62, 0x15, 0x87, 0x3e, 0x2b, 0x6e, 0x6c, 0xbd,
  0x6b, 0x84, 0x82, 0xbd, 0x19, 0xaf, 0xa4, 0xbc, 0x78, 0xe8, 0x8d, 0xbd,
  0x81, 0xdc, 0xc6, 0xbb, 0xd4, 0xc2, 0x5e, 0x3e, 0xcd, 0x3c, 0x86, 0x3e,
  0x01, 0xda, 0x81, 0xbe, 0x7b, 0x6a, 0x39, 0x3e, 0x26, 0xcc, 0x55, 0xbe,
  0x4b, 0x92, 0x1d, 0x3e, 0xf0, 0x7a, 0x83, 0x3d, 0x8c, 0x2a, 0x93, 0xbd,
  0xf0, 0x0e, 0x81, 0x3d, 0x05, 0x1b, 0x90, 0xbe, 0xd2, 0xf1, 0x94, 0xbe,
  0x20, 0x53, 0x06, 0xbd, 0x58, 0x23, 0x04, 0x3d, 0x38, 0x26, 0x1d, 0xbd,
  0x6f, 0x88, 0x24, 0xbe, 0x41, 0xba, 0x43, 0xbe, 0x2c, 0x73, 0x53, 0x3e,
  0xe8, 0xcd, 0xb9, 0x3e, 0x3c, 0x84, 0xaf, 0x3d, 0x8c, 0xdb, 0x96, 0xbd,
  0xd7, 0xe6, 0x85, 0xbe, 0xd8, 0xa6, 0xcc, 0xbd, 0xb8, 0xea, 0x46, 0x3e,
  0x68, 0x35, 0x19, 0x3e, 0x94, 0xb6, 0x92, 0xbe, 0x83, 0xe3, 0x51, 0xbe,
  0xf6, 0x3b, 0x81, 0xbe, 0x5b, 0xfc, 0x80, 0xbe, 0xa0, 0x96, 0x70, 0xbc,
  0xec, 0x12, 0x7b, 0xbe, 0x8c, 0xd1, 0x0c, 0xbe, 0x60, 0xf7, 0x4f, 0xbc,
  0xd6, 0x16, 0x9f, 0xbe, 0x82, 0xec, 0xfb, 0xbd, 0xd8, 0x1b, 0xe7, 0xbd,
  0xf2, 0xb6, 0xac, 0x3e, 0x68, 0xcf, 0x54, 0xbd, 0xfa, 0xb7, 0x6b, 0xbd,
  0x06, 0xcf, 0x93, 0xbc, 0x06, 0x70, 0x02, 0xbd, 0x66, 0x98, 0xcc, 0x3e,
  0x1a, 0x24, 0xcd, 0x3e, 0x23, 0xb6, 0x74, 0x3e, 0xb1, 0xce, 0x38, 0x3e,
  0x56, 0xb0, 0x1c, 0x3c, 0xfc, 0x2a, 0xa3, 0x3e, 0xb8, 0xd3, 0xc6, 0x3e,
  0x0f, 0xb7, 0x0f, 0xbe, 0xe2, 0x12, 0x21, 0xbe, 0x97, 0xba, 0x40, 0x3e,
  0x32, 0x34, 0xc4, 0xbd, 0x96, 0x51, 0x0f, 0x3d, 0xbc, 0x83, 0xc0, 0x3d,
  0xbb, 0x88, 0x1e, 0xbe, 0x83, 0x00, 0xd2, 0x3e, 0x89, 0xbd, 0x26, 0x3e,
  0x0e, 0xf4, 0x21, 0x3e, 0xbb, 0x85, 0xb3, 0x3d, 0x40, 0xb2, 0xad, 0x3d,
  0x5f, 0x65, 0xbb, 0xbb, 0x8e, 0x29, 0x54, 0x3d, 0xc0, 0x00, 0x84, 0xbe,
  0xef, 0xae, 0x47, 0x3e, 0x06, 0x8f, 0x8b, 0xbc, 0xf7, 0x5a, 0x44, 0xbe,
  0xc1, 0xd4, 0xb4, 0xbe, 0x8a, 0xdc, 0x3f, 0x3e, 0x60, 0xb9, 0xe4, 0xbc,
  0xd8, 0x7a, 0xe5, 0x3d, 0xc0, 0xac, 0xb2, 0xbb, 0x24, 0x01, 0x82, 0xbe,
  0xb1, 0x3b, 0x94, 0xbe, 0xcb, 0x67, 0x17, 0xbe, 0xc4, 0x29, 0xa8, 0xbd,
  0x38, 0xe2, 0x83, 0x3e, 0xfd, 0xf0, 0xaa, 0xbe, 0x90, 0xed, 0xcd, 0xbd,
  0x00, 0xf2, 0xdd, 0xbc, 0x30, 0x90, 0x8f, 0xbc, 0xb8, 0xe7, 0x6b, 0x3d,
  0xa9, 0x31, 0x4c, 0xbe, 0x40, 0x68, 0x78, 0x3e, 0x38, 0xcc, 0xbc, 0xbe,
  0x38, 0x1e, 0xd0, 0x3e, 0xfe, 0xe9, 0x82, 0x3e, 0x68, 0xdf, 0x76, 0x3e,
  0x51, 0x24, 0xeb, 0x3d, 0x1b, 0xf5, 0xd4, 0x3d, 0x94, 0xfd, 0xb8, 0xbe,
  0x5a, 0xe9, 0xc2, 0xbc, 0x5e, 0x46, 0x1d, 0xbe, 0x31, 0x46, 0xfd, 0x3e,
  0x90, 0xee, 0xf0, 0xbd, 0x3d, 0xfd, 0xa6, 0x3e, 0x8a, 0x4e, 0x56, 0x3c,
  0xae, 0x77, 0xf3, 0x3d, 0xa9, 0x15, 0xc1, 0x3e, 0xa3, 0x49, 0x1f, 0xbe,
  0x4d, 0xf2, 0x1c, 0xbc, 0x7b, 0xbd, 0x01, 0x3e, 0x9c, 0x76, 0xa5, 0xbd,
  0x04, 0x59, 0x59, 0x3e, 0xa1, 0xc4, 0x73, 0xbd, 0x94, 0x0d, 0x45, 0xbe,
  0x97, 0x7b, 0xea, 0xbe, 0xad, 0x0b, 0x50, 0xbe, 0x5d, 0x68, 0xc8, 0x3e,
  0x41, 0x2f, 0x3b, 0xbe, 0x85, 0xb8, 0xdc, 0x3e, 0xe9, 0x67, 0x05, 0x3f,
  0x89, 0x9b, 0x50, 0x3d, 0x11, 0x87, 0x80, 0x3e, 0x34, 0x50, 0xe2, 0xbd,
  0x67, 0x94, 0x83, 0xbe, 0xa4, 0x34, 0x7f, 0x3e, 0x6f, 0x36, 0x89, 0xbe,
  0xb4, 0x35, 0x22, 0xbe, 0x50, 0x76, 0xf7, 0x3d, 0xdf, 0xd5, 0x1f, 0x3f,
  0xf9, 0x59, 0xbe, 0xbe, 0x87, 0x3b, 0x2e, 0x3e, 0xa9, 0xed, 0xe3, 0x3e,
  0x44, 0x5f, 0x43, 0x3e, 0xa2, 0x23, 0x89, 0x3e, 0x27, 0x30, 0x62, 0xbe,
  0xa3, 0xcd, 0xcd, 0xbe, 0x1f, 0x24, 0xc4, 0x3e, 0x69, 0xa0, 0xb8, 0xbe,
  0xfe, 0xb2, 0x33, 0xbd, 0xf3, 0xfc, 0x30, 0x3e, 0x85, 0xf9, 0xe1, 0x3d,
  0x8c, 0x0d, 0xaf, 0x3e, 0x11, 0x81, 0xc3, 0x3e, 0xe6, 0x41, 0x22, 0x3e,
  0x38, 0xd8, 0xa4, 0xbd, 0x2b, 0xc8, 0x1c, 0xbe, 0x72, 0x5e, 0xc3, 0x3e,
  0x8b, 0x7f, 0x53, 0x3e, 0x88, 0x62, 0xe5, 0xbb, 0x71, 0xe5, 0xa3, 0x3e,
  0xd9, 0x93, 0x0b, 0x3e, 0x2d, 0x3e, 0x0d, 0x3e, 0xec, 0xdb, 0xd6, 0x3d,
  0x9b, 0x7e, 0x8a, 0x3e, 0x51, 0x72, 0x01, 0xbe, 0x7c, 0xe5, 0x95, 0x3b,
  0x97, 0x6b, 0x5f, 0xbd, 0xf3, 0x92, 0x26, 0xbd, 0x5f, 0x2b, 0xb6, 0x3c,
  0xb9, 0xa3, 0xc9, 0xbc, 0x3a, 0xa2, 0x64, 0x3d, 0x03, 0xfa, 0x11, 0xbe,
  0xab, 0xd4, 0x81, 0x3e, 0xe4, 0xed, 0xc1, 0x3e, 0x4c, 0x0b, 0x48, 0xbe,
  0x8f, 0x2d, 0xa9, 0xbe, 0x5d, 0x6c, 0x0f, 0x3d, 0x00, 0x00, 0x00, 0x00,
  0x00, 0x00, 0x00, 0x00, 0x00, 0x00, 0x00, 0x00, 0x46, 0xfe, 0xff, 0xff,
  0x04, 0x00, 0x00, 0x00, 0x78, 0x00, 0x00, 0x00, 0x91, 0x49, 0x67, 0x3a,
  0x1d, 0x0b, 0xc3, 0x3d, 0x95, 0x1e, 0xa0, 0x3d, 0xd9, 0x33, 0x76, 0x3d,
  0xa1, 0xb2, 0x1a, 0xbd, 0xd1, 0xd1, 0x18, 0xbd, 0x0b, 0x4c, 0xe6, 0x3d,
  0x26, 0x81, 0x50, 0x3d, 0x0a, 0x42, 0x81, 0xbc, 0xad, 0x7e, 0x96, 0x3d,
  0x6c, 0x8e, 0xc5, 0x3d, 0xba, 0xd3, 0xae, 0xbd, 0x0e, 0x2c, 0xdd, 0xbc,
  0x7c, 0xca, 0x23, 0xbd, 0xf2, 0xd5, 0x85, 0x3d, 0x76, 0x61, 0x96, 0xbd,
  0x94, 0x3c, 0xcd, 0x3d, 0x00, 0x00, 0x00, 0x00, 0xe3, 0xfb, 0x75, 0x3d,
  0xc8, 0x5e, 0x90, 0x3d, 0x00, 0x00, 0x00, 0x00, 0x00, 0x00, 0x00, 0x00,
  0x61, 0xea, 0x82, 0x3d, 0xa8, 0x83, 0xb3, 0x3c, 0x00, 0x00, 0x00, 0x00,
  0x4b, 0x42, 0x4a, 0x3d, 0xa6, 0x69, 0x2d, 0x3d, 0x82, 0x78, 0xf2, 0x3d,
  0x3b, 0xc7, 0x89, 0x3d, 0xb2, 0x0e, 0x5b, 0x3c, 0x00, 0x00, 0x00, 0x00,
  0x00, 0x00, 0x00, 0x00, 0x00, 0x00, 0x00, 0x00, 0xd6, 0xfe, 0xff, 0xff,
  0x04, 0x00, 0x00, 0x00, 0x28, 0x00, 0x00, 0x00, 0xc3, 0x0f, 0x57, 0xbc,
  0xb9, 0x5b, 0x9a, 0x3d, 0x00, 0x00, 0x00, 0x00, 0xa6, 0x2e, 0xe2, 0x3b,
  0x00, 0x00, 0x00, 0x00, 0xaa, 0x68, 0x7a, 0x3d, 0x00, 0x00, 0x00, 0x00,
  0xc3, 0xfe, 0x2e, 0x3d, 0xbd, 0xe4, 0x80, 0x3d, 0x35, 0x74, 0x36, 0x3d,
  0x00, 0x00, 0x00, 0x00, 0x00, 0x00, 0x00, 0x00, 0x00, 0x00, 0x00, 0x00,
  0x16, 0xff, 0xff, 0xff, 0x04, 0x00, 0x00, 0x00, 0x08, 0x00, 0x00, 0x00,
  0x7f, 0xdd, 0x56, 0x3d, 0x6d, 0x82, 0x8c, 0x3d, 0x00, 0x00, 0x00, 0x00,
  0x00, 0x00, 0x00, 0x00, 0x00, 0x00, 0x00, 0x00, 0x36, 0xff, 0xff, 0xff,
  0x04, 0x00, 0x00, 0x00, 0x28, 0x00, 0x00, 0x00, 0xc5, 0xeb, 0x82, 0x3d,
  0xff, 0x4a, 0xc7, 0xbd, 0xe0, 0x91, 0xb8, 0x3d, 0x75, 0x81, 0x23, 0x3c,
  0x5a, 0x3a, 0x6e, 0x3d, 0x64, 0x0f, 0x08, 0xbd, 0x69, 0xde, 0x85, 0xbc,
  0x4a, 0x02, 0x33, 0xbd, 0x8d, 0xae, 0xec, 0xbc, 0x7f, 0xf7, 0x22, 0x3c,
  0x00, 0x00, 0x00, 0x00, 0x00, 0x00, 0x00, 0x00, 0x00, 0x00, 0x00, 0x00,
  0x76, 0xff, 0xff, 0xff, 0x04, 0x00, 0x00, 0x00, 0x78, 0x00, 0x00, 0x00,
  0x1e, 0x49, 0x54, 0x3d, 0x34, 0x1c, 0x2d, 0xbd, 0x77, 0x2a, 0xa7, 0xbd,
  0x95, 0x43, 0xe5, 0x3c, 0x6f, 0x74, 0xa1, 0xbd, 0x40, 0x23, 0xa5, 0x36,
  0xcc, 0x33, 0x94, 0xbd, 0x03, 0x02, 0xda, 0xbc, 0x21, 0xaf, 0x7f, 0xbd,
  0xdb, 0x9e, 0x8c, 0xbd, 0xa9, 0x94, 0x26, 0xbd, 0x71, 0xb3, 0x85, 0xbd,
  0xe6, 0x88, 0x18, 0xbd, 0x87, 0xf7, 0x2d, 0x3d, 0x9c, 0xd3, 0x6e, 0xbd,
  0xf4, 0xe6, 0x25, 0xbd, 0x8a, 0xd5, 0x89, 0xbd, 0x02, 0x27, 0x7b, 0xbc,
  0x05, 0xcf, 0x9d, 0x3d, 0xd7, 0x73, 0x62, 0xbd, 0x59, 0x60, 0x9a, 0x3c,
  0x93, 0x22, 0x90, 0xbd, 0xd0, 0x7f, 0x86, 0xbd, 0xc4, 0x3e, 0xb7, 0x3c,
  0xa5, 0x9f, 0x83, 0x3d, 0xe1, 0xc0, 0x7b, 0x3d, 0xa2, 0xe6, 0x03, 0xbb,
  0x92, 0x80, 0x8f, 0xbd, 0x1c, 0x95, 0x54, 0x3d, 0x83, 0x8c, 0x27, 0xbd,
  0x00, 0x00, 0x00, 0x00, 0x00, 0x00, 0x06, 0x00, 0x08, 0x00, 0x04, 0x00,
  0x06, 0x00, 0x00, 0x00, 0x04, 0x00, 0x00, 0x00, 0x3c, 0x00, 0x00, 0x00,
  0x8d, 0xa7, 0x32, 0xbb, 0x60, 0xa3, 0x5d, 0x3d, 0x4d, 0x40, 0x11, 0x3d,
  0x4f, 0x22, 0x97, 0x3d, 0xbb, 0x4f, 0xf5, 0x3b, 0x76, 0xd5, 0x7d, 0x3d,
  0x76, 0x1a, 0x79, 0x3d, 0xee, 0x82, 0x5c, 0x3d, 0xad, 0x47, 0xbd, 0x3c,
  0x48, 0xa4, 0xb2, 0x3d, 0xe0, 0x92, 0x92, 0x3d, 0x4b, 0xe9, 0x6f, 0x3d,
  0x2f, 0xf7, 0x04, 0xbc, 0x65, 0x69, 0x24, 0x3d, 0x86, 0x1c, 0x1b, 0xbc,
  0xf8, 0xf6, 0xff, 0xff, 0x00, 0x00, 0x00, 0x00, 0x00, 0x00, 0x00, 0x00,
  0x00, 0x00, 0x00, 0x00, 0x08, 0xf7, 0xff, 0xff, 0x00, 0x00, 0x00, 0x00,
  0x00, 0x00, 0x00, 0x00, 0x00, 0x00, 0x00, 0x00, 0x0f, 0x00, 0x00, 0x00,
  0x4d, 0x4c, 0x49, 0x52, 0x20, 0x43, 0x6f, 0x6e, 0x76, 0x65, 0x72, 0x74,
  0x65, 0x64, 0x2e, 0x00, 0x01, 0x00, 0x00, 0x00, 0x14, 0x00, 0x00, 0x00,
  0x00, 0x00, 0x0e, 0x00, 0x18, 0x00, 0x04, 0x00, 0x08, 0x00, 0x0c, 0x00,
  0x10, 0x00, 0x14, 0x00, 0x0e, 0x00, 0x00, 0x00, 0xd4, 0x01, 0x00, 0x00,
  0xc8, 0x01, 0x00, 0x00, 0xbc, 0x01, 0x00, 0x00, 0x14, 0x00, 0x00, 0x00,
  0x04, 0x00, 0x00, 0x00, 0x04, 0x00, 0x00, 0x00, 0x6d, 0x61, 0x69, 0x6e,
  0x00, 0x00, 0x00, 0x00, 0x07, 0x00, 0x00, 0x00, 0x64, 0x01, 0x00, 0x00,
  0x1c, 0x01, 0x00, 0x00, 0xd4, 0x00, 0x00, 0x00, 0x9c, 0x00, 0x00, 0x00,
  0x68, 0x00, 0x00, 0x00, 0x44, 0x00, 0x00, 0x00, 0x04, 0x00, 0x00, 0x00,
  0x0a, 0xff, 0xff, 0xff, 0x00, 0x00, 0x00, 0x08, 0x18, 0x00, 0x00, 0x00,
  0x0c, 0x00, 0x00, 0x00, 0x04, 0x00, 0x00, 0x00, 0x9c, 0xf7, 0xff, 0xff,
  0x01, 0x00, 0x00, 0x00, 0x13, 0x00, 0x00, 0x00, 0x03, 0x00, 0x00, 0x00,
  0x12, 0x00, 0x00, 0x00, 0x0c, 0x00, 0x00, 0x00, 0x01, 0x00, 0x00, 0x00,
  0x00, 0x00, 0x0a, 0x00, 0x10, 0x00, 0x04, 0x00, 0x08, 0x00, 0x0c, 0x00,
  0x0a, 0x00, 0x00, 0x00, 0x01, 0x00, 0x00, 0x00, 0x10, 0x00, 0x00, 0x00,
  0x04, 0x00, 0x00, 0x00, 0x01, 0x00, 0x00, 0x00, 0x12, 0x00, 0x00, 0x00,
  0x01, 0x00, 0x00, 0x00, 0x11, 0x00, 0x00, 0x00, 0x66, 0xff, 0xff, 0xff,
  0x00, 0x00, 0x00, 0x08, 0x18, 0x00, 0x00, 0x00, 0x0c, 0x00, 0x00, 0x00,
  0x04, 0x00, 0x00, 0x00, 0xf8, 0xf7, 0xff, 0xff, 0x01, 0x00, 0x00, 0x00,
  0x11, 0x00, 0x00, 0x00, 0x03, 0x00, 0x00, 0x00, 0x10, 0x00, 0x00, 0x00,
  0x0b, 0x00, 0x00, 0x00, 0x02, 0x00, 0x00, 0x00, 0x96, 0xff, 0xff, 0xff,
  0x00, 0x00, 0x00, 0x08, 0x1c, 0x00, 0x00, 0x00, 0x10, 0x00, 0x00, 0x00,
  0x04, 0x00, 0x00, 0x00, 0x42, 0xff, 0xff, 0xff, 0x00, 0x00, 0x00, 0x01,
  0x01, 0x00, 0x00, 0x00, 0x10, 0x00, 0x00, 0x00, 0x03, 0x00, 0x00, 0x00,
  0x0f, 0x00, 0x00, 0x00, 0x0a, 0x00, 0x00, 0x00, 0x03, 0x00, 0x00, 0x00,
  0xca, 0xff, 0xff, 0xff, 0x00, 0x00, 0x00, 0x08, 0x1c, 0x00, 0x00, 0x00,
  0x10, 0x00, 0x00, 0x00, 0x04, 0x00, 0x00, 0x00, 0x76, 0xff, 0xff, 0xff,
  0x00, 0x00, 0x00, 0x01, 0x01, 0x00, 0x00, 0x00, 0x0f, 0x00, 0x00, 0x00,
  0x03, 0x00, 0x00, 0x00, 0x0e, 0x00, 0x00, 0x00, 0x09, 0x00, 0x00, 0x00,
  0x04, 0x00, 0x00, 0x00, 0x00, 0x00, 0x0e, 0x00, 0x14, 0x00, 0x00, 0x00,
  0x08, 0x00, 0x0c, 0x00, 0x07, 0x00, 0x10, 0x00, 0x0e, 0x00, 0x00, 0x00,
  0x00, 0x00, 0x00, 0x08, 0x1c, 0x00, 0x00, 0x00, 0x10, 0x00, 0x00, 0x00,
  0x04, 0x00, 0x00, 0x00, 0xba, 0xff, 0xff, 0xff, 0x00, 0x00, 0x00, 0x01,
  0x01, 0x00, 0x00, 0x00, 0x0e, 0x00, 0x00, 0x00, 0x03, 0x00, 0x00, 0x00,
  0x0d, 0x00, 0x00, 0x00, 0x08, 0x00, 0x00, 0x00, 0x05, 0x00, 0x00, 0x00,
  0x00, 0x00, 0x0e, 0x00, 0x16, 0x00, 0x00, 0x00, 0x08, 0x00, 0x0c, 0x00,
  0x07, 0x00, 0x10, 0x00, 0x0e, 0x00, 0x00, 0x00, 0x00, 0x00, 0x00, 0x08,
  0x24, 0x00, 0x00, 0x00, 0x18, 0x00, 0x00, 0x00, 0x0c, 0x00, 0x00, 0x00,
  0x00, 0x00, 0x06, 0x00, 0x08, 0x00, 0x07, 0x00, 0x06, 0x00, 0x00, 0x00,
  0x00, 0x00, 0x00, 0x01, 0x01, 0x00, 0x00, 0x00, 0x0d, 0x00, 0x00, 0x00,
  0x03, 0x00, 0x00, 0x00, 0x00, 0x00, 0x00, 0x00, 0x07, 0x00, 0x00, 0x00,
  0x06, 0x00, 0x00, 0x00, 0x01, 0x00, 0x00, 0x00, 0x13, 0x00, 0x00, 0x00,
  0x01, 0x00, 0x00, 0x00, 0x00, 0x00, 0x00, 0x00, 0x14, 0x00, 0x00, 0x00,
  0xbc, 0x06, 0x00, 0x00, 0x70, 0x06, 0x00, 0x00, 0x28, 0x06, 0x00, 0x00,
  0xf0, 0x05, 0x00, 0x00, 0xb8, 0x05, 0x00, 0x00, 0x80, 0x05, 0x00, 0x00,
  0x48, 0x05, 0x00, 0x00, 0xfc, 0x04, 0x00, 0x00, 0xb0, 0x04, 0x00, 0x00,
  0x64, 0x04, 0x00, 0x00, 0x18, 0x04, 0x00, 0x00, 0xcc, 0x03, 0x00, 0x00,
  0x80, 0x03, 0x00, 0x00, 0xec, 0x02, 0x00, 0x00, 0x58, 0x02, 0x00, 0x00,
  0xc4, 0x01, 0x00, 0x00, 0x30, 0x01, 0x00, 0x00, 0xb8, 0x00, 0x00, 0x00,
  0x5c, 0x00, 0x00, 0x00, 0x04, 0x00, 0x00, 0x00, 0xa8, 0xf9, 0xff, 0xff,
  0x44, 0x00, 0x00, 0x00, 0x14, 0x00, 0x00, 0x00, 0x1c, 0x00, 0x00, 0x00,
  0x14, 0x00, 0x00, 0x00, 0x04, 0x00, 0x00, 0x00, 0x02, 0x00, 0x00, 0x00,
  0xff, 0xff, 0xff, 0xff, 0x0f, 0x00, 0x00, 0x00, 0x94, 0xf9, 0xff, 0xff,
  0x19, 0x00, 0x00, 0x00, 0x53, 0x74, 0x61, 0x74, 0x65, 0x66, 0x75, 0x6c,
  0x50, 0x61, 0x72, 0x74, 0x69, 0x74, 0x69, 0x6f, 0x6e, 0x65, 0x64, 0x43,
  0x61, 0x6c, 0x6c, 0x3a, 0x30, 0x00, 0x00, 0x00, 0x02, 0x00, 0x00, 0x00,
  0x01, 0x00, 0x00, 0x00, 0x0f, 0x00, 0x00, 0x00, 0xfc, 0xf9, 0xff, 0xff,
  0x48, 0x00, 0x00, 0x00, 0x13, 0x00, 0x00, 0x00, 0x1c, 0x00, 0x00, 0x00,
  0x14, 0x00, 0x00, 0x00, 0x04, 0x00, 0x00, 0x00, 0x02, 0x00, 0x00, 0x00,
  0xff, 0xff, 0xff, 0xff, 0x1e, 0x00, 0x00, 0x00, 0xe8, 0xf9, 0xff, 0xff,
  0x1d, 0x00, 0x00, 0x00, 0x73, 0x65, 0x71, 0x75, 0x65, 0x6e, 0x74, 0x69,
  0x61, 0x6c, 0x5f, 0x32, 0x2f, 0x64, 0x65, 0x6e, 0x73, 0x65, 0x5f, 0x31,
  0x36, 0x2f, 0x53, 0x69, 0x67, 0x6d, 0x6f, 0x69, 0x64, 0x00, 0x00, 0x00,
  0x02, 0x00, 0x00, 0x00, 0x01, 0x00, 0x00, 0x00, 0x1e, 0x00, 0x00, 0x00,
  0x54, 0xfa, 0xff, 0xff, 0x64, 0x00, 0x00, 0x00, 0x12, 0x00, 0x00, 0x00,
  0x1c, 0x00, 0x00, 0x00, 0x14, 0x00, 0x00, 0x00, 0x04, 0x00, 0x00, 0x00,
  0x02, 0x00, 0x00, 0x00, 0xff, 0xff, 0xff, 0xff, 0x1e, 0x00, 0x00, 0x00,
  0x40, 0xfa, 0xff, 0xff, 0x3a, 0x00, 0x00, 0x00, 0x73, 0x65, 0x71, 0x75,
  0x65, 0x6e, 0x74, 0x69, 0x61, 0x6c, 0x5f, 0x32, 0x2f, 0x64, 0x65, 0x6e,
  0x73, 0x65, 0x5f, 0x31, 0x36, 0x2f, 0x4d, 0x61, 0x74, 0x4d, 0x75, 0x6c,
  0x3b, 0x73, 0x65, 0x71, 0x75, 0x65, 0x6e, 0x74, 0x69, 0x61, 0x6c, 0x5f,
  0x32, 0x2f, 0x64, 0x65, 0x6e, 0x73, 0x65, 0x5f, 0x31, 0x36, 0x2f, 0x42,
  0x69, 0x61, 0x73, 0x41, 0x64, 0x64, 0x00, 0x00, 0x02, 0x00, 0x00, 0x00,
  0x01, 0x00, 0x00, 0x00, 0x1e, 0x00, 0x00, 0x00, 0xc8, 0xfa, 0xff, 0xff,
  0x80, 0x00, 0x00, 0x00, 0x11, 0x00, 0x00, 0x00, 0x1c, 0x00, 0x00, 0x00,
  0x14, 0x00, 0x00, 0x00, 0x04, 0x00, 0x00, 0x00, 0x02, 0x00, 0x00, 0x00,
  0xff, 0xff, 0xff, 0xff, 0x0a, 0x00, 0x00, 0x00, 0xb4, 0xfa, 0xff, 0xff,
  0x55, 0x00, 0x00, 0x00, 0x73, 0x65, 0x71, 0x75, 0x65, 0x6e, 0x74, 0x69,
  0x61, 0x6c, 0x5f, 0x32, 0x2f, 0x64, 0x65, 0x6e, 0x73, 0x65, 0x5f, 0x31,
  0x35, 0x2f, 0x4d, 0x61, 0x74, 0x4d, 0x75, 0x6c, 0x3b, 0x73, 0x65, 0x71,
  0x75, 0x65, 0x6e, 0x74, 0x69, 0x61, 0x6c, 0x5f, 0x32, 0x2f, 0x64, 0x65,
  0x6e, 0x73, 0x65, 0x5f, 0x31, 0x35, 0x2f, 0x52, 0x65, 0x6c, 0x75, 0x3b,
  0x73, 0x65, 0x71, 0x75, 0x65, 0x6e, 0x74, 0x69, 0x61, 0x6c, 0x5f, 0x32,
  0x2f, 0x64, 0x65, 0x6e, 0x73, 0x65, 0x5f, 0x31, 0x35, 0x2f, 0x42, 0x69,
  0x61, 0x73, 0x41, 0x64, 0x64, 0x00, 0x00, 0x00, 0x02, 0x00, 0x00, 0x00,
  0x01, 0x00, 0x00, 0x00, 0x0a, 0x00, 0x00, 0x00, 0x58, 0xfb, 0xff, 0xff,
  0x80, 0x00, 0x00, 0x00, 0x10, 0x00, 0x00, 0x00, 0x1c, 0x00, 0x00, 0x00,
  0x14, 0x00, 0x00, 0x00, 0x04, 0x00, 0x00, 0x00, 0x02, 0x00, 0x00, 0x00,
  0xff, 0xff, 0xff, 0xff, 0x02, 0x00, 0x00, 0x00, 0x44, 0xfb, 0xff, 0xff,
  0x55, 0x00, 0x00, 0x00, 0x73, 0x65, 0x71, 0x75, 0x65, 0x6e, 0x74, 0x69,
  0x61, 0x6c, 0x5f, 0x32, 0x2f, 0x64, 0x65, 0x6e, 0x73, 0x65, 0x5f, 0x31,
  0x34, 0x2f, 0x4d, 0x61, 0x74, 0x4d, 0x75, 0x6c, 0x3b, 0x73, 0x65, 0x71,
  0x75, 0x65, 0x6e, 0x74, 0x69, 0x61, 0x6c, 0x5f, 0x32, 0x2f, 0x64, 0x65,
  0x6e, 0x73, 0x65, 0x5f, 0x31, 0x34, 0x2f, 0x52, 0x65, 0x6c, 0x75, 0x3b,
  0x73, 0x65, 0x71, 0x75, 0x65, 0x6e, 0x74, 0x69, 0x61, 0x6c, 0x5f, 0x32,
  0x2f, 0x64, 0x65, 0x6e, 0x73, 0x65, 0x5f, 0x31, 0x34, 0x2f, 0x42, 0x69,
  0x61, 0x73, 0x41, 0x64, 0x64, 0x00, 0x00, 0x00, 0x02, 0x00, 0x00, 0x00,
  0x01, 0x00, 0x00, 0x00, 0x02, 0x00, 0x00, 0x00, 0xe8, 0xfb, 0xff, 0xff,
  0x80, 0x00, 0x00, 0x00, 0x0f, 0x00, 0x00, 0x00, 0x1c, 0x00, 0x00, 0x00,
  0x14, 0x00, 0x00, 0x00, 0x04, 0x00, 0x00, 0x00, 0x02, 0x00, 0x00, 0x00,
  0xff, 0xff, 0xff, 0xff, 0x0a, 0x00, 0x00, 0x00, 0xd4, 0xfb, 0xff, 0xff,
  0x55, 0x00, 0x00, 0x00, 0x73, 0x65, 0x71, 0x75, 0x65, 0x6e, 0x74, 0x69,
  0x61, 0x6c, 0x5f, 0x32, 0x2f, 0x64, 0x65, 0x6e, 0x73, 0x65, 0x5f, 0x31,
  0x33, 0x2f, 0x4d, 0x61, 0x74, 0x4d, 0x75, 0x6c, 0x3b, 0x73, 0x65, 0x71,
  0x75, 0x65, 0x6e, 0x74, 0x69, 0x61, 0x6c, 0x5f, 0x32, 0x2f, 0x64, 0x65,
  0x6e, 0x73, 0x65, 0x5f, 0x31, 0x33, 0x2f, 0x52, 0x65, 0x6c, 0x75, 0x3b,
  0x73, 0x65, 0x71, 0x75, 0x65, 0x6e, 0x74, 0x69, 0x61, 0x6c, 0x5f, 0x32,
  0x2f, 0x64, 0x65, 0x6e, 0x73, 0x65, 0x5f, 0x31, 0x33, 0x2f, 0x42, 0x69,
  0x61, 0x73, 0x41, 0x64, 0x64, 0x00, 0x00, 0x00, 0x02, 0x00, 0x00, 0x00,
  0x01, 0x00, 0x00, 0x00, 0x0a, 0x00, 0x00, 0x00, 0x78, 0xfc, 0xff, 0xff,
  0x80, 0x00, 0x00, 0x00, 0x0e, 0x00, 0x00, 0x00, 0x1c, 0x00, 0x00, 0x00,
  0x14, 0x00, 0x00, 0x00, 0x04, 0x00, 0x00, 0x00, 0x02, 0x00, 0x00, 0x00,
  0xff, 0xff, 0xff, 0xff, 0x1e, 0x00, 0x00, 0x00, 0x64, 0xfc, 0xff, 0xff,
  0x55, 0x00, 0x00, 0x00, 0x73, 0x65, 0x71, 0x75, 0x65, 0x6e, 0x74, 0x69,
  0x61, 0x6c, 0x5f, 0x32, 0x2f, 0x64, 0x65, 0x6e, 0x73, 0x65, 0x5f, 0x31,
  0x32, 0x2f, 0x4d, 0x61, 0x74, 0x4d, 0x75, 0x6c, 0x3b, 0x73, 0x65, 0x71,
  0x75, 0x65, 0x6e, 0x74, 0x69, 0x61, 0x6c, 0x5f, 0x32, 0x2f, 0x64, 0x65,
  0x6e, 0x73, 0x65, 0x5f, 0x31, 0x32, 0x2f, 0x52, 0x65, 0x6c, 0x75, 0x3b,
  0x73, 0x65, 0x71, 0x75, 0x65, 0x6e, 0x74, 0x69, 0x61, 0x6c, 0x5f, 0x32,
  0x2f, 0x64, 0x65, 0x6e, 0x73, 0x65, 0x5f, 0x31, 0x32, 0x2f, 0x42, 0x69,
  0x61, 0x73, 0x41, 0x64, 0x64, 0x00, 0x00, 0x00, 0x02, 0x00, 0x00, 0x00,
  0x01, 0x00, 0x00, 0x00, 0x1e, 0x00, 0x00, 0x00, 0x4a, 0xfd, 0xff, 0xff,
  0x38, 0x00, 0x00, 0x00, 0x0d, 0x00, 0x00, 0x00, 0x0c, 0x00, 0x00, 0x00,
  0x04, 0x00, 0x00, 0x00, 0xe4, 0xfc, 0xff, 0xff, 0x1c, 0x00, 0x00, 0x00,
  0x73, 0x65, 0x71, 0x75, 0x65, 0x6e, 0x74, 0x69, 0x61, 0x6c, 0x5f, 0x32,
  0x2f, 0x64, 0x65, 0x6e, 0x73, 0x65, 0x5f, 0x31, 0x37, 0x2f, 0x4d, 0x61,
  0x74, 0x4d, 0x75, 0x6c, 0x00, 0x00, 0x00, 0x00, 0x02, 0x00, 0x00, 0x00,
  0x0f, 0x00, 0x00, 0x00, 0x1e, 0x00, 0x00, 0x00, 0x92, 0xfd, 0xff, 0xff,
  0x38, 0x00, 0x00, 0x00, 0x0c, 0x00, 0x00, 0x00, 0x0c, 0x00, 0x00, 0x00,
  0x04, 0x00, 0x00, 0x00, 0x2c, 0xfd, 0xff, 0xff, 0x1c, 0x00, 0x00, 0x00,
  0x73, 0x65, 0x71, 0x75, 0x65, 0x6e, 0x74, 0x69, 0x61, 0x6c, 0x5f, 0x32,
  0x2f, 0x64, 0x65, 0x6e, 0x73, 0x65, 0x5f, 0x31, 0x36, 0x2f, 0x4d, 0x61,
  0x74, 0x4d, 0x75, 0x6c, 0x00, 0x00, 0x00, 0x00, 0x02, 0x00, 0x00, 0x00,
  0x1e, 0x00, 0x00, 0x00, 0x0a, 0x00, 0x00, 0x00, 0xda, 0xfd, 0xff, 0xff,
  0x38, 0x00, 0x00, 0x00, 0x0b, 0x00, 0x00, 0x00, 0x0c, 0x00, 0x00, 0x00,
  0x04, 0x00, 0x00, 0x00, 0x74, 0xfd, 0xff, 0xff, 0x1c, 0x00, 0x00, 0x00,
  0x73, 0x65, 0x71, 0x75, 0x65, 0x6e, 0x74, 0x69, 0x61, 0x6c, 0x5f, 0x32,
  0x2f, 0x64, 0x65, 0x6e, 0x73, 0x65, 0x5f, 0x31, 0x35, 0x2f, 0x4d, 0x61,
  0x74, 0x4d, 0x75, 0x6c, 0x00, 0x00, 0x00, 0x00, 0x02, 0x00, 0x00, 0x00,
  0x0a, 0x00, 0x00, 0x00, 0x02, 0x00, 0x00, 0x00, 0x22, 0xfe, 0xff, 0xff,
  0x38, 0x00, 0x00, 0x00, 0x0a, 0x00, 0x00, 0x00, 0x0c, 0x00, 0x00, 0x00,
  0x04, 0x00, 0x00, 0x00, 0xbc, 0xfd, 0xff, 0xff, 0x1c, 0x00, 0x00, 0x00,
  0x73, 0x65, 0x71, 0x75, 0x65, 0x6e, 0x74, 0x69, 0x61, 0x6c, 0x5f, 0x32,
  0x2f, 0x64, 0x65, 0x6e, 0x73, 0x65, 0x5f, 0x31, 0x34, 0x2f, 0x4d, 0x61,
  0x74, 0x4d, 0x75, 0x6c, 0x00, 0x00, 0x00, 0x00, 0x02, 0x00, 0x00, 0x00,
  0x02, 0x00, 0x00, 0x00, 0x0a, 0x00, 0x00, 0x00, 0x6a, 0xfe, 0xff, 0xff,
  0x38, 0x00, 0x00, 0x00, 0x09, 0x00, 0x00, 0x00, 0x0c, 0x00, 0x00, 0x00,
  0x04, 0x00, 0x00, 0x00, 0x04, 0xfe, 0xff, 0xff, 0x1c, 0x00, 0x00, 0x00,
  0x73, 0x65, 0x71, 0x75, 0x65, 0x6e, 0x74, 0x69, 0x61, 0x6c, 0x5f, 0x32,
  0x2f, 0x64, 0x65, 0x6e, 0x73, 0x65, 0x5f, 0x31, 0x33, 0x2f, 0x4d, 0x61,
  0x74, 0x4d, 0x75, 0x6c, 0x00, 0x00, 0x00, 0x00, 0x02, 0x00, 0x00, 0x00,
  0x0a, 0x00, 0x00, 0x00, 0x1e, 0x00, 0x00, 0x00, 0xb2, 0xfe, 0xff, 0xff,
  0x38, 0x00, 0x00, 0x00, 0x08, 0x00, 0x00, 0x00, 0x0c, 0x00, 0x00, 0x00,
  0x04, 0x00, 0x00, 0x00, 0x4c, 0xfe, 0xff, 0xff, 0x1c, 0x00, 0x00, 0x00,
  0x73, 0x65, 0x71, 0x75, 0x65, 0x6e, 0x74, 0x69, 0x61, 0x6c, 0x5f, 0x32,
  0x2f, 0x64, 0x65, 0x6e, 0x73, 0x65, 0x5f, 0x31, 0x32, 0x2f, 0x4d, 0x61,
  0x74, 0x4d, 0x75, 0x6c, 0x00, 0x00, 0x00, 0x00, 0x02, 0x00, 0x00, 0x00,
  0x1e, 0x00, 0x00, 0x00, 0x0f, 0x00, 0x00, 0x00, 0xfa, 0xfe, 0xff, 0xff,
  0x28, 0x00, 0x00, 0x00, 0x07, 0x00, 0x00, 0x00, 0x0c, 0x00, 0x00, 0x00,
  0x04, 0x00, 0x00, 0x00, 0x94, 0xfe, 0xff, 0xff, 0x0d, 0x00, 0x00, 0x00,
  0x64, 0x65, 0x6e, 0x73, 0x65, 0x5f, 0x31, 0x32, 0x2f, 0x62, 0x69, 0x61,
  0x73, 0x00, 0x00, 0x00, 0x01, 0x00, 0x00, 0x00, 0x1e, 0x00, 0x00, 0x00,
  0x2e, 0xff, 0xff, 0xff, 0x28, 0x00, 0x00, 0x00, 0x06, 0x00, 0x00, 0x00,
  0x0c, 0x00, 0x00, 0x00, 0x04, 0x00, 0x00, 0x00, 0xc8, 0xfe, 0xff, 0xff,
  0x0d, 0x00, 0x00, 0x00, 0x64, 0x65, 0x6e, 0x73, 0x65, 0x5f, 0x31, 0x33,
  0x2f, 0x62, 0x69, 0x61, 0x73, 0x00, 0x00, 0x00, 0x01, 0x00, 0x00, 0x00,
  0x0a, 0x00, 0x00, 0x00, 0x62, 0xff, 0xff, 0xff, 0x28, 0x00, 0x00, 0x00,
  0x05, 0x00, 0x00, 0x00, 0x0c, 0x00, 0x00, 0x00, 0x04, 0x00, 0x00, 0x00,
  0xfc, 0xfe, 0xff, 0xff, 0x0d, 0x00, 0x00, 0x00, 0x64, 0x65, 0x6e, 0x73,
  0x65, 0x5f, 0x31, 0x34, 0x2f, 0x62, 0x69, 0x61, 0x73, 0x00, 0x00, 0x00,
  0x01, 0x00, 0x00, 0x00, 0x02, 0x00, 0x00, 0x00, 0x96, 0xff, 0xff, 0xff,
  0x28, 0x00, 0x00, 0x00, 0x04, 0x00, 0x00, 0x00, 0x0c, 0x00, 0x00, 0x00,
  0x04, 0x00, 0x00, 0x00, 0x30, 0xff, 0xff, 0xff, 0x0d, 0x00, 0x00, 0x00,
  0x64, 0x65, 0x6e, 0x73, 0x65, 0x5f, 0x31, 0x35, 0x2f, 0x62, 0x69, 0x61,
  0x73, 0x00, 0x00, 0x00, 0x01, 0x00, 0x00, 0x00, 0x0a, 0x00, 0x00, 0x00,
  0xca, 0xff, 0xff, 0xff, 0x28, 0x00, 0x00, 0x00, 0x03, 0x00, 0x00, 0x00,
  0x0c, 0x00, 0x00, 0x00, 0x04, 0x00, 0x00, 0x00, 0x64, 0xff, 0xff, 0xff,
  0x0d, 0x00, 0x00, 0x00, 0x64, 0x65, 0x6e, 0x73, 0x65, 0x5f, 0x31, 0x36,
  0x2f, 0x62, 0x69, 0x61, 0x73, 0x00, 0x00, 0x00, 0x01, 0x00, 0x00, 0x00,
  0x1e, 0x00, 0x00, 0x00, 0x00, 0x00, 0x0e, 0x00, 0x14, 0x00, 0x04, 0x00,
  0x00, 0x00, 0x08, 0x00, 0x0c, 0x00, 0x10, 0x00, 0x0e, 0x00, 0x00, 0x00,
  0x28, 0x00, 0x00, 0x00, 0x02, 0x00, 0x00, 0x00, 0x0c, 0x00, 0x00, 0x00,
  0x04, 0x00, 0x00, 0x00, 0xa8, 0xff, 0xff, 0xff, 0x0d, 0x00, 0x00, 0x00,
  0x64, 0x65, 0x6e, 0x73, 0x65, 0x5f, 0x31, 0x37, 0x2f, 0x62, 0x69, 0x61,
  0x73, 0x00, 0x00, 0x00, 0x01, 0x00, 0x00, 0x00, 0x0f, 0x00, 0x00, 0x00,
  0x14, 0x00, 0x18, 0x00, 0x04, 0x00, 0x00, 0x00, 0x08, 0x00, 0x0c, 0x00,
  0x10, 0x00, 0x00, 0x00, 0x00, 0x00, 0x14, 0x00, 0x14, 0x00, 0x00, 0x00,
  0x50, 0x00, 0x00, 0x00, 0x01, 0x00, 0x00, 0x00, 0x20, 0x00, 0x00, 0x00,
  0x18, 0x00, 0x00, 0x00, 0x04, 0x00, 0x00, 0x00, 0x02, 0x00, 0x00, 0x00,
  0xff, 0xff, 0xff, 0xff, 0x0f, 0x00, 0x00, 0x00, 0x04, 0x00, 0x04, 0x00,
  0x04, 0x00, 0x00, 0x00, 0x20, 0x00, 0x00, 0x00, 0x73, 0x65, 0x72, 0x76,
  0x69, 0x6e, 0x67, 0x5f, 0x64, 0x65, 0x66, 0x61, 0x75, 0x6c, 0x74, 0x5f,
  0x64, 0x65, 0x6e, 0x73, 0x65, 0x5f, 0x31, 0x32, 0x5f, 0x69, 0x6e, 0x70,
  0x75, 0x74, 0x3a, 0x30, 0x00, 0x00, 0x00, 0x00, 0x02, 0x00, 0x00, 0x00,
  0x01, 0x00, 0x00, 0x00, 0x0f, 0x00, 0x00, 0x00, 0x02, 0x00, 0x00, 0x00,
  0x2c, 0x00, 0x00, 0x00, 0x10, 0x00, 0x00, 0x00, 0x0c, 0x00, 0x0c, 0x00,
  0x07, 0x00, 0x00, 0x00, 0x00, 0x00, 0x08, 0x00, 0x0c, 0x00, 0x00, 0x00,
  0x00, 0x00, 0x00, 0x0e, 0x0e, 0x00, 0x00, 0x00, 0x0c, 0x00, 0x10, 0x00,
  0x07, 0x00, 0x00, 0x00, 0x08, 0x00, 0x0c, 0x00, 0x0c, 0x00, 0x00, 0x00,
  0x00, 0x00, 0x00, 0x09, 0x09, 0x00, 0x00, 0x00, 0x09, 0x00, 0x00, 0x00
};
const int g_model_len = 9696;
