alignas(8) const unsigned char g_model[] = {
  0x20, 0x00, 0x00, 0x00, 0x54, 0x46, 0x4c, 0x33, 0x00, 0x00, 0x00, 0x00,
  0x14, 0x00, 0x20, 0x00, 0x04, 0x00, 0x08, 0x00, 0x0c, 0x00, 0x10, 0x00,
  0x14, 0x00, 0x00, 0x00, 0x18, 0x00, 0x1c, 0x00, 0x14, 0x00, 0x00, 0x00,
  0x03, 0x00, 0x00, 0x00, 0x18, 0x00, 0x00, 0x00, 0x20, 0x00, 0x00, 0x00,
  0x58, 0x01, 0x00, 0x00, 0x20, 0x00, 0x00, 0x00, 0x00, 0x01, 0x00, 0x00,
  0x74, 0x00, 0x00, 0x00, 0x02, 0x00, 0x00, 0x00, 0x54, 0x07, 0x00, 0x00,
  0xe0, 0x02, 0x00, 0x00, 0x01, 0x00, 0x00, 0x00, 0x5c, 0x01, 0x00, 0x00,
  0x16, 0x00, 0x00, 0x00, 0x44, 0x15, 0x00, 0x00, 0x40, 0x15, 0x00, 0x00,
  0x54, 0x12, 0x00, 0x00, 0x6c, 0x11, 0x00, 0x00, 0xc8, 0x0f, 0x00, 0x00,
  0x3c, 0x0f, 0x00, 0x00, 0xb0, 0x0e, 0x00, 0x00, 0x44, 0x0e, 0x00, 0x00,
  0xb8, 0x0d, 0x00, 0x00, 0x2c, 0x0d, 0x00, 0x00, 0x88, 0x0b, 0x00, 0x00,
  0xac, 0x0a, 0x00, 0x00, 0x70, 0x08, 0x00, 0x00, 0xd0, 0x07, 0x00, 0x00,
  0x0c, 0x15, 0x00, 0x00, 0x08, 0x15, 0x00, 0x00, 0x04, 0x15, 0x00, 0x00,
  0x00, 0x15, 0x00, 0x00, 0xfc, 0x14, 0x00, 0x00, 0xf8, 0x14, 0x00, 0x00,
  0xf4, 0x14, 0x00, 0x00, 0xc0, 0x00, 0x00, 0x00, 0x01, 0x00, 0x00, 0x00,
  0x10, 0x00, 0x00, 0x00, 0x00, 0x00, 0x0a, 0x00, 0x10, 0x00, 0x0c, 0x00,
  0x08, 0x00, 0x04, 0x00, 0x0a, 0x00, 0x00, 0x00, 0x0c, 0x00, 0x00, 0x00,
  0x1c, 0x00, 0x00, 0x00, 0x20, 0x00, 0x00, 0x00, 0x0f, 0x00, 0x00, 0x00,
  0x73, 0x65, 0x72, 0x76, 0x69, 0x6e, 0x67, 0x5f, 0x64, 0x65, 0x66, 0x61,
  0x75, 0x6c, 0x74, 0x00, 0x01, 0x00, 0x00, 0x00, 0x14, 0x00, 0x00, 0x00,
  0x01, 0x00, 0x00, 0x00, 0x28, 0x00, 0x00, 0x00, 0x08, 0x00, 0x0c, 0x00,
  0x08, 0x00, 0x04, 0x00, 0x08, 0x00, 0x00, 0x00, 0x13, 0x00, 0x00, 0x00,
  0x04, 0x00, 0x00, 0x00, 0x08, 0x00, 0x00, 0x00, 0x64, 0x65, 0x6e, 0x73,
  0x65, 0x5f, 0x31, 0x37, 0x00, 0x00, 0x00, 0x00, 0x6e, 0xee, 0xff, 0xff,
  0x04, 0x00, 0x00, 0x00, 0x0e, 0x00, 0x00, 0x00, 0x64, 0x65, 0x6e, 0x73,
  0x65, 0x5f, 0x31, 0x32, 0x5f, 0x69, 0x6e, 0x70, 0x75, 0x74, 0x00, 0x00,
  0x01, 0x00, 0x00, 0x00, 0x0c, 0x00, 0x00, 0x00, 0x08, 0x00, 0x0c, 0x00,
  0x04, 0x00, 0x08, 0x00, 0x08, 0x00, 0x00, 0x00, 0x08, 0x00, 0x00, 0x00,
  0x15, 0x00, 0x00, 0x00, 0x13, 0x00, 0x00, 0x00, 0x6d, 0x69, 0x6e, 0x5f,
  0x72, 0x75, 0x6e, 0x74, 0x69, 0x6d, 0x65, 0x5f, 0x76, 0x65, 0x72, 0x73,
  0x69, 0x6f, 0x6e, 0x00, 0xbe, 0xee, 0xff, 0xff, 0x04, 0x00, 0x00, 0x00,
  0x10, 0x00, 0x00, 0x00, 0x31, 0x2e, 0x31, 0x34, 0x2e, 0x30, 0x00, 0x00,
  0x00, 0x00, 0x00, 0x00, 0x00, 0x00, 0x00, 0x00, 0x0f, 0x00, 0x00, 0x00,
  0x4d, 0x4c, 0x49, 0x52, 0x20, 0x43, 0x6f, 0x6e, 0x76, 0x65, 0x72, 0x74,
  0x65, 0x64, 0x2e, 0x00, 0x00, 0x00, 0x0e, 0x00, 0x18, 0x00, 0x04, 0x00,
  0x08, 0x00, 0x0c, 0x00, 0x10, 0x00, 0x14, 0x00, 0x0e, 0x00, 0x00, 0x00,
  0x14, 0x00, 0x00, 0x00, 0x64, 0x00, 0x00, 0x00, 0x68, 0x00, 0x00, 0x00,
  0x6c, 0x00, 0x00, 0x00, 0x88, 0x00, 0x00, 0x00, 0x14, 0x00, 0x00, 0x00,
  0x48, 0x13, 0x00, 0x00, 0xc4, 0x12, 0x00, 0x00, 0x84, 0x10, 0x00, 0x00,
  0x94, 0x0f, 0x00, 0x00, 0x04, 0x0e, 0x00, 0x00, 0x64, 0x0d, 0x00, 0x00,
  0xec, 0x0c, 0x00, 0x00, 0x6c, 0x0c, 0x00, 0x00, 0xf4, 0x0b, 0x00, 0x00,
  0x54, 0x0b, 0x00, 0x00, 0xc4, 0x09, 0x00, 0x00, 0xd4, 0x08, 0x00, 0x00,
  0xac, 0x06, 0x00, 0x00, 0xac, 0x05, 0x00, 0x00, 0x90, 0x04, 0x00, 0x00,
  0x94, 0x03, 0x00, 0x00, 0xa8, 0x02, 0x00, 0x00, 0xd8, 0x01, 0x00, 0x00,
  0x28, 0x01, 0x00, 0x00, 0x70, 0x00, 0x00, 0x00, 0x01, 0x00, 0x00, 0x00,
  0x00, 0x00, 0x00, 0x00, 0x01, 0x00, 0x00, 0x00, 0x13, 0x00, 0x00, 0x00,
  0x07, 0x00, 0x00, 0x00, 0x24, 0x05, 0x00, 0x00, 0x2c, 0x04, 0x00, 0x00,
  0x30, 0x03, 0x00, 0x00, 0x44, 0x02, 0x00, 0x00, 0x78, 0x01, 0x00, 0x00,
  0xc8, 0x00, 0x00, 0x00, 0x10, 0x00, 0x00, 0x00, 0x04, 0x00, 0x00, 0x00,
  0x6d, 0x61, 0x69, 0x6e, 0x00, 0x00, 0x00, 0x00, 0x06, 0xfc, 0xff, 0xff,
  0x00, 0x00, 0x00, 0x08, 0x18, 0x00, 0x00, 0x00, 0x0c, 0x00, 0x00, 0x00,
  0x04, 0x00, 0x00, 0x00, 0xd0, 0xec, 0xff, 0xff, 0x01, 0x00, 0x00, 0x00,
  0x13, 0x00, 0x00, 0x00, 0x03, 0x00, 0x00, 0x00, 0x12, 0x00, 0x00, 0x00,
  0x0b, 0x00, 0x00, 0x00, 0x0c, 0x00, 0x00, 0x00, 0x88, 0xed, 0xff, 0xff,
  0x00, 0x00, 0x00, 0x09, 0x14, 0x00, 0x00, 0x00, 0x14, 0x00, 0x00, 0x00,
  0x18, 0x00, 0x00, 0x00, 0x40, 0x00, 0x00, 0x00, 0x30, 0x00, 0x00, 0x00,
  0x02, 0x00, 0x00, 0x00, 0x01, 0x00, 0x00, 0x00, 0x0f, 0x00, 0x00, 0x00,
  0x19, 0x00, 0x00, 0x00, 0x53, 0x74, 0x61, 0x74, 0x65, 0x66, 0x75, 0x6c,
  0x50, 0x61, 0x72, 0x74, 0x69, 0x74, 0x69, 0x6f, 0x6e, 0x65, 0x64, 0x43,
  0x61, 0x6c, 0x6c, 0x3a, 0x30, 0x00, 0x00, 0x00, 0x02, 0x00, 0x00, 0x00,
  0xff, 0xff, 0xff, 0xff, 0x0f, 0x00, 0x00, 0x00, 0x6c, 0xed, 0xff, 0xff,
  0x08, 0x00, 0x00, 0x00, 0x0c, 0x00, 0x00, 0x00, 0x01, 0x00, 0x00, 0x00,
  0x33, 0x48, 0x6b, 0x3b, 0x01, 0x00, 0x00, 0x00, 0x83, 0xff, 0xff, 0xff,
  0xff, 0xff, 0xff, 0xff, 0x00, 0x00, 0x00, 0x00, 0x00, 0x00, 0x0a, 0x00,
  0x10, 0x00, 0x04, 0x00, 0x08, 0x00, 0x0c, 0x00, 0x0a, 0x00, 0x00, 0x00,
  0x01, 0x00, 0x00, 0x00, 0x10, 0x00, 0x00, 0x00, 0x04, 0x00, 0x00, 0x00,
  0x01, 0x00, 0x00, 0x00, 0x12, 0x00, 0x00, 0x00, 0x01, 0x00, 0x00, 0x00,
  0x11, 0x00, 0x00, 0x00, 0x9c, 0xfb, 0xff, 0xff, 0x0e, 0x00, 0x00, 0x00,
  0x00, 0x00, 0x00, 0x0e, 0x02, 0x00, 0x00, 0x00, 0x3c, 0xee, 0xff, 0xff,
  0x00, 0x00, 0x00, 0x09, 0x14, 0x00, 0x00, 0x00, 0x13, 0x00, 0x00, 0x00,
  0x18, 0x00, 0x00, 0x00, 0x44, 0x00, 0x00, 0x00, 0x34, 0x00, 0x00, 0x00,
  0x02, 0x00, 0x00, 0x00, 0x01, 0x00, 0x00, 0x00, 0x1e, 0x00, 0x00, 0x00,
  0x1d, 0x00, 0x00, 0x00, 0x73, 0x65, 0x71, 0x75, 0x65, 0x6e, 0x74, 0x69,
  0x61, 0x6c, 0x5f, 0x32, 0x2f, 0x64, 0x65, 0x6e, 0x73, 0x65, 0x5f, 0x31,
  0x36, 0x2f, 0x53, 0x69, 0x67, 0x6d, 0x6f, 0x69, 0x64, 0x00, 0x00, 0x00,
  0x02, 0x00, 0x00, 0x00, 0xff, 0xff, 0xff, 0xff, 0x1e, 0x00, 0x00, 0x00,
  0x24, 0xee, 0xff, 0xff, 0x08, 0x00, 0x00, 0x00, 0x0c, 0x00, 0x00, 0x00,
  0x01, 0x00, 0x00, 0x00, 0x00, 0x00, 0x80, 0x3b, 0x01, 0x00, 0x00, 0x00,
  0x80, 0xff, 0xff, 0xff, 0xff, 0xff, 0xff, 0xff, 0x00, 0x00, 0x00, 0x00,
  0x66, 0xfd, 0xff, 0xff, 0x00, 0x00, 0x00, 0x08, 0x18, 0x00, 0x00, 0x00,
  0x0c, 0x00, 0x00, 0x00, 0x04, 0x00, 0x00, 0x00, 0x30, 0xee, 0xff, 0xff,
  0x01, 0x00, 0x00, 0x00, 0x11, 0x00, 0x00, 0x00, 0x03, 0x00, 0x00, 0x00,
  0x10, 0x00, 0x00, 0x00, 0x09, 0x00, 0x00, 0x00, 0x0a, 0x00, 0x00, 0x00,
  0xe8, 0xee, 0xff, 0xff, 0x00, 0x00, 0x00, 0x09, 0x14, 0x00, 0x00, 0x00,
  0x12, 0x00, 0x00, 0x00, 0x18, 0x00, 0x00, 0x00, 0x60, 0x00, 0x00, 0x00,
  0x50, 0x00, 0x00, 0x00, 0x02, 0x00, 0x00, 0x00, 0x01, 0x00, 0x00, 0x00,
  0x1e, 0x00, 0x00, 0x00, 0x3a, 0x00, 0x00, 0x00, 0x73, 0x65, 0x71, 0x75,
  0x65, 0x6e, 0x74, 0x69, 0x61, 0x6c, 0x5f, 0x32, 0x2f, 0x64, 0x65, 0x6e,
  0x73, 0x65, 0x5f, 0x31, 0x36, 0x2f, 0x4d, 0x61, 0x74, 0x4d, 0x75, 0x6c,
  0x3b, 0x73, 0x65, 0x71, 0x75, 0x65, 0x6e, 0x74, 0x69, 0x61, 0x6c, 0x5f,
  0x32, 0x2f, 0x64, 0x65, 0x6e, 0x73, 0x65, 0x5f, 0x31, 0x36, 0x2f, 0x42,
  0x69, 0x61, 0x73, 0x41, 0x64, 0x64, 0x00, 0x00, 0x02, 0x00, 0x00, 0x00,
  0xff, 0xff, 0xff, 0xff, 0x1e, 0x00, 0x00, 0x00, 0xec, 0xee, 0xff, 0xff,
  0x08, 0x00, 0x00, 0x00, 0x0c, 0x00, 0x00, 0x00, 0x01, 0x00, 0x00, 0x00,
  0x84, 0x72, 0x77, 0x3c, 0x01, 0x00, 0x00, 0x00, 0x2d, 0x00, 0x00, 0x00,
  0x00, 0x00, 0x00, 0x00, 0x00, 0x00, 0x00, 0x00, 0x2e, 0xfe, 0xff, 0xff,
  0x00, 0x00, 0x00, 0x08, 0x1c, 0x00, 0x00, 0x00, 0x10, 0x00, 0x00, 0x00,
  0x04, 0x00, 0x00, 0x00, 0x2a, 0xfd, 0xff, 0xff, 0x00, 0x00, 0x00, 0x01,
  0x01, 0x00, 0x00, 0x00, 0x10, 0x00, 0x00, 0x00, 0x03, 0x00, 0x00, 0x00,
  0x0f, 0x00, 0x00, 0x00, 0x07, 0x00, 0x00, 0x00, 0x08, 0x00, 0x00, 0x00,
  0xb4, 0xef, 0xff, 0xff, 0x00, 0x00, 0x00, 0x09, 0x14, 0x00, 0x00, 0x00,
  0x11, 0x00, 0x00, 0x00, 0x18, 0x00, 0x00, 0x00, 0x7c, 0x00, 0x00, 0x00,
  0x6c, 0x00, 0x00, 0x00, 0x02, 0x00, 0x00, 0x00, 0x01, 0x00, 0x00, 0x00,
  0x0a, 0x00, 0x00, 0x00, 0x55, 0x00, 0x00, 0x00, 0x73, 0x65, 0x71, 0x75,
  0x65, 0x6e, 0x74, 0x69, 0x61, 0x6c, 0x5f, 0x32, 0x2f, 0x64, 0x65, 0x6e,
  0x73, 0x65, 0x5f, 0x31, 0x35, 0x2f, 0x4d, 0x61, 0x74, 0x4d, 0x75, 0x6c,
  0x3b, 0x73, 0x65, 0x71, 0x75, 0x65, 0x6e, 0x74, 0x69, 0x61, 0x6c, 0x5f,
  0x32, 0x2f, 0x64, 0x65, 0x6e, 0x73, 0x65, 0x5f, 0x31, 0x35, 0x2f, 0x52,
  0x65, 0x6c, 0x75, 0x3b, 0x73, 0x65, 0x71, 0x75, 0x65, 0x6e, 0x74, 0x69,
  0x61, 0x6c, 0x5f, 0x32, 0x2f, 0x64, 0x65, 0x6e, 0x73, 0x65, 0x5f, 0x31,
  0x35, 0x2f, 0x42, 0x69, 0x61, 0x73, 0x41, 0x64, 0x64, 0x00, 0x00, 0x00,
  0x02, 0x00, 0x00, 0x00, 0xff, 0xff, 0xff, 0xff, 0x0a, 0x00, 0x00, 0x00,
  0xd4, 0xef, 0xff, 0xff, 0x08, 0x00, 0x00, 0x00, 0x0c, 0x00, 0x00, 0x00,
  0x01, 0x00, 0x00, 0x00, 0xaa, 0xb8, 0xee, 0x3b, 0x01, 0x00, 0x00, 0x00,
  0x80, 0xff, 0xff, 0xff, 0xff, 0xff, 0xff, 0xff, 0x00, 0x00, 0x00, 0x00,
  0x16, 0xff, 0xff, 0xff, 0x00, 0x00, 0x00, 0x08, 0x1c, 0x00, 0x00, 0x00,
  0x10, 0x00, 0x00, 0x00, 0x04, 0x00, 0x00, 0x00, 0x12, 0xfe, 0xff, 0xff,
  0x00, 0x00, 0x00, 0x01, 0x01, 0x00, 0x00, 0x00, 0x0f, 0x00, 0x00, 0x00,
  0x03, 0x00, 0x00, 0x00, 0x0e, 0x00, 0x00, 0x00, 0x05, 0x00, 0x00, 0x00,
  0x06, 0x00, 0x00, 0x00, 0x9c, 0xf0, 0xff, 0xff, 0x00, 0x00, 0x00, 0x09,
  0x14, 0x00, 0x00, 0x00, 0x10, 0x00, 0x00, 0x00, 0x18, 0x00, 0x00, 0x00,
  0x7c, 0x00, 0x00, 0x00, 0x6c, 0x00, 0x00, 0x00, 0x02, 0x00, 0x00, 0x00,
  0x01, 0x00, 0x00, 0x00, 0x02, 0x00, 0x00, 0x00, 0x55, 0x00, 0x00, 0x00,
  0x73, 0x65, 0x71, 0x75, 0x65, 0x6e, 0x74, 0x69, 0x61, 0x6c, 0x5f, 0x32,
  0x2f, 0x64, 0x65, 0x6e, 0x73, 0x65, 0x5f, 0x31, 0x34, 0x2f, 0x4d, 0x61,
  0x74, 0x4d, 0x75, 0x6c, 0x3b, 0x73, 0x65, 0x71, 0x75, 0x65, 0x6e, 0x74,
  0x69, 0x61, 0x6c, 0x5f, 0x32, 0x2f, 0x64, 0x65, 0x6e, 0x73, 0x65, 0x5f,
  0x31, 0x34, 0x2f, 0x52, 0x65, 0x6c, 0x75, 0x3b, 0x73, 0x65, 0x71, 0x75,
  0x65, 0x6e, 0x74, 0x69, 0x61, 0x6c, 0x5f, 0x32, 0x2f, 0x64, 0x65, 0x6e,
  0x73, 0x65, 0x5f, 0x31, 0x34, 0x2f, 0x42, 0x69, 0x61, 0x73, 0x41, 0x64,
  0x64, 0x00, 0x00, 0x00, 0x02, 0x00, 0x00, 0x00, 0xff, 0xff, 0xff, 0xff,
  0x02, 0x00, 0x00, 0x00, 0xbc, 0xf0, 0xff, 0xff, 0x08, 0x00, 0x00, 0x00,
  0x0c, 0x00, 0x00, 0x00, 0x01, 0x00, 0x00, 0x00, 0x3b, 0x96, 0x29, 0x3c,
  0x01, 0x00, 0x00, 0x00, 0x80, 0xff, 0xff, 0xff, 0xff, 0xff, 0xff, 0xff,
  0x00, 0x00, 0x00, 0x00, 0x00, 0x00, 0x0e, 0x00, 0x14, 0x00, 0x00, 0x00,
  0x08, 0x00, 0x0c, 0x00, 0x07, 0x00, 0x10, 0x00, 0x0e, 0x00, 0x00, 0x00,
  0x00, 0x00, 0x00, 0x08, 0x1c, 0x00, 0x00, 0x00, 0x10, 0x00, 0x00, 0x00,
  0x04, 0x00, 0x00, 0x00, 0x0a, 0xff, 0xff, 0xff, 0x00, 0x00, 0x00, 0x01,
  0x01, 0x00, 0x00, 0x00, 0x0e, 0x00, 0x00, 0x00, 0x03, 0x00, 0x00, 0x00,
  0x0d, 0x00, 0x00, 0x00, 0x03, 0x00, 0x00, 0x00, 0x04, 0x00, 0x00, 0x00,
  0x94, 0xf1, 0xff, 0xff, 0x00, 0x00, 0x00, 0x09, 0x14, 0x00, 0x00, 0x00,
  0x0f, 0x00, 0x00, 0x00, 0x18, 0x00, 0x00, 0x00, 0x7c, 0x00, 0x00, 0x00,
  0x6c, 0x00, 0x00, 0x00, 0x02, 0x00, 0x00, 0x00, 0x01, 0x00, 0x00, 0x00,
  0x0a, 0x00, 0x00, 0x00, 0x55, 0x00, 0x00, 0x00, 0x73, 0x65, 0x71, 0x75,
  0x65, 0x6e, 0x74, 0x69, 0x61, 0x6c, 0x5f, 0x32, 0x2f, 0x64, 0x65, 0x6e,
  0x73, 0x65, 0x5f, 0x31, 0x33, 0x2f, 0x4d, 0x61, 0x74, 0x4d, 0x75, 0x6c,
  0x3b, 0x73, 0x65, 0x71, 0x75, 0x65, 0x6e, 0x74, 0x69, 0x61, 0x6c, 0x5f,
  0x32, 0x2f, 0x64, 0x65, 0x6e, 0x73, 0x65, 0x5f, 0x31, 0x33, 0x2f, 0x52,
  0x65, 0x6c, 0x75, 0x3b, 0x73, 0x65, 0x71, 0x75, 0x65, 0x6e, 0x74, 0x69,
  0x61, 0x6c, 0x5f, 0x32, 0x2f, 0x64, 0x65, 0x6e, 0x73, 0x65, 0x5f, 0x31,
  0x33, 0x2f, 0x42, 0x69, 0x61, 0x73, 0x41, 0x64, 0x64, 0x00, 0x00, 0x00,
  0x02, 0x00, 0x00, 0x00, 0xff, 0xff, 0xff, 0xff, 0x0a, 0x00, 0x00, 0x00,
  0xb4, 0xf1, 0xff, 0xff, 0x08, 0x00, 0x00, 0x00, 0x0c, 0x00, 0x00, 0x00,
  0x01, 0x00, 0x00, 0x00, 0x03, 0x31, 0x68, 0x3c, 0x01, 0x00, 0x00, 0x00,
  0x80, 0xff, 0xff, 0xff, 0xff, 0xff, 0xff, 0xff, 0x00, 0x00, 0x0e, 0x00,
  0x16, 0x00, 0x00, 0x00, 0x08, 0x00, 0x0c, 0x00, 0x07, 0x00, 0x10, 0x00,
  0x0e, 0x00, 0x00, 0x00, 0x00, 0x00, 0x00, 0x08, 0x24, 0x00, 0x00, 0x00,
  0x18, 0x00, 0x00, 0x00, 0x0c, 0x00, 0x00, 0x00, 0x00, 0x00, 0x06, 0x00,
  0x08, 0x00, 0x07, 0x00, 0x06, 0x00, 0x00, 0x00, 0x00, 0x00, 0x00, 0x01,
  0x01, 0x00, 0x00, 0x00, 0x0d, 0x00, 0x00, 0x00, 0x03, 0x00, 0x00, 0x00,
  0x00, 0x00, 0x00, 0x00, 0x01, 0x00, 0x00, 0x00, 0x02, 0x00, 0x00, 0x00,
  0x0c, 0x00, 0x10, 0x00, 0x0b, 0x00, 0x00, 0x00, 0x0c, 0x00, 0x04, 0x00,
  0x0c, 0x00, 0x00, 0x00, 0x09, 0x00, 0x00, 0x00, 0x00, 0x00, 0x00, 0x09,
  0x04, 0x00, 0x00, 0x00, 0xac, 0xf2, 0xff, 0xff, 0x00, 0x00, 0x00, 0x09,
  0x14, 0x00, 0x00, 0x00, 0x0e, 0x00, 0x00, 0x00, 0x18, 0x00, 0x00, 0x00,
  0x7c, 0x00, 0x00, 0x00, 0x6c, 0x00, 0x00, 0x00, 0x02, 0x00, 0x00, 0x00,
  0x01, 0x00, 0x00, 0x00, 0x1e, 0x00, 0x00, 0x00, 0x55, 0x00, 0x00, 0x00,
  0x73, 0x65, 0x71, 0x75, 0x65, 0x6e, 0x74, 0x69, 0x61, 0x6c, 0x5f, 0x32,
  0x2f, 0x64, 0x65, 0x6e, 0x73, 0x65, 0x5f, 0x31, 0x32, 0x2f, 0x4d, 0x61,
  0x74, 0x4d, 0x75, 0x6c, 0x3b, 0x73, 0x65, 0x71, 0x75, 0x65, 0x6e, 0x74,
  0x69, 0x61, 0x6c, 0x5f, 0x32, 0x2f, 0x64, 0x65, 0x6e, 0x73, 0x65, 0x5f,
  0x31, 0x32, 0x2f, 0x52, 0x65, 0x6c, 0x75, 0x3b, 0x73, 0x65, 0x71, 0x75,
  0x65, 0x6e, 0x74, 0x69, 0x61, 0x6c, 0x5f, 0x32, 0x2f, 0x64, 0x65, 0x6e,
  0x73, 0x65, 0x5f, 0x31, 0x32, 0x2f, 0x42, 0x69, 0x61, 0x73, 0x41, 0x64,
  0x64, 0x00, 0x00, 0x00, 0x02, 0x00, 0x00, 0x00, 0xff, 0xff, 0xff, 0xff,
  0x1e, 0x00, 0x00, 0x00, 0xcc, 0xf2, 0xff, 0xff, 0x08, 0x00, 0x00, 0x00,
  0x0c, 0x00, 0x00, 0x00, 0x01, 0x00, 0x00, 0x00, 0x66, 0x5a, 0xe9, 0x3b,
  0x01, 0x00, 0x00, 0x00, 0x80, 0xff, 0xff, 0xff, 0xff, 0xff, 0xff, 0xff,
  0x00, 0x00, 0x00, 0x00, 0xae, 0xf5, 0xff, 0xff, 0x04, 0x00, 0x00, 0x00,
  0x3c, 0x00, 0x00, 0x00, 0x3e, 0xff, 0xff, 0xff, 0x13, 0x0f, 0x00, 0x00,
  0xe1, 0x09, 0x00, 0x00, 0x8f, 0x14, 0x00, 0x00, 0x16, 0x02, 0x00, 0x00,
  0x43, 0x11, 0x00, 0x00, 0xf1, 0x10, 0x00, 0x00, 0xff, 0x0e, 0x00, 0x00,
  0x70, 0x06, 0x00, 0x00, 0x4d, 0x18, 0x00, 0x00, 0xf0, 0x13, 0x00, 0x00,
  0x51, 0x10, 0x00, 0x00, 0xbd, 0xfd, 0xff, 0xff, 0x2f, 0x0b, 0x00, 0x00,
  0x5d, 0xfd, 0xff, 0xff, 0x22, 0xf4, 0xff, 0xff, 0x00, 0x00, 0x00, 0x02,
  0x10, 0x00, 0x00, 0x00, 0x0d, 0x00, 0x00, 0x00, 0x10, 0x00, 0x00, 0x00,
  0x20, 0x00, 0x00, 0x00, 0x01, 0x00, 0x00, 0x00, 0x0f, 0x00, 0x00, 0x00,
  0x0d, 0x00, 0x00, 0x00, 0x64, 0x65, 0x6e, 0x73, 0x65, 0x5f, 0x31, 0x37,
  0x2f, 0x62, 0x69, 0x61, 0x73, 0x00, 0x00, 0x00, 0x6c, 0xf3, 0xff, 0xff,
  0x08, 0x00, 0x00, 0x00, 0x0c, 0x00, 0x00, 0x00, 0x01, 0x00, 0x00, 0x00,
  0x24, 0x42, 0x6b, 0x37, 0x01, 0x00, 0x00, 0x00, 0x00, 0x00, 0x00, 0x00,
  0x00, 0x00, 0x00, 0x00, 0x4a, 0xf6, 0xff, 0xff, 0x04, 0x00, 0x00, 0x00,
  0xc2, 0x01, 0x00, 0x00, 0xe4, 0x49, 0xd7, 0x35, 0x58, 0xbd, 0x44, 0x41,
  0x42, 0x14, 0x0b, 0xb4, 0xc8, 0x44, 0x2d, 0x68, 0x12, 0x09, 0x29, 0x29,
  0xa3, 0x4b, 0x20, 0x0f, 0xf3, 0x17, 0x17, 0x1b, 0xf0, 0x16, 0x37, 0xe4,
  0x58, 0xc1, 0xdb, 0x3d, 0x0f, 0xfe, 0x2d, 0x16, 0xb9, 0xb4, 0x4c, 0x66,
  0x0e, 0xaf, 0x35, 0xba, 0xe4, 0xbf, 0x73, 0x35, 0xab, 0x5f, 0xf5, 0xd9,
  0x3c, 0xdd, 0x18, 0xc5, 0x02, 0xdc, 0x23, 0x19, 0xd1, 0xdd, 0x13, 0x43,
  0x23, 0x6c, 0xfe, 0xbd, 0xc7, 0x47, 0x67, 0x13, 0xb1, 0x07, 0xb0, 0x30,
  0x30, 0xcb, 0xcd, 0xc4, 0x60, 0x3e, 0xbb, 0x52, 0x25, 0xed, 0x18, 0x66,
  0xb4, 0x35, 0xe9, 0xcd, 0x04, 0xd9, 0x13, 0xc9, 0xc4, 0xbe, 0xcd, 0xcb,
  0x73, 0xf1, 0xd6, 0x50, 0x4e, 0x30, 0x20, 0x2b, 0x13, 0x51, 0xd1, 0x55,
  0xb3, 0xf5, 0x4b, 0x07, 0xa8, 0xc2, 0x55, 0x11, 0x09, 0xe8, 0xdb, 0x19,
  0x40, 0x11, 0x30, 0xea, 0x38, 0x01, 0x00, 0x0c, 0xc5, 0x56, 0x4f, 0xe3,
  0x52, 0xb1, 0xf8, 0x50, 0x1e, 0x9e, 0xf6, 0xc7, 0x56, 0xd8, 0x77, 0xb4,
  0xf2, 0xda, 0xba, 0x60, 0x3d, 0x63, 0xb3, 0xfe, 0x0c, 0xdc, 0x68, 0xe4,
  0xd9, 0x11, 0xf3, 0x54, 0xe3, 0x2b, 0xbd, 0xac, 0xd9, 0xe1, 0x45, 0xfe,
  0x0a, 0x02, 0x4b, 0x5f, 0xe7, 0x1c, 0xe4, 0x68, 0x45, 0xd6, 0xaa, 0x6a,
  0x67, 0x19, 0xfc, 0xef, 0xd9, 0x2a, 0x1d, 0x23, 0x36, 0xb8, 0x58, 0xd4,
  0x39, 0x2a, 0x0a, 0xcd, 0x17, 0x2f, 0x3c, 0x72, 0xb3, 0xb5, 0x14, 0x2f,
  0x70, 0x28, 0x4d, 0xd5, 0x16, 0xa8, 0xc2, 0x43, 0x6a, 0x3e, 0x73, 0xd4,
  0xd1, 0xef, 0xf2, 0xb2, 0x22, 0xec, 0xb5, 0xec, 0xb0, 0xfc, 0x10, 0x1a,
  0x63, 0xdc, 0x52, 0x5a, 0x0c, 0xf3, 0x28, 0xbd, 0x29, 0xf9, 0xef, 0xee,
  0x49, 0x17, 0x18, 0xf8, 0x62, 0x09, 0xd1, 0x00, 0x0b, 0xec, 0xab, 0x2e,
  0x42, 0xfb, 0x50, 0x06, 0x4d, 0x5b, 0xd3, 0xa5, 0xed, 0x00, 0x04, 0xd5,
  0xc6, 0x1a, 0xc7, 0x03, 0xc8, 0x0f, 0xcf, 0xd4, 0xfe, 0x0d, 0x30, 0x45,
  0xdb, 0xd9, 0xf1, 0x37, 0x7f, 0xee, 0xfd, 0xb4, 0xda, 0xcc, 0x78, 0x4e,
  0xed, 0xdb, 0x3c, 0xef, 0x2d, 0x0b, 0xde, 0x55, 0x3e, 0xf7, 0xcb, 0xb3,
  0x51, 0x72, 0x47, 0x21, 0xbe, 0xb8, 0xeb, 0x30, 0xbe, 0xf2, 0xc0, 0x3b,
  0x56, 0xf0, 0x08, 0x77, 0x59, 0xc9, 0xdd, 0xee, 0xbe, 0xc6, 0x08, 0x12,
  0xaf, 0xe0, 0x3f, 0x71, 0xb5, 0xb3, 0x2e, 0xd0, 0xb6, 0xed, 0xb2, 0x47,
  0x36, 0xc0, 0x08, 0xe1, 0x71, 0xb5, 0x13, 0x3d, 0xce, 0x41, 0xe1, 0x5a,
  0x53, 0x43, 0xb0, 0x36, 0x95, 0xac, 0x4b, 0xcf, 0xa9, 0x41, 0x1e, 0xab,
  0x1d, 0xd8, 0x14, 0x39, 0x30, 0xbf, 0xca, 0x95, 0xcf, 0x1c, 0x5a, 0x20,
  0x46, 0x56, 0xe5, 0x3d, 0x54, 0x29, 0x2a, 0xb4, 0x0b, 0x8b, 0x38, 0xd4,
  0x46, 0xc7, 0xfa, 0x0a, 0x4e, 0xb7, 0xa7, 0xb8, 0x0c, 0x9d, 0xe5, 0x36,
  0xb5, 0xb8, 0xde, 0xf5, 0x08, 0xdc, 0x4c, 0x22, 0x0c, 0x52, 0xf4, 0x4b,
  0x5f, 0x22, 0x6a, 0xdb, 0x44, 0xbd, 0x41, 0x47, 0x38, 0x40, 0xb0, 0xdd,
  0xe4, 0xc9, 0x3f, 0x0e, 0xcc, 0x31, 0x05, 0x15, 0xc2, 0x5b, 0x3d, 0x19,
  0x03, 0xcf, 0xea, 0x9b, 0x28, 0x4b, 0x17, 0xb5, 0x3e, 0xfb, 0x00, 0x00,
  0x46, 0xf6, 0xff, 0xff, 0x00, 0x00, 0x00, 0x09, 0x10, 0x00, 0x00, 0x00,
  0x0c, 0x00, 0x00, 0x00, 0x14, 0x00, 0x00, 0x00, 0x34, 0x00, 0x00, 0x00,
  0x02, 0x00, 0x00, 0x00, 0x0f, 0x00, 0x00, 0x00, 0x1e, 0x00, 0x00, 0x00,
  0x1c, 0x00, 0x00, 0x00, 0x73, 0x65, 0x71, 0x75, 0x65, 0x6e, 0x74, 0x69,
  0x61, 0x6c, 0x5f, 0x32, 0x2f, 0x64, 0x65, 0x6e, 0x73, 0x65, 0x5f, 0x31,
  0x37, 0x2f, 0x4d, 0x61, 0x74, 0x4d, 0x75, 0x6c, 0x00, 0x00, 0x00, 0x00,
  0xa4, 0xf5, 0xff, 0xff, 0x08, 0x00, 0x00, 0x00, 0x0c, 0x00, 0x00, 0x00,
  0x01, 0x00, 0x00, 0x00, 0x24, 0x42, 0x6b, 0x3b, 0x01, 0x00, 0x00, 0x00,
  0x00, 0x00, 0x00, 0x00, 0x00, 0x00, 0x00, 0x00, 0x82, 0xf8, 0xff, 0xff,
  0x04, 0x00, 0x00, 0x00, 0x78, 0x00, 0x00, 0x00, 0xac, 0x06, 0x00, 0x00,
  0x8f, 0xfa, 0xff, 0xff, 0x7e, 0xf5, 0xff, 0xff, 0x9a, 0x03, 0x00, 0x00,
  0xda, 0xf5, 0xff, 0xff, 0x00, 0x00, 0x00, 0x00, 0xaf, 0xf6, 0xff, 0xff,
  0x93, 0xfc, 0xff, 0xff, 0xf7, 0xf7, 0xff, 0xff, 0x29, 0xf7, 0xff, 0xff,
  0xc4, 0xfa, 0xff, 0xff, 0x99, 0xf7, 0xff, 0xff, 0x35, 0xfb, 0xff, 0xff,
  0x78, 0x05, 0x00, 0x00, 0x7f, 0xf8, 0xff, 0xff, 0xc9, 0xfa, 0xff, 0xff,
  0x56, 0xf7, 0xff, 0xff, 0x07, 0xfe, 0xff, 0xff, 0xeb, 0x09, 0x00, 0x00,
  0xe2, 0xf8, 0xff, 0xff, 0x6d, 0x02, 0x00, 0x00, 0xf1, 0xf6, 0xff, 0xff,
  0x8c, 0xf7, 0xff, 0xff, 0xe1, 0x02, 0x00, 0x00, 0x46, 0x08, 0x00, 0x00,
  0xe9, 0x07, 0x00, 0x00, 0xbe, 0xff, 0xff, 0xff, 0xfb, 0xf6, 0xff, 0xff,
  0xae, 0x06, 0x00, 0x00, 0xbc, 0xfa, 0xff, 0xff, 0x32, 0xf7, 0xff, 0xff,
  0x00, 0x00, 0x00, 0x02, 0x10, 0x00, 0x00, 0x00, 0x0b, 0x00, 0x00, 0x00,
  0x10, 0x00, 0x00, 0x00, 0x20, 0x00, 0x00, 0x00, 0x01, 0x00, 0x00, 0x00,
  0x1e, 0x00, 0x00, 0x00, 0x0d, 0x00, 0x00, 0x00, 0x64, 0x65, 0x6e, 0x73,
  0x65, 0x5f, 0x31, 0x36, 0x2f, 0x62, 0x69, 0x61, 0x73, 0x00, 0x00, 0x00,
  0x7c, 0xf6, 0xff, 0xff, 0x08, 0x00, 0x00, 0x00, 0x0c, 0x00, 0x00, 0x00,
  0x01, 0x00, 0x00, 0x00, 0x67, 0x8e, 0xfe, 0x37, 0x01, 0x00, 0x00, 0x00,
  0x00, 0x00, 0x00, 0x00, 0x00, 0x00, 0x00, 0x00, 0x5a, 0xf9, 0xff, 0xff,
  0x04, 0x00, 0x00, 0x00, 0x2c, 0x01, 0x00, 0x00, 0xd7, 0xbc, 0xc2, 0xf1,
  0xcb, 0xe2, 0x0f, 0x1d, 0xbb, 0x1f, 0xcf, 0x03, 0xbc, 0xbd, 0xcb, 0x2c,
  0xc9, 0xde, 0xba, 0x42, 0xb5, 0xd2, 0xdf, 0xfa, 0x2f, 0x84, 0xa4, 0xce,
  0xf7, 0xdf, 0xd3, 0xb7, 0x15, 0x0e, 0x34, 0xad, 0x3a, 0xb0, 0xf9, 0xc2,
  0xce, 0xfb, 0x2c, 0x13, 0x81, 0x04, 0x19, 0x22, 0xc8, 0xbd, 0x49, 0xe4,
  0xae, 0xfa, 0x1e, 0x2d, 0xb7, 0x28, 0x4e, 0xd3, 0x8c, 0xea, 0x55, 0x3e,
  0xa2, 0xc7, 0x0f, 0xd4, 0x2c, 0x8b, 0xb9, 0xe3, 0x84, 0xaf, 0x10, 0xe9,
  0x4a, 0xc5, 0x95, 0xaf, 0xa2, 0xb6, 0xa2, 0xd2, 0x9b, 0x28, 0x2e, 0xc7,
  0x8e, 0x26, 0x32, 0x00, 0x05, 0x96, 0x2c, 0x10, 0xe4, 0x10, 0x2b, 0x2c,
  0xb1, 0xf1, 0xf7, 0x0e, 0xa1, 0xa6, 0xb0, 0xc2, 0x1a, 0xa7, 0xf5, 0xe2,
  0xcf, 0x07, 0xe8, 0x43, 0x2e, 0xe3, 0xa6, 0x2e, 0xa3, 0xd7, 0x30, 0x4f,
  0x18, 0x04, 0x36, 0xe9, 0xe7, 0xe9, 0xcb, 0xe2, 0x0e, 0x6c, 0xf7, 0x3d,
  0x32, 0xf2, 0xe0, 0xc4, 0xba, 0xd9, 0x26, 0x34, 0xb2, 0x4e, 0x31, 0x2d,
  0x95, 0x17, 0xb4, 0x0b, 0xb3, 0x9a, 0x98, 0x1f, 0xaf, 0x2b, 0x0e, 0x0d,
  0xc5, 0x29, 0xa2, 0xa5, 0x05, 0x08, 0xd5, 0x93, 0xda, 0x1e, 0xb5, 0x47,
  0x34, 0x4a, 0xd7, 0x10, 0x4c, 0xe7, 0xd8, 0xd8, 0x15, 0x46, 0xdb, 0x0a,
  0x3c, 0xe7, 0x0e, 0x00, 0x01, 0xa4, 0xca, 0xc1, 0xfa, 0x18, 0x11, 0x35,
  0xf3, 0x46, 0xd0, 0xd0, 0xea, 0xfd, 0x42, 0x5b, 0xef, 0xdd, 0x71, 0xd4,
  0x30, 0xdb, 0xce, 0x1f, 0x26, 0xf9, 0xce, 0x19, 0x23, 0xb5, 0x40, 0xf6,
  0xb3, 0xcb, 0x85, 0x40, 0x90, 0xd4, 0x02, 0x3c, 0xef, 0x3c, 0x15, 0xf0,
  0xf3, 0x45, 0x4d, 0xe3, 0xc4, 0x06, 0x59, 0xcf, 0x28, 0x08, 0xcf, 0x6e,
  0xc8, 0xe3, 0x2e, 0x49, 0xe6, 0x34, 0x73, 0xe0, 0xff, 0x45, 0xc0, 0x0c,
  0x4c, 0xf6, 0xe6, 0x54, 0xb0, 0x27, 0x1a, 0xb1, 0xce, 0x09, 0x8d, 0xc0,
  0x06, 0xe6, 0xb4, 0xb0, 0x92, 0xc0, 0x3f, 0xe4, 0xe9, 0x21, 0xa5, 0xed,
  0xca, 0x27, 0x72, 0xea, 0xda, 0xc5, 0xe9, 0xfb, 0xc7, 0x29, 0x96, 0xff,
  0xf3, 0xf2, 0x07, 0xe8, 0xa4, 0xe5, 0xbd, 0x9d, 0xbe, 0xf8, 0xff, 0xff,
  0x00, 0x00, 0x00, 0x09, 0x10, 0x00, 0x00, 0x00, 0x0a, 0x00, 0x00, 0x00,
  0x14, 0x00, 0x00, 0x00, 0x34, 0x00, 0x00, 0x00, 0x02, 0x00, 0x00, 0x00,
  0x1e, 0x00, 0x00, 0x00, 0x0a, 0x00, 0x00, 0x00, 0x1c, 0x00, 0x00, 0x00,
  0x73, 0x65, 0x71, 0x75, 0x65, 0x6e, 0x74, 0x69, 0x61, 0x6c, 0x5f, 0x32,
  0x2f, 0x64, 0x65, 0x6e, 0x73, 0x65, 0x5f, 0x31, 0x36, 0x2f, 0x4d, 0x61,
  0x74, 0x4d, 0x75, 0x6c, 0x00, 0x00, 0x00, 0x00, 0x1c, 0xf8, 0xff, 0xff,
  0x08, 0x00, 0x00, 0x00, 0x0c, 0x00, 0x00, 0x00, 0x01, 0x00, 0x00, 0x00,
  0x93, 0x7d, 0x88, 0x3b, 0x01, 0x00, 0x00, 0x00, 0x00, 0x00, 0x00, 0x00,
  0x00, 0x00, 0x00, 0x00, 0xfa, 0xfa, 0xff, 0xff, 0x04, 0x00, 0x00, 0x00,
  0x28, 0x00, 0x00, 0x00, 0x33, 0x04, 0x00, 0x00, 0x9c, 0xf9, 0xff, 0xff,
  0xeb, 0x05, 0x00, 0x00, 0xa8, 0x00, 0x00, 0x00, 0xd2, 0x03, 0x00, 0x00,
  0xd2, 0xfd, 0xff, 0xff, 0xed, 0xfe, 0xff, 0xff, 0x21, 0xfd, 0xff, 0xff,
  0x1a, 0xfe, 0xff, 0xff, 0xa7, 0x00, 0x00, 0x00, 0x5a, 0xf9, 0xff, 0xff,
  0x00, 0x00, 0x00, 0x02, 0x10, 0x00, 0x00, 0x00, 0x09, 0x00, 0x00, 0x00,
  0x10, 0x00, 0x00, 0x00, 0x20, 0x00, 0x00, 0x00, 0x01, 0x00, 0x00, 0x00,
  0x0a, 0x00, 0x00, 0x00, 0x0d, 0x00, 0x00, 0x00, 0x64, 0x65, 0x6e, 0x73,
  0x65, 0x5f, 0x31, 0x35, 0x2f, 0x62, 0x69, 0x61, 0x73, 0x00, 0x00, 0x00,
  0xa4, 0xf8, 0xff, 0xff, 0x08, 0x00, 0x00, 0x00, 0x0c, 0x00, 0x00, 0x00,
  0x01, 0x00, 0x00, 0x00, 0x29, 0x83, 0x79, 0x38, 0x01, 0x00, 0x00, 0x00,
  0x00, 0x00, 0x00, 0x00, 0x00, 0x00, 0x00, 0x00, 0x82, 0xfb, 0xff, 0xff,
  0x04, 0x00, 0x00, 0x00, 0x14, 0x00, 0x00, 0x00, 0x37, 0x57, 0xa3, 0x0d,
  0x7b, 0xd6, 0x62, 0x14, 0x58, 0x13, 0xf8, 0x23, 0xff, 0x3f, 0x24, 0x43,
  0x7f, 0xfb, 0xc5, 0x13, 0xce, 0xf9, 0xff, 0xff, 0x00, 0x00, 0x00, 0x09,
  0x10, 0x00, 0x00, 0x00, 0x08, 0x00, 0x00, 0x00, 0x14, 0x00, 0x00, 0x00,
  0x34, 0x00, 0x00, 0x00, 0x02, 0x00, 0x00, 0x00, 0x0a, 0x00, 0x00, 0x00,
  0x02, 0x00, 0x00, 0x00, 0x1c, 0x00, 0x00, 0x00, 0x73, 0x65, 0x71, 0x75,
  0x65, 0x6e, 0x74, 0x69, 0x61, 0x6c, 0x5f, 0x32, 0x2f, 0x64, 0x65, 0x6e,
  0x73, 0x65, 0x5f, 0x31, 0x35, 0x2f, 0x4d, 0x61, 0x74, 0x4d, 0x75, 0x6c,
  0x00, 0x00, 0x00, 0x00, 0x2c, 0xf9, 0xff, 0xff, 0x08, 0x00, 0x00, 0x00,
  0x0c, 0x00, 0x00, 0x00, 0x01, 0x00, 0x00, 0x00, 0x69, 0x53, 0xbc, 0x3b,
  0x01, 0x00, 0x00, 0x00, 0x00, 0x00, 0x00, 0x00, 0x00, 0x00, 0x00, 0x00,
  0x0a, 0xfc, 0xff, 0xff, 0x04, 0x00, 0x00, 0x00, 0x08, 0x00, 0x00, 0x00,
  0x66, 0x02, 0x00, 0x00, 0x23, 0x03, 0x00, 0x00, 0x4a, 0xfa, 0xff, 0xff,
  0x00, 0x00, 0x00, 0x02, 0x10, 0x00, 0x00, 0x00, 0x07, 0x00, 0x00, 0x00,
  0x10, 0x00, 0x00, 0x00, 0x20, 0x00, 0x00, 0x00, 0x01, 0x00, 0x00, 0x00,
  0x02, 0x00, 0x00, 0x00, 0x0d, 0x00, 0x00, 0x00, 0x64, 0x65, 0x6e, 0x73,
  0x65, 0x5f, 0x31, 0x34, 0x2f, 0x62, 0x69, 0x61, 0x73, 0x00, 0x00, 0x00,
  0x94, 0xf9, 0xff, 0xff, 0x08, 0x00, 0x00, 0x00, 0x0c, 0x00, 0x00, 0x00,
  0x01, 0x00, 0x00, 0x00, 0xec, 0x19, 0xb3, 0x38, 0x01, 0x00, 0x00, 0x00,
  0x00, 0x00, 0x00, 0x00, 0x00, 0x00, 0x00, 0x00, 0x72, 0xfc, 0xff, 0xff,
  0x04, 0x00, 0x00, 0x00, 0x14, 0x00, 0x00, 0x00, 0xd0, 0x3e, 0xca, 0xe4,
  0x09, 0x27, 0x3b, 0xd2, 0x2b, 0x25, 0x09, 0xf9, 0x4d, 0x1a, 0x6d, 0x7f,
  0xe5, 0x39, 0x78, 0xbc, 0xbe, 0xfa, 0xff, 0xff, 0x00, 0x00, 0x00, 0x09,
  0x10, 0x00, 0x00, 0x00, 0x06, 0x00, 0x00, 0x00, 0x14, 0x00, 0x00, 0x00,
  0x34, 0x00, 0x00, 0x00, 0x02, 0x00, 0x00, 0x00, 0x02, 0x00, 0x00, 0x00,
  0x0a, 0x00, 0x00, 0x00, 0x1c, 0x00, 0x00, 0x00, 0x73, 0x65, 0x71, 0x75,
  0x65, 0x6e, 0x74, 0x69, 0x61, 0x6c, 0x5f, 0x32, 0x2f, 0x64, 0x65, 0x6e,
  0x73, 0x65, 0x5f, 0x31, 0x34, 0x2f, 0x4d, 0x61, 0x74, 0x4d, 0x75, 0x6c,
  0x00, 0x00, 0x00, 0x00, 0x1c, 0xfa, 0xff, 0xff, 0x08, 0x00, 0x00, 0x00,
  0x0c, 0x00, 0x00, 0x00, 0x01, 0x00, 0x00, 0x00, 0x4d, 0x77, 0xc5, 0x3b,
  0x01, 0x00, 0x00, 0x00, 0x00, 0x00, 0x00, 0x00, 0x00, 0x00, 0x00, 0x00,
  0xfa, 0xfc, 0xff, 0xff, 0x04, 0x00, 0x00, 0x00, 0x28, 0x00, 0x00, 0x00,
  0xe9, 0xfe, 0xff, 0xff, 0x44, 0x06, 0x00, 0x00, 0x00, 0x00, 0x00, 0x00,
  0x93, 0x00, 0x00, 0x00, 0x00, 0x00, 0x00, 0x00, 0x15, 0x05, 0x00, 0x00,
  0x00, 0x00, 0x00, 0x00, 0x8d, 0x03, 0x00, 0x00, 0x3c, 0x05, 0x00, 0x00,
  0xb4, 0x03, 0x00, 0x00, 0x5a, 0xfb, 0xff, 0xff, 0x00, 0x00, 0x00, 0x02,
  0x10, 0x00, 0x00, 0x00, 0x05, 0x00, 0x00, 0x00, 0x10, 0x00, 0x00, 0x00,
  0x20, 0x00, 0x00, 0x00, 0x01, 0x00, 0x00, 0x00, 0x0a, 0x00, 0x00, 0x00,
  0x0d, 0x00, 0x00, 0x00, 0x64, 0x65, 0x6e, 0x73, 0x65, 0x5f, 0x31, 0x33,
  0x2f, 0x62, 0x69, 0x61, 0x73, 0x00, 0x00, 0x00, 0xa4, 0xfa, 0xff, 0xff,
  0x08, 0x00, 0x00, 0x00, 0x0c, 0x00, 0x00, 0x00, 0x01, 0x00, 0x00, 0x00,
  0x12, 0x09, 0x45, 0x38, 0x01, 0x00, 0x00, 0x00, 0x00, 0x00, 0x00, 0x00,
  0x00, 0x00, 0x00, 0x00, 0x82, 0xfd, 0xff, 0xff, 0x04, 0x00, 0x00, 0x00,
  0x2c, 0x01, 0x00, 0x00, 0x04, 0xfe, 0x04, 0x09, 0xef, 0x06, 0xfa, 0xf9,
  0xf9, 0x33, 0x2b, 0xd9, 0x05, 0x28, 0x24, 0x1e, 0x13, 0x17, 0xcf, 0xe7,
  0xf2, 0x08, 0xc7, 0x16, 0x08, 0xe4, 0xd6, 0xc8, 0xf9, 0xc5, 0x0e, 0xee,
  0x3f, 0x13, 0xd7, 0xf5, 0xb9, 0x0f, 0x0f, 0x11, 0x29, 0x0a, 0x00, 0xd7,
  0x2b, 0x0a, 0xd8, 0xe7, 0xdb, 0x22, 0xf1, 0x2e, 0x4a, 0xd0, 0xed, 0x41,
  0x18, 0x95, 0x41, 0xf9, 0xd6, 0x2c, 0xe3, 0xd6, 0x16, 0x00, 0x18, 0xf1,
  0x1f, 0xf8, 0x1b, 0xda, 0x36, 0x25, 0xce, 0xe8, 0x06, 0x24, 0x07, 0xc8,
  0xf2, 0xcd, 0x1a, 0xcb, 0x2e, 0x19, 0xd1, 0x03, 0xeb, 0xc9, 0xfc, 0x1f,
  0xd9, 0x07, 0x0a, 0x00, 0x47, 0xe6, 0xd0, 0x2b, 0x0a, 0xfc, 0xdd, 0x2e,
  0xf4, 0xc8, 0x22, 0x38, 0x1c, 0x02, 0xf2, 0xf8, 0x0b, 0x25, 0x08, 0xf5,
  0xef, 0x59, 0xdd, 0x1a, 0xf1, 0xe1, 0xcf, 0xc7, 0x2e, 0xe3, 0xd8, 0xda,
  0x08, 0x18, 0x3a, 0x33, 0xde, 0xd1, 0x3a, 0xe0, 0xd4, 0xd3, 0x09, 0x2d,
  0xf1, 0xe4, 0x0d, 0x0f, 0x0e, 0xc9, 0x2c, 0x08, 0xe1, 0xda, 0x19, 0x3e,
  0x10, 0xf5, 0x18, 0x09, 0x5f, 0xd1, 0xd9, 0x08, 0x38, 0xd1, 0x0c, 0xd1,
  0x2c, 0xfe, 0xda, 0xcc, 0xe3, 0x11, 0xd8, 0x2e, 0xd6, 0xf5, 0xd4, 0x16,
  0x59, 0x31, 0xfb, 0xdc, 0xe1, 0xf3, 0xed, 0x1c, 0xde, 0xda, 0x24, 0xf0,
  0xc6, 0xf8, 0xde, 0xd5, 0x29, 0xe5, 0xe0, 0x28, 0x17, 0x28, 0xed, 0x0f,
  0xca, 0xe5, 0xf9, 0xcc, 0xcb, 0xdf, 0xfb, 0x30, 0xf7, 0xc7, 0x06, 0xee,
  0x26, 0xd6, 0xf7, 0x3c, 0x0b, 0xc8, 0x55, 0xca, 0xda, 0x07, 0xdb, 0xf5,
  0xf5, 0xa4, 0x1c, 0x0c, 0x3e, 0x0e, 0xfe, 0x38, 0x43, 0x34, 0xcc, 0x28,
  0xf6, 0x13, 0xf7, 0x0d, 0xe2, 0x2a, 0x1c, 0x3a, 0xe4, 0xce, 0x4e, 0xe9,
  0xca, 0x3b, 0x51, 0xe9, 0xf0, 0xd8, 0x17, 0xeb, 0xf3, 0xe7, 0x17, 0x12,
  0x20, 0xf1, 0x38, 0xee, 0xcd, 0xfd, 0x4d, 0x11, 0x3d, 0x1c, 0x7d, 0x4a,
  0x2a, 0x08, 0xdb, 0x25, 0x87, 0x7f, 0x3c, 0x2d, 0xe2, 0x13, 0xda, 0xf3,
  0xe0, 0x38, 0xa4, 0x0c, 0x27, 0xe8, 0x20, 0xce, 0x25, 0xee, 0x05, 0xf2,
  0x14, 0x96, 0x39, 0xed, 0xe6, 0xfc, 0xff, 0xff, 0x00, 0x00, 0x00, 0x09,
  0x10, 0x00, 0x00, 0x00, 0x04, 0x00, 0x00, 0x00, 0x14, 0x00, 0x00, 0x00,
  0x34, 0x00, 0x00, 0x00, 0x02, 0x00, 0x00, 0x00, 0x0a, 0x00, 0x00, 0x00,
  0x1e, 0x00, 0x00, 0x00, 0x1c, 0x00, 0x00, 0x00, 0x73, 0x65, 0x71, 0x75,
  0x65, 0x6e, 0x74, 0x69, 0x61, 0x6c, 0x5f, 0x32, 0x2f, 0x64, 0x65, 0x6e,
  0x73, 0x65, 0x5f, 0x31, 0x33, 0x2f, 0x4d, 0x61, 0x74, 0x4d, 0x75, 0x6c,
  0x00, 0x00, 0x00, 0x00, 0x44, 0xfc, 0xff, 0xff, 0x08, 0x00, 0x00, 0x00,
  0x0c, 0x00, 0x00, 0x00, 0x01, 0x00, 0x00, 0x00, 0x5e, 0x28, 0xd8, 0x3b,
  0x01, 0x00, 0x00, 0x00, 0x00, 0x00, 0x00, 0x00, 0x00, 0x00, 0x00, 0x00,
  0x22, 0xff, 0xff, 0xff, 0x04, 0x00, 0x00, 0x00, 0x78, 0x00, 0x00, 0x00,
  0x25, 0x00, 0x00, 0x00, 0xcc, 0x0f, 0x00, 0x00, 0xf8, 0x0c, 0x00, 0x00,
  0xf8, 0x09, 0x00, 0x00, 0xbc, 0xf9, 0xff, 0xff, 0xd0, 0xf9, 0xff, 0xff,
  0xa7, 0x12, 0x00, 0x00, 0x71, 0x08, 0x00, 0x00, 0x62, 0xfd, 0xff, 0xff,
  0x30, 0x0c, 0x00, 0x00, 0x00, 0x10, 0x00, 0x00, 0xd7, 0xf1, 0xff, 0xff,
  0x86, 0xfb, 0xff, 0xff, 0x5e, 0xf9, 0xff, 0xff, 0xd7, 0x0a, 0x00, 0x00,
  0xd2, 0xf3, 0xff, 0xff, 0x9f, 0x10, 0x00, 0x00, 0x00, 0x00, 0x00, 0x00,
  0xf6, 0x09, 0x00, 0x00, 0xb1, 0x0b, 0x00, 0x00, 0x00, 0x00, 0x00, 0x00,
  0x00, 0x00, 0x00, 0x00, 0x9a, 0x0a, 0x00, 0x00, 0xa2, 0x03, 0x00, 0x00,
  0x00, 0x00, 0x00, 0x00, 0x31, 0x08, 0x00, 0x00, 0x06, 0x07, 0x00, 0x00,
  0xa3, 0x13, 0x00, 0x00, 0x28, 0x0b, 0x00, 0x00, 0x38, 0x02, 0x00, 0x00,
  0xd2, 0xfd, 0xff, 0xff, 0x00, 0x00, 0x00, 0x02, 0x10, 0x00, 0x00, 0x00,
  0x03, 0x00, 0x00, 0x00, 0x10, 0x00, 0x00, 0x00, 0x20, 0x00, 0x00, 0x00,
  0x01, 0x00, 0x00, 0x00, 0x1e, 0x00, 0x00, 0x00, 0x0d, 0x00, 0x00, 0x00,
  0x64, 0x65, 0x6e, 0x73, 0x65, 0x5f, 0x31, 0x32, 0x2f, 0x62, 0x69, 0x61,
  0x73, 0x00, 0x00, 0x00, 0x1c, 0xfd, 0xff, 0xff, 0x08, 0x00, 0x00, 0x00,
  0x0c, 0x00, 0x00, 0x00, 0x01, 0x00, 0x00, 0x00, 0xf9, 0x90, 0xc5, 0x37,
  0x01, 0x00, 0x00, 0x00, 0x00, 0x00, 0x00, 0x00, 0x00, 0x00, 0x00, 0x00,
  0x00, 0x00, 0x00, 0x00, 0x00, 0x00, 0x06, 0x00, 0x08, 0x00, 0x04, 0x00,
  0x06, 0x00, 0x00, 0x00, 0x04, 0x00, 0x00, 0x00, 0xc2, 0x01, 0x00, 0x00,
  0x14, 0x1c, 0x2d, 0x23, 0xee, 0xdf, 0xc8, 0x4c, 0x19, 0x14, 0xf0, 0x0b,
  0x4f, 0x57, 0xe2, 0x1b, 0x4d, 0x23, 0x31, 0x1a, 0x1c, 0xd3, 0x26, 0x47,
  0x05, 0x24, 0x4e, 0x41, 0xfc, 0xf3, 0x28, 0x4f, 0x2d, 0x0f, 0x0f, 0x1d,
  0xb6, 0xd0, 0x1c, 0xd7, 0x35, 0x10, 0x5a, 0xd7, 0x1a, 0x0d, 0x4b, 0x41,
  0x0f, 0x3a, 0x06, 0x3c, 0x47, 0x09, 0x17, 0x3f, 0x2c, 0xf0, 0x30, 0x25,
  0x0d, 0xed, 0xf4, 0xc0, 0xcc, 0xc0, 0x12, 0x0c, 0xbf, 0x00, 0x1c, 0xe0,
  0x3b, 0x1e, 0x20, 0x67, 0x55, 0x0d, 0xee, 0xff, 0xf8, 0xf6, 0xfe, 0x13,
  0x2f, 0xf0, 0x09, 0xb3, 0x13, 0x44, 0xb3, 0xd1, 0x11, 0x2b, 0xb6, 0xd7,
  0x39, 0xb8, 0x4e, 0x4a, 0x07, 0x6a, 0x0a, 0xcb, 0x28, 0xe4, 0x36, 0xc0,
  0xcc, 0x43, 0xe1, 0xda, 0x7f, 0x35, 0x05, 0xe9, 0x1f, 0x13, 0x4d, 0x61,
  0x21, 0x10, 0x21, 0x2f, 0x3f, 0x0c, 0x1a, 0xdf, 0x26, 0xdc, 0xc1, 0x14,
  0xea, 0x1e, 0x4b, 0x03, 0x3d, 0xeb, 0x33, 0xfd, 0xe5, 0xeb, 0x42, 0x22,
  0x0a, 0x1d, 0x22, 0x0d, 0x44, 0xe0, 0xaa, 0xfe, 0x0d, 0xf7, 0xd7, 0xd3,
  0x0e, 0xc6, 0x38, 0x3c, 0x51, 0x07, 0x27, 0xf3, 0x36, 0xfc, 0x30, 0xec,
  0x1c, 0x19, 0xe6, 0x22, 0xfc, 0xe0, 0xe5, 0x1f, 0x1a, 0xae, 0xdd, 0xdd,
  0xd8, 0xc0, 0xcf, 0xff, 0x15, 0xdb, 0x10, 0xb9, 0x38, 0xcf, 0x16, 0x20,
  0xf2, 0x37, 0xfa, 0xdd, 0x0f, 0x28, 0xcb, 0xee, 0x32, 0x2a, 0x3e, 0x21,
  0x15, 0x2f, 0xd8, 0xee, 0xdb, 0x2d, 0xfa, 0x12, 0x17, 0xef, 0x1c, 0xd7,
  0xf8, 0xba, 0x3d, 0x12, 0x4c, 0x0c, 0x08, 0x27, 0x25, 0xc1, 0x2d, 0x01,
  0x10, 0xc4, 0xfb, 0xc5, 0xd2, 0x13, 0x20, 0xf8, 0xd2, 0x32, 0x0d, 0x14,
  0x64, 0xbf, 0x05, 0x1c, 0xfa, 0xc7, 0x06, 0x02, 0xea, 0x16, 0x0f, 0x6a,
  0xf0, 0xe8, 0xfb, 0xc2, 0x41, 0xf0, 0xde, 0xef, 0xd9, 0x32, 0xdc, 0xd3,
  0xc5, 0xf9, 0xef, 0x24, 0x16, 0xf9, 0x5a, 0x26, 0x46, 0x47, 0xc8, 0x39,
  0x2e, 0x24, 0x44, 0x10, 0x05, 0xf6, 0xd3, 0x02, 0x08, 0x1e, 0x19, 0x34,
  0xf5, 0xf4, 0xfc, 0xf2, 0xff, 0x2a, 0x33, 0xce, 0x23, 0xd7, 0x1e, 0x0d,
  0xf2, 0x0c, 0xc9, 0xc7, 0xfa, 0x06, 0xf9, 0xe1, 0xdb, 0x28, 0x47, 0x11,
  0xf2, 0xcd, 0xec, 0x26, 0x1d, 0xc8, 0xd8, 0xcf, 0xcf, 0xfd, 0xd0, 0xe5,
  0xfe, 0xc3, 0xe8, 0xea, 0x42, 0xf6, 0xf5, 0xfc, 0xfa, 0x4e, 0x4e, 0x2f,
  0x23, 0x02, 0x3e, 0x4c, 0xe5, 0xe1, 0x25, 0xed, 0x07, 0x12, 0xe2, 0x50,
  0x20, 0x1f, 0x11, 0x11, 0xff, 0x0a, 0xce, 0x26, 0xfd, 0xdb, 0xbb, 0x25,
  0xfb, 0x16, 0xff, 0xce, 0xc7, 0xe3, 0xf0, 0x32, 0xbf, 0xec, 0xfb, 0xfd,
  0x0b, 0xd9, 0x2f, 0xb8, 0x4f, 0x32, 0x2f, 0x16, 0x14, 0xb9, 0xfb, 0xe2,
  0x61, 0xe9, 0x40, 0x03, 0x17, 0x4a, 0xe2, 0xfe, 0x19, 0xf0, 0x29, 0xf4,
  0xda, 0xa7, 0xd8, 0x4c, 0xdc, 0x54, 0x66, 0x0a, 0x31, 0xea, 0xce, 0x31,
  0xcc, 0xe1, 0x18, 0x7a, 0xb7, 0x21, 0x57, 0x25, 0x34, 0xd5, 0xb2, 0x4b,
  0xba, 0xf7, 0x22, 0x16, 0x43, 0x4b, 0x1f, 0xf0, 0xe2, 0x4b, 0x28, 0xff,
  0x3f, 0x1b, 0x1b, 0x14, 0x35, 0xe7, 0x01, 0xf5, 0xf8, 0x04, 0xfb, 0x0b,
  0xe4, 0x32, 0x4a, 0xda, 0xbf, 0x07, 0x0e, 0x00, 0x18, 0x00, 0x08, 0x00,
  0x07, 0x00, 0x0c, 0x00, 0x10, 0x00, 0x14, 0x00, 0x0e, 0x00, 0x00, 0x00,
  0x00, 0x00, 0x00, 0x09, 0x10, 0x00, 0x00, 0x00, 0x02, 0x00, 0x00, 0x00,
  0x14, 0x00, 0x00, 0x00, 0x34, 0x00, 0x00, 0x00, 0x02, 0x00, 0x00, 0x00,
  0x1e, 0x00, 0x00, 0x00, 0x0f, 0x00, 0x00, 0x00, 0x1c, 0x00, 0x00, 0x00,
  0x73, 0x65, 0x71, 0x75, 0x65, 0x6e, 0x74, 0x69, 0x61, 0x6c, 0x5f, 0x32,
  0x2f, 0x64, 0x65, 0x6e, 0x73, 0x65, 0x5f, 0x31, 0x32, 0x2f, 0x4d, 0x61,
  0x74, 0x4d, 0x75, 0x6c, 0x00, 0x00, 0x00, 0x00, 0x6c, 0xff, 0xff, 0xff,
  0x08, 0x00, 0x00, 0x00, 0x0c, 0x00, 0x00, 0x00, 0x01, 0x00, 0x00, 0x00,
  0xfa, 0xd3, 0xa7, 0x3b, 0x01, 0x00, 0x00, 0x00, 0x00, 0x00, 0x00, 0x00,
  0x00, 0x00, 0x00, 0x00, 0x00, 0x00, 0x00, 0x00, 0x14, 0x00, 0x1c, 0x00,
  0x08, 0x00, 0x07, 0x00, 0x0c, 0x00, 0x10, 0x00, 0x14, 0x00, 0x00, 0x00,
  0x00, 0x00, 0x18, 0x00, 0x14, 0x00, 0x00, 0x00, 0x00, 0x00, 0x00, 0x09,
  0x14, 0x00, 0x00, 0x00, 0x01, 0x00, 0x00, 0x00, 0x18, 0x00, 0x00, 0x00,
  0x54, 0x00, 0x00, 0x00, 0x38, 0x00, 0x00, 0x00, 0x02, 0x00, 0x00, 0x00,
  0x01, 0x00, 0x00, 0x00, 0x0f, 0x00, 0x00, 0x00, 0x20, 0x00, 0x00, 0x00,
  0x73, 0x65, 0x72, 0x76, 0x69, 0x6e, 0x67, 0x5f, 0x64, 0x65, 0x66, 0x61,
  0x75, 0x6c, 0x74, 0x5f, 0x64, 0x65, 0x6e, 0x73, 0x65, 0x5f, 0x31, 0x32,
  0x5f, 0x69, 0x6e, 0x70, 0x75, 0x74, 0x3a, 0x30, 0x00, 0x00, 0x00, 0x00,
  0x02, 0x00, 0x00, 0x00, 0xff, 0xff, 0xff, 0xff, 0x0f, 0x00, 0x00, 0x00,
  0x0c, 0x00, 0x0c, 0x00, 0x00, 0x00, 0x00, 0x00, 0x04, 0x00, 0x08, 0x00,
  0x0c, 0x00, 0x00, 0x00, 0x08, 0x00, 0x00, 0x00, 0x0c, 0x00, 0x00, 0x00,
  0x01, 0x00, 0x00, 0x00, 0x52, 0xae, 0x96, 0x3b, 0x01, 0x00, 0x00, 0x00,
  0xb3, 0xff, 0xff, 0xff, 0xff, 0xff, 0xff, 0xff, 0x04, 0x00, 0x04, 0x00,
  0x04, 0x00, 0x00, 0x00
};
const int g_model_len = 5536;
