alignas(8) const unsigned char g_model[] = {
  0x20, 0x00, 0x00, 0x00, 0x54, 0x46, 0x4c, 0x33, 0x00, 0x00, 0x00, 0x00,
  0x14, 0x00, 0x20, 0x00, 0x04, 0x00, 0x08, 0x00, 0x0c, 0x00, 0x10, 0x00,
  0x14, 0x00, 0x00, 0x00, 0x18, 0x00, 0x1c, 0x00, 0x14, 0x00, 0x00, 0x00,
  0x03, 0x00, 0x00, 0x00, 0x18, 0x00, 0x00, 0x00, 0x20, 0x00, 0x00, 0x00,
  0x58, 0x01, 0x00, 0x00, 0x20, 0x00, 0x00, 0x00, 0x00, 0x01, 0x00, 0x00,
  0x74, 0x00, 0x00, 0x00, 0x02, 0x00, 0x00, 0x00, 0x54, 0x07, 0x00, 0x00,
  0xe0, 0x02, 0x00, 0x00, 0x01, 0x00, 0x00, 0x00, 0x5c, 0x01, 0x00, 0x00,
  0x16, 0x00, 0x00, 0x00, 0x84, 0x16, 0x00, 0x00, 0x80, 0x16, 0x00, 0x00,
  0xfc, 0x12, 0x00, 0x00, 0x14, 0x12, 0x00, 0x00, 0x70, 0x10, 0x00, 0x00,
  0xe4, 0x0f, 0x00, 0x00, 0x58, 0x0f, 0x00, 0x00, 0xec, 0x0e, 0x00, 0x00,
  0x60, 0x0e, 0x00, 0x00, 0xd4, 0x0d, 0x00, 0x00, 0x30, 0x0c, 0x00, 0x00,
  0x54, 0x0b, 0x00, 0x00, 0x84, 0x08, 0x00, 0x00, 0xcc, 0x07, 0x00, 0x00,
  0x4c, 0x16, 0x00, 0x00, 0x48, 0x16, 0x00, 0x00, 0x44, 0x16, 0x00, 0x00,
  0x40, 0x16, 0x00, 0x00, 0x3c, 0x16, 0x00, 0x00, 0x38, 0x16, 0x00, 0x00,
  0x34, 0x16, 0x00, 0x00, 0xc0, 0x00, 0x00, 0x00, 0x01, 0x00, 0x00, 0x00,
  0x10, 0x00, 0x00, 0x00, 0x00, 0x00, 0x0a, 0x00, 0x10, 0x00, 0x0c, 0x00,
  0x08, 0x00, 0x04, 0x00, 0x0a, 0x00, 0x00, 0x00, 0x0c, 0x00, 0x00, 0x00,
  0x1c, 0x00, 0x00, 0x00, 0x20, 0x00, 0x00, 0x00, 0x0f, 0x00, 0x00, 0x00,
  0x73, 0x65, 0x72, 0x76, 0x69, 0x6e, 0x67, 0x5f, 0x64, 0x65, 0x66, 0x61,
  0x75, 0x6c, 0x74, 0x00, 0x01, 0x00, 0x00, 0x00, 0x14, 0x00, 0x00, 0x00,
  0x01, 0x00, 0x00, 0x00, 0x28, 0x00, 0x00, 0x00, 0x08, 0x00, 0x0c, 0x00,
  0x08, 0x00, 0x04, 0x00, 0x08, 0x00, 0x00, 0x00, 0x13, 0x00, 0x00, 0x00,
  0x04, 0x00, 0x00, 0x00, 0x08, 0x00, 0x00, 0x00, 0x64, 0x65, 0x6e, 0x73,
  0x65, 0x5f, 0x32, 0x33, 0x00, 0x00, 0x00, 0x00, 0xc6, 0xed, 0xff, 0xff,
  0x04, 0x00, 0x00, 0x00, 0x0e, 0x00, 0x00, 0x00, 0x64, 0x65, 0x6e, 0x73,
  0x65, 0x5f, 0x31, 0x38, 0x5f, 0x69, 0x6e, 0x70, 0x75, 0x74, 0x00, 0x00,
  0x01, 0x00, 0x00, 0x00, 0x0c, 0x00, 0x00, 0x00, 0x08, 0x00, 0x0c, 0x00,
  0x04, 0x00, 0x08, 0x00, 0x08, 0x00, 0x00, 0x00, 0x08, 0x00, 0x00, 0x00,
  0x15, 0x00, 0x00, 0x00, 0x13, 0x00, 0x00, 0x00, 0x6d, 0x69, 0x6e, 0x5f,
  0x72, 0x75, 0x6e, 0x74, 0x69, 0x6d, 0x65, 0x5f, 0x76, 0x65, 0x72, 0x73,
  0x69, 0x6f, 0x6e, 0x00, 0x16, 0xee, 0xff, 0xff, 0x04, 0x00, 0x00, 0x00,
  0x10, 0x00, 0x00, 0x00, 0x31, 0x2e, 0x31, 0x34, 0x2e, 0x30, 0x00, 0x00,
  0x00, 0x00, 0x00, 0x00, 0x00, 0x00, 0x00, 0x00, 0x0f, 0x00, 0x00, 0x00,
  0x4d, 0x4c, 0x49, 0x52, 0x20, 0x43, 0x6f, 0x6e, 0x76, 0x65, 0x72, 0x74,
  0x65, 0x64, 0x2e, 0x00, 0x00, 0x00, 0x0e, 0x00, 0x18, 0x00, 0x04, 0x00,
  0x08, 0x00, 0x0c, 0x00, 0x10, 0x00, 0x14, 0x00, 0x0e, 0x00, 0x00, 0x00,
  0x14, 0x00, 0x00, 0x00, 0x64, 0x00, 0x00, 0x00, 0x68, 0x00, 0x00, 0x00,
  0x6c, 0x00, 0x00, 0x00, 0x88, 0x00, 0x00, 0x00, 0x14, 0x00, 0x00, 0x00,
  0x88, 0x14, 0x00, 0x00, 0x04, 0x14, 0x00, 0x00, 0x2c, 0x11, 0x00, 0x00,
  0x3c, 0x10, 0x00, 0x00, 0xac, 0x0e, 0x00, 0x00, 0x0c, 0x0e, 0x00, 0x00,
  0x94, 0x0d, 0x00, 0x00, 0x14, 0x0d, 0x00, 0x00, 0x9c, 0x0c, 0x00, 0x00,
  0xfc, 0x0b, 0x00, 0x00, 0x6c, 0x0a, 0x00, 0x00, 0x7c, 0x09, 0x00, 0x00,
  0xbc, 0x06, 0x00, 0x00, 0xac, 0x05, 0x00, 0x00, 0x90, 0x04, 0x00, 0x00,
  0x94, 0x03, 0x00, 0x00, 0xa8, 0x02, 0x00, 0x00, 0xd8, 0x01, 0x00, 0x00,
  0x28, 0x01, 0x00, 0x00, 0x70, 0x00, 0x00, 0x00, 0x01, 0x00, 0x00, 0x00,
  0x00, 0x00, 0x00, 0x00, 0x01, 0x00, 0x00, 0x00, 0x13, 0x00, 0x00, 0x00,
  0x07, 0x00, 0x00, 0x00, 0x24, 0x05, 0x00, 0x00, 0x2c, 0x04, 0x00, 0x00,
  0x30, 0x03, 0x00, 0x00, 0x44, 0x02, 0x00, 0x00, 0x78, 0x01, 0x00, 0x00,
  0xc8, 0x00, 0x00, 0x00, 0x10, 0x00, 0x00, 0x00, 0x04, 0x00, 0x00, 0x00,
  0x6d, 0x61, 0x69, 0x6e, 0x00, 0x00, 0x00, 0x00, 0x06, 0xfc, 0xff, 0xff,
  0x00, 0x00, 0x00, 0x08, 0x18, 0x00, 0x00, 0x00, 0x0c, 0x00, 0x00, 0x00,
  0x04, 0x00, 0x00, 0x00, 0x90, 0xeb, 0xff, 0xff, 0x01, 0x00, 0x00, 0x00,
  0x13, 0x00, 0x00, 0x00, 0x03, 0x00, 0x00, 0x00, 0x12, 0x00, 0x00, 0x00,
  0x0b, 0x00, 0x00, 0x00, 0x0c, 0x00, 0x00, 0x00, 0x48, 0xec, 0xff, 0xff,
  0x00, 0x00, 0x00, 0x09, 0x14, 0x00, 0x00, 0x00, 0x14, 0x00, 0x00, 0x00,
  0x18, 0x00, 0x00, 0x00, 0x40, 0x00, 0x00, 0x00, 0x30, 0x00, 0x00, 0x00,
  0x02, 0x00, 0x00, 0x00, 0x01, 0x00, 0x00, 0x00, 0x14, 0x00, 0x00, 0x00,
  0x19, 0x00, 0x00, 0x00, 0x53, 0x74, 0x61, 0x74, 0x65, 0x66, 0x75, 0x6c,
  0x50, 0x61, 0x72, 0x74, 0x69, 0x74, 0x69, 0x6f, 0x6e, 0x65, 0x64, 0x43,
  0x61, 0x6c, 0x6c, 0x3a, 0x30, 0x00, 0x00, 0x00, 0x02, 0x00, 0x00, 0x00,
  0xff, 0xff, 0xff, 0xff, 0x14, 0x00, 0x00, 0x00, 0x2c, 0xec, 0xff, 0xff,
  0x08, 0x00, 0x00, 0x00, 0x0c, 0x00, 0x00, 0x00, 0x01, 0x00, 0x00, 0x00,
  0x07, 0x13, 0x58, 0x3b, 0x01, 0x00, 0x00, 0x00, 0xaf, 0xff, 0xff, 0xff,
  0xff, 0xff, 0xff, 0xff, 0x00, 0x00, 0x00, 0x00, 0x00, 0x00, 0x0a, 0x00,
  0x10, 0x00, 0x04, 0x00, 0x08, 0x00, 0x0c, 0x00, 0x0a, 0x00, 0x00, 0x00,
  0x01, 0x00, 0x00, 0x00, 0x10, 0x00, 0x00, 0x00, 0x04, 0x00, 0x00, 0x00,
  0x01, 0x00, 0x00, 0x00, 0x12, 0x00, 0x00, 0x00, 0x01, 0x00, 0x00, 0x00,
  0x11, 0x00, 0x00, 0x00, 0x9c, 0xfb, 0xff, 0xff, 0x0e, 0x00, 0x00, 0x00,
  0x00, 0x00, 0x00, 0x0e, 0x02, 0x00, 0x00, 0x00, 0xfc, 0xec, 0xff, 0xff,
  0x00, 0x00, 0x00, 0x09, 0x14, 0x00, 0x00, 0x00, 0x13, 0x00, 0x00, 0x00,
  0x18, 0x00, 0x00, 0x00, 0x44, 0x00, 0x00, 0x00, 0x34, 0x00, 0x00, 0x00,
  0x02, 0x00, 0x00, 0x00, 0x01, 0x00, 0x00, 0x00, 0x1e, 0x00, 0x00, 0x00,
  0x1d, 0x00, 0x00, 0x00, 0x73, 0x65, 0x71, 0x75, 0x65, 0x6e, 0x74, 0x69,
  0x61, 0x6c, 0x5f, 0x33, 0x2f, 0x64, 0x65, 0x6e, 0x73, 0x65, 0x5f, 0x32,
  0x32, 0x2f, 0x53, 0x69, 0x67, 0x6d, 0x6f, 0x69, 0x64, 0x00, 0x00, 0x00,
  0x02, 0x00, 0x00, 0x00, 0xff, 0xff, 0xff, 0xff, 0x1e, 0x00, 0x00, 0x00,
  0xe4, 0xec, 0xff, 0xff, 0x08, 0x00, 0x00, 0x00, 0x0c, 0x00, 0x00, 0x00,
  0x01, 0x00, 0x00, 0x00, 0x00, 0x00, 0x80, 0x3b, 0x01, 0x00, 0x00, 0x00,
  0x80, 0xff, 0xff, 0xff, 0xff, 0xff, 0xff, 0xff, 0x00, 0x00, 0x00, 0x00,
  0x66, 0xfd, 0xff, 0xff, 0x00, 0x00, 0x00, 0x08, 0x18, 0x00, 0x00, 0x00,
  0x0c, 0x00, 0x00, 0x00, 0x04, 0x00, 0x00, 0x00, 0xf0, 0xec, 0xff, 0xff,
  0x01, 0x00, 0x00, 0x00, 0x11, 0x00, 0x00, 0x00, 0x03, 0x00, 0x00, 0x00,
  0x10, 0x00, 0x00, 0x00, 0x09, 0x00, 0x00, 0x00, 0x0a, 0x00, 0x00, 0x00,
  0xa8, 0xed, 0xff, 0xff, 0x00, 0x00, 0x00, 0x09, 0x14, 0x00, 0x00, 0x00,
  0x12, 0x00, 0x00, 0x00, 0x18, 0x00, 0x00, 0x00, 0x60, 0x00, 0x00, 0x00,
  0x50, 0x00, 0x00, 0x00, 0x02, 0x00, 0x00, 0x00, 0x01, 0x00, 0x00, 0x00,
  0x1e, 0x00, 0x00, 0x00, 0x3a, 0x00, 0x00, 0x00, 0x73, 0x65, 0x71, 0x75,
  0x65, 0x6e, 0x74, 0x69, 0x61, 0x6c, 0x5f, 0x33, 0x2f, 0x64, 0x65, 0x6e,
  0x73, 0x65, 0x5f, 0x32, 0x32, 0x2f, 0x4d, 0x61, 0x74, 0x4d, 0x75, 0x6c,
  0x3b, 0x73, 0x65, 0x71, 0x75, 0x65, 0x6e, 0x74, 0x69, 0x61, 0x6c, 0x5f,
  0x33, 0x2f, 0x64, 0x65, 0x6e, 0x73, 0x65, 0x5f, 0x32, 0x32, 0x2f, 0x42,
  0x69, 0x61, 0x73, 0x41, 0x64, 0x64, 0x00, 0x00, 0x02, 0x00, 0x00, 0x00,
  0xff, 0xff, 0xff, 0xff, 0x1e, 0x00, 0x00, 0x00, 0xac, 0xed, 0xff, 0xff,
  0x08, 0x00, 0x00, 0x00, 0x0c, 0x00, 0x00, 0x00, 0x01, 0x00, 0x00, 0x00,
  0xe5, 0xc9, 0x8b, 0x3c, 0x01, 0x00, 0x00, 0x00, 0x14, 0x00, 0x00, 0x00,
  0x00, 0x00, 0x00, 0x00, 0x00, 0x00, 0x00, 0x00, 0x2e, 0xfe, 0xff, 0xff,
  0x00, 0x00, 0x00, 0x08, 0x1c, 0x00, 0x00, 0x00, 0x10, 0x00, 0x00, 0x00,
  0x04, 0x00, 0x00, 0x00, 0x2a, 0xfd, 0xff, 0xff, 0x00, 0x00, 0x00, 0x01,
  0x01, 0x00, 0x00, 0x00, 0x10, 0x00, 0x00, 0x00, 0x03, 0x00, 0x00, 0x00,
  0x0f, 0x00, 0x00, 0x00, 0x07, 0x00, 0x00, 0x00, 0x08, 0x00, 0x00, 0x00,
  0x74, 0xee, 0xff, 0xff, 0x00, 0x00, 0x00, 0x09, 0x14, 0x00, 0x00, 0x00,
  0x11, 0x00, 0x00, 0x00, 0x18, 0x00, 0x00, 0x00, 0x7c, 0x00, 0x00, 0x00,
  0x6c, 0x00, 0x00, 0x00, 0x02, 0x00, 0x00, 0x00, 0x01, 0x00, 0x00, 0x00,
  0x0a, 0x00, 0x00, 0x00, 0x55, 0x00, 0x00, 0x00, 0x73, 0x65, 0x71, 0x75,
  0x65, 0x6e, 0x74, 0x69, 0x61, 0x6c, 0x5f, 0x33, 0x2f, 0x64, 0x65, 0x6e,
  0x73, 0x65, 0x5f, 0x32, 0x31, 0x2f, 0x4d, 0x61, 0x74, 0x4d, 0x75, 0x6c,
  0x3b, 0x73, 0x65, 0x71, 0x75, 0x65, 0x6e, 0x74, 0x69, 0x61, 0x6c, 0x5f,
  0x33, 0x2f, 0x64, 0x65, 0x6e, 0x73, 0x65, 0x5f, 0x32, 0x31, 0x2f, 0x52,
  0x65, 0x6c, 0x75, 0x3b, 0x73, 0x65, 0x71, 0x75, 0x65, 0x6e, 0x74, 0x69,
  0x61, 0x6c, 0x5f, 0x33, 0x2f, 0x64, 0x65, 0x6e, 0x73, 0x65, 0x5f, 0x32,
  0x31, 0x2f, 0x42, 0x69, 0x61, 0x73, 0x41, 0x64, 0x64, 0x00, 0x00, 0x00,
  0x02, 0x00, 0x00, 0x00, 0xff, 0xff, 0xff, 0xff, 0x0a, 0x00, 0x00, 0x00,
  0x94, 0xee, 0xff, 0xff, 0x08, 0x00, 0x00, 0x00, 0x0c, 0x00, 0x00, 0x00,
  0x01, 0x00, 0x00, 0x00, 0xa8, 0x05, 0xd4, 0x3b, 0x01, 0x00, 0x00, 0x00,
  0x80, 0xff, 0xff, 0xff, 0xff, 0xff, 0xff, 0xff, 0x00, 0x00, 0x00, 0x00,
  0x16, 0xff, 0xff, 0xff, 0x00, 0x00, 0x00, 0x08, 0x1c, 0x00, 0x00, 0x00,
  0x10, 0x00, 0x00, 0x00, 0x04, 0x00, 0x00, 0x00, 0x12, 0xfe, 0xff, 0xff,
  0x00, 0x00, 0x00, 0x01, 0x01, 0x00, 0x00, 0x00, 0x0f, 0x00, 0x00, 0x00,
  0x03, 0x00, 0x00, 0x00, 0x0e, 0x00, 0x00, 0x00, 0x05, 0x00, 0x00, 0x00,
  0x06, 0x00, 0x00, 0x00, 0x5c, 0xef, 0xff, 0xff, 0x00, 0x00, 0x00, 0x09,
  0x14, 0x00, 0x00, 0x00, 0x10, 0x00, 0x00, 0x00, 0x18, 0x00, 0x00, 0x00,
  0x7c, 0x00, 0x00, 0x00, 0x6c, 0x00, 0x00, 0x00, 0x02, 0x00, 0x00, 0x00,
  0x01, 0x00, 0x00, 0x00, 0x02, 0x00, 0x00, 0x00, 0x55, 0x00, 0x00, 0x00,
  0x73, 0x65, 0x71, 0x75, 0x65, 0x6e, 0x74, 0x69, 0x61, 0x6c, 0x5f, 0x33,
  0x2f, 0x64, 0x65, 0x6e, 0x73, 0x65, 0x5f, 0x32, 0x30, 0x2f, 0x4d, 0x61,
  0x74, 0x4d, 0x75, 0x6c, 0x3b, 0x73, 0x65, 0x71, 0x75, 0x65, 0x6e, 0x74,
  0x69, 0x61, 0x6c, 0x5f, 0x33, 0x2f, 0x64, 0x65, 0x6e, 0x73, 0x65, 0x5f,
  0x32, 0x30, 0x2f, 0x52, 0x65, 0x6c, 0x75, 0x3b, 0x73, 0x65, 0x71, 0x75,
  0x65, 0x6e, 0x74, 0x69, 0x61, 0x6c, 0x5f, 0x33, 0x2f, 0x64, 0x65, 0x6e,
  0x73, 0x65, 0x5f, 0x32, 0x30, 0x2f, 0x42, 0x69, 0x61, 0x73, 0x41, 0x64,
  0x64, 0x00, 0x00, 0x00, 0x02, 0x00, 0x00, 0x00, 0xff, 0xff, 0xff, 0xff,
  0x02, 0x00, 0x00, 0x00, 0x7c, 0xef, 0xff, 0xff, 0x08, 0x00, 0x00, 0x00,
  0x0c, 0x00, 0x00, 0x00, 0x01, 0x00, 0x00, 0x00, 0x2e, 0x47, 0xfb, 0x3b,
  0x01, 0x00, 0x00, 0x00, 0x80, 0xff, 0xff, 0xff, 0xff, 0xff, 0xff, 0xff,
  0x00, 0x00, 0x00, 0x00, 0x00, 0x00, 0x0e, 0x00, 0x14, 0x00, 0x00, 0x00,
  0x08, 0x00, 0x0c, 0x00, 0x07, 0x00, 0x10, 0x00, 0x0e, 0x00, 0x00, 0x00,
  0x00, 0x00, 0x00, 0x08, 0x1c, 0x00, 0x00, 0x00, 0x10, 0x00, 0x00, 0x00,
  0x04, 0x00, 0x00, 0x00, 0x0a, 0xff, 0xff, 0xff, 0x00, 0x00, 0x00, 0x01,
  0x01, 0x00, 0x00, 0x00, 0x0e, 0x00, 0x00, 0x00, 0x03, 0x00, 0x00, 0x00,
  0x0d, 0x00, 0x00, 0x00, 0x03, 0x00, 0x00, 0x00, 0x04, 0x00, 0x00, 0x00,
  0x54, 0xf0, 0xff, 0xff, 0x00, 0x00, 0x00, 0x09, 0x14, 0x00, 0x00, 0x00,
  0x0f, 0x00, 0x00, 0x00, 0x18, 0x00, 0x00, 0x00, 0x7c, 0x00, 0x00, 0x00,
  0x6c, 0x00, 0x00, 0x00, 0x02, 0x00, 0x00, 0x00, 0x01, 0x00, 0x00, 0x00,
  0x0a, 0x00, 0x00, 0x00, 0x55, 0x00, 0x00, 0x00, 0x73, 0x65, 0x71, 0x75,
  0x65, 0x6e, 0x74, 0x69, 0x61, 0x6c, 0x5f, 0x33, 0x2f, 0x64, 0x65, 0x6e,
  0x73, 0x65, 0x5f, 0x31, 0x39, 0x2f, 0x4d, 0x61, 0x74, 0x4d, 0x75, 0x6c,
  0x3b, 0x73, 0x65, 0x71, 0x75, 0x65, 0x6e, 0x74, 0x69, 0x61, 0x6c, 0x5f,
  0x33, 0x2f, 0x64, 0x65, 0x6e, 0x73, 0x65, 0x5f, 0x31, 0x39, 0x2f, 0x52,
  0x65, 0x6c, 0x75, 0x3b, 0x73, 0x65, 0x71, 0x75, 0x65, 0x6e, 0x74, 0x69,
  0x61, 0x6c, 0x5f, 0x33, 0x2f, 0x64, 0x65, 0x6e, 0x73, 0x65, 0x5f, 0x31,
  0x39, 0x2f, 0x42, 0x69, 0x61, 0x73, 0x41, 0x64, 0x64, 0x00, 0x00, 0x00,
  0x02, 0x00, 0x00, 0x00, 0xff, 0xff, 0xff, 0xff, 0x0a, 0x00, 0x00, 0x00,
  0x74, 0xf0, 0xff, 0xff, 0x08, 0x00, 0x00, 0x00, 0x0c, 0x00, 0x00, 0x00,
  0x01, 0x00, 0x00, 0x00, 0xec, 0x0d, 0x42, 0x3c, 0x01, 0x00, 0x00, 0x00,
  0x80, 0xff, 0xff, 0xff, 0xff, 0xff, 0xff, 0xff, 0x00, 0x00, 0x0e, 0x00,
  0x16, 0x00, 0x00, 0x00, 0x08, 0x00, 0x0c, 0x00, 0x07, 0x00, 0x10, 0x00,
  0x0e, 0x00, 0x00, 0x00, 0x00, 0x00, 0x00, 0x08, 0x24, 0x00, 0x00, 0x00,
  0x18, 0x00, 0x00, 0x00, 0x0c, 0x00, 0x00, 0x00, 0x00, 0x00, 0x06, 0x00,
  0x08, 0x00, 0x07, 0x00, 0x06, 0x00, 0x00, 0x00, 0x00, 0x00, 0x00, 0x01,
  0x01, 0x00, 0x00, 0x00, 0x0d, 0x00, 0x00, 0x00, 0x03, 0x00, 0x00, 0x00,
  0x00, 0x00, 0x00, 0x00, 0x01, 0x00, 0x00, 0x00, 0x02, 0x00, 0x00, 0x00,
  0x0c, 0x00, 0x10, 0x00, 0x0b, 0x00, 0x00, 0x00, 0x0c, 0x00, 0x04, 0x00,
  0x0c, 0x00, 0x00, 0x00, 0x09, 0x00, 0x00, 0x00, 0x00, 0x00, 0x00, 0x09,
  0x04, 0x00, 0x00, 0x00, 0x6c, 0xf1, 0xff, 0xff, 0x00, 0x00, 0x00, 0x09,
  0x14, 0x00, 0x00, 0x00, 0x0e, 0x00, 0x00, 0x00, 0x18, 0x00, 0x00, 0x00,
  0x7c, 0x00, 0x00, 0x00, 0x6c, 0x00, 0x00, 0x00, 0x02, 0x00, 0x00, 0x00,
  0x01, 0x00, 0x00, 0x00, 0x1e, 0x00, 0x00, 0x00, 0x55, 0x00, 0x00, 0x00,
  0x73, 0x65, 0x71, 0x75, 0x65, 0x6e, 0x74, 0x69, 0x61, 0x6c, 0x5f, 0x33,
  0x2f, 0x64, 0x65, 0x6e, 0x73, 0x65, 0x5f, 0x31, 0x38, 0x2f, 0x4d, 0x61,
  0x74, 0x4d, 0x75, 0x6c, 0x3b, 0x73, 0x65, 0x71, 0x75, 0x65, 0x6e, 0x74,
  0x69, 0x61, 0x6c, 0x5f, 0x33, 0x2f, 0x64, 0x65, 0x6e, 0x73, 0x65, 0x5f,
  0x31, 0x38, 0x2f, 0x52, 0x65, 0x6c, 0x75, 0x3b, 0x73, 0x65, 0x71, 0x75,
  0x65, 0x6e, 0x74, 0x69, 0x61, 0x6c, 0x5f, 0x33, 0x2f, 0x64, 0x65, 0x6e,
  0x73, 0x65, 0x5f, 0x31, 0x38, 0x2f, 0x42, 0x69, 0x61, 0x73, 0x41, 0x64,
  0x64, 0x00, 0x00, 0x00, 0x02, 0x00, 0x00, 0x00, 0xff, 0xff, 0xff, 0xff,
  0x1e, 0x00, 0x00, 0x00, 0x8c, 0xf1, 0xff, 0xff, 0x08, 0x00, 0x00, 0x00,
  0x0c, 0x00, 0x00, 0x00, 0x01, 0x00, 0x00, 0x00, 0xf0, 0x33, 0x14, 0x3c,
  0x01, 0x00, 0x00, 0x00, 0x80, 0xff, 0xff, 0xff, 0xff, 0xff, 0xff, 0xff,
  0x02, 0xf5, 0xff, 0xff, 0x04, 0x00, 0x00, 0x00, 0x50, 0x00, 0x00, 0x00,
  0x1f, 0x11, 0x00, 0x00, 0x8b, 0x0b, 0x00, 0x00, 0xd0, 0x02, 0x00, 0x00,
  0xb3, 0x07, 0x00, 0x00, 0xb5, 0x06, 0x00, 0x00, 0xdf, 0x0d, 0x00, 0x00,
  0xf8, 0x08, 0x00, 0x00, 0xf1, 0x03, 0x00, 0x00, 0x92, 0xf6, 0xff, 0xff,
  0x49, 0x06, 0x00, 0x00, 0x46, 0xf8, 0xff, 0xff, 0x8c, 0x15, 0x00, 0x00,
  0x92, 0x11, 0x00, 0x00, 0xbd, 0x0f, 0x00, 0x00, 0xf0, 0x0c, 0x00, 0x00,
  0x4f, 0x03, 0x00, 0x00, 0x14, 0x14, 0x00, 0x00, 0xff, 0x0d, 0x00, 0x00,
  0xe4, 0x16, 0x00, 0x00, 0x24, 0x14, 0x00, 0x00, 0xf2, 0xf2, 0xff, 0xff,
  0x00, 0x00, 0x00, 0x02, 0x10, 0x00, 0x00, 0x00, 0x0d, 0x00, 0x00, 0x00,
  0x10, 0x00, 0x00, 0x00, 0x20, 0x00, 0x00, 0x00, 0x01, 0x00, 0x00, 0x00,
  0x14, 0x00, 0x00, 0x00, 0x0d, 0x00, 0x00, 0x00, 0x64, 0x65, 0x6e, 0x73,
  0x65, 0x5f, 0x32, 0x33, 0x2f, 0x62, 0x69, 0x61, 0x73, 0x00, 0x00, 0x00,
  0x3c, 0xf2, 0xff, 0xff, 0x08, 0x00, 0x00, 0x00, 0x0c, 0x00, 0x00, 0x00,
  0x01, 0x00, 0x00, 0x00, 0x87, 0xcb, 0x54, 0x37, 0x01, 0x00, 0x00, 0x00,
  0x00, 0x00, 0x00, 0x00, 0x00, 0x00, 0x00, 0x00, 0x00, 0x00, 0x00, 0x00,
  0xb6, 0xf5, 0xff, 0xff, 0x04, 0x00, 0x00, 0x00, 0x58, 0x02, 0x00, 0x00,
  0xf4, 0xab, 0xd9, 0x6d, 0x63, 0xc1, 0x50, 0xfc, 0x48, 0xd3, 0xe2, 0xe7,
  0x17, 0x59, 0xb7, 0xb0, 0xa6, 0x09, 0x08, 0xfe, 0xda, 0xf8, 0x62, 0xd7,
  0x5b, 0xf0, 0x1e, 0xbc, 0x32, 0x78, 0x32, 0x11, 0xa8, 0xd8, 0xcd, 0xb0,
  0x32, 0x09, 0xa1, 0x49, 0x22, 0x2f, 0x3a, 0xb4, 0x6d, 0x71, 0x1f, 0xc8,
  0xea, 0x2f, 0x56, 0x11, 0xaf, 0xd5, 0x5f, 0xe3, 0x31, 0xcb, 0x62, 0x36,
  0xf6, 0x20, 0x67, 0xc7, 0xca, 0x26, 0x25, 0x33, 0x27, 0xbf, 0xc4, 0xcb,
  0xb2, 0x9f, 0x5f, 0x29, 0xd0, 0xf7, 0x52, 0x16, 0x50, 0x2a, 0x49, 0x06,
  0x5a, 0xeb, 0x21, 0xba, 0xf2, 0x49, 0x08, 0xf7, 0x40, 0xda, 0xf5, 0x45,
  0x08, 0x13, 0x01, 0xbf, 0x05, 0xad, 0xc8, 0xf0, 0x05, 0x14, 0x02, 0x11,
  0xbd, 0x5c, 0x5d, 0x44, 0x17, 0x48, 0xd5, 0xdb, 0x0b, 0x38, 0xa6, 0xe4,
  0xa2, 0xc7, 0x39, 0x0e, 0xeb, 0xa4, 0x36, 0xbf, 0x34, 0x3e, 0x35, 0x0b,
  0xb4, 0x26, 0x50, 0x5d, 0xa0, 0xee, 0x2b, 0x3b, 0x04, 0x58, 0xde, 0x53,
  0xd3, 0xc0, 0xab, 0xc3, 0x0a, 0x2f, 0x73, 0x06, 0x42, 0xb3, 0xef, 0x4d,
  0xaa, 0x6b, 0xbd, 0x6b, 0xa8, 0x72, 0xec, 0xea, 0x39, 0xb7, 0xe4, 0x1f,
  0x41, 0xc1, 0x29, 0x4a, 0xc1, 0x74, 0xf5, 0xe9, 0xf0, 0xc2, 0x21, 0x5c,
  0xe1, 0x0f, 0xb4, 0x3c, 0x6f, 0xff, 0x64, 0xca, 0xb1, 0xce, 0x44, 0xac,
  0x31, 0xd7, 0xb4, 0x34, 0x3e, 0x57, 0x12, 0x52, 0xd6, 0xa6, 0x33, 0xa2,
  0x10, 0xe7, 0x6e, 0xce, 0x5e, 0x15, 0x11, 0xd4, 0x15, 0x46, 0x46, 0x44,
  0xb6, 0xe1, 0xb8, 0x6a, 0xbf, 0x19, 0xe4, 0x1d, 0x2c, 0xa4, 0x6b, 0xb7,
  0x0d, 0x2c, 0x55, 0x42, 0x9c, 0x5f, 0xa9, 0xc4, 0x4d, 0x66, 0xad, 0x42,
  0xeb, 0xb3, 0x1e, 0x1c, 0xf7, 0xba, 0x48, 0x89, 0x81, 0x5c, 0x1a, 0xc9,
  0x0a, 0xde, 0x0f, 0x36, 0xf6, 0x3a, 0x2f, 0x44, 0xd9, 0xe2, 0xc3, 0x65,
  0x3f, 0xcf, 0xab, 0x93, 0xef, 0x5f, 0xf1, 0xa7, 0x14, 0xb1, 0x57, 0x0f,
  0xc0, 0xce, 0xe9, 0x1f, 0x3d, 0x00, 0xe3, 0x6b, 0xe3, 0xe8, 0xcb, 0x5e,
  0x65, 0x63, 0xbd, 0x2b, 0xf0, 0x24, 0xe1, 0xf1, 0xc2, 0x3d, 0xcc, 0x5c,
  0x25, 0xc1, 0xbc, 0x21, 0x3d, 0x58, 0x38, 0x00, 0xc9, 0x97, 0x27, 0x00,
  0x9d, 0x27, 0x0e, 0x3c, 0x23, 0xc3, 0x47, 0xfd, 0xe0, 0x96, 0x65, 0x4e,
  0x61, 0x1f, 0x0c, 0xf1, 0xce, 0x2c, 0x07, 0x5f, 0x74, 0x46, 0x15, 0x79,
  0x39, 0xb6, 0xe9, 0xb4, 0x12, 0x26, 0x10, 0xe9, 0xd4, 0x17, 0xa8, 0xd0,
  0xde, 0x4c, 0x7e, 0xb0, 0xb3, 0xb9, 0xe4, 0x6f, 0xaa, 0x65, 0xf2, 0xc3,
  0xb1, 0x3d, 0x29, 0xbb, 0x26, 0xa7, 0x58, 0x17, 0x4e, 0x42, 0x77, 0xf0,
  0x02, 0xae, 0xf0, 0x54, 0xd4, 0xfd, 0x69, 0xcd, 0xde, 0x25, 0xbe, 0x28,
  0x63, 0xe1, 0xaf, 0x1c, 0x3e, 0x19, 0x43, 0xad, 0xc6, 0x02, 0x04, 0xf9,
  0xaf, 0xbb, 0xf9, 0xe3, 0x72, 0x0f, 0xe4, 0x4b, 0x39, 0x4e, 0x08, 0x0f,
  0xf9, 0xb0, 0xaf, 0x6c, 0x62, 0x3e, 0x54, 0x26, 0xf7, 0xf6, 0x12, 0x4a,
  0x4a, 0x4e, 0x0f, 0x4d, 0xd9, 0x0d, 0xe0, 0x23, 0xf8, 0xd8, 0x03, 0xcd,
  0xb6, 0x65, 0xde, 0x17, 0xf6, 0xbc, 0x3e, 0xf1, 0xd3, 0x42, 0x69, 0x1a,
  0x0f, 0x15, 0xeb, 0xe2, 0x46, 0x56, 0x44, 0xea, 0x47, 0xc2, 0x2d, 0x97,
  0x1f, 0x07, 0x1f, 0x52, 0xcd, 0x22, 0x10, 0xd0, 0x33, 0x4d, 0xc7, 0x69,
  0x1f, 0xf9, 0xe3, 0x14, 0x23, 0x00, 0xab, 0xf9, 0x5e, 0x2e, 0xab, 0x5e,
  0xe5, 0xe0, 0xe1, 0x44, 0xa9, 0xb2, 0x1f, 0xf8, 0xe9, 0x71, 0x1f, 0xbc,
  0xbc, 0x60, 0xb3, 0x3c, 0x07, 0x4a, 0xd6, 0x46, 0x4d, 0xc8, 0x74, 0x1c,
  0xcf, 0xad, 0xb6, 0xb7, 0xbb, 0x21, 0xdf, 0x66, 0xda, 0xdb, 0x05, 0xdb,
  0x76, 0x5f, 0x54, 0x4d, 0xcb, 0xb9, 0x0f, 0x27, 0x30, 0xd3, 0xa8, 0x4c,
  0x3b, 0x61, 0xdb, 0x00, 0xe6, 0x1f, 0x03, 0xb6, 0xa1, 0x36, 0xc9, 0xd0,
  0x6a, 0x47, 0xca, 0xca, 0x0f, 0xc7, 0xc8, 0x36, 0xa8, 0xca, 0xde, 0xc2,
  0x58, 0xb3, 0xe4, 0x31, 0x61, 0x5f, 0x56, 0xf2, 0x37, 0x0b, 0x0c, 0x77,
  0x6e, 0xab, 0x2c, 0xf6, 0x38, 0xac, 0xbb, 0xbf, 0x5f, 0xff, 0xc6, 0xe0,
  0x26, 0xf9, 0x20, 0x15, 0xd3, 0x18, 0x6a, 0x7f, 0x30, 0xb7, 0xd1, 0xb4,
  0xb2, 0xee, 0xbb, 0xd2, 0xbf, 0x4f, 0x1b, 0xc4, 0x59, 0x6c, 0x62, 0x53,
  0xae, 0xf5, 0xff, 0xff, 0x00, 0x00, 0x00, 0x09, 0x10, 0x00, 0x00, 0x00,
  0x0c, 0x00, 0x00, 0x00, 0x14, 0x00, 0x00, 0x00, 0x34, 0x00, 0x00, 0x00,
  0x02, 0x00, 0x00, 0x00, 0x14, 0x00, 0x00, 0x00, 0x1e, 0x00, 0x00, 0x00,
  0x1c, 0x00, 0x00, 0x00, 0x73, 0x65, 0x71, 0x75, 0x65, 0x6e, 0x74, 0x69,
  0x61, 0x6c, 0x5f, 0x33, 0x2f, 0x64, 0x65, 0x6e, 0x73, 0x65, 0x5f, 0x32,
  0x33, 0x2f, 0x4d, 0x61, 0x74, 0x4d, 0x75, 0x6c, 0x00, 0x00, 0x00, 0x00,
  0x0c, 0xf5, 0xff, 0xff, 0x08, 0x00, 0x00, 0x00, 0x0c, 0x00, 0x00, 0x00,
  0x01, 0x00, 0x00, 0x00, 0x87, 0xcb, 0x54, 0x3b, 0x01, 0x00, 0x00, 0x00,
  0x00, 0x00, 0x00, 0x00, 0x00, 0x00, 0x00, 0x00, 0x82, 0xf8, 0xff, 0xff,
  0x04, 0x00, 0x00, 0x00, 0x78, 0x00, 0x00, 0x00, 0x16, 0xfb, 0xff, 0xff,
  0xa4, 0xfe, 0xff, 0xff, 0x60, 0xfe, 0xff, 0xff, 0xcc, 0x02, 0x00, 0x00,
  0xa7, 0xf7, 0xff, 0xff, 0x13, 0xf9, 0xff, 0xff, 0x27, 0x05, 0x00, 0x00,
  0xdd, 0xfb, 0xff, 0xff, 0xda, 0xfc, 0xff, 0xff, 0xe3, 0xfc, 0xff, 0xff,
  0xa9, 0xf8, 0xff, 0xff, 0xd8, 0xf9, 0xff, 0xff, 0xe2, 0x00, 0x00, 0x00,
  0x74, 0x05, 0x00, 0x00, 0xe4, 0xf7, 0xff, 0xff, 0x77, 0x06, 0x00, 0x00,
  0x00, 0xfb, 0xff, 0xff, 0xcf, 0x04, 0x00, 0x00, 0x1a, 0xf7, 0xff, 0xff,
  0x04, 0x01, 0x00, 0x00, 0xdb, 0x04, 0x00, 0x00, 0x66, 0xf6, 0xff, 0xff,
  0x40, 0xfe, 0xff, 0xff, 0xcb, 0x04, 0x00, 0x00, 0x83, 0x08, 0x00, 0x00,
  0x11, 0xfa, 0xff, 0xff, 0xfc, 0xfb, 0xff, 0xff, 0xbe, 0xfd, 0xff, 0xff,
  0xec, 0x05, 0x00, 0x00, 0x17, 0x02, 0x00, 0x00, 0x9a, 0xf6, 0xff, 0xff,
  0x00, 0x00, 0x00, 0x02, 0x10, 0x00, 0x00, 0x00, 0x0b, 0x00, 0x00, 0x00,
  0x10, 0x00, 0x00, 0x00, 0x20, 0x00, 0x00, 0x00, 0x01, 0x00, 0x00, 0x00,
  0x1e, 0x00, 0x00, 0x00, 0x0d, 0x00, 0x00, 0x00, 0x64, 0x65, 0x6e, 0x73,
  0x65, 0x5f, 0x32, 0x32, 0x2f, 0x62, 0x69, 0x61, 0x73, 0x00, 0x00, 0x00,
  0xe4, 0xf5, 0xff, 0xff, 0x08, 0x00, 0x00, 0x00, 0x0c, 0x00, 0x00, 0x00,
  0x01, 0x00, 0x00, 0x00, 0x77, 0xf5, 0x0c, 0x38, 0x01, 0x00, 0x00, 0x00,
  0x00, 0x00, 0x00, 0x00, 0x00, 0x00, 0x00, 0x00, 0x5a, 0xf9, 0xff, 0xff,
  0x04, 0x00, 0x00, 0x00, 0x2c, 0x01, 0x00, 0x00, 0xd9, 0xc5, 0xbc, 0xe8,
  0xc8, 0xe8, 0x0e, 0x0f, 0xbb, 0x19, 0xda, 0xfc, 0xe6, 0xd9, 0xe6, 0xe1,
  0xcf, 0xed, 0xda, 0x24, 0xe4, 0xe0, 0xeb, 0x18, 0x41, 0xbe, 0xdd, 0xfb,
  0x0f, 0xdb, 0xf4, 0xc1, 0x1f, 0x18, 0x36, 0x0e, 0x4e, 0xd2, 0x09, 0xcd,
  0xea, 0x02, 0x13, 0x11, 0x9b, 0x6b, 0x31, 0x27, 0xd0, 0xb6, 0x46, 0xf0,
  0x94, 0xe8, 0x01, 0x7f, 0xdd, 0x17, 0x27, 0xf5, 0xbe, 0xf4, 0x51, 0x4e,
  0xd1, 0xce, 0x1e, 0xfa, 0x3d, 0xc7, 0xb3, 0xe3, 0xb7, 0xbd, 0x0b, 0xb0,
  0x1e, 0xc1, 0xae, 0xc9, 0x98, 0xc0, 0xe2, 0xdf, 0xb9, 0xdf, 0xf8, 0xc4,
  0xb0, 0xfd, 0x17, 0xf9, 0x2e, 0xb8, 0x35, 0xac, 0xd4, 0x0f, 0x34, 0x0b,
  0xcf, 0xfa, 0xde, 0x0a, 0xb2, 0xe3, 0xd9, 0xd9, 0x0d, 0xc9, 0xf3, 0xe1,
  0xde, 0x02, 0xec, 0x2c, 0x1d, 0xe5, 0xb5, 0x1e, 0xbd, 0xe5, 0x29, 0x47,
  0x1b, 0xd2, 0x37, 0xf6, 0xf3, 0x00, 0xe5, 0xe3, 0x06, 0x5b, 0xfc, 0x5a,
  0x41, 0xfe, 0xe9, 0xd0, 0xb7, 0xdb, 0x3c, 0x2c, 0xc6, 0xf2, 0x05, 0x17,
  0xb2, 0x07, 0xdc, 0x06, 0xf9, 0xd5, 0xd6, 0x03, 0xd3, 0x44, 0x34, 0x11,
  0xdd, 0x1a, 0xb9, 0xba, 0x08, 0x32, 0xfa, 0xab, 0xe5, 0x04, 0xc8, 0x41,
  0x55, 0x55, 0xfb, 0xf6, 0x3c, 0xfe, 0xfe, 0x09, 0xf1, 0x40, 0xbd, 0xe6,
  0x0e, 0xe0, 0xee, 0xe1, 0xdf, 0xd2, 0xf5, 0xd5, 0x1f, 0x32, 0x2a, 0x40,
  0x10, 0x54, 0xfa, 0xeb, 0xf4, 0xf6, 0x2e, 0x4b, 0xf3, 0xf4, 0x65, 0xdf,
  0x28, 0xb8, 0xc6, 0x1e, 0x17, 0xf4, 0xd4, 0xde, 0x00, 0xba, 0x2c, 0xed,
  0xd9, 0xd0, 0xbd, 0x4b, 0xbf, 0x13, 0x18, 0x46, 0x0c, 0x17, 0x23, 0xfa,
  0xdc, 0x3d, 0x42, 0x10, 0xef, 0x16, 0x49, 0xdc, 0x2b, 0x04, 0xce, 0x54,
  0xcc, 0xe3, 0x34, 0x3b, 0xe6, 0x38, 0x38, 0xe1, 0xe1, 0x12, 0xa7, 0x07,
  0x15, 0xd1, 0xc7, 0x31, 0xc6, 0x24, 0xde, 0xb1, 0xc7, 0x2b, 0xb0, 0xcd,
  0xec, 0xf1, 0xce, 0xb9, 0xbf, 0xdc, 0x42, 0xe9, 0x00, 0x25, 0xc7, 0xd3,
  0xec, 0x26, 0x35, 0xf1, 0xdf, 0xa3, 0x0a, 0x09, 0xcd, 0x44, 0xc5, 0xfb,
  0x27, 0x15, 0x27, 0xf0, 0xc7, 0x04, 0xef, 0xca, 0x26, 0xf8, 0xff, 0xff,
  0x00, 0x00, 0x00, 0x09, 0x10, 0x00, 0x00, 0x00, 0x0a, 0x00, 0x00, 0x00,
  0x14, 0x00, 0x00, 0x00, 0x34, 0x00, 0x00, 0x00, 0x02, 0x00, 0x00, 0x00,
  0x1e, 0x00, 0x00, 0x00, 0x0a, 0x00, 0x00, 0x00, 0x1c, 0x00, 0x00, 0x00,
  0x73, 0x65, 0x71, 0x75, 0x65, 0x6e, 0x74, 0x69, 0x61, 0x6c, 0x5f, 0x33,
  0x2f, 0x64, 0x65, 0x6e, 0x73, 0x65, 0x5f, 0x32, 0x32, 0x2f, 0x4d, 0x61,
  0x74, 0x4d, 0x75, 0x6c, 0x00, 0x00, 0x00, 0x00, 0x84, 0xf7, 0xff, 0xff,
  0x08, 0x00, 0x00, 0x00, 0x0c, 0x00, 0x00, 0x00, 0x01, 0x00, 0x00, 0x00,
  0x5c, 0x32, 0xaa, 0x3b, 0x01, 0x00, 0x00, 0x00, 0x00, 0x00, 0x00, 0x00,
  0x00, 0x00, 0x00, 0x00, 0xfa, 0xfa, 0xff, 0xff, 0x04, 0x00, 0x00, 0x00,
  0x28, 0x00, 0x00, 0x00, 0x67, 0xfb, 0xff, 0xff, 0x00, 0x00, 0x00, 0x00,
  0xd2, 0x02, 0x00, 0x00, 0x67, 0x02, 0x00, 0x00, 0xf3, 0x03, 0x00, 0x00,
  0xe6, 0x00, 0x00, 0x00, 0x9d, 0xfb, 0xff, 0xff, 0x34, 0x01, 0x00, 0x00,
  0xe1, 0x02, 0x00, 0x00, 0x00, 0x00, 0x00, 0x00, 0xc2, 0xf8, 0xff, 0xff,
  0x00, 0x00, 0x00, 0x02, 0x10, 0x00, 0x00, 0x00, 0x09, 0x00, 0x00, 0x00,
  0x10, 0x00, 0x00, 0x00, 0x20, 0x00, 0x00, 0x00, 0x01, 0x00, 0x00, 0x00,
  0x0a, 0x00, 0x00, 0x00, 0x0d, 0x00, 0x00, 0x00, 0x64, 0x65, 0x6e, 0x73,
  0x65, 0x5f, 0x32, 0x31, 0x2f, 0x62, 0x69, 0x61, 0x73, 0x00, 0x00, 0x00,
  0x0c, 0xf8, 0xff, 0xff, 0x08, 0x00, 0x00, 0x00, 0x0c, 0x00, 0x00, 0x00,
  0x01, 0x00, 0x00, 0x00, 0xf8, 0x8c, 0x40, 0x38, 0x01, 0x00, 0x00, 0x00,
  0x00, 0x00, 0x00, 0x00, 0x00, 0x00, 0x00, 0x00, 0x82, 0xfb, 0xff, 0xff,
  0x04, 0x00, 0x00, 0x00, 0x14, 0x00, 0x00, 0x00, 0x0a, 0x53, 0xb4, 0x1e,
  0x79, 0xb1, 0x64, 0x37, 0x57, 0x13, 0xfe, 0x36, 0xfc, 0x2e, 0x3c, 0x57,
  0x7f, 0x18, 0xcb, 0x0d, 0x36, 0xf9, 0xff, 0xff, 0x00, 0x00, 0x00, 0x09,
  0x10, 0x00, 0x00, 0x00, 0x08, 0x00, 0x00, 0x00, 0x14, 0x00, 0x00, 0x00,
  0x34, 0x00, 0x00, 0x00, 0x02, 0x00, 0x00, 0x00, 0x0a, 0x00, 0x00, 0x00,
  0x02, 0x00, 0x00, 0x00, 0x1c, 0x00, 0x00, 0x00, 0x73, 0x65, 0x71, 0x75,
  0x65, 0x6e, 0x74, 0x69, 0x61, 0x6c, 0x5f, 0x33, 0x2f, 0x64, 0x65, 0x6e,
  0x73, 0x65, 0x5f, 0x32, 0x31, 0x2f, 0x4d, 0x61, 0x74, 0x4d, 0x75, 0x6c,
  0x00, 0x00, 0x00, 0x00, 0x94, 0xf8, 0xff, 0xff, 0x08, 0x00, 0x00, 0x00,
  0x0c, 0x00, 0x00, 0x00, 0x01, 0x00, 0x00, 0x00, 0x45, 0x2b, 0xc4, 0x3b,
  0x01, 0x00, 0x00, 0x00, 0x00, 0x00, 0x00, 0x00, 0x00, 0x00, 0x00, 0x00,
  0x0a, 0xfc, 0xff, 0xff, 0x04, 0x00, 0x00, 0x00, 0x08, 0x00, 0x00, 0x00,
  0x9c, 0x01, 0x00, 0x00, 0xff, 0x04, 0x00, 0x00, 0xb2, 0xf9, 0xff, 0xff,
  0x00, 0x00, 0x00, 0x02, 0x10, 0x00, 0x00, 0x00, 0x07, 0x00, 0x00, 0x00,
  0x10, 0x00, 0x00, 0x00, 0x20, 0x00, 0x00, 0x00, 0x01, 0x00, 0x00, 0x00,
  0x02, 0x00, 0x00, 0x00, 0x0d, 0x00, 0x00, 0x00, 0x64, 0x65, 0x6e, 0x73,
  0x65, 0x5f, 0x32, 0x30, 0x2f, 0x62, 0x69, 0x61, 0x73, 0x00, 0x00, 0x00,
  0xfc, 0xf8, 0xff, 0xff, 0x08, 0x00, 0x00, 0x00, 0x0c, 0x00, 0x00, 0x00,
  0x01, 0x00, 0x00, 0x00, 0xa6, 0xf4, 0x8f, 0x38, 0x01, 0x00, 0x00, 0x00,
  0x00, 0x00, 0x00, 0x00, 0x00, 0x00, 0x00, 0x00, 0x72, 0xfc, 0xff, 0xff,
  0x04, 0x00, 0x00, 0x00, 0x14, 0x00, 0x00, 0x00, 0xcf, 0x3c, 0xc8, 0xef,
  0x09, 0x1f, 0x3e, 0xf6, 0x32, 0x22, 0x06, 0xfb, 0x50, 0x1d, 0x71, 0x60,
  0xe4, 0x37, 0x7f, 0xb2, 0x26, 0xfa, 0xff, 0xff, 0x00, 0x00, 0x00, 0x09,
  0x10, 0x00, 0x00, 0x00, 0x06, 0x00, 0x00, 0x00, 0x14, 0x00, 0x00, 0x00,
  0x34, 0x00, 0x00, 0x00, 0x02, 0x00, 0x00, 0x00, 0x02, 0x00, 0x00, 0x00,
  0x0a, 0x00, 0x00, 0x00, 0x1c, 0x00, 0x00, 0x00, 0x73, 0x65, 0x71, 0x75,
  0x65, 0x6e, 0x74, 0x69, 0x61, 0x6c, 0x5f, 0x33, 0x2f, 0x64, 0x65, 0x6e,
  0x73, 0x65, 0x5f, 0x32, 0x30, 0x2f, 0x4d, 0x61, 0x74, 0x4d, 0x75, 0x6c,
  0x00, 0x00, 0x00, 0x00, 0x84, 0xf9, 0xff, 0xff, 0x08, 0x00, 0x00, 0x00,
  0x0c, 0x00, 0x00, 0x00, 0x01, 0x00, 0x00, 0x00, 0xac, 0xe8, 0xbd, 0x3b,
  0x01, 0x00, 0x00, 0x00, 0x00, 0x00, 0x00, 0x00, 0x00, 0x00, 0x00, 0x00,
  0xfa, 0xfc, 0xff, 0xff, 0x04, 0x00, 0x00, 0x00, 0x28, 0x00, 0x00, 0x00,
  0xbe, 0xfe, 0xff, 0xff, 0xce, 0x01, 0x00, 0x00, 0x00, 0x00, 0x00, 0x00,
  0xf1, 0xfd, 0xff, 0xff, 0x00, 0x00, 0x00, 0x00, 0x00, 0x00, 0x00, 0x00,
  0x00, 0x00, 0x00, 0x00, 0x00, 0x00, 0x00, 0x00, 0x34, 0x05, 0x00, 0x00,
  0xfd, 0xfe, 0xff, 0xff, 0xc2, 0xfa, 0xff, 0xff, 0x00, 0x00, 0x00, 0x02,
  0x10, 0x00, 0x00, 0x00, 0x05, 0x00, 0x00, 0x00, 0x10, 0x00, 0x00, 0x00,
  0x20, 0x00, 0x00, 0x00, 0x01, 0x00, 0x00, 0x00, 0x0a, 0x00, 0x00, 0x00,
  0x0d, 0x00, 0x00, 0x00, 0x64, 0x65, 0x6e, 0x73, 0x65, 0x5f, 0x31, 0x39,
  0x2f, 0x62, 0x69, 0x61, 0x73, 0x00, 0x00, 0x00, 0x0c, 0xfa, 0xff, 0xff,
  0x08, 0x00, 0x00, 0x00, 0x0c, 0x00, 0x00, 0x00, 0x01, 0x00, 0x00, 0x00,
  0xdb, 0x5c, 0x4f, 0x38, 0x01, 0x00, 0x00, 0x00, 0x00, 0x00, 0x00, 0x00,
  0x00, 0x00, 0x00, 0x00, 0x82, 0xfd, 0xff, 0xff, 0x04, 0x00, 0x00, 0x00,
  0x2c, 0x01, 0x00, 0x00, 0x05, 0xfd, 0x04, 0x0b, 0xeb, 0x05, 0xf9, 0xf6,
  0xf6, 0x3e, 0x35, 0xd0, 0x06, 0x2f, 0x2b, 0x23, 0x0f, 0x14, 0xc5, 0xe1,
  0xef, 0x0a, 0xba, 0x1b, 0x01, 0xdd, 0xcb, 0xbc, 0xf7, 0xb9, 0x01, 0xe5,
  0x3f, 0x14, 0xc3, 0x29, 0xd4, 0x09, 0x1c, 0x11, 0x24, 0x16, 0xff, 0xc8,
  0x3e, 0x0f, 0xfe, 0x8c, 0xd1, 0x36, 0xee, 0x38, 0x59, 0xd2, 0xb0, 0x3a,
  0x06, 0xe2, 0x40, 0x0e, 0xcd, 0x35, 0xdd, 0xce, 0x1b, 0x00, 0x1d, 0xee,
  0x26, 0xf7, 0x20, 0xd2, 0x41, 0x2d, 0xc3, 0xe3, 0x07, 0x2b, 0x08, 0xbd,
  0xef, 0xc2, 0x20, 0xc0, 0x38, 0x1e, 0xc7, 0x03, 0xe6, 0xbd, 0x18, 0x25,
  0xd3, 0x03, 0x0d, 0xf0, 0xd3, 0x22, 0xb8, 0x3d, 0xd0, 0xf4, 0xd6, 0x37,
  0xdc, 0xbf, 0xca, 0x43, 0x19, 0xed, 0xf0, 0xf6, 0x0b, 0x03, 0x0b, 0xea,
  0xc0, 0xdd, 0xd1, 0xfa, 0xee, 0xdb, 0xc5, 0xbb, 0x37, 0xdd, 0xd0, 0xd2,
  0x0a, 0x1d, 0x46, 0x3d, 0xd7, 0xc7, 0x46, 0xd9, 0xcb, 0xca, 0x0b, 0x36,
  0xee, 0xde, 0x10, 0x12, 0x11, 0xbe, 0x35, 0x0a, 0xda, 0xd2, 0x1c, 0x43,
  0x08, 0xf0, 0xee, 0xfb, 0x25, 0xd1, 0xef, 0x04, 0x1b, 0xc7, 0x04, 0xc8,
  0x2a, 0xd4, 0xd7, 0xc2, 0xe1, 0x15, 0xcf, 0x37, 0xc4, 0x1f, 0xcb, 0x01,
  0x25, 0x2d, 0xe7, 0xca, 0xda, 0xf0, 0xe9, 0x22, 0xd7, 0xd2, 0x2b, 0xed,
  0xba, 0xf6, 0xd7, 0xcc, 0x31, 0xdf, 0xd9, 0x31, 0x1b, 0x31, 0xe9, 0x12,
  0xbe, 0xdf, 0xf7, 0xc1, 0xc0, 0xd8, 0xfa, 0x3a, 0xf5, 0xbc, 0x09, 0xe6,
  0x2a, 0xc7, 0x16, 0x35, 0x02, 0xcd, 0x45, 0xbf, 0xd1, 0xcd, 0xd7, 0x04,
  0xec, 0xc3, 0x24, 0x0f, 0x3f, 0xf9, 0xfe, 0x44, 0x3f, 0x24, 0xc1, 0x14,
  0xe0, 0x0d, 0xe9, 0x20, 0xd5, 0x34, 0x1d, 0x4b, 0xd2, 0xdb, 0x11, 0xfa,
  0xc6, 0x55, 0x38, 0xe9, 0xe5, 0xcf, 0x40, 0xe6, 0x45, 0x8e, 0x27, 0x30,
  0x27, 0xed, 0x47, 0xf9, 0xf2, 0xf9, 0x1a, 0x06, 0x48, 0x35, 0x53, 0x52,
  0x2c, 0x00, 0xde, 0x7c, 0xd0, 0x6f, 0x42, 0x24, 0x09, 0x3a, 0xe1, 0xe3,
  0xd2, 0x4d, 0x81, 0xf2, 0x20, 0xeb, 0x26, 0xc4, 0x2c, 0xea, 0xbc, 0xe2,
  0x48, 0xeb, 0x37, 0x10, 0x4e, 0xfc, 0xff, 0xff, 0x00, 0x00, 0x00, 0x09,
  0x10, 0x00, 0x00, 0x00, 0x04, 0x00, 0x00, 0x00, 0x14, 0x00, 0x00, 0x00,
  0x34, 0x00, 0x00, 0x00, 0x02, 0x00, 0x00, 0x00, 0x0a, 0x00, 0x00, 0x00,
  0x1e, 0x00, 0x00, 0x00, 0x1c, 0x00, 0x00, 0x00, 0x73, 0x65, 0x71, 0x75,
  0x65, 0x6e, 0x74, 0x69, 0x61, 0x6c, 0x5f, 0x33, 0x2f, 0x64, 0x65, 0x6e,
  0x73, 0x65, 0x5f, 0x31, 0x39, 0x2f, 0x4d, 0x61, 0x74, 0x4d, 0x75, 0x6c,
  0x00, 0x00, 0x00, 0x00, 0xac, 0xfb, 0xff, 0xff, 0x08, 0x00, 0x00, 0x00,
  0x0c, 0x00, 0x00, 0x00, 0x01, 0x00, 0x00, 0x00, 0x60, 0x18, 0xb3, 0x3b,
  0x01, 0x00, 0x00, 0x00, 0x00, 0x00, 0x00, 0x00, 0x00, 0x00, 0x00, 0x00,
  0x22, 0xff, 0xff, 0xff, 0x04, 0x00, 0x00, 0x00, 0x78, 0x00, 0x00, 0x00,
  0xeb, 0xef, 0xff, 0xff, 0x3b, 0x02, 0x00, 0x00, 0x6f, 0x03, 0x00, 0x00,
  0x88, 0x09, 0x00, 0x00, 0xbc, 0x03, 0x00, 0x00, 0xa3, 0xf3, 0xff, 0xff,
  0x00, 0x00, 0x00, 0x00, 0xe8, 0xf3, 0xff, 0xff, 0x9f, 0xf8, 0xff, 0xff,
  0x16, 0x04, 0x00, 0x00, 0x00, 0x00, 0x00, 0x00, 0x10, 0xf7, 0xff, 0xff,
  0x60, 0x02, 0x00, 0x00, 0xc3, 0xfc, 0xff, 0xff, 0x56, 0x09, 0x00, 0x00,
  0x27, 0xf6, 0xff, 0xff, 0x6b, 0x1f, 0x00, 0x00, 0x2f, 0x18, 0x00, 0x00,
  0x21, 0x03, 0x00, 0x00, 0x33, 0x07, 0x00, 0x00, 0x00, 0x00, 0x00, 0x00,
  0x00, 0x00, 0x00, 0x00, 0x7d, 0x04, 0x00, 0x00, 0xde, 0xfc, 0xff, 0xff,
  0x29, 0x1d, 0x00, 0x00, 0x09, 0x04, 0x00, 0x00, 0x49, 0xfd, 0xff, 0xff,
  0xab, 0xfe, 0xff, 0xff, 0xbd, 0x04, 0x00, 0x00, 0x77, 0x04, 0x00, 0x00,
  0x3a, 0xfd, 0xff, 0xff, 0x00, 0x00, 0x00, 0x02, 0x10, 0x00, 0x00, 0x00,
  0x03, 0x00, 0x00, 0x00, 0x10, 0x00, 0x00, 0x00, 0x20, 0x00, 0x00, 0x00,
  0x01, 0x00, 0x00, 0x00, 0x1e, 0x00, 0x00, 0x00, 0x0d, 0x00, 0x00, 0x00,
  0x64, 0x65, 0x6e, 0x73, 0x65, 0x5f, 0x31, 0x38, 0x2f, 0x62, 0x69, 0x61,
  0x73, 0x00, 0x00, 0x00, 0x84, 0xfc, 0xff, 0xff, 0x08, 0x00, 0x00, 0x00,
  0x0c, 0x00, 0x00, 0x00, 0x01, 0x00, 0x00, 0x00, 0xca, 0x88, 0xd4, 0x37,
  0x01, 0x00, 0x00, 0x00, 0x00, 0x00, 0x00, 0x00, 0x00, 0x00, 0x00, 0x00,
  0x00, 0x00, 0x00, 0x00, 0x00, 0x00, 0x06, 0x00, 0x08, 0x00, 0x04, 0x00,
  0x06, 0x00, 0x00, 0x00, 0x04, 0x00, 0x00, 0x00, 0x58, 0x02, 0x00, 0x00,
  0x14, 0x1a, 0x27, 0x0c, 0x05, 0xdd, 0xd3, 0x3e, 0x14, 0x02, 0xbb, 0xf5,
  0x63, 0x2a, 0xc5, 0x4a, 0x18, 0x05, 0x17, 0xd7, 0x36, 0x3a, 0x20, 0x25,
  0x26, 0x06, 0xe7, 0x35, 0x59, 0xee, 0x16, 0x31, 0x2f, 0xe9, 0xda, 0x3b,
  0x08, 0xf2, 0xde, 0x39, 0x42, 0x3b, 0x27, 0x03, 0x0c, 0x0a, 0xd2, 0xd1,
  0x29, 0xcc, 0x2f, 0x0b, 0x44, 0xc0, 0x0b, 0x32, 0xed, 0x54, 0x08, 0x10,
  0x1e, 0x43, 0x42, 0x14, 0x3c, 0xfd, 0x4c, 0x4f, 0x1f, 0x15, 0x47, 0x29,
  0xe0, 0x2e, 0x21, 0x33, 0x05, 0xe2, 0x09, 0x46, 0x14, 0xfc, 0xfc, 0xce,
  0xce, 0xd0, 0x14, 0x12, 0xbd, 0x08, 0x26, 0xea, 0x40, 0x2b, 0x2c, 0x3c,
  0xe0, 0xe5, 0x0c, 0x3f, 0x54, 0x69, 0xff, 0xbc, 0x15, 0xf8, 0x05, 0x04,
  0x2f, 0xf6, 0x81, 0xd3, 0x03, 0xd8, 0xfe, 0x32, 0x3c, 0x14, 0x08, 0x66,
  0xbd, 0xdc, 0x2a, 0x2b, 0xeb, 0xda, 0x10, 0xe5, 0x42, 0xfc, 0xd1, 0xfe,
  0x03, 0xdc, 0xfd, 0x22, 0xeb, 0x11, 0xc8, 0xe9, 0xd2, 0x3e, 0xd1, 0xc3,
  0x5c, 0xde, 0xe4, 0x52, 0x38, 0xe6, 0x8e, 0x00, 0x30, 0x03, 0x14, 0x09,
  0x0d, 0x45, 0x1f, 0x43, 0x1c, 0x27, 0x20, 0x18, 0x58, 0x14, 0x2a, 0xd7,
  0x2e, 0xc7, 0x87, 0x05, 0x1a, 0xef, 0x24, 0xfc, 0xf3, 0x16, 0x0a, 0x09,
  0x11, 0x2d, 0xe6, 0x2f, 0xfe, 0xd3, 0xf9, 0x46, 0x36, 0xfe, 0x1a, 0x14,
  0xf6, 0x38, 0xd1, 0x03, 0x5b, 0x34, 0xf0, 0x09, 0xc7, 0xe9, 0x0c, 0xe4,
  0xd6, 0xc2, 0x12, 0xd0, 0x2c, 0x1b, 0x42, 0xe3, 0x04, 0xe2, 0x21, 0x02,
  0xd6, 0xee, 0xc5, 0x26, 0x10, 0x44, 0xf4, 0x1f, 0x48, 0xf0, 0x3f, 0x15,
  0xfe, 0xec, 0x16, 0x1f, 0xdc, 0xdd, 0xe1, 0x48, 0x55, 0x19, 0xc4, 0xdd,
  0xdd, 0xd1, 0xce, 0x05, 0x1a, 0xe3, 0x18, 0xbb, 0x3a, 0xd5, 0x1b, 0x23,
  0xfd, 0x3e, 0xff, 0x2f, 0xd5, 0x2b, 0xbf, 0xde, 0xc4, 0x18, 0x29, 0xcd,
  0xe6, 0x3b, 0x14, 0x38, 0x13, 0x16, 0x2a, 0xd7, 0xf9, 0xe3, 0x2e, 0x25,
  0xeb, 0xc1, 0x31, 0x16, 0x18, 0xfd, 0x11, 0xf0, 0x1a, 0xbc, 0x1a, 0xcd,
  0x65, 0x0a, 0x5b, 0x07, 0xe7, 0x1f, 0x1c, 0xe1, 0x44, 0x04, 0x1a, 0xd8,
  0xd3, 0x44, 0x07, 0x0c, 0xf5, 0x03, 0xe0, 0xef, 0x33, 0x20, 0xe1, 0xcc,
  0x60, 0x08, 0x11, 0x6b, 0x42, 0x26, 0xdb, 0x45, 0x40, 0xa8, 0x02, 0x44,
  0xcf, 0xc1, 0xd8, 0x12, 0xfe, 0x2c, 0x55, 0x7e, 0xdb, 0x2c, 0x16, 0x02,
  0x34, 0xff, 0x2f, 0xe5, 0xdb, 0x76, 0x21, 0xf9, 0x07, 0x28, 0x1d, 0xea,
  0x97, 0xdb, 0x05, 0x08, 0x44, 0x41, 0x28, 0x5e, 0x8d, 0x07, 0x2d, 0xdf,
  0x35, 0x2d, 0x31, 0x3d, 0xbc, 0x31, 0x0f, 0x22, 0x3c, 0xfb, 0xf8, 0xe8,
  0xde, 0x08, 0xf7, 0xe2, 0xf1, 0xfc, 0x02, 0x10, 0x37, 0x0e, 0x2f, 0xef,
  0xf9, 0xea, 0x0d, 0x0f, 0x46, 0x25, 0xd3, 0x1a, 0xc6, 0x14, 0x02, 0xcd,
  0x25, 0x2b, 0x09, 0x2a, 0xf2, 0x0c, 0xca, 0xc8, 0xfa, 0x06, 0xf9, 0xe1,
  0xdb, 0x28, 0x46, 0x10, 0xf2, 0xce, 0xed, 0xdf, 0xe8, 0x33, 0xc0, 0xd5,
  0x25, 0x1d, 0xc9, 0xd9, 0xd0, 0xd0, 0xfd, 0xd1, 0xe6, 0xfe, 0xc4, 0xe8,
  0xea, 0x41, 0xf6, 0xd4, 0xbc, 0x15, 0x1e, 0x2a, 0x03, 0xf1, 0xf2, 0x46,
  0x4b, 0x1f, 0x34, 0x04, 0x4c, 0x44, 0xe4, 0xe0, 0x17, 0xe0, 0xfd, 0x1d,
  0x38, 0x09, 0x04, 0xfb, 0xe3, 0xe1, 0x42, 0x14, 0x0b, 0x13, 0xee, 0x06,
  0x02, 0xb6, 0x16, 0xeb, 0xf4, 0xc2, 0x1a, 0x3f, 0xcc, 0xe9, 0x08, 0xc9,
  0x11, 0x43, 0x1d, 0xee, 0xd8, 0x1c, 0xd9, 0x2a, 0xa1, 0x00, 0x03, 0x16,
  0x0a, 0xff, 0x4e, 0xc6, 0x16, 0xe1, 0x10, 0x26, 0xf2, 0x38, 0x32, 0x1b,
  0x11, 0xfd, 0xee, 0x09, 0xf6, 0x4b, 0xea, 0x3a, 0xdf, 0xfc, 0x3a, 0x07,
  0x19, 0x19, 0xe2, 0x4f, 0x35, 0xd0, 0x38, 0xd8, 0x2f, 0xd7, 0x12, 0xd2,
  0xf6, 0x0c, 0xc0, 0x19, 0x34, 0xe6, 0xf7, 0x25, 0x30, 0xe2, 0x41, 0x39,
  0xcf, 0xe4, 0x3a, 0xc8, 0x0f, 0x27, 0x36, 0xdc, 0x0a, 0x13, 0xe2, 0xb9,
  0xe2, 0xcd, 0x1c, 0xef, 0xfb, 0xf7, 0x0e, 0xfc, 0xcf, 0xea, 0x1e, 0x10,
  0x41, 0x3c, 0x33, 0xf1, 0xf1, 0x43, 0x26, 0xfb, 0x2c, 0x0a, 0x10, 0xf3,
  0x42, 0xdb, 0x14, 0x40, 0x12, 0x38, 0xdb, 0xfe, 0xfc, 0xec, 0x0d, 0x11,
  0x28, 0xe0, 0x39, 0x46, 0xe0, 0xcd, 0x06, 0x0d, 0x53, 0x25, 0xec, 0xd1,
  0x00, 0x00, 0x0e, 0x00, 0x18, 0x00, 0x08, 0x00, 0x07, 0x00, 0x0c, 0x00,
  0x10, 0x00, 0x14, 0x00, 0x0e, 0x00, 0x00, 0x00, 0x00, 0x00, 0x00, 0x09,
  0x10, 0x00, 0x00, 0x00, 0x02, 0x00, 0x00, 0x00, 0x14, 0x00, 0x00, 0x00,
  0x34, 0x00, 0x00, 0x00, 0x02, 0x00, 0x00, 0x00, 0x1e, 0x00, 0x00, 0x00,
  0x14, 0x00, 0x00, 0x00, 0x1c, 0x00, 0x00, 0x00, 0x73, 0x65, 0x71, 0x75,
  0x65, 0x6e, 0x74, 0x69, 0x61, 0x6c, 0x5f, 0x33, 0x2f, 0x64, 0x65, 0x6e,
  0x73, 0x65, 0x5f, 0x31, 0x38, 0x2f, 0x4d, 0x61, 0x74, 0x4d, 0x75, 0x6c,
  0x00, 0x00, 0x00, 0x00, 0x6c, 0xff, 0xff, 0xff, 0x08, 0x00, 0x00, 0x00,
  0x0c, 0x00, 0x00, 0x00, 0x01, 0x00, 0x00, 0x00, 0x33, 0xfb, 0xa1, 0x3b,
  0x01, 0x00, 0x00, 0x00, 0x00, 0x00, 0x00, 0x00, 0x00, 0x00, 0x00, 0x00,
  0x00, 0x00, 0x00, 0x00, 0x14, 0x00, 0x1c, 0x00, 0x08, 0x00, 0x07, 0x00,
  0x0c, 0x00, 0x10, 0x00, 0x14, 0x00, 0x00, 0x00, 0x00, 0x00, 0x18, 0x00,
  0x14, 0x00, 0x00, 0x00, 0x00, 0x00, 0x00, 0x09, 0x14, 0x00, 0x00, 0x00,
  0x01, 0x00, 0x00, 0x00, 0x18, 0x00, 0x00, 0x00, 0x54, 0x00, 0x00, 0x00,
  0x38, 0x00, 0x00, 0x00, 0x02, 0x00, 0x00, 0x00, 0x01, 0x00, 0x00, 0x00,
  0x14, 0x00, 0x00, 0x00, 0x20, 0x00, 0x00, 0x00, 0x73, 0x65, 0x72, 0x76,
  0x69, 0x6e, 0x67, 0x5f, 0x64, 0x65, 0x66, 0x61, 0x75, 0x6c, 0x74, 0x5f,
  0x64, 0x65, 0x6e, 0x73, 0x65, 0x5f, 0x31, 0x38, 0x5f, 0x69, 0x6e, 0x70,
  0x75, 0x74, 0x3a, 0x30, 0x00, 0x00, 0x00, 0x00, 0x02, 0x00, 0x00, 0x00,
  0xff, 0xff, 0xff, 0xff, 0x14, 0x00, 0x00, 0x00, 0x0c, 0x00, 0x0c, 0x00,
  0x00, 0x00, 0x00, 0x00, 0x04, 0x00, 0x08, 0x00, 0x0c, 0x00, 0x00, 0x00,
  0x08, 0x00, 0x00, 0x00, 0x0c, 0x00, 0x00, 0x00, 0x01, 0x00, 0x00, 0x00,
  0xa3, 0xf2, 0xa7, 0x3b, 0x01, 0x00, 0x00, 0x00, 0xb4, 0xff, 0xff, 0xff,
  0xff, 0xff, 0xff, 0xff, 0x04, 0x00, 0x04, 0x00, 0x04, 0x00, 0x00, 0x00
};
const int g_model_len = 5856;
