alignas(8) const unsigned char g_model[] = {
  0x20, 0x00, 0x00, 0x00, 0x54, 0x46, 0x4c, 0x33, 0x00, 0x00, 0x00, 0x00,
  0x14, 0x00, 0x20, 0x00, 0x04, 0x00, 0x08, 0x00, 0x0c, 0x00, 0x10, 0x00,
  0x14, 0x00, 0x00, 0x00, 0x18, 0x00, 0x1c, 0x00, 0x14, 0x00, 0x00, 0x00,
  0x03, 0x00, 0x00, 0x00, 0x18, 0x00, 0x00, 0x00, 0x20, 0x00, 0x00, 0x00,
  0x58, 0x01, 0x00, 0x00, 0x20, 0x00, 0x00, 0x00, 0x00, 0x01, 0x00, 0x00,
  0x74, 0x00, 0x00, 0x00, 0x02, 0x00, 0x00, 0x00, 0x54, 0x07, 0x00, 0x00,
  0xe0, 0x02, 0x00, 0x00, 0x01, 0x00, 0x00, 0x00, 0x5c, 0x01, 0x00, 0x00,
  0x16, 0x00, 0x00, 0x00, 0xc4, 0x17, 0x00, 0x00, 0xc0, 0x17, 0x00, 0x00,
  0xa8, 0x13, 0x00, 0x00, 0xc4, 0x12, 0x00, 0x00, 0x20, 0x11, 0x00, 0x00,
  0x94, 0x10, 0x00, 0x00, 0x08, 0x10, 0x00, 0x00, 0x9c, 0x0f, 0x00, 0x00,
  0x10, 0x0f, 0x00, 0x00, 0x84, 0x0e, 0x00, 0x00, 0xe0, 0x0c, 0x00, 0x00,
  0x04, 0x0c, 0x00, 0x00, 0x9c, 0x08, 0x00, 0x00, 0xd0, 0x07, 0x00, 0x00,
  0x8c, 0x17, 0x00, 0x00, 0x88, 0x17, 0x00, 0x00, 0x84, 0x17, 0x00, 0x00,
  0x80, 0x17, 0x00, 0x00, 0x7c, 0x17, 0x00, 0x00, 0x78, 0x17, 0x00, 0x00,
  0x74, 0x17, 0x00, 0x00, 0xc0, 0x00, 0x00, 0x00, 0x01, 0x00, 0x00, 0x00,
  0x10, 0x00, 0x00, 0x00, 0x00, 0x00, 0x0a, 0x00, 0x10, 0x00, 0x0c, 0x00,
  0x08, 0x00, 0x04, 0x00, 0x0a, 0x00, 0x00, 0x00, 0x0c, 0x00, 0x00, 0x00,
  0x1c, 0x00, 0x00, 0x00, 0x20, 0x00, 0x00, 0x00, 0x0f, 0x00, 0x00, 0x00,
  0x73, 0x65, 0x72, 0x76, 0x69, 0x6e, 0x67, 0x5f, 0x64, 0x65, 0x66, 0x61,
  0x75, 0x6c, 0x74, 0x00, 0x01, 0x00, 0x00, 0x00, 0x14, 0x00, 0x00, 0x00,
  0x01, 0x00, 0x00, 0x00, 0x28, 0x00, 0x00, 0x00, 0x08, 0x00, 0x0c, 0x00,
  0x08, 0x00, 0x04, 0x00, 0x08, 0x00, 0x00, 0x00, 0x13, 0x00, 0x00, 0x00,
  0x04, 0x00, 0x00, 0x00, 0x08, 0x00, 0x00, 0x00, 0x64, 0x65, 0x6e, 0x73,
  0x65, 0x5f, 0x32, 0x39, 0x00, 0x00, 0x00, 0x00, 0x1a, 0xed, 0xff, 0xff,
  0x04, 0x00, 0x00, 0x00, 0x0e, 0x00, 0x00, 0x00, 0x64, 0x65, 0x6e, 0x73,
  0x65, 0x5f, 0x32, 0x34, 0x5f, 0x69, 0x6e, 0x70, 0x75, 0x74, 0x00, 0x00,
  0x01, 0x00, 0x00, 0x00, 0x0c, 0x00, 0x00, 0x00, 0x08, 0x00, 0x0c, 0x00,
  0x04, 0x00, 0x08, 0x00, 0x08, 0x00, 0x00, 0x00, 0x08, 0x00, 0x00, 0x00,
  0x15, 0x00, 0x00, 0x00, 0x13, 0x00, 0x00, 0x00, 0x6d, 0x69, 0x6e, 0x5f,
  0x72, 0x75, 0x6e, 0x74, 0x69, 0x6d, 0x65, 0x5f, 0x76, 0x65, 0x72, 0x73,
  0x69, 0x6f, 0x6e, 0x00, 0x6a, 0xed, 0xff, 0xff, 0x04, 0x00, 0x00, 0x00,
  0x10, 0x00, 0x00, 0x00, 0x31, 0x2e, 0x31, 0x34, 0x2e, 0x30, 0x00, 0x00,
  0x00, 0x00, 0x00, 0x00, 0x00, 0x00, 0x00, 0x00, 0x0f, 0x00, 0x00, 0x00,
  0x4d, 0x4c, 0x49, 0x52, 0x20, 0x43, 0x6f, 0x6e, 0x76, 0x65, 0x72, 0x74,
  0x65, 0x64, 0x2e, 0x00, 0x00, 0x00, 0x0e, 0x00, 0x18, 0x00, 0x04, 0x00,
  0x08, 0x00, 0x0c, 0x00, 0x10, 0x00, 0x14, 0x00, 0x0e, 0x00, 0x00, 0x00,
  0x14, 0x00, 0x00, 0x00, 0x64, 0x00, 0x00, 0x00, 0x68, 0x00, 0x00, 0x00,
  0x6c, 0x00, 0x00, 0x00, 0x88, 0x00, 0x00, 0x00, 0x14, 0x00, 0x00, 0x00,
  0xc8, 0x15, 0x00, 0x00, 0x44, 0x15, 0x00, 0x00, 0xdc, 0x11, 0x00, 0x00,
  0xec, 0x10, 0x00, 0x00, 0x5c, 0x0f, 0x00, 0x00, 0xbc, 0x0e, 0x00, 0x00,
  0x44, 0x0e, 0x00, 0x00, 0xc4, 0x0d, 0x00, 0x00, 0x4c, 0x0d, 0x00, 0x00,
  0xac, 0x0c, 0x00, 0x00, 0x1c, 0x0b, 0x00, 0x00, 0x2c, 0x0a, 0x00, 0x00,
  0xd4, 0x06, 0x00, 0x00, 0xac, 0x05, 0x00, 0x00, 0x90, 0x04, 0x00, 0x00,
  0x94, 0x03, 0x00, 0x00, 0xa8, 0x02, 0x00, 0x00, 0xd8, 0x01, 0x00, 0x00,
  0x28, 0x01, 0x00, 0x00, 0x70, 0x00, 0x00, 0x00, 0x01, 0x00, 0x00, 0x00,
  0x00, 0x00, 0x00, 0x00, 0x01, 0x00, 0x00, 0x00, 0x13, 0x00, 0x00, 0x00,
  0x07, 0x00, 0x00, 0x00, 0x24, 0x05, 0x00, 0x00, 0x2c, 0x04, 0x00, 0x00,
  0x30, 0x03, 0x00, 0x00, 0x44, 0x02, 0x00, 0x00, 0x78, 0x01, 0x00, 0x00,
  0xc8, 0x00, 0x00, 0x00, 0x10, 0x00, 0x00, 0x00, 0x04, 0x00, 0x00, 0x00,
  0x6d, 0x61, 0x69, 0x6e, 0x00, 0x00, 0x00, 0x00, 0x06, 0xfc, 0xff, 0xff,
  0x00, 0x00, 0x00, 0x08, 0x18, 0x00, 0x00, 0x00, 0x0c, 0x00, 0x00, 0x00,
  0x04, 0x00, 0x00, 0x00, 0x50, 0xea, 0xff, 0xff, 0x01, 0x00, 0x00, 0x00,
  0x13, 0x00, 0x00, 0x00, 0x03, 0x00, 0x00, 0x00, 0x12, 0x00, 0x00, 0x00,
  0x0b, 0x00, 0x00, 0x00, 0x0c, 0x00, 0x00, 0x00, 0x08, 0xeb, 0xff, 0xff,
  0x00, 0x00, 0x00, 0x09, 0x14, 0x00, 0x00, 0x00, 0x14, 0x00, 0x00, 0x00,
  0x18, 0x00, 0x00, 0x00, 0x40, 0x00, 0x00, 0x00, 0x30, 0x00, 0x00, 0x00,
  0x02, 0x00, 0x00, 0x00, 0x01, 0x00, 0x00, 0x00, 0x19, 0x00, 0x00, 0x00,
  0x19, 0x00, 0x00, 0x00, 0x53, 0x74, 0x61, 0x74, 0x65, 0x66, 0x75, 0x6c,
  0x50, 0x61, 0x72, 0x74, 0x69, 0x74, 0x69, 0x6f, 0x6e, 0x65, 0x64, 0x43,
  0x61, 0x6c, 0x6c, 0x3a, 0x30, 0x00, 0x00, 0x00, 0x02, 0x00, 0x00, 0x00,
  0xff, 0xff, 0xff, 0xff, 0x19, 0x00, 0x00, 0x00, 0xec, 0xea, 0xff, 0xff,
  0x08, 0x00, 0x00, 0x00, 0x0c, 0x00, 0x00, 0x00, 0x01, 0x00, 0x00, 0x00,
  0xad, 0x0a, 0x84, 0x3b, 0x01, 0x00, 0x00, 0x00, 0x9c, 0xff, 0xff, 0xff,
  0xff, 0xff, 0xff, 0xff, 0x00, 0x00, 0x00, 0x00, 0x00, 0x00, 0x0a, 0x00,
  0x10, 0x00, 0x04, 0x00, 0x08, 0x00, 0x0c, 0x00, 0x0a, 0x00, 0x00, 0x00,
  0x01, 0x00, 0x00, 0x00, 0x10, 0x00, 0x00, 0x00, 0x04, 0x00, 0x00, 0x00,
  0x01, 0x00, 0x00, 0x00, 0x12, 0x00, 0x00, 0x00, 0x01, 0x00, 0x00, 0x00,
  0x11, 0x00, 0x00, 0x00, 0x9c, 0xfb, 0xff, 0xff, 0x0e, 0x00, 0x00, 0x00,
  0x00, 0x00, 0x00, 0x0e, 0x02, 0x00, 0x00, 0x00, 0xbc, 0xeb, 0xff, 0xff,
  0x00, 0x00, 0x00, 0x09, 0x14, 0x00, 0x00, 0x00, 0x13, 0x00, 0x00, 0x00,
  0x18, 0x00, 0x00, 0x00, 0x44, 0x00, 0x00, 0x00, 0x34, 0x00, 0x00, 0x00,
  0x02, 0x00, 0x00, 0x00, 0x01, 0x00, 0x00, 0x00, 0x1e, 0x00, 0x00, 0x00,
  0x1d, 0x00, 0x00, 0x00, 0x73, 0x65, 0x71, 0x75, 0x65, 0x6e, 0x74, 0x69,
  0x61, 0x6c, 0x5f, 0x34, 0x2f, 0x64, 0x65, 0x6e, 0x73, 0x65, 0x5f, 0x32,
  0x38, 0x2f, 0x53, 0x69, 0x67, 0x6d, 0x6f, 0x69, 0x64, 0x00, 0x00, 0x00,
  0x02, 0x00, 0x00, 0x00, 0xff, 0xff, 0xff, 0xff, 0x1e, 0x00, 0x00, 0x00,
  0xa4, 0xeb, 0xff, 0xff, 0x08, 0x00, 0x00, 0x00, 0x0c, 0x00, 0x00, 0x00,
  0x01, 0x00, 0x00, 0x00, 0x00, 0x00, 0x80, 0x3b, 0x01, 0x00, 0x00, 0x00,
  0x80, 0xff, 0xff, 0xff, 0xff, 0xff, 0xff, 0xff, 0x00, 0x00, 0x00, 0x00,
  0x66, 0xfd, 0xff, 0xff, 0x00, 0x00, 0x00, 0x08, 0x18, 0x00, 0x00, 0x00,
  0x0c, 0x00, 0x00, 0x00, 0x04, 0x00, 0x00, 0x00, 0xb0, 0xeb, 0xff, 0xff,
  0x01, 0x00, 0x00, 0x00, 0x11, 0x00, 0x00, 0x00, 0x03, 0x00, 0x00, 0x00,
  0x10, 0x00, 0x00, 0x00, 0x09, 0x00, 0x00, 0x00, 0x0a, 0x00, 0x00, 0x00,
  0x68, 0xec, 0xff, 0xff, 0x00, 0x00, 0x00, 0x09, 0x14, 0x00, 0x00, 0x00,
  0x12, 0x00, 0x00, 0x00, 0x18, 0x00, 0x00, 0x00, 0x60, 0x00, 0x00, 0x00,
  0x50, 0x00, 0x00, 0x00, 0x02, 0x00, 0x00, 0x00, 0x01, 0x00, 0x00, 0x00,
  0x1e, 0x00, 0x00, 0x00, 0x3a, 0x00, 0x00, 0x00, 0x73, 0x65, 0x71, 0x75,
  0x65, 0x6e, 0x74, 0x69, 0x61, 0x6c, 0x5f, 0x34, 0x2f, 0x64, 0x65, 0x6e,
  0x73, 0x65, 0x5f, 0x32, 0x38, 0x2f, 0x4d, 0x61, 0x74, 0x4d, 0x75, 0x6c,
  0x3b, 0x73, 0x65, 0x71, 0x75, 0x65, 0x6e, 0x74, 0x69, 0x61, 0x6c, 0x5f,
  0x34, 0x2f, 0x64, 0x65, 0x6e, 0x73, 0x65, 0x5f, 0x32, 0x38, 0x2f, 0x42,
  0x69, 0x61, 0x73, 0x41, 0x64, 0x64, 0x00, 0x00, 0x02, 0x00, 0x00, 0x00,
  0xff, 0xff, 0xff, 0xff, 0x1e, 0x00, 0x00, 0x00, 0x6c, 0xec, 0xff, 0xff,
  0x08, 0x00, 0x00, 0x00, 0x0c, 0x00, 0x00, 0x00, 0x01, 0x00, 0x00, 0x00,
  0xf5, 0x2a, 0xfd, 0x3c, 0x01, 0x00, 0x00, 0x00, 0x38, 0x00, 0x00, 0x00,
  0x00, 0x00, 0x00, 0x00, 0x00, 0x00, 0x00, 0x00, 0x2e, 0xfe, 0xff, 0xff,
  0x00, 0x00, 0x00, 0x08, 0x1c, 0x00, 0x00, 0x00, 0x10, 0x00, 0x00, 0x00,
  0x04, 0x00, 0x00, 0x00, 0x2a, 0xfd, 0xff, 0xff, 0x00, 0x00, 0x00, 0x01,
  0x01, 0x00, 0x00, 0x00, 0x10, 0x00, 0x00, 0x00, 0x03, 0x00, 0x00, 0x00,
  0x0f, 0x00, 0x00, 0x00, 0x07, 0x00, 0x00, 0x00, 0x08, 0x00, 0x00, 0x00,
  0x34, 0xed, 0xff, 0xff, 0x00, 0x00, 0x00, 0x09, 0x14, 0x00, 0x00, 0x00,
  0x11, 0x00, 0x00, 0x00, 0x18, 0x00, 0x00, 0x00, 0x7c, 0x00, 0x00, 0x00,
  0x6c, 0x00, 0x00, 0x00, 0x02, 0x00, 0x00, 0x00, 0x01, 0x00, 0x00, 0x00,
  0x0a, 0x00, 0x00, 0x00, 0x55, 0x00, 0x00, 0x00, 0x73, 0x65, 0x71, 0x75,
  0x65, 0x6e, 0x74, 0x69, 0x61, 0x6c, 0x5f, 0x34, 0x2f, 0x64, 0x65, 0x6e,
  0x73, 0x65, 0x5f, 0x32, 0x37, 0x2f, 0x4d, 0x61, 0x74, 0x4d, 0x75, 0x6c,
  0x3b, 0x73, 0x65, 0x71, 0x75, 0x65, 0x6e, 0x74, 0x69, 0x61, 0x6c, 0x5f,
  0x34, 0x2f, 0x64, 0x65, 0x6e, 0x73, 0x65, 0x5f, 0x32, 0x37, 0x2f, 0x52,
  0x65, 0x6c, 0x75, 0x3b, 0x73, 0x65, 0x71, 0x75, 0x65, 0x6e, 0x74, 0x69,
  0x61, 0x6c, 0x5f, 0x34, 0x2f, 0x64, 0x65, 0x6e, 0x73, 0x65, 0x5f, 0x32,
  0x37, 0x2f, 0x42, 0x69, 0x61, 0x73, 0x41, 0x64, 0x64, 0x00, 0x00, 0x00,
  0x02, 0x00, 0x00, 0x00, 0xff, 0xff, 0xff, 0xff, 0x0a, 0x00, 0x00, 0x00,
  0x54, 0xed, 0xff, 0xff, 0x08, 0x00, 0x00, 0x00, 0x0c, 0x00, 0x00, 0x00,
  0x01, 0x00, 0x00, 0x00, 0x75, 0x33, 0x4d, 0x3c, 0x01, 0x00, 0x00, 0x00,
  0x80, 0xff, 0xff, 0xff, 0xff, 0xff, 0xff, 0xff, 0x00, 0x00, 0x00, 0x00,
  0x16, 0xff, 0xff, 0xff, 0x00, 0x00, 0x00, 0x08, 0x1c, 0x00, 0x00, 0x00,
  0x10, 0x00, 0x00, 0x00, 0x04, 0x00, 0x00, 0x00, 0x12, 0xfe, 0xff, 0xff,
  0x00, 0x00, 0x00, 0x01, 0x01, 0x00, 0x00, 0x00, 0x0f, 0x00, 0x00, 0x00,
  0x03, 0x00, 0x00, 0x00, 0x0e, 0x00, 0x00, 0x00, 0x05, 0x00, 0x00, 0x00,
  0x06, 0x00, 0x00, 0x00, 0x1c, 0xee, 0xff, 0xff, 0x00, 0x00, 0x00, 0x09,
  0x14, 0x00, 0x00, 0x00, 0x10, 0x00, 0x00, 0x00, 0x18, 0x00, 0x00, 0x00,
  0x7c, 0x00, 0x00, 0x00, 0x6c, 0x00, 0x00, 0x00, 0x02, 0x00, 0x00, 0x00,
  0x01, 0x00, 0x00, 0x00, 0x02, 0x00, 0x00, 0x00, 0x55, 0x00, 0x00, 0x00,
  0x73, 0x65, 0x71, 0x75, 0x65, 0x6e, 0x74, 0x69, 0x61, 0x6c, 0x5f, 0x34,
  0x2f, 0x64, 0x65, 0x6e, 0x73, 0x65, 0x5f, 0x32, 0x36, 0x2f, 0x4d, 0x61,
  0x74, 0x4d, 0x75, 0x6c, 0x3b, 0x73, 0x65, 0x71, 0x75, 0x65, 0x6e, 0x74,
  0x69, 0x61, 0x6c, 0x5f, 0x34, 0x2f, 0x64, 0x65, 0x6e, 0x73, 0x65, 0x5f,
  0x32, 0x36, 0x2f, 0x52, 0x65, 0x6c, 0x75, 0x3b, 0x73, 0x65, 0x71, 0x75,
  0x65, 0x6e, 0x74, 0x69, 0x61, 0x6c, 0x5f, 0x34, 0x2f, 0x64, 0x65, 0x6e,
  0x73, 0x65, 0x5f, 0x32, 0x36, 0x2f, 0x42, 0x69, 0x61, 0x73, 0x41, 0x64,
  0x64, 0x00, 0x00, 0x00, 0x02, 0x00, 0x00, 0x00, 0xff, 0xff, 0xff, 0xff,
  0x02, 0x00, 0x00, 0x00, 0x3c, 0xee, 0xff, 0xff, 0x08, 0x00, 0x00, 0x00,
  0x0c, 0x00, 0x00, 0x00, 0x01, 0x00, 0x00, 0x00, 0x1e, 0xd8, 0x68, 0x3c,
  0x01, 0x00, 0x00, 0x00, 0x80, 0xff, 0xff, 0xff, 0xff, 0xff, 0xff, 0xff,
  0x00, 0x00, 0x00, 0x00, 0x00, 0x00, 0x0e, 0x00, 0x14, 0x00, 0x00, 0x00,
  0x08, 0x00, 0x0c, 0x00, 0x07, 0x00, 0x10, 0x00, 0x0e, 0x00, 0x00, 0x00,
  0x00, 0x00, 0x00, 0x08, 0x1c, 0x00, 0x00, 0x00, 0x10, 0x00, 0x00, 0x00,
  0x04, 0x00, 0x00, 0x00, 0x0a, 0xff, 0xff, 0xff, 0x00, 0x00, 0x00, 0x01,
  0x01, 0x00, 0x00, 0x00, 0x0e, 0x00, 0x00, 0x00, 0x03, 0x00, 0x00, 0x00,
  0x0d, 0x00, 0x00, 0x00, 0x03, 0x00, 0x00, 0x00, 0x04, 0x00, 0x00, 0x00,
  0x14, 0xef, 0xff, 0xff, 0x00, 0x00, 0x00, 0x09, 0x14, 0x00, 0x00, 0x00,
  0x0f, 0x00, 0x00, 0x00, 0x18, 0x00, 0x00, 0x00, 0x7c, 0x00, 0x00, 0x00,
  0x6c, 0x00, 0x00, 0x00, 0x02, 0x00, 0x00, 0x00, 0x01, 0x00, 0x00, 0x00,
  0x0a, 0x00, 0x00, 0x00, 0x55, 0x00, 0x00, 0x00, 0x73, 0x65, 0x71, 0x75,
  0x65, 0x6e, 0x74, 0x69, 0x61, 0x6c, 0x5f, 0x34, 0x2f, 0x64, 0x65, 0x6e,
  0x73, 0x65, 0x5f, 0x32, 0x35, 0x2f, 0x4d, 0x61, 0x74, 0x4d, 0x75, 0x6c,
  0x3b, 0x73, 0x65, 0x71, 0x75, 0x65, 0x6e, 0x74, 0x69, 0x61, 0x6c, 0x5f,
  0x34, 0x2f, 0x64, 0x65, 0x6e, 0x73, 0x65, 0x5f, 0x32, 0x35, 0x2f, 0x52,
  0x65, 0x6c, 0x75, 0x3b, 0x73, 0x65, 0x71, 0x75, 0x65, 0x6e, 0x74, 0x69,
  0x61, 0x6c, 0x5f, 0x34, 0x2f, 0x64, 0x65, 0x6e, 0x73, 0x65, 0x5f, 0x32,
  0x35, 0x2f, 0x42, 0x69, 0x61, 0x73, 0x41, 0x64, 0x64, 0x00, 0x00, 0x00,
  0x02, 0x00, 0x00, 0x00, 0xff, 0xff, 0xff, 0xff, 0x0a, 0x00, 0x00, 0x00,
  0x34, 0xef, 0xff, 0xff, 0x08, 0x00, 0x00, 0x00, 0x0c, 0x00, 0x00, 0x00,
  0x01, 0x00, 0x00, 0x00, 0x7c, 0x57, 0x5c, 0x3c, 0x01, 0x00, 0x00, 0x00,
  0x80, 0xff, 0xff, 0xff, 0xff, 0xff, 0xff, 0xff, 0x00, 0x00, 0x0e, 0x00,
  0x16, 0x00, 0x00, 0x00, 0x08, 0x00, 0x0c, 0x00, 0x07, 0x00, 0x10, 0x00,
  0x0e, 0x00, 0x00, 0x00, 0x00, 0x00, 0x00, 0x08, 0x24, 0x00, 0x00, 0x00,
  0x18, 0x00, 0x00, 0x00, 0x0c, 0x00, 0x00, 0x00, 0x00, 0x00, 0x06, 0x00,
  0x08, 0x00, 0x07, 0x00, 0x06, 0x00, 0x00, 0x00, 0x00, 0x00, 0x00, 0x01,
  0x01, 0x00, 0x00, 0x00, 0x0d, 0x00, 0x00, 0x00, 0x03, 0x00, 0x00, 0x00,
  0x00, 0x00, 0x00, 0x00, 0x01, 0x00, 0x00, 0x00, 0x02, 0x00, 0x00, 0x00,
  0x0c, 0x00, 0x10, 0x00, 0x0b, 0x00, 0x00, 0x00, 0x0c, 0x00, 0x04, 0x00,
  0x0c, 0x00, 0x00, 0x00, 0x09, 0x00, 0x00, 0x00, 0x00, 0x00, 0x00, 0x09,
  0x04, 0x00, 0x00, 0x00, 0x2c, 0xf0, 0xff, 0xff, 0x00, 0x00, 0x00, 0x09,
  0x14, 0x00, 0x00, 0x00, 0x0e, 0x00, 0x00, 0x00, 0x18, 0x00, 0x00, 0x00,
  0x7c, 0x00, 0x00, 0x00, 0x6c, 0x00, 0x00, 0x00, 0x02, 0x00, 0x00, 0x00,
  0x01, 0x00, 0x00, 0x00, 0x1e, 0x00, 0x00, 0x00, 0x55, 0x00, 0x00, 0x00,
  0x73, 0x65, 0x71, 0x75, 0x65, 0x6e, 0x74, 0x69, 0x61, 0x6c, 0x5f, 0x34,
  0x2f, 0x64, 0x65, 0x6e, 0x73, 0x65, 0x5f, 0x32, 0x34, 0x2f, 0x4d, 0x61,
  0x74, 0x4d, 0x75, 0x6c, 0x3b, 0x73, 0x65, 0x71, 0x75, 0x65, 0x6e, 0x74,
  0x69, 0x61, 0x6c, 0x5f, 0x34, 0x2f, 0x64, 0x65, 0x6e, 0x73, 0x65, 0x5f,
  0x32, 0x34, 0x2f, 0x52, 0x65, 0x6c, 0x75, 0x3b, 0x73, 0x65, 0x71, 0x75,
  0x65, 0x6e, 0x74, 0x69, 0x61, 0x6c, 0x5f, 0x34, 0x2f, 0x64, 0x65, 0x6e,
  0x73, 0x65, 0x5f, 0x32, 0x34, 0x2f, 0x42, 0x69, 0x61, 0x73, 0x41, 0x64,
  0x64, 0x00, 0x00, 0x00, 0x02, 0x00, 0x00, 0x00, 0xff, 0xff, 0xff, 0xff,
  0x1e, 0x00, 0x00, 0x00, 0x4c, 0xf0, 0xff, 0xff, 0x08, 0x00, 0x00, 0x00,
  0x0c, 0x00, 0x00, 0x00, 0x01, 0x00, 0x00, 0x00, 0x50, 0xd4, 0x0d, 0x3c,
  0x01, 0x00, 0x00, 0x00, 0x80, 0xff, 0xff, 0xff, 0xff, 0xff, 0xff, 0xff,
  0x00, 0x00, 0x00, 0x00, 0x5a, 0xf4, 0xff, 0xff, 0x04, 0x00, 0x00, 0x00,
  0x64, 0x00, 0x00, 0x00, 0x2c, 0x19, 0x00, 0x00, 0x17, 0x17, 0x00, 0x00,
  0xe5, 0x08, 0x00, 0x00, 0xb8, 0x09, 0x00, 0x00, 0x36, 0x11, 0x00, 0x00,
  0xf5, 0xfd, 0xff, 0xff, 0x8f, 0x02, 0x00, 0x00, 0x51, 0x03, 0x00, 0x00,
  0x4d, 0x10, 0x00, 0x00, 0xf8, 0x0e, 0x00, 0x00, 0xf1, 0xfd, 0xff, 0xff,
  0x8d, 0x0f, 0x00, 0x00, 0x0b, 0x0d, 0x00, 0x00, 0xe3, 0x11, 0x00, 0x00,
  0x51, 0x01, 0x00, 0x00, 0x33, 0x08, 0x00, 0x00, 0x35, 0x16, 0x00, 0x00,
  0xe8, 0x16, 0x00, 0x00, 0xb1, 0x01, 0x00, 0x00, 0xb0, 0x17, 0x00, 0x00,
  0xfa, 0x02, 0x00, 0x00, 0x99, 0x17, 0x00, 0x00, 0x8a, 0x10, 0x00, 0x00,
  0x57, 0x0d, 0x00, 0x00, 0x9c, 0x0b, 0x00, 0x00, 0xca, 0xf1, 0xff, 0xff,
  0x00, 0x00, 0x00, 0x02, 0x10, 0x00, 0x00, 0x00, 0x0d, 0x00, 0x00, 0x00,
  0x10, 0x00, 0x00, 0x00, 0x20, 0x00, 0x00, 0x00, 0x01, 0x00, 0x00, 0x00,
  0x19, 0x00, 0x00, 0x00, 0x0d, 0x00, 0x00, 0x00, 0x64, 0x65, 0x6e, 0x73,
  0x65, 0x5f, 0x32, 0x39, 0x2f, 0x62, 0x69, 0x61, 0x73, 0x00, 0x00, 0x00,
  0x14, 0xf1, 0xff, 0xff, 0x08, 0x00, 0x00, 0x00, 0x0c, 0x00, 0x00, 0x00,
  0x01, 0x00, 0x00, 0x00, 0x96, 0xb7, 0x57, 0x37, 0x01, 0x00, 0x00, 0x00,
  0x00, 0x00, 0x00, 0x00, 0x00, 0x00, 0x00, 0x00, 0x00, 0x00, 0x00, 0x00,
  0x22, 0xf5, 0xff, 0xff, 0x04, 0x00, 0x00, 0x00, 0xee, 0x02, 0x00, 0x00,
  0xfb, 0x16, 0xe2, 0xdf, 0xcf, 0xb6, 0x1e, 0x25, 0xed, 0x78, 0xcd, 0xee,
  0xc3, 0xf9, 0xe9, 0x34, 0xe9, 0x59, 0x74, 0x17, 0x00, 0x06, 0x09, 0xb7,
  0x0e, 0x64, 0xe8, 0x02, 0xd1, 0x11, 0x2f, 0x05, 0x6d, 0x37, 0xba, 0x71,
  0xc3, 0xe1, 0x20, 0xc2, 0x04, 0x51, 0x7f, 0x39, 0xd8, 0xe4, 0x4b, 0xbc,
  0xb8, 0x20, 0xec, 0x6f, 0x68, 0xc7, 0xde, 0x1e, 0xfa, 0xac, 0x2a, 0x16,
  0xff, 0xd1, 0x20, 0xbd, 0x30, 0xc9, 0xf4, 0x48, 0xc1, 0x1e, 0xec, 0x1f,
  0x20, 0x57, 0xf8, 0x39, 0x46, 0x39, 0xc4, 0x1b, 0xe0, 0x41, 0x19, 0xc9,
  0xbb, 0x69, 0x09, 0x54, 0x47, 0x09, 0x0e, 0xd9, 0xc4, 0xc9, 0x3f, 0x4f,
  0xc6, 0xa7, 0x0e, 0xe7, 0xe2, 0xad, 0x1b, 0x20, 0x07, 0x46, 0x5c, 0xff,
  0x56, 0x61, 0xe8, 0xd8, 0xf3, 0x2a, 0xf6, 0xb6, 0x51, 0xbb, 0x67, 0xf3,
  0xb4, 0xbc, 0x11, 0xfc, 0xbc, 0xd2, 0x2e, 0x1f, 0x3c, 0x0d, 0xbe, 0x76,
  0x60, 0xdc, 0xc5, 0xb7, 0x10, 0x38, 0x68, 0x48, 0xd0, 0xd4, 0xee, 0x5d,
  0xc9, 0x5c, 0xe2, 0x23, 0xd0, 0xeb, 0x56, 0xb4, 0x3e, 0x23, 0x33, 0x4a,
  0xd9, 0xbc, 0x86, 0x01, 0xe8, 0x99, 0xa8, 0x00, 0x63, 0xf2, 0xf8, 0xa0,
  0x2b, 0x4c, 0xb8, 0xfb, 0x32, 0x67, 0x3c, 0x0a, 0xa2, 0xbf, 0x98, 0x8a,
  0xdb, 0x4d, 0xd2, 0xca, 0xf5, 0x21, 0xf0, 0x40, 0x39, 0x15, 0xad, 0x5e,
  0x2d, 0xa1, 0x32, 0x21, 0xd4, 0xa6, 0x5c, 0x4e, 0xdf, 0xa4, 0xae, 0x2a,
  0x5c, 0x23, 0xed, 0x0a, 0x09, 0x32, 0x1c, 0x3f, 0xd1, 0xeb, 0x40, 0x3d,
  0x69, 0xd3, 0xd5, 0xde, 0x14, 0x63, 0xad, 0xd9, 0x35, 0x0e, 0x62, 0x1a,
  0xda, 0x4d, 0xdd, 0xae, 0x24, 0x3e, 0x49, 0xc6, 0x26, 0x13, 0xca, 0x36,
  0x20, 0xc0, 0xc9, 0x0e, 0xd4, 0xad, 0x41, 0xd5, 0x46, 0x10, 0x57, 0x13,
  0x53, 0x18, 0x4f, 0x5c, 0xfc, 0x6b, 0xfe, 0xdc, 0x05, 0x03, 0xef, 0xee,
  0xe8, 0xf3, 0x74, 0x74, 0x4c, 0x47, 0xe4, 0x3a, 0x56, 0xdd, 0x11, 0xe9,
  0xe6, 0x2a, 0x2a, 0xdc, 0x4b, 0x43, 0xf1, 0xec, 0xba, 0x45, 0xb2, 0x3f,
  0xc1, 0xe7, 0xe3, 0xed, 0x68, 0x38, 0x3e, 0x23, 0x54, 0xaa, 0x14, 0xe3,
  0x17, 0xde, 0x53, 0xda, 0x4e, 0x17, 0x2b, 0x52, 0x27, 0x21, 0x3f, 0x2b,
  0x33, 0xc2, 0xf6, 0xb4, 0xec, 0x00, 0xca, 0xe6, 0x11, 0x49, 0x1f, 0x47,
  0xbd, 0x0d, 0x4b, 0xc3, 0x59, 0x09, 0x0e, 0xef, 0xdb, 0x79, 0x6c, 0x11,
  0xc4, 0xdf, 0x16, 0xbd, 0xc5, 0xc7, 0x14, 0x11, 0xf1, 0x53, 0x79, 0xcf,
  0xd5, 0x11, 0x72, 0xc3, 0x5e, 0x19, 0xfd, 0x53, 0x20, 0x1d, 0x2a, 0xc8,
  0x96, 0x41, 0xd5, 0x36, 0xa1, 0x6d, 0x2f, 0x52, 0x4d, 0xc8, 0x97, 0x18,
  0x5b, 0x9b, 0x62, 0x38, 0xbe, 0xff, 0x0c, 0xbf, 0xcc, 0xa3, 0x02, 0x51,
  0x08, 0x3f, 0x2b, 0xf5, 0x93, 0x41, 0x2b, 0x29, 0xe6, 0xf8, 0xfd, 0xca,
  0x02, 0x52, 0x50, 0xc9, 0xe8, 0x20, 0x4f, 0x47, 0xd1, 0x58, 0x9f, 0x07,
  0x4d, 0x58, 0x15, 0x23, 0xbe, 0x76, 0x23, 0x49, 0xbb, 0xe8, 0xcb, 0x1e,
  0x4a, 0xb7, 0x08, 0x58, 0xfa, 0x0d, 0x39, 0x23, 0x02, 0x05, 0x22, 0xdd,
  0x1a, 0xc9, 0x24, 0x56, 0xc8, 0xd0, 0x44, 0xda, 0x18, 0x48, 0xff, 0x56,
  0x51, 0xb9, 0xbb, 0x5a, 0xc9, 0x06, 0x4f, 0xdb, 0xb3, 0x44, 0xb3, 0xf6,
  0xc1, 0xb4, 0xd5, 0x0b, 0xea, 0x27, 0x4a, 0x05, 0x3a, 0x0c, 0xf1, 0x53,
  0x66, 0x63, 0x08, 0xbb, 0x1c, 0x41, 0x2c, 0xae, 0x27, 0xf3, 0xbc, 0xe0,
  0xf6, 0xc1, 0x46, 0x1e, 0xc0, 0x1b, 0xc7, 0xbd, 0x2a, 0x3d, 0xf0, 0xe2,
  0x3d, 0xdd, 0x19, 0x44, 0x53, 0xc3, 0xb7, 0xe3, 0xc2, 0xe1, 0x64, 0xc4,
  0xce, 0xfe, 0x58, 0x16, 0x29, 0x51, 0xef, 0x77, 0x54, 0x20, 0xf2, 0x53,
  0xbc, 0x41, 0xd7, 0xca, 0x2f, 0xfe, 0xcd, 0x0a, 0x1d, 0xd7, 0xe9, 0x4f,
  0x74, 0x67, 0xc0, 0xd2, 0xc7, 0x1a, 0x00, 0x0a, 0xcf, 0x48, 0xed, 0x48,
  0x49, 0x32, 0x20, 0x06, 0xb2, 0x0c, 0xb6, 0xcc, 0xcb, 0xc5, 0xe8, 0x1f,
  0x22, 0x08, 0x40, 0xa6, 0x19, 0x13, 0x61, 0x41, 0xa8, 0x32, 0xfc, 0x36,
  0xf1, 0x3c, 0x2b, 0xe5, 0xf3, 0x61, 0xbf, 0x3f, 0xc5, 0xe2, 0xe3, 0xd6,
  0xfb, 0xde, 0xd6, 0xcc, 0x6f, 0xeb, 0xc1, 0xfc, 0x75, 0xfd, 0xbf, 0xf3,
  0x34, 0x1b, 0xc8, 0xd7, 0xe9, 0x5e, 0x6e, 0x7c, 0x30, 0xc5, 0xd8, 0xb9,
  0xac, 0x41, 0x2a, 0x34, 0x43, 0x61, 0xca, 0x4c, 0xe7, 0xe1, 0x32, 0x34,
  0x97, 0x15, 0x45, 0xfb, 0xf6, 0xb6, 0x54, 0xb6, 0x12, 0xbe, 0xe6, 0x4f,
  0x11, 0x62, 0xb9, 0x51, 0x53, 0xf2, 0x15, 0xb7, 0x43, 0xa1, 0x36, 0xdd,
  0xe7, 0x5e, 0x2b, 0x47, 0xdd, 0xb2, 0x31, 0x55, 0xec, 0x48, 0x11, 0x39,
  0xc0, 0xde, 0x32, 0xd7, 0xff, 0x28, 0x25, 0x01, 0x4e, 0xc1, 0x43, 0xe8,
  0x25, 0x17, 0xc0, 0x03, 0x2e, 0xed, 0x40, 0x3e, 0xd7, 0xf5, 0xb0, 0x2e,
  0xe3, 0xc6, 0x62, 0x5d, 0x32, 0xaa, 0x28, 0x09, 0x2d, 0x69, 0x3a, 0xd4,
  0x13, 0x0d, 0x34, 0xb9, 0xbe, 0xf6, 0xf8, 0x2c, 0x00, 0x02, 0x0f, 0xbd,
  0xf9, 0xbc, 0xb4, 0x1d, 0x44, 0xe0, 0x04, 0x47, 0xfa, 0xe8, 0x47, 0xd6,
  0x38, 0x5d, 0x11, 0xb5, 0x0f, 0xaa, 0x5f, 0x3b, 0x00, 0x2d, 0x00, 0x6e,
  0xcc, 0x18, 0x44, 0xb4, 0x38, 0xe1, 0xf2, 0x0a, 0x0e, 0xee, 0x53, 0x2d,
  0xa1, 0x56, 0x40, 0xe9, 0x56, 0xe9, 0x18, 0x12, 0xa9, 0x38, 0x49, 0x48,
  0x18, 0xba, 0x1f, 0x3f, 0x55, 0x1f, 0x00, 0x00, 0x1e, 0xf5, 0xff, 0xff,
  0x00, 0x00, 0x00, 0x09, 0x10, 0x00, 0x00, 0x00, 0x0c, 0x00, 0x00, 0x00,
  0x14, 0x00, 0x00, 0x00, 0x34, 0x00, 0x00, 0x00, 0x02, 0x00, 0x00, 0x00,
  0x19, 0x00, 0x00, 0x00, 0x1e, 0x00, 0x00, 0x00, 0x1c, 0x00, 0x00, 0x00,
  0x73, 0x65, 0x71, 0x75, 0x65, 0x6e, 0x74, 0x69, 0x61, 0x6c, 0x5f, 0x34,
  0x2f, 0x64, 0x65, 0x6e, 0x73, 0x65, 0x5f, 0x32, 0x39, 0x2f, 0x4d, 0x61,
  0x74, 0x4d, 0x75, 0x6c, 0x00, 0x00, 0x00, 0x00, 0x7c, 0xf4, 0xff, 0xff,
  0x08, 0x00, 0x00, 0x00, 0x0c, 0x00, 0x00, 0x00, 0x01, 0x00, 0x00, 0x00,
  0x96, 0xb7, 0x57, 0x3b, 0x01, 0x00, 0x00, 0x00, 0x00, 0x00, 0x00, 0x00,
  0x00, 0x00, 0x00, 0x00, 0x86, 0xf8, 0xff, 0xff, 0x04, 0x00, 0x00, 0x00,
  0x78, 0x00, 0x00, 0x00, 0x80, 0xfc, 0xff, 0xff, 0x0d, 0xfb, 0xff, 0xff,
  0x06, 0xfe, 0xff, 0xff, 0x46, 0xfc, 0xff, 0xff, 0x1d, 0xfc, 0xff, 0xff,
  0x8f, 0xfb, 0xff, 0xff, 0xaa, 0xfc, 0xff, 0xff, 0x10, 0xfb, 0xff, 0xff,
  0x7a, 0xfc, 0xff, 0xff, 0xf5, 0x01, 0x00, 0x00, 0x56, 0xfd, 0xff, 0xff,
  0x37, 0xfc, 0xff, 0xff, 0x67, 0xfc, 0xff, 0xff, 0xc0, 0xfb, 0xff, 0xff,
  0x09, 0x01, 0x00, 0x00, 0xb6, 0x02, 0x00, 0x00, 0xb3, 0x03, 0x00, 0x00,
  0xe5, 0xfd, 0xff, 0xff, 0x78, 0x01, 0x00, 0x00, 0x8e, 0x01, 0x00, 0x00,
  0x9b, 0xfc, 0xff, 0xff, 0x88, 0xfc, 0xff, 0xff, 0x01, 0x04, 0x00, 0x00,
  0xb8, 0xf9, 0xff, 0xff, 0x1c, 0xff, 0xff, 0xff, 0x80, 0x03, 0x00, 0x00,
  0xb0, 0x02, 0x00, 0x00, 0x0d, 0xff, 0xff, 0xff, 0x7e, 0xfe, 0xff, 0xff,
  0xb1, 0xff, 0xff, 0xff, 0x0a, 0xf6, 0xff, 0xff, 0x00, 0x00, 0x00, 0x02,
  0x10, 0x00, 0x00, 0x00, 0x0b, 0x00, 0x00, 0x00, 0x10, 0x00, 0x00, 0x00,
  0x20, 0x00, 0x00, 0x00, 0x01, 0x00, 0x00, 0x00, 0x1e, 0x00, 0x00, 0x00,
  0x0d, 0x00, 0x00, 0x00, 0x64, 0x65, 0x6e, 0x73, 0x65, 0x5f, 0x32, 0x38,
  0x2f, 0x62, 0x69, 0x61, 0x73, 0x00, 0x00, 0x00, 0x54, 0xf5, 0xff, 0xff,
  0x08, 0x00, 0x00, 0x00, 0x0c, 0x00, 0x00, 0x00, 0x01, 0x00, 0x00, 0x00,
  0x85, 0xc6, 0xa9, 0x38, 0x01, 0x00, 0x00, 0x00, 0x00, 0x00, 0x00, 0x00,
  0x00, 0x00, 0x00, 0x00, 0x5e, 0xf9, 0xff, 0xff, 0x04, 0x00, 0x00, 0x00,
  0x2c, 0x01, 0x00, 0x00, 0xca, 0xe6, 0xbf, 0xda, 0xbf, 0xd4, 0xf4, 0xf8,
  0xb5, 0x13, 0xdb, 0x28, 0xdb, 0xd5, 0xdc, 0x16, 0xd1, 0xe5, 0xd5, 0x1c,
  0xf3, 0x36, 0xc6, 0x0f, 0x31, 0xdc, 0xf8, 0x00, 0x09, 0xe1, 0xcf, 0xfc,
  0x23, 0xf9, 0x11, 0xb8, 0x12, 0xba, 0xec, 0xd6, 0xf1, 0x1a, 0xf2, 0x11,
  0xb3, 0x1e, 0x2e, 0x25, 0xdc, 0xc3, 0x20, 0x30, 0xbd, 0xee, 0x03, 0x0e,
  0xc4, 0x0a, 0x21, 0xf6, 0xb7, 0xc5, 0x38, 0x29, 0xc2, 0xdf, 0x09, 0xe4,
  0x19, 0xd1, 0xb9, 0xd3, 0xa8, 0xbd, 0xf7, 0xd3, 0x21, 0xc3, 0xad, 0xd3,
  0xc1, 0x93, 0x04, 0xee, 0xcb, 0x0e, 0x1a, 0xd9, 0xc4, 0xfd, 0x2f, 0xdb,
  0x07, 0xc8, 0x2c, 0x19, 0xf9, 0x19, 0x2b, 0x08, 0xd8, 0x0a, 0xd4, 0x05,
  0xc0, 0xdc, 0xe4, 0xe2, 0x09, 0xd3, 0xf7, 0xca, 0xdc, 0x03, 0xef, 0x28,
  0x1c, 0xeb, 0xc4, 0x17, 0xc3, 0x90, 0x7f, 0x3c, 0x17, 0x02, 0x1c, 0xf2,
  0xf8, 0xff, 0xc9, 0xbd, 0xe6, 0x2d, 0xe1, 0x16, 0x16, 0xe2, 0xd2, 0xd8,
  0xe7, 0xc7, 0x2a, 0x3e, 0xeb, 0x3c, 0x2c, 0x31, 0xdc, 0x06, 0xe4, 0xbc,
  0x16, 0xdc, 0xdc, 0x26, 0xd5, 0x31, 0x27, 0x0f, 0xe2, 0xe0, 0xc1, 0xd1,
  0x11, 0x08, 0xe5, 0xc0, 0xf4, 0x03, 0xd1, 0x21, 0x2f, 0x30, 0xe6, 0x09,
  0x3a, 0xf2, 0xe9, 0x07, 0x0a, 0x1b, 0xbb, 0xfd, 0x1d, 0xf3, 0x0a, 0xfd,
  0xf8, 0xdc, 0xea, 0xdb, 0xf8, 0x1a, 0x15, 0x29, 0x0d, 0x39, 0xef, 0xf0,
  0xd1, 0xe8, 0x17, 0x1c, 0xd5, 0xc9, 0x29, 0xc3, 0xff, 0xc5, 0xe2, 0xdd,
  0x03, 0xfa, 0xdc, 0x17, 0x1e, 0xd0, 0x23, 0xef, 0xe8, 0xbc, 0xca, 0x48,
  0xd7, 0xf8, 0x16, 0x40, 0x14, 0x13, 0x08, 0x1c, 0xe3, 0x1e, 0x21, 0xf1,
  0xdb, 0xfd, 0x27, 0xe3, 0x0b, 0x12, 0xf1, 0x3c, 0xd1, 0xdc, 0x05, 0x20,
  0xe5, 0x2e, 0x4c, 0x26, 0xfa, 0x30, 0xdb, 0x07, 0x2f, 0xfc, 0xf5, 0x28,
  0xe2, 0xd7, 0x2b, 0xdc, 0xee, 0x2b, 0xcd, 0xec, 0x0b, 0xf5, 0xca, 0xe7,
  0xab, 0xd1, 0x24, 0xe4, 0xf1, 0x0f, 0xc1, 0xda, 0xd2, 0xf7, 0x24, 0xe1,
  0xd5, 0xd3, 0xea, 0xf1, 0xc6, 0x36, 0xbd, 0xe5, 0x20, 0x00, 0x0f, 0xe9,
  0xbc, 0xf1, 0xe2, 0xd4, 0x96, 0xf7, 0xff, 0xff, 0x00, 0x00, 0x00, 0x09,
  0x10, 0x00, 0x00, 0x00, 0x0a, 0x00, 0x00, 0x00, 0x14, 0x00, 0x00, 0x00,
  0x34, 0x00, 0x00, 0x00, 0x02, 0x00, 0x00, 0x00, 0x1e, 0x00, 0x00, 0x00,
  0x0a, 0x00, 0x00, 0x00, 0x1c, 0x00, 0x00, 0x00, 0x73, 0x65, 0x71, 0x75,
  0x65, 0x6e, 0x74, 0x69, 0x61, 0x6c, 0x5f, 0x34, 0x2f, 0x64, 0x65, 0x6e,
  0x73, 0x65, 0x5f, 0x32, 0x38, 0x2f, 0x4d, 0x61, 0x74, 0x4d, 0x75, 0x6c,
  0x00, 0x00, 0x00, 0x00, 0xf4, 0xf6, 0xff, 0xff, 0x08, 0x00, 0x00, 0x00,
  0x0c, 0x00, 0x00, 0x00, 0x01, 0x00, 0x00, 0x00, 0xfb, 0xcd, 0xd3, 0x3b,
  0x01, 0x00, 0x00, 0x00, 0x00, 0x00, 0x00, 0x00, 0x00, 0x00, 0x00, 0x00,
  0xfe, 0xfa, 0xff, 0xff, 0x04, 0x00, 0x00, 0x00, 0x28, 0x00, 0x00, 0x00,
  0x91, 0x03, 0x00, 0x00, 0xfd, 0x00, 0x00, 0x00, 0x32, 0x02, 0x00, 0x00,
  0x3d, 0xfa, 0xff, 0xff, 0x88, 0x03, 0x00, 0x00, 0xf3, 0x00, 0x00, 0x00,
  0x52, 0xfd, 0xff, 0xff, 0xdf, 0x02, 0x00, 0x00, 0x24, 0x03, 0x00, 0x00,
  0x63, 0x00, 0x00, 0x00, 0x32, 0xf8, 0xff, 0xff, 0x00, 0x00, 0x00, 0x02,
  0x10, 0x00, 0x00, 0x00, 0x09, 0x00, 0x00, 0x00, 0x10, 0x00, 0x00, 0x00,
  0x20, 0x00, 0x00, 0x00, 0x01, 0x00, 0x00, 0x00, 0x0a, 0x00, 0x00, 0x00,
  0x0d, 0x00, 0x00, 0x00, 0x64, 0x65, 0x6e, 0x73, 0x65, 0x5f, 0x32, 0x37,
  0x2f, 0x62, 0x69, 0x61, 0x73, 0x00, 0x00, 0x00, 0x7c, 0xf7, 0xff, 0xff,
  0x08, 0x00, 0x00, 0x00, 0x0c, 0x00, 0x00, 0x00, 0x01, 0x00, 0x00, 0x00,
  0x42, 0xac, 0xb8, 0x38, 0x01, 0x00, 0x00, 0x00, 0x00, 0x00, 0x00, 0x00,
  0x00, 0x00, 0x00, 0x00, 0x86, 0xfb, 0xff, 0xff, 0x04, 0x00, 0x00, 0x00,
  0x14, 0x00, 0x00, 0x00, 0x34, 0x57, 0xb7, 0x30, 0x66, 0xc0, 0x4b, 0x05,
  0x4e, 0x0f, 0x0a, 0x1d, 0xf1, 0x1d, 0x3a, 0x4b, 0x7f, 0x15, 0xce, 0x0e,
  0xa6, 0xf8, 0xff, 0xff, 0x00, 0x00, 0x00, 0x09, 0x10, 0x00, 0x00, 0x00,
  0x08, 0x00, 0x00, 0x00, 0x14, 0x00, 0x00, 0x00, 0x34, 0x00, 0x00, 0x00,
  0x02, 0x00, 0x00, 0x00, 0x0a, 0x00, 0x00, 0x00, 0x02, 0x00, 0x00, 0x00,
  0x1c, 0x00, 0x00, 0x00, 0x73, 0x65, 0x71, 0x75, 0x65, 0x6e, 0x74, 0x69,
  0x61, 0x6c, 0x5f, 0x34, 0x2f, 0x64, 0x65, 0x6e, 0x73, 0x65, 0x5f, 0x32,
  0x37, 0x2f, 0x4d, 0x61, 0x74, 0x4d, 0x75, 0x6c, 0x00, 0x00, 0x00, 0x00,
  0x04, 0xf8, 0xff, 0xff, 0x08, 0x00, 0x00, 0x00, 0x0c, 0x00, 0x00, 0x00,
  0x01, 0x00, 0x00, 0x00, 0xc4, 0x09, 0xcb, 0x3b, 0x01, 0x00, 0x00, 0x00,
  0x00, 0x00, 0x00, 0x00, 0x00, 0x00, 0x00, 0x00, 0x0e, 0xfc, 0xff, 0xff,
  0x04, 0x00, 0x00, 0x00, 0x08, 0x00, 0x00, 0x00, 0xe0, 0x05, 0x00, 0x00,
  0x8f, 0x03, 0x00, 0x00, 0x22, 0xf9, 0xff, 0xff, 0x00, 0x00, 0x00, 0x02,
  0x10, 0x00, 0x00, 0x00, 0x07, 0x00, 0x00, 0x00, 0x10, 0x00, 0x00, 0x00,
  0x20, 0x00, 0x00, 0x00, 0x01, 0x00, 0x00, 0x00, 0x02, 0x00, 0x00, 0x00,
  0x0d, 0x00, 0x00, 0x00, 0x64, 0x65, 0x6e, 0x73, 0x65, 0x5f, 0x32, 0x36,
  0x2f, 0x62, 0x69, 0x61, 0x73, 0x00, 0x00, 0x00, 0x6c, 0xf8, 0xff, 0xff,
  0x08, 0x00, 0x00, 0x00, 0x0c, 0x00, 0x00, 0x00, 0x01, 0x00, 0x00, 0x00,
  0x32, 0x16, 0x9f, 0x38, 0x01, 0x00, 0x00, 0x00, 0x00, 0x00, 0x00, 0x00,
  0x00, 0x00, 0x00, 0x00, 0x76, 0xfc, 0xff, 0xff, 0x04, 0x00, 0x00, 0x00,
  0x14, 0x00, 0x00, 0x00, 0xce, 0x4a, 0xc7, 0xe6, 0x09, 0x21, 0x65, 0xff,
  0x37, 0x1b, 0x0b, 0xf5, 0x52, 0x32, 0x74, 0x61, 0xe8, 0x6d, 0x7f, 0xc9,
  0x96, 0xf9, 0xff, 0xff, 0x00, 0x00, 0x00, 0x09, 0x10, 0x00, 0x00, 0x00,
  0x06, 0x00, 0x00, 0x00, 0x14, 0x00, 0x00, 0x00, 0x34, 0x00, 0x00, 0x00,
  0x02, 0x00, 0x00, 0x00, 0x02, 0x00, 0x00, 0x00, 0x0a, 0x00, 0x00, 0x00,
  0x1c, 0x00, 0x00, 0x00, 0x73, 0x65, 0x71, 0x75, 0x65, 0x6e, 0x74, 0x69,
  0x61, 0x6c, 0x5f, 0x34, 0x2f, 0x64, 0x65, 0x6e, 0x73, 0x65, 0x5f, 0x32,
  0x36, 0x2f, 0x4d, 0x61, 0x74, 0x4d, 0x75, 0x6c, 0x00, 0x00, 0x00, 0x00,
  0xf4, 0xf8, 0xff, 0xff, 0x08, 0x00, 0x00, 0x00, 0x0c, 0x00, 0x00, 0x00,
  0x01, 0x00, 0x00, 0x00, 0xfc, 0xd4, 0xb8, 0x3b, 0x01, 0x00, 0x00, 0x00,
  0x00, 0x00, 0x00, 0x00, 0x00, 0x00, 0x00, 0x00, 0xfe, 0xfc, 0xff, 0xff,
  0x04, 0x00, 0x00, 0x00, 0x28, 0x00, 0x00, 0x00, 0x5e, 0xfe, 0xff, 0xff,
  0x23, 0x0b, 0x00, 0x00, 0x00, 0x00, 0x00, 0x00, 0x5d, 0x04, 0x00, 0x00,
  0x00, 0x00, 0x00, 0x00, 0xaa, 0xfe, 0xff, 0xff, 0x1d, 0x0d, 0x00, 0x00,
  0x29, 0x09, 0x00, 0x00, 0x79, 0x06, 0x00, 0x00, 0xa6, 0xfd, 0xff, 0xff,
  0x32, 0xfa, 0xff, 0xff, 0x00, 0x00, 0x00, 0x02, 0x10, 0x00, 0x00, 0x00,
  0x05, 0x00, 0x00, 0x00, 0x10, 0x00, 0x00, 0x00, 0x20, 0x00, 0x00, 0x00,
  0x01, 0x00, 0x00, 0x00, 0x0a, 0x00, 0x00, 0x00, 0x0d, 0x00, 0x00, 0x00,
  0x64, 0x65, 0x6e, 0x73, 0x65, 0x5f, 0x32, 0x35, 0x2f, 0x62, 0x69, 0x61,
  0x73, 0x00, 0x00, 0x00, 0x7c, 0xf9, 0xff, 0xff, 0x08, 0x00, 0x00, 0x00,
  0x0c, 0x00, 0x00, 0x00, 0x01, 0x00, 0x00, 0x00, 0x12, 0xf0, 0x5c, 0x38,
  0x01, 0x00, 0x00, 0x00, 0x00, 0x00, 0x00, 0x00, 0x00, 0x00, 0x00, 0x00,
  0x86, 0xfd, 0xff, 0xff, 0x04, 0x00, 0x00, 0x00, 0x2c, 0x01, 0x00, 0x00,
  0x03, 0xfc, 0x03, 0x09, 0xec, 0x05, 0xf8, 0xf9, 0xf8, 0x36, 0x30, 0xd4,
  0x05, 0x2a, 0x26, 0x1f, 0x10, 0x19, 0xca, 0xe5, 0xf1, 0x09, 0xc0, 0x18,
  0x06, 0xe2, 0xd3, 0xc1, 0xf7, 0xc1, 0x0f, 0xef, 0x55, 0x17, 0xcd, 0xfd,
  0xe4, 0xb1, 0xde, 0x06, 0x20, 0xfd, 0xe5, 0xd2, 0x3d, 0x2a, 0x1a, 0xe4,
  0xd0, 0x26, 0xf0, 0x32, 0x4f, 0xd7, 0xb4, 0x33, 0x40, 0xfe, 0x4d, 0x07,
  0xd2, 0x30, 0xe0, 0xd3, 0x18, 0x00, 0x1a, 0xf0, 0x22, 0xf8, 0x1d, 0xd7,
  0x3a, 0x28, 0xca, 0xe6, 0x07, 0x27, 0x07, 0xc4, 0xf1, 0xc9, 0x1c, 0xc6,
  0x32, 0x1b, 0xcd, 0x03, 0xe9, 0xc4, 0xfd, 0x28, 0xe1, 0x0f, 0x1b, 0x02,
  0xda, 0x1d, 0xd4, 0x45, 0xd6, 0xfb, 0xf9, 0x39, 0xd2, 0xbc, 0xe1, 0x3d,
  0x36, 0x06, 0xf1, 0xf7, 0x1d, 0x06, 0x43, 0xf4, 0x06, 0xf7, 0xe8, 0x1e,
  0xf0, 0xde, 0xcb, 0xc2, 0x31, 0xe1, 0xd5, 0xd7, 0x09, 0x1a, 0x3f, 0x37,
  0xdb, 0xcd, 0x3f, 0xdd, 0xd1, 0xcf, 0x0a, 0x30, 0xf0, 0xe2, 0x0e, 0x10,
  0x0f, 0xc4, 0x30, 0x09, 0xde, 0xd7, 0x17, 0x39, 0x04, 0xef, 0xef, 0xfb,
  0x1e, 0xd6, 0xf1, 0x00, 0x18, 0xcd, 0x04, 0xce, 0x22, 0xd6, 0xd9, 0xc8,
  0xe2, 0x10, 0xd4, 0x32, 0xc7, 0x1c, 0xd0, 0x01, 0x1e, 0x25, 0xe7, 0xcd,
  0x17, 0x0a, 0x15, 0x2f, 0xd5, 0xd5, 0x35, 0xc5, 0x81, 0x02, 0xda, 0xce,
  0x11, 0xf1, 0xfd, 0x6f, 0x2c, 0x2c, 0xe9, 0x17, 0xc5, 0xe2, 0x0b, 0xc9,
  0x83, 0xe0, 0x42, 0x4d, 0x15, 0xd3, 0xad, 0xeb, 0x2d, 0xd6, 0x4f, 0x5e,
  0xfd, 0xc6, 0x3d, 0xd0, 0xd6, 0xbf, 0xf6, 0xec, 0xd3, 0xa4, 0x2b, 0x0d,
  0x57, 0x05, 0xfe, 0x3d, 0x4a, 0x20, 0x0f, 0x14, 0x2f, 0x21, 0x02, 0x39,
  0xd0, 0x2a, 0x21, 0x40, 0xe0, 0xe8, 0x0d, 0xdd, 0xc2, 0x40, 0x31, 0xdd,
  0xf1, 0xd4, 0x05, 0xe4, 0x07, 0xe5, 0x22, 0x18, 0x23, 0xef, 0x3e, 0xf7,
  0xde, 0xf1, 0x69, 0x19, 0x44, 0x2c, 0x45, 0x3d, 0x1d, 0xf7, 0xda, 0x2b,
  0xd9, 0x29, 0x1d, 0x0d, 0x08, 0x22, 0xcc, 0xde, 0xf3, 0x3b, 0xd2, 0x0d,
  0x12, 0xde, 0x23, 0xca, 0x0e, 0xe9, 0xde, 0xe3, 0x1d, 0xe7, 0x28, 0xec,
  0xbe, 0xfb, 0xff, 0xff, 0x00, 0x00, 0x00, 0x09, 0x10, 0x00, 0x00, 0x00,
  0x04, 0x00, 0x00, 0x00, 0x14, 0x00, 0x00, 0x00, 0x34, 0x00, 0x00, 0x00,
  0x02, 0x00, 0x00, 0x00, 0x0a, 0x00, 0x00, 0x00, 0x1e, 0x00, 0x00, 0x00,
  0x1c, 0x00, 0x00, 0x00, 0x73, 0x65, 0x71, 0x75, 0x65, 0x6e, 0x74, 0x69,
  0x61, 0x6c, 0x5f, 0x34, 0x2f, 0x64, 0x65, 0x6e, 0x73, 0x65, 0x5f, 0x32,
  0x35, 0x2f, 0x4d, 0x61, 0x74, 0x4d, 0x75, 0x6c, 0x00, 0x00, 0x00, 0x00,
  0x1c, 0xfb, 0xff, 0xff, 0x08, 0x00, 0x00, 0x00, 0x0c, 0x00, 0x00, 0x00,
  0x01, 0x00, 0x00, 0x00, 0x12, 0x65, 0xc7, 0x3b, 0x01, 0x00, 0x00, 0x00,
  0x00, 0x00, 0x00, 0x00, 0x00, 0x00, 0x00, 0x00, 0x26, 0xff, 0xff, 0xff,
  0x04, 0x00, 0x00, 0x00, 0x78, 0x00, 0x00, 0x00, 0xe7, 0xfb, 0xff, 0xff,
  0x94, 0x0d, 0x00, 0x00, 0x12, 0x19, 0x00, 0x00, 0xac, 0x0e, 0x00, 0x00,
  0xd7, 0xf8, 0xff, 0xff, 0xc9, 0xfb, 0xff, 0xff, 0xa2, 0x13, 0x00, 0x00,
  0x7c, 0xfa, 0xff, 0xff, 0xc5, 0xf5, 0xff, 0xff, 0x74, 0x0b, 0x00, 0x00,
  0xfc, 0xfe, 0xff, 0xff, 0x04, 0xf3, 0xff, 0xff, 0x6a, 0xfd, 0xff, 0xff,
  0x0f, 0xf6, 0xff, 0xff, 0x3c, 0x09, 0x00, 0x00, 0x9f, 0x02, 0x00, 0x00,
  0x2b, 0x18, 0x00, 0x00, 0x00, 0x00, 0x00, 0x00, 0x27, 0x0a, 0x00, 0x00,
  0x5d, 0x15, 0x00, 0x00, 0x00, 0x00, 0x00, 0x00, 0x00, 0x00, 0x00, 0x00,
  0x44, 0x12, 0x00, 0x00, 0x52, 0xfc, 0xff, 0xff, 0xf5, 0xf8, 0xff, 0xff,
  0x6c, 0xfd, 0xff, 0xff, 0xd3, 0x14, 0x00, 0x00, 0x6e, 0x1c, 0x00, 0x00,
  0x7a, 0x12, 0x00, 0x00, 0x96, 0x0b, 0x00, 0x00, 0xaa, 0xfc, 0xff, 0xff,
  0x00, 0x00, 0x00, 0x02, 0x10, 0x00, 0x00, 0x00, 0x03, 0x00, 0x00, 0x00,
  0x10, 0x00, 0x00, 0x00, 0x20, 0x00, 0x00, 0x00, 0x01, 0x00, 0x00, 0x00,
  0x1e, 0x00, 0x00, 0x00, 0x0d, 0x00, 0x00, 0x00, 0x64, 0x65, 0x6e, 0x73,
  0x65, 0x5f, 0x32, 0x34, 0x2f, 0x62, 0x69, 0x61, 0x73, 0x00, 0x00, 0x00,
  0xf4, 0xfb, 0xff, 0xff, 0x08, 0x00, 0x00, 0x00, 0x0c, 0x00, 0x00, 0x00,
  0x01, 0x00, 0x00, 0x00, 0xd1, 0xb5, 0xe6, 0x37, 0x01, 0x00, 0x00, 0x00,
  0x00, 0x00, 0x00, 0x00, 0x00, 0x00, 0x00, 0x00, 0x00, 0x00, 0x06, 0x00,
  0x08, 0x00, 0x04, 0x00, 0x06, 0x00, 0x00, 0x00, 0x04, 0x00, 0x00, 0x00,
  0xee, 0x02, 0x00, 0x00, 0x1d, 0x14, 0x2a, 0x23, 0xe3, 0xc2, 0xe2, 0x36,
  0x33, 0x0b, 0xf4, 0x18, 0x44, 0x32, 0xee, 0x21, 0x1f, 0xec, 0x25, 0xd7,
  0xbd, 0xc6, 0x2a, 0x27, 0xce, 0x2c, 0x3b, 0x15, 0x24, 0x15, 0x2c, 0xe8,
  0x2d, 0x1e, 0xf0, 0x0b, 0x32, 0x33, 0xfc, 0xed, 0x2c, 0xf1, 0xec, 0xde,
  0x37, 0xda, 0xf8, 0xe7, 0xc9, 0x3d, 0x3c, 0x43, 0x09, 0x0b, 0x0d, 0x39,
  0xe2, 0xd3, 0xfc, 0xca, 0x2a, 0x0f, 0x5f, 0xe0, 0x24, 0x2e, 0xf7, 0x3b,
  0x0a, 0x21, 0xc6, 0x45, 0xf7, 0xcc, 0xcd, 0x17, 0x46, 0x33, 0x0b, 0x39,
  0x15, 0x3e, 0x42, 0xf9, 0x0c, 0x33, 0x1c, 0xf8, 0x32, 0x24, 0x33, 0xf9,
  0xd7, 0x03, 0x3b, 0xf3, 0x23, 0xfe, 0x34, 0x13, 0x0a, 0xee, 0x07, 0xd6,
  0xd1, 0xdd, 0x0a, 0x15, 0xbe, 0x14, 0x1b, 0xeb, 0x24, 0x1f, 0x11, 0x39,
  0xd9, 0x11, 0x06, 0x3c, 0x55, 0x18, 0x24, 0xe9, 0x18, 0x3a, 0x39, 0x00,
  0xd8, 0xc1, 0xef, 0xe0, 0xdc, 0x01, 0x0f, 0xd0, 0xf6, 0xbf, 0xf7, 0x15,
  0xe8, 0x13, 0x08, 0x03, 0x37, 0x2d, 0xc7, 0x23, 0x0e, 0xc0, 0xcf, 0xef,
  0x18, 0x33, 0xfe, 0xfe, 0x23, 0xf1, 0x32, 0xfe, 0xdd, 0x06, 0x25, 0xf5,
  0x14, 0x2b, 0x05, 0x10, 0xda, 0x05, 0xc3, 0x30, 0x13, 0x2b, 0x22, 0xde,
  0x38, 0x1f, 0xdb, 0x1d, 0xa4, 0xd4, 0x44, 0x57, 0x20, 0xec, 0x2e, 0xe0,
  0x13, 0x21, 0xcb, 0xd7, 0x42, 0x23, 0x09, 0xfe, 0xf1, 0x02, 0x59, 0x3a,
  0x16, 0xfc, 0x32, 0x35, 0x1a, 0x01, 0x10, 0xcc, 0x2b, 0xe6, 0xca, 0x27,
  0xcd, 0xf9, 0x28, 0xd4, 0xdf, 0x27, 0x0d, 0xf8, 0x23, 0x1d, 0x07, 0xf8,
  0x46, 0x0e, 0x32, 0xeb, 0x2a, 0x01, 0xfa, 0xf2, 0x3e, 0x08, 0x00, 0x0f,
  0x10, 0x05, 0x3f, 0xde, 0x0a, 0x40, 0x2c, 0xef, 0x07, 0xf6, 0xd4, 0xd6,
  0x36, 0x34, 0xcb, 0xea, 0x09, 0xe6, 0xd9, 0xc7, 0x0f, 0xd3, 0x27, 0x17,
  0x3a, 0xe4, 0x02, 0xe4, 0x1c, 0x00, 0xda, 0xef, 0xca, 0x21, 0xce, 0x24,
  0x03, 0x2a, 0xdc, 0x10, 0x2d, 0xf9, 0x2d, 0x21, 0xe1, 0x31, 0x0f, 0x04,
  0xee, 0x26, 0x30, 0xbf, 0xdf, 0xf4, 0x27, 0x41, 0x04, 0xcf, 0xda, 0x08,
  0xfb, 0x28, 0x00, 0xf0, 0xe2, 0xd6, 0xe4, 0xf9, 0x1e, 0xcf, 0x15, 0xbc,
  0x43, 0xd8, 0x20, 0x20, 0xfc, 0x2f, 0x02, 0x21, 0xe4, 0x1e, 0xcb, 0xcf,
  0x1a, 0xfa, 0x07, 0x11, 0xf2, 0xc2, 0x0d, 0x1c, 0xc8, 0xe5, 0x27, 0x12,
  0x2d, 0x13, 0x0a, 0x1b, 0xd5, 0xf3, 0xdb, 0x20, 0x1a, 0xed, 0xc4, 0x24,
  0x0f, 0xde, 0xc2, 0xfd, 0xd8, 0x15, 0x1b, 0x11, 0x07, 0xec, 0x1e, 0xd2,
  0x12, 0xd2, 0x3d, 0xf3, 0x3e, 0xfe, 0x0e, 0x1c, 0x2b, 0xf6, 0x30, 0xd5,
  0x16, 0xcd, 0x2f, 0x0b, 0x0f, 0xe5, 0xcd, 0xdb, 0x3e, 0x08, 0x0f, 0xdc,
  0xe0, 0xde, 0xde, 0x45, 0x18, 0x14, 0xe2, 0x4a, 0x15, 0x2f, 0x3a, 0x3c,
  0xf1, 0xe7, 0x28, 0xd6, 0x34, 0x02, 0xdf, 0xe5, 0x38, 0xd9, 0xdc, 0x1e,
  0x10, 0xfc, 0xdd, 0x16, 0xc9, 0xf9, 0xf8, 0x40, 0x32, 0x16, 0x04, 0x3d,
  0x32, 0xea, 0x1f, 0xfd, 0x04, 0x4c, 0xe0, 0x3a, 0x1e, 0xc9, 0x39, 0xf2,
  0xe2, 0xf1, 0xde, 0x2c, 0xe0, 0xd8, 0xcc, 0xfa, 0xf1, 0x20, 0x13, 0xfa,
  0x37, 0xc2, 0x14, 0x18, 0xeb, 0x3a, 0xe2, 0xeb, 0xe8, 0xd3, 0x2f, 0x21,
  0x2c, 0x49, 0xc0, 0x75, 0x1a, 0x32, 0xf7, 0x12, 0xe3, 0xf8, 0xe4, 0x17,
  0xf2, 0xf3, 0xe4, 0x32, 0x00, 0x2e, 0x65, 0xd4, 0x16, 0x03, 0x30, 0x2f,
  0x17, 0x1e, 0xf2, 0x00, 0x1d, 0x04, 0x07, 0x0b, 0x1e, 0xd0, 0x12, 0xe7,
  0x28, 0x10, 0xdc, 0x18, 0x1e, 0x05, 0x2a, 0xdc, 0xe4, 0xf8, 0x06, 0x16,
  0xf4, 0x0b, 0xcf, 0xce, 0xfa, 0x06, 0xf9, 0xe4, 0xdf, 0x24, 0x3f, 0x0f,
  0xf3, 0xd3, 0xef, 0xe2, 0xea, 0x2e, 0xc6, 0xda, 0xf9, 0xd8, 0xcf, 0xce,
  0x20, 0x22, 0x1a, 0xce, 0xdd, 0xd4, 0xd4, 0xfd, 0xd6, 0xe8, 0xfe, 0xca,
  0xeb, 0xec, 0x3a, 0xf7, 0xd8, 0xc3, 0x13, 0x1b, 0x26, 0xe3, 0x13, 0xd3,
  0x2e, 0xd8, 0xfc, 0xfb, 0xea, 0x41, 0x41, 0x4a, 0x2c, 0xff, 0x14, 0x43,
  0xe1, 0xe3, 0x24, 0xf8, 0x05, 0x1a, 0x25, 0x0d, 0x00, 0x03, 0x1a, 0xf8,
  0x20, 0xd7, 0x1e, 0xe5, 0xe3, 0x3a, 0x11, 0x08, 0x10, 0xee, 0x05, 0x01,
  0xbd, 0x12, 0xec, 0xf4, 0xc7, 0x16, 0x38, 0xd0, 0xe9, 0x05, 0xcd, 0x33,
  0x20, 0xda, 0xf1, 0xca, 0xff, 0x0f, 0x2a, 0xea, 0xce, 0xff, 0xe9, 0x37,
  0xc8, 0x15, 0x04, 0x0b, 0xef, 0xe0, 0x14, 0xe1, 0x1e, 0x28, 0x09, 0x26,
  0x4c, 0xe8, 0x23, 0x59, 0x22, 0xe7, 0x2b, 0x28, 0x11, 0xfe, 0xfa, 0xdb,
  0xf9, 0xdd, 0x3a, 0xea, 0x2d, 0xd3, 0xf9, 0x31, 0xf8, 0xff, 0x06, 0xd9,
  0x34, 0xbf, 0xd7, 0xc8, 0xd8, 0xd4, 0x32, 0xe1, 0xe9, 0x02, 0x23, 0x62,
  0x28, 0xca, 0x81, 0xf6, 0xa8, 0x24, 0x57, 0x0f, 0x10, 0x32, 0x2e, 0xe3,
  0x3a, 0x5e, 0xfb, 0xd1, 0x11, 0xe2, 0x8d, 0xe0, 0xfa, 0x1f, 0xe1, 0x28,
  0x61, 0x49, 0xe9, 0xf2, 0x15, 0xee, 0xc9, 0x15, 0xf5, 0x36, 0x06, 0x1e,
  0x04, 0x1c, 0x26, 0xfe, 0x2f, 0x45, 0x01, 0xc1, 0xcf, 0xf8, 0x0d, 0x0c,
  0x39, 0x53, 0x2f, 0xec, 0xd2, 0x39, 0x21, 0xfa, 0x3e, 0x1a, 0x1e, 0xf0,
  0x37, 0xcf, 0x11, 0x3c, 0xd0, 0x42, 0x44, 0x26, 0xbd, 0x0a, 0x2a, 0xd8,
  0x0f, 0xf2, 0x4e, 0x10, 0x1e, 0xc2, 0xf5, 0x0d, 0x48, 0xe9, 0xe4, 0xff,
  0x16, 0x28, 0x4e, 0xe3, 0xf2, 0x31, 0xce, 0x06, 0x18, 0xe7, 0x0e, 0x00,
  0x18, 0x00, 0x08, 0x00, 0x07, 0x00, 0x0c, 0x00, 0x10, 0x00, 0x14, 0x00,
  0x0e, 0x00, 0x00, 0x00, 0x00, 0x00, 0x00, 0x09, 0x10, 0x00, 0x00, 0x00,
  0x02, 0x00, 0x00, 0x00, 0x14, 0x00, 0x00, 0x00, 0x34, 0x00, 0x00, 0x00,
  0x02, 0x00, 0x00, 0x00, 0x1e, 0x00, 0x00, 0x00, 0x19, 0x00, 0x00, 0x00,
  0x1c, 0x00, 0x00, 0x00, 0x73, 0x65, 0x71, 0x75, 0x65, 0x6e, 0x74, 0x69,
  0x61, 0x6c, 0x5f, 0x34, 0x2f, 0x64, 0x65, 0x6e, 0x73, 0x65, 0x5f, 0x32,
  0x34, 0x2f, 0x4d, 0x61, 0x74, 0x4d, 0x75, 0x6c, 0x00, 0x00, 0x00, 0x00,
  0x6c, 0xff, 0xff, 0xff, 0x08, 0x00, 0x00, 0x00, 0x0c, 0x00, 0x00, 0x00,
  0x01, 0x00, 0x00, 0x00, 0x32, 0x48, 0xab, 0x3b, 0x01, 0x00, 0x00, 0x00,
  0x00, 0x00, 0x00, 0x00, 0x00, 0x00, 0x00, 0x00, 0x00, 0x00, 0x00, 0x00,
  0x14, 0x00, 0x1c, 0x00, 0x08, 0x00, 0x07, 0x00, 0x0c, 0x00, 0x10, 0x00,
  0x14, 0x00, 0x00, 0x00, 0x00, 0x00, 0x18, 0x00, 0x14, 0x00, 0x00, 0x00,
  0x00, 0x00, 0x00, 0x09, 0x14, 0x00, 0x00, 0x00, 0x01, 0x00, 0x00, 0x00,
  0x18, 0x00, 0x00, 0x00, 0x54, 0x00, 0x00, 0x00, 0x38, 0x00, 0x00, 0x00,
  0x02, 0x00, 0x00, 0x00, 0x01, 0x00, 0x00, 0x00, 0x19, 0x00, 0x00, 0x00,
  0x20, 0x00, 0x00, 0x00, 0x73, 0x65, 0x72, 0x76, 0x69, 0x6e, 0x67, 0x5f,
  0x64, 0x65, 0x66, 0x61, 0x75, 0x6c, 0x74, 0x5f, 0x64, 0x65, 0x6e, 0x73,
  0x65, 0x5f, 0x32, 0x34, 0x5f, 0x69, 0x6e, 0x70, 0x75, 0x74, 0x3a, 0x30,
  0x00, 0x00, 0x00, 0x00, 0x02, 0x00, 0x00, 0x00, 0xff, 0xff, 0xff, 0xff,
  0x19, 0x00, 0x00, 0x00, 0x0c, 0x00, 0x0c, 0x00, 0x00, 0x00, 0x00, 0x00,
  0x04, 0x00, 0x08, 0x00, 0x0c, 0x00, 0x00, 0x00, 0x08, 0x00, 0x00, 0x00,
  0x0c, 0x00, 0x00, 0x00, 0x01, 0x00, 0x00, 0x00, 0x39, 0x69, 0xac, 0x3b,
  0x01, 0x00, 0x00, 0x00, 0xbc, 0xff, 0xff, 0xff, 0xff, 0xff, 0xff, 0xff,
  0x04, 0x00, 0x04, 0x00, 0x04, 0x00, 0x00, 0x00
};
const int g_model_len = 6176;
