alignas(8) const unsigned char g_model[] = {
  0x1c, 0x00, 0x00, 0x00, 0x54, 0x46, 0x4c, 0x33, 0x14, 0x00, 0x20, 0x00,
  0x04, 0x00, 0x08, 0x00, 0x0c, 0x00, 0x10, 0x00, 0x14, 0x00, 0x00, 0x00,
  0x18, 0x00, 0x1c, 0x00, 0x14, 0x00, 0x00, 0x00, 0x03, 0x00, 0x00, 0x00,
  0x18, 0x00, 0x00, 0x00, 0x20, 0x00, 0x00, 0x00, 0x58, 0x01, 0x00, 0x00,
  0x20, 0x00, 0x00, 0x00, 0x00, 0x01, 0x00, 0x00, 0x74, 0x00, 0x00, 0x00,
  0x02, 0x00, 0x00, 0x00, 0x80, 0x06, 0x00, 0x00, 0xbc, 0x02, 0x00, 0x00,
  0x01, 0x00, 0x00, 0x00, 0x5c, 0x01, 0x00, 0x00, 0x16, 0x00, 0x00, 0x00,
  0x00, 0x2e, 0x00, 0x00, 0xfc, 0x2d, 0x00, 0x00, 0xd8, 0x2c, 0x00, 0x00,
  0x18, 0x2c, 0x00, 0x00, 0xb4, 0x2b, 0x00, 0x00, 0x70, 0x2b, 0x00, 0x00,
  0x0c, 0x2b, 0x00, 0x00, 0x58, 0x2a, 0x00, 0x00, 0x48, 0x1e, 0x00, 0x00,
  0x40, 0x19, 0x00, 0x00, 0x98, 0x18, 0x00, 0x00, 0xf0, 0x17, 0x00, 0x00,
  0xe8, 0x12, 0x00, 0x00, 0xd8, 0x06, 0x00, 0x00, 0xc8, 0x2d, 0x00, 0x00,
  0xc4, 0x2d, 0x00, 0x00, 0xc0, 0x2d, 0x00, 0x00, 0xbc, 0x2d, 0x00, 0x00,
  0xb8, 0x2d, 0x00, 0x00, 0xb4, 0x2d, 0x00, 0x00, 0xb0, 0x2d, 0x00, 0x00,
  0xc0, 0x00, 0x00, 0x00, 0x01, 0x00, 0x00, 0x00, 0x10, 0x00, 0x00, 0x00,
  0x00, 0x00, 0x0a, 0x00, 0x10, 0x00, 0x0c, 0x00, 0x08, 0x00, 0x04, 0x00,
  0x0a, 0x00, 0x00, 0x00, 0x0c, 0x00, 0x00, 0x00, 0x1c, 0x00, 0x00, 0x00,
  0x20, 0x00, 0x00, 0x00, 0x0f, 0x00, 0x00, 0x00, 0x73, 0x65, 0x72, 0x76,
  0x69, 0x6e, 0x67, 0x5f, 0x64, 0x65, 0x66, 0x61, 0x75, 0x6c, 0x74, 0x00,
  0x01, 0x00, 0x00, 0x00, 0x14, 0x00, 0x00, 0x00, 0x01, 0x00, 0x00, 0x00,
  0x28, 0x00, 0x00, 0x00, 0x08, 0x00, 0x0c, 0x00, 0x08, 0x00, 0x04, 0x00,
  0x08, 0x00, 0x00, 0x00, 0x13, 0x00, 0x00, 0x00, 0x04, 0x00, 0x00, 0x00,
  0x08, 0x00, 0x00, 0x00, 0x64, 0x65, 0x6e, 0x73, 0x65, 0x5f, 0x32, 0x39,
  0x00, 0x00, 0x00, 0x00, 0xea, 0xd3, 0xff, 0xff, 0x04, 0x00, 0x00, 0x00,
  0x0e, 0x00, 0x00, 0x00, 0x64, 0x65, 0x6e, 0x73, 0x65, 0x5f, 0x32, 0x34,
  0x5f, 0x69, 0x6e, 0x70, 0x75, 0x74, 0x00, 0x00, 0x01, 0x00, 0x00, 0x00,
  0x0c, 0x00, 0x00, 0x00, 0x08, 0x00, 0x0c, 0x00, 0x04, 0x00, 0x08, 0x00,
  0x08, 0x00, 0x00, 0x00, 0x08, 0x00, 0x00, 0x00, 0x15, 0x00, 0x00, 0x00,
  0x13, 0x00, 0x00, 0x00, 0x6d, 0x69, 0x6e, 0x5f, 0x72, 0x75, 0x6e, 0x74,
  0x69, 0x6d, 0x65, 0x5f, 0x76, 0x65, 0x72, 0x73, 0x69, 0x6f, 0x6e, 0x00,
  0x3a, 0xd4, 0xff, 0xff, 0x04, 0x00, 0x00, 0x00, 0x10, 0x00, 0x00, 0x00,
  0x31, 0x2e, 0x31, 0x34, 0x2e, 0x30, 0x00, 0x00, 0x00, 0x00, 0x00, 0x00,
  0x00, 0x00, 0x00, 0x00, 0x0f, 0x00, 0x00, 0x00, 0x4d, 0x4c, 0x49, 0x52,
  0x20, 0x43, 0x6f, 0x6e, 0x76, 0x65, 0x72, 0x74, 0x65, 0x64, 0x2e, 0x00,
  0x00, 0x00, 0x0e, 0x00, 0x18, 0x00, 0x04, 0x00, 0x08, 0x00, 0x0c, 0x00,
  0x10, 0x00, 0x14, 0x00, 0x0e, 0x00, 0x00, 0x00, 0x14, 0x00, 0x00, 0x00,
  0x64, 0x00, 0x00, 0x00, 0x68, 0x00, 0x00, 0x00, 0x6c, 0x00, 0x00, 0x00,
  0x88, 0x00, 0x00, 0x00, 0x14, 0x00, 0x00, 0x00, 0x30, 0x2c, 0x00, 0x00,
  0xec, 0x2b, 0x00, 0x00, 0x30, 0x2b, 0x00, 0x00, 0x7c, 0x2a, 0x00, 0x00,
  0x18, 0x2a, 0x00, 0x00, 0xd4, 0x29, 0x00, 0x00, 0x70, 0x29, 0x00, 0x00,
  0xa0, 0x28, 0x00, 0x00, 0x90, 0x1c, 0x00, 0x00, 0x88, 0x17, 0x00, 0x00,
  0xe0, 0x16, 0x00, 0x00, 0x38, 0x16, 0x00, 0x00, 0x30, 0x11, 0x00, 0x00,
  0xd8, 0x04, 0x00, 0x00, 0xdc, 0x03, 0x00, 0x00, 0x04, 0x03, 0x00, 0x00,
  0x3c, 0x02, 0x00, 0x00, 0x90, 0x01, 0x00, 0x00, 0x04, 0x01, 0x00, 0x00,
  0x70, 0x00, 0x00, 0x00, 0x01, 0x00, 0x00, 0x00, 0x00, 0x00, 0x00, 0x00,
  0x01, 0x00, 0x00, 0x00, 0x13, 0x00, 0x00, 0x00, 0x07, 0x00, 0x00, 0x00,
  0x50, 0x04, 0x00, 0x00, 0x78, 0x03, 0x00, 0x00, 0xa0, 0x02, 0x00, 0x00,
  0xd8, 0x01, 0x00, 0x00, 0x30, 0x01, 0x00, 0x00, 0xa4, 0x00, 0x00, 0x00,
  0x10, 0x00, 0x00, 0x00, 0x04, 0x00, 0x00, 0x00, 0x6d, 0x61, 0x69, 0x6e,
  0x00, 0x00, 0x00, 0x00, 0xba, 0xfc, 0xff, 0xff, 0x00, 0x00, 0x00, 0x08,
  0x18, 0x00, 0x00, 0x00, 0x0c, 0x00, 0x00, 0x00, 0x04, 0x00, 0x00, 0x00,
  0x14, 0xd4, 0xff, 0xff, 0x01, 0x00, 0x00, 0x00, 0x13, 0x00, 0x00, 0x00,
  0x03, 0x00, 0x00, 0x00, 0x12, 0x00, 0x00, 0x00, 0x0c, 0x00, 0x00, 0x00,
  0x01, 0x00, 0x00, 0x00, 0xa0, 0xd4, 0xff, 0xff, 0x14, 0x00, 0x00, 0x00,
  0x14, 0x00, 0x00, 0x00, 0x18, 0x00, 0x00, 0x00, 0x40, 0x00, 0x00, 0x00,
  0x30, 0x00, 0x00, 0x00, 0x02, 0x00, 0x00, 0x00, 0x01, 0x00, 0x00, 0x00,
  0x19, 0x00, 0x00, 0x00, 0x19, 0x00, 0x00, 0x00, 0x53, 0x74, 0x61, 0x74,
  0x65, 0x66, 0x75, 0x6c, 0x50, 0x61, 0x72, 0x74, 0x69, 0x74, 0x69, 0x6f,
  0x6e, 0x65, 0x64, 0x43, 0x61, 0x6c, 0x6c, 0x3a, 0x30, 0x00, 0x00, 0x00,
  0x02, 0x00, 0x00, 0x00, 0xff, 0xff, 0xff, 0xff, 0x19, 0x00, 0x00, 0x00,
  0xac, 0xd5, 0xff, 0xff, 0x00, 0x00, 0x0a, 0x00, 0x10, 0x00, 0x04, 0x00,
  0x08, 0x00, 0x0c, 0x00, 0x0a, 0x00, 0x00, 0x00, 0x01, 0x00, 0x00, 0x00,
  0x10, 0x00, 0x00, 0x00, 0x04, 0x00, 0x00, 0x00, 0x01, 0x00, 0x00, 0x00,
  0x12, 0x00, 0x00, 0x00, 0x01, 0x00, 0x00, 0x00, 0x11, 0x00, 0x00, 0x00,
  0x4c, 0xfc, 0xff, 0xff, 0x0e, 0x00, 0x00, 0x00, 0x00, 0x00, 0x00, 0x0e,
  0x01, 0x00, 0x00, 0x00, 0x30, 0xd5, 0xff, 0xff, 0x14, 0x00, 0x00, 0x00,
  0x13, 0x00, 0x00, 0x00, 0x18, 0x00, 0x00, 0x00, 0x44, 0x00, 0x00, 0x00,
  0x34, 0x00, 0x00, 0x00, 0x02, 0x00, 0x00, 0x00, 0x01, 0x00, 0x00, 0x00,
  0x1e, 0x00, 0x00, 0x00, 0x1d, 0x00, 0x00, 0x00, 0x73, 0x65, 0x71, 0x75,
  0x65, 0x6e, 0x74, 0x69, 0x61, 0x6c, 0x5f, 0x34, 0x2f, 0x64, 0x65, 0x6e,
  0x73, 0x65, 0x5f, 0x32, 0x38, 0x2f, 0x53, 0x69, 0x67, 0x6d, 0x6f, 0x69,
  0x64, 0x00, 0x00, 0x00, 0x02, 0x00, 0x00, 0x00, 0xff, 0xff, 0xff, 0xff,
  0x1e, 0x00, 0x00, 0x00, 0x14, 0xd5, 0xff, 0xff, 0xd2, 0xfd, 0xff, 0xff,
  0x00, 0x00, 0x00, 0x08, 0x18, 0x00, 0x00, 0x00, 0x0c, 0x00, 0x00, 0x00,
  0x04, 0x00, 0x00, 0x00, 0x2c, 0xd5, 0xff, 0xff, 0x01, 0x00, 0x00, 0x00,
  0x11, 0x00, 0x00, 0x00, 0x03, 0x00, 0x00, 0x00, 0x10, 0x00, 0x00, 0x00,
  0x0b, 0x00, 0x00, 0x00, 0x02, 0x00, 0x00, 0x00, 0xb8, 0xd5, 0xff, 0xff,
  0x14, 0x00, 0x00, 0x00, 0x12, 0x00, 0x00, 0x00, 0x18, 0x00, 0x00, 0x00,
  0x60, 0x00, 0x00, 0x00, 0x50, 0x00, 0x00, 0x00, 0x02, 0x00, 0x00, 0x00,
  0x01, 0x00, 0x00, 0x00, 0x1e, 0x00, 0x00, 0x00, 0x3a, 0x00, 0x00, 0x00,
  0x73, 0x65, 0x71, 0x75, 0x65, 0x6e, 0x74, 0x69, 0x61, 0x6c, 0x5f, 0x34,
  0x2f, 0x64, 0x65, 0x6e, 0x73, 0x65, 0x5f, 0x32, 0x38, 0x2f, 0x4d, 0x61,
  0x74, 0x4d, 0x75, 0x6c, 0x3b, 0x73, 0x65, 0x71, 0x75, 0x65, 0x6e, 0x74,
  0x69, 0x61, 0x6c, 0x5f, 0x34, 0x2f, 0x64, 0x65, 0x6e, 0x73, 0x65, 0x5f,
  0x32, 0x38, 0x2f, 0x42, 0x69, 0x61, 0x73, 0x41, 0x64, 0x64, 0x00, 0x00,
  0x02, 0x00, 0x00, 0x00, 0xff, 0xff, 0xff, 0xff, 0x1e, 0x00, 0x00, 0x00,
  0xb8, 0xd5, 0xff, 0xff, 0x76, 0xfe, 0xff, 0xff, 0x00, 0x00, 0x00, 0x08,
  0x1c, 0x00, 0x00, 0x00, 0x10, 0x00, 0x00, 0x00, 0x04, 0x00, 0x00, 0x00,
  0x92, 0xfd, 0xff, 0xff, 0x00, 0x00, 0x00, 0x01, 0x01, 0x00, 0x00, 0x00,
  0x10, 0x00, 0x00, 0x00, 0x03, 0x00, 0x00, 0x00, 0x0f, 0x00, 0x00, 0x00,
  0x0a, 0x00, 0x00, 0x00, 0x03, 0x00, 0x00, 0x00, 0x60, 0xd6, 0xff, 0xff,
  0x14, 0x00, 0x00, 0x00, 0x11, 0x00, 0x00, 0x00, 0x18, 0x00, 0x00, 0x00,
  0x7c, 0x00, 0x00, 0x00, 0x6c, 0x00, 0x00, 0x00, 0x02, 0x00, 0x00, 0x00,
  0x01, 0x00, 0x00, 0x00, 0x0a, 0x00, 0x00, 0x00, 0x55, 0x00, 0x00, 0x00,
  0x73, 0x65, 0x71, 0x75, 0x65, 0x6e, 0x74, 0x69, 0x61, 0x6c, 0x5f, 0x34,
  0x2f, 0x64, 0x65, 0x6e, 0x73, 0x65, 0x5f, 0x32, 0x37, 0x2f, 0x4d, 0x61,
  0x74, 0x4d, 0x75, 0x6c, 0x3b, 0x73, 0x65, 0x71, 0x75, 0x65, 0x6e, 0x74,
  0x69, 0x61, 0x6c, 0x5f, 0x34, 0x2f, 0x64, 0x65, 0x6e, 0x73, 0x65, 0x5f,
  0x32, 0x37, 0x2f, 0x52, 0x65, 0x6c, 0x75, 0x3b, 0x73, 0x65, 0x71, 0x75,
  0x65, 0x6e, 0x74, 0x69, 0x61, 0x6c, 0x5f, 0x34, 0x2f, 0x64, 0x65, 0x6e,
  0x73, 0x65, 0x5f, 0x32, 0x37, 0x2f, 0x42, 0x69, 0x61, 0x73, 0x41, 0x64,
  0x64, 0x00, 0x00, 0x00, 0x02, 0x00, 0x00, 0x00, 0xff, 0xff, 0xff, 0xff,
  0x0a, 0x00, 0x00, 0x00, 0x7c, 0xd6, 0xff, 0xff, 0x3a, 0xff, 0xff, 0xff,
  0x00, 0x00, 0x00, 0x08, 0x1c, 0x00, 0x00, 0x00, 0x10, 0x00, 0x00, 0x00,
  0x04, 0x00, 0x00, 0x00, 0x56, 0xfe, 0xff, 0xff, 0x00, 0x00, 0x00, 0x01,
  0x01, 0x00, 0x00, 0x00, 0x0f, 0x00, 0x00, 0x00, 0x03, 0x00, 0x00, 0x00,
  0x0e, 0x00, 0x00, 0x00, 0x09, 0x00, 0x00, 0x00, 0x04, 0x00, 0x00, 0x00,
  0x24, 0xd7, 0xff, 0xff, 0x14, 0x00, 0x00, 0x00, 0x10, 0x00, 0x00, 0x00,
  0x18, 0x00, 0x00, 0x00, 0x7c, 0x00, 0x00, 0x00, 0x6c, 0x00, 0x00, 0x00,
  0x02, 0x00, 0x00, 0x00, 0x01, 0x00, 0x00, 0x00, 0x02, 0x00, 0x00, 0x00,
  0x55, 0x00, 0x00, 0x00, 0x73, 0x65, 0x71, 0x75, 0x65, 0x6e, 0x74, 0x69,
  0x61, 0x6c, 0x5f, 0x34, 0x2f, 0x64, 0x65, 0x6e, 0x73, 0x65, 0x5f, 0x32,
  0x36, 0x2f, 0x4d, 0x61, 0x74, 0x4d, 0x75, 0x6c, 0x3b, 0x73, 0x65, 0x71,
  0x75, 0x65, 0x6e, 0x74, 0x69, 0x61, 0x6c, 0x5f, 0x34, 0x2f, 0x64, 0x65,
  0x6e, 0x73, 0x65, 0x5f, 0x32, 0x36, 0x2f, 0x52, 0x65, 0x6c, 0x75, 0x3b,
  0x73, 0x65, 0x71, 0x75, 0x65, 0x6e, 0x74, 0x69, 0x61, 0x6c, 0x5f, 0x34,
  0x2f, 0x64, 0x65, 0x6e, 0x73, 0x65, 0x5f, 0x32, 0x36, 0x2f, 0x42, 0x69,
  0x61, 0x73, 0x41, 0x64, 0x64, 0x00, 0x00, 0x00, 0x02, 0x00, 0x00, 0x00,
  0xff, 0xff, 0xff, 0xff, 0x02, 0x00, 0x00, 0x00, 0x6c, 0xd8, 0xff, 0xff,
  0x00, 0x00, 0x0e, 0x00, 0x14, 0x00, 0x00, 0x00, 0x08, 0x00, 0x0c, 0x00,
  0x07, 0x00, 0x10, 0x00, 0x0e, 0x00, 0x00, 0x00, 0x00, 0x00, 0x00, 0x08,
  0x1c, 0x00, 0x00, 0x00, 0x10, 0x00, 0x00, 0x00, 0x04, 0x00, 0x00, 0x00,
  0x2a, 0xff, 0xff, 0xff, 0x00, 0x00, 0x00, 0x01, 0x01, 0x00, 0x00, 0x00,
  0x0e, 0x00, 0x00, 0x00, 0x03, 0x00, 0x00, 0x00, 0x0d, 0x00, 0x00, 0x00,
  0x08, 0x00, 0x00, 0x00, 0x05, 0x00, 0x00, 0x00, 0xf8, 0xd7, 0xff, 0xff,
  0x14, 0x00, 0x00, 0x00, 0x0f, 0x00, 0x00, 0x00, 0x18, 0x00, 0x00, 0x00,
  0x7c, 0x00, 0x00, 0x00, 0x6c, 0x00, 0x00, 0x00, 0x02, 0x00, 0x00, 0x00,
  0x01, 0x00, 0x00, 0x00, 0x0a, 0x00, 0x00, 0x00, 0x55, 0x00, 0x00, 0x00,
  0x73, 0x65, 0x71, 0x75, 0x65, 0x6e, 0x74, 0x69, 0x61, 0x6c, 0x5f, 0x34,
  0x2f, 0x64, 0x65, 0x6e, 0x73, 0x65, 0x5f, 0x32, 0x35, 0x2f, 0x4d, 0x61,
  0x74, 0x4d, 0x75, 0x6c, 0x3b, 0x73, 0x65, 0x71, 0x75, 0x65, 0x6e, 0x74,
  0x69, 0x61, 0x6c, 0x5f, 0x34, 0x2f, 0x64, 0x65, 0x6e, 0x73, 0x65, 0x5f,
  0x32, 0x35, 0x2f, 0x52, 0x65, 0x6c, 0x75, 0x3b, 0x73, 0x65, 0x71, 0x75,
  0x65, 0x6e, 0x74, 0x69, 0x61, 0x6c, 0x5f, 0x34, 0x2f, 0x64, 0x65, 0x6e,
  0x73, 0x65, 0x5f, 0x32, 0x35, 0x2f, 0x42, 0x69, 0x61, 0x73, 0x41, 0x64,
  0x64, 0x00, 0x00, 0x00, 0x02, 0x00, 0x00, 0x00, 0xff, 0xff, 0xff, 0xff,
  0x0a, 0x00, 0x00, 0x00, 0x40, 0xd9, 0xff, 0xff, 0x00, 0x00, 0x0e, 0x00,
  0x16, 0x00, 0x00, 0x00, 0x08, 0x00, 0x0c, 0x00, 0x07, 0x00, 0x10, 0x00,
  0x0e, 0x00, 0x00, 0x00, 0x00, 0x00, 0x00, 0x08, 0x24, 0x00, 0x00, 0x00,
  0x18, 0x00, 0x00, 0x00, 0x0c, 0x00, 0x00, 0x00, 0x00, 0x00, 0x06, 0x00,
  0x08, 0x00, 0x07, 0x00, 0x06, 0x00, 0x00, 0x00, 0x00, 0x00, 0x00, 0x01,
  0x01, 0x00, 0x00, 0x00, 0x0d, 0x00, 0x00, 0x00, 0x03, 0x00, 0x00, 0x00,
  0x00, 0x00, 0x00, 0x00, 0x07, 0x00, 0x00, 0x00, 0x06, 0x00, 0x00, 0x00,
  0x0c, 0x00, 0x10, 0x00, 0x0b, 0x00, 0x00, 0x00, 0x0c, 0x00, 0x04, 0x00,
  0x0c, 0x00, 0x00, 0x00, 0x09, 0x00, 0x00, 0x00, 0x00, 0x00, 0x00, 0x09,
  0x01, 0x00, 0x00, 0x00, 0xf0, 0xd8, 0xff, 0xff, 0x14, 0x00, 0x00, 0x00,
  0x0e, 0x00, 0x00, 0x00, 0x18, 0x00, 0x00, 0x00, 0x7c, 0x00, 0x00, 0x00,
  0x6c, 0x00, 0x00, 0x00, 0x02, 0x00, 0x00, 0x00, 0x01, 0x00, 0x00, 0x00,
  0x1e, 0x00, 0x00, 0x00, 0x55, 0x00, 0x00, 0x00, 0x73, 0x65, 0x71, 0x75,
  0x65, 0x6e, 0x74, 0x69, 0x61, 0x6c, 0x5f, 0x34, 0x2f, 0x64, 0x65, 0x6e,
  0x73, 0x65, 0x5f, 0x32, 0x34, 0x2f, 0x4d, 0x61, 0x74, 0x4d, 0x75, 0x6c,
  0x3b, 0x73, 0x65, 0x71, 0x75, 0x65, 0x6e, 0x74, 0x69, 0x61, 0x6c, 0x5f,
  0x34, 0x2f, 0x64, 0x65, 0x6e, 0x73, 0x65, 0x5f, 0x32, 0x34, 0x2f, 0x52,
  0x65, 0x6c, 0x75, 0x3b, 0x73, 0x65, 0x71, 0x75, 0x65, 0x6e, 0x74, 0x69,
  0x61, 0x6c, 0x5f, 0x34, 0x2f, 0x64, 0x65, 0x6e, 0x73, 0x65, 0x5f, 0x32,
  0x34, 0x2f, 0x42, 0x69, 0x61, 0x73, 0x41, 0x64, 0x64, 0x00, 0x00, 0x00,
  0x02, 0x00, 0x00, 0x00, 0xff, 0xff, 0xff, 0xff, 0x1e, 0x00, 0x00, 0x00,
  0x0c, 0xd9, 0xff, 0xff, 0x32, 0xda, 0xff, 0xff, 0x04, 0x00, 0x00, 0x00,
  0xb8, 0x0b, 0x00, 0x00, 0x40, 0x73, 0x11, 0x3d, 0x40, 0x73, 0x11, 0x3d,
  0x40, 0x73, 0x11, 0x3d, 0x40, 0x73, 0x11, 0x3d, 0x40, 0x73, 0x11, 0x3d,
  0xeb, 0xd2, 0xa6, 0xbe, 0x40, 0x73, 0x11, 0x3d, 0x40, 0x73, 0x11, 0x3d,
  0x40, 0x73, 0x11, 0x3d, 0xdf, 0xfe, 0xc0, 0x3e, 0x40, 0x73, 0x11, 0x3d,
  0x40, 0x73, 0x11, 0x3d, 0x40, 0x73, 0x11, 0x3d, 0x40, 0x73, 0x11, 0x3d,
  0x40, 0x73, 0x11, 0x3d, 0x40, 0x73, 0x11, 0x3d, 0x40, 0x73, 0x11, 0x3d,
  0xdf, 0xfe, 0xc0, 0x3e, 0xdf, 0xfe, 0xc0, 0x3e, 0x40, 0x73, 0x11, 0x3d,
  0x40, 0x73, 0x11, 0x3d, 0x40, 0x73, 0x11, 0x3d, 0x40, 0x73, 0x11, 0x3d,
  0xeb, 0xd2, 0xa6, 0xbe, 0x40, 0x73, 0x11, 0x3d, 0xdf, 0xfe, 0xc0, 0x3e,
  0x40, 0x73, 0x11, 0x3d, 0x40, 0x73, 0x11, 0x3d, 0x40, 0x73, 0x11, 0x3d,
  0x40, 0x73, 0x11, 0x3d, 0x40, 0x73, 0x11, 0x3d, 0x40, 0x73, 0x11, 0x3d,
  0xdf, 0xfe, 0xc0, 0x3e, 0x40, 0x73, 0x11, 0x3d, 0xeb, 0xd2, 0xa6, 0xbe,
  0xdf, 0xfe, 0xc0, 0x3e, 0x40, 0x73, 0x11, 0x3d, 0x40, 0x73, 0x11, 0x3d,
  0x40, 0x73, 0x11, 0x3d, 0x40, 0x73, 0x11, 0x3d, 0x40, 0x73, 0x11, 0x3d,
  0x40, 0x73, 0x11, 0x3d, 0xdf, 0xfe, 0xc0, 0x3e, 0x40, 0x73, 0x11, 0x3d,
  0x40, 0x73, 0x11, 0x3d, 0x40, 0x73, 0x11, 0x3d, 0x40, 0x73, 0x11, 0x3d,
  0x40, 0x73, 0x11, 0x3d, 0xeb, 0xd2, 0xa6, 0xbe, 0x40, 0x73, 0x11, 0x3d,
  0x40, 0x73, 0x11, 0x3d, 0xdf, 0xfe, 0xc0, 0x3e, 0xdf, 0xfe, 0xc0, 0x3e,
  0x40, 0x73, 0x11, 0x3d, 0x40, 0x73, 0x11, 0x3d, 0x40, 0x73, 0x11, 0x3d,
  0x40, 0x73, 0x11, 0x3d, 0xeb, 0xd2, 0xa6, 0xbe, 0x40, 0x73, 0x11, 0x3d,
  0x40, 0x73, 0x11, 0x3d, 0x40, 0x73, 0x11, 0x3d, 0x40, 0x73, 0x11, 0x3d,
  0x40, 0x73, 0x11, 0x3d, 0x40, 0x73, 0x11, 0x3d, 0x40, 0x73, 0x11, 0x3d,
  0x40, 0x73, 0x11, 0x3d, 0x40, 0x73, 0x11, 0x3d, 0x40, 0x73, 0x11, 0x3d,
  0x40, 0x73, 0x11, 0x3d, 0x40, 0x73, 0x11, 0x3d, 0x40, 0x73, 0x11, 0x3d,
  0x40, 0x73, 0x11, 0x3d, 0x40, 0x73, 0x11, 0x3d, 0xdf, 0xfe, 0xc0, 0x3e,
  0x40, 0x73, 0x11, 0x3d, 0x40, 0x73, 0x11, 0x3d, 0x40, 0x73, 0x11, 0x3d,
  0x40, 0x73, 0x11, 0x3d, 0x40, 0x73, 0x11, 0x3d, 0x40, 0x73, 0x11, 0x3d,
  0x40, 0x73, 0x11, 0x3d, 0x40, 0x73, 0x11, 0x3d, 0x40, 0x73, 0x11, 0x3d,
  0x40, 0x73, 0x11, 0x3d, 0x40, 0x73, 0x11, 0x3d, 0xdf, 0xfe, 0xc0, 0x3e,
  0x40, 0x73, 0x11, 0x3d, 0xdf, 0xfe, 0xc0, 0x3e, 0x40, 0x73, 0x11, 0x3d,
  0x40, 0x73, 0x11, 0x3d, 0x40, 0x73, 0x11, 0x3d, 0x40, 0x73, 0x11, 0x3d,
  0x40, 0x73, 0x11, 0x3d, 0x40, 0x73, 0x11, 0x3d, 0x40, 0x73, 0x11, 0x3d,
  0xdf, 0xfe, 0xc0, 0x3e, 0x40, 0x73, 0x11, 0x3d, 0xeb, 0xd2, 0xa6, 0xbe,
  0x40, 0x73, 0x11, 0x3d, 0x40, 0x73, 0x11, 0x3d, 0x40, 0x73, 0x11, 0x3d,
  0xeb, 0xd2, 0xa6, 0xbe, 0x40, 0x73, 0x11, 0x3d, 0x40, 0x73, 0x11, 0x3d,
  0x40, 0x73, 0x11, 0x3d, 0x40, 0x73, 0x11, 0x3d, 0xdf, 0xfe, 0xc0, 0x3e,
  0x40, 0x73, 0x11, 0x3d, 0xdf, 0xfe, 0xc0, 0x3e, 0xdf, 0xfe, 0xc0, 0x3e,
  0x40, 0x73, 0x11, 0x3d, 0x40, 0x73, 0x11, 0x3d, 0x40, 0x73, 0x11, 0x3d,
  0x40, 0x73, 0x11, 0x3d, 0x40, 0x73, 0x11, 0x3d, 0x40, 0x73, 0x11, 0x3d,
  0x40, 0x73, 0x11, 0x3d, 0xeb, 0xd2, 0xa6, 0xbe, 0xdf, 0xfe, 0xc0, 0x3e,
  0x40, 0x73, 0x11, 0x3d, 0x40, 0x73, 0x11, 0x3d, 0x40, 0x73, 0x11, 0x3d,
  0x40, 0x73, 0x11, 0x3d, 0x40, 0x73, 0x11, 0x3d, 0x40, 0x73, 0x11, 0x3d,
  0x40, 0x73, 0x11, 0x3d, 0x40, 0x73, 0x11, 0x3d, 0x40, 0x73, 0x11, 0x3d,
  0x40, 0x73, 0x11, 0x3d, 0x40, 0x73, 0x11, 0x3d, 0x40, 0x73, 0x11, 0x3d,
  0xdf, 0xfe, 0xc0, 0x3e, 0xdf, 0xfe, 0xc0, 0x3e, 0x40, 0x73, 0x11, 0x3d,
  0x40, 0x73, 0x11, 0x3d, 0xeb, 0xd2, 0xa6, 0xbe, 0x40, 0x73, 0x11, 0x3d,
  0x40, 0x73, 0x11, 0x3d, 0xdf, 0xfe, 0xc0, 0x3e, 0x40, 0x73, 0x11, 0x3d,
  0x40, 0x73, 0x11, 0x3d, 0x40, 0x73, 0x11, 0x3d, 0x40, 0x73, 0x11, 0x3d,
  0xdf, 0xfe, 0xc0, 0x3e, 0x40, 0x73, 0x11, 0x3d, 0x40, 0x73, 0x11, 0x3d,
  0x40, 0x73, 0x11, 0x3d, 0x40, 0x73, 0x11, 0x3d, 0x40, 0x73, 0x11, 0x3d,
  0x40, 0x73, 0x11, 0x3d, 0x40, 0x73, 0x11, 0x3d, 0x40, 0x73, 0x11, 0x3d,
  0xdf, 0xfe, 0xc0, 0x3e, 0x40, 0x73, 0x11, 0x3d, 0x40, 0x73, 0x11, 0x3d,
  0xdf, 0xfe, 0xc0, 0x3e, 0x40, 0x73, 0x11, 0x3d, 0x40, 0x73, 0x11, 0x3d,
  0x7c, 0x65, 0x32, 0xbf, 0x40, 0x73, 0x11, 0x3d, 0x40, 0x73, 0x11, 0x3d,
  0xeb, 0xd2, 0xa6, 0xbe, 0x40, 0x73, 0x11, 0x3d, 0x40, 0x73, 0x11, 0x3d,
  0xdf, 0xfe, 0xc0, 0x3e, 0x40, 0x73, 0x11, 0x3d, 0x40, 0x73, 0x11, 0x3d,
  0xeb, 0xd2, 0xa6, 0xbe, 0x40, 0x73, 0x11, 0x3d, 0xdf, 0xfe, 0xc0, 0x3e,
  0xeb, 0xd2, 0xa6, 0xbe, 0x40, 0x73, 0x11, 0x3d, 0x40, 0x73, 0x11, 0x3d,
  0xdf, 0xfe, 0xc0, 0x3e, 0xdf, 0xfe, 0xc0, 0x3e, 0x40, 0x73, 0x11, 0x3d,
  0x40, 0x73, 0x11, 0x3d, 0x40, 0x73, 0x11, 0x3d, 0xeb, 0xd2, 0xa6, 0xbe,
  0x7c, 0x65, 0x32, 0xbf, 0x40, 0x73, 0x11, 0x3d, 0x40, 0x73, 0x11, 0x3d,
  0x40, 0x73, 0x11, 0x3d, 0x40, 0x73, 0x11, 0x3d, 0x40, 0x73, 0x11, 0x3d,
  0x40, 0x73, 0x11, 0x3d, 0x40, 0x73, 0x11, 0x3d, 0x40, 0x73, 0x11, 0x3d,
  0x40, 0x73, 0x11, 0x3d, 0x40, 0x73, 0x11, 0x3d, 0x40, 0x73, 0x11, 0x3d,
  0xdf, 0xfe, 0xc0, 0x3e, 0x40, 0x73, 0x11, 0x3d, 0x40, 0x73, 0x11, 0x3d,
  0x40, 0x73, 0x11, 0x3d, 0x40, 0x73, 0x11, 0x3d, 0x40, 0x73, 0x11, 0x3d,
  0x40, 0x73, 0x11, 0x3d, 0xdf, 0xfe, 0xc0, 0x3e, 0xdf, 0xfe, 0xc0, 0x3e,
  0x40, 0x73, 0x11, 0x3d, 0xeb, 0xd2, 0xa6, 0xbe, 0x40, 0x73, 0x11, 0x3d,
  0x40, 0x73, 0x11, 0x3d, 0xdf, 0xfe, 0xc0, 0x3e, 0x40, 0x73, 0x11, 0x3d,
  0x40, 0x73, 0x11, 0x3d, 0x40, 0x73, 0x11, 0x3d, 0x40, 0x73, 0x11, 0x3d,
  0x40, 0x73, 0x11, 0x3d, 0x40, 0x73, 0x11, 0x3d, 0x40, 0x73, 0x11, 0x3d,
  0x40, 0x73, 0x11, 0x3d, 0x40, 0x73, 0x11, 0x3d, 0x40, 0x73, 0x11, 0x3d,
  0x40, 0x73, 0x11, 0x3d, 0xdf, 0xfe, 0xc0, 0x3e, 0x40, 0x73, 0x11, 0x3d,
  0x40, 0x73, 0x11, 0x3d, 0x40, 0x73, 0x11, 0x3d, 0x40, 0x73, 0x11, 0x3d,
  0xdf, 0xfe, 0xc0, 0x3e, 0xeb, 0xd2, 0xa6, 0xbe, 0x40, 0x73, 0x11, 0x3d,
  0x40, 0x73, 0x11, 0x3d, 0x40, 0x73, 0x11, 0x3d, 0xdf, 0xfe, 0xc0, 0x3e,
  0x40, 0x73, 0x11, 0x3d, 0x40, 0x73, 0x11, 0x3d, 0xdf, 0xfe, 0xc0, 0x3e,
  0x40, 0x73, 0x11, 0x3d, 0x40, 0x73, 0x11, 0x3d, 0x40, 0x73, 0x11, 0x3d,
  0x40, 0x73, 0x11, 0x3d, 0x40, 0x73, 0x11, 0x3d, 0x40, 0x73, 0x11, 0x3d,
  0x40, 0x73, 0x11, 0x3d, 0x40, 0x73, 0x11, 0x3d, 0x40, 0x73, 0x11, 0x3d,
  0x40, 0x73, 0x11, 0x3d, 0x40, 0x73, 0x11, 0x3d, 0x40, 0x73, 0x11, 0x3d,
  0x40, 0x73, 0x11, 0x3d, 0x40, 0x73, 0x11, 0x3d, 0x40, 0x73, 0x11, 0x3d,
  0xeb, 0xd2, 0xa6, 0xbe, 0x40, 0x73, 0x11, 0x3d, 0x40, 0x73, 0x11, 0x3d,
  0xdf, 0xfe, 0xc0, 0x3e, 0x40, 0x73, 0x11, 0x3d, 0x40, 0x73, 0x11, 0x3d,
  0x40, 0x73, 0x11, 0x3d, 0xdf, 0xfe, 0xc0, 0x3e, 0x40, 0x73, 0x11, 0x3d,
  0x40, 0x73, 0x11, 0x3d, 0x40, 0x73, 0x11, 0x3d, 0x40, 0x73, 0x11, 0x3d,
  0xdf, 0xfe, 0xc0, 0x3e, 0x40, 0x73, 0x11, 0x3d, 0x40, 0x73, 0x11, 0x3d,
  0x40, 0x73, 0x11, 0x3d, 0x40, 0x73, 0x11, 0x3d, 0x40, 0x73, 0x11, 0x3d,
  0x40, 0x73, 0x11, 0x3d, 0x40, 0x73, 0x11, 0x3d, 0x40, 0x73, 0x11, 0x3d,
  0xdf, 0xfe, 0xc0, 0x3e, 0xdf, 0xfe, 0xc0, 0x3e, 0x40, 0x73, 0x11, 0x3d,
  0xdf, 0xfe, 0xc0, 0x3e, 0x40, 0x73, 0x11, 0x3d, 0x40, 0x73, 0x11, 0x3d,
  0xdf, 0xfe, 0xc0, 0x3e, 0x40, 0x73, 0x11, 0x3d, 0x40, 0x73, 0x11, 0x3d,
  0x40, 0x73, 0x11, 0x3d, 0x40, 0x73, 0x11, 0x3d, 0x40, 0x73, 0x11, 0x3d,
  0x40, 0x73, 0x11, 0x3d, 0x40, 0x73, 0x11, 0x3d, 0x40, 0x73, 0x11, 0x3d,
  0x40, 0x73, 0x11, 0x3d, 0x40, 0x73, 0x11, 0x3d, 0x40, 0x73, 0x11, 0x3d,
  0x40, 0x73, 0x11, 0x3d, 0x40, 0x73, 0x11, 0x3d, 0x40, 0x73, 0x11, 0x3d,
  0x40, 0x73, 0x11, 0x3d, 0x40, 0x73, 0x11, 0x3d, 0x40, 0x73, 0x11, 0x3d,
  0x40, 0x73, 0x11, 0x3d, 0x40, 0x73, 0x11, 0x3d, 0xdf, 0xfe, 0xc0, 0x3e,
  0x40, 0x73, 0x11, 0x3d, 0x40, 0x73, 0x11, 0x3d, 0x40, 0x73, 0x11, 0x3d,
  0xdf, 0xfe, 0xc0, 0x3e, 0xeb, 0xd2, 0xa6, 0xbe, 0x40, 0x73, 0x11, 0x3d,
  0x40, 0x73, 0x11, 0x3d, 0x40, 0x73, 0x11, 0x3d, 0x40, 0x73, 0x11, 0x3d,
  0xdf, 0xfe, 0xc0, 0x3e, 0x40, 0x73, 0x11, 0x3d, 0x40, 0x73, 0x11, 0x3d,
  0x40, 0x73, 0x11, 0x3d, 0x40, 0x73, 0x11, 0x3d, 0x40, 0x73, 0x11, 0x3d,
  0x40, 0x73, 0x11, 0x3d, 0x40, 0x73, 0x11, 0x3d, 0x40, 0x73, 0x11, 0x3d,
  0x40, 0x73, 0x11, 0x3d, 0x40, 0x73, 0x11, 0x3d, 0x40, 0x73, 0x11, 0x3d,
  0x40, 0x73, 0x11, 0x3d, 0x40, 0x73, 0x11, 0x3d, 0x40, 0x73, 0x11, 0x3d,
  0x40, 0x73, 0x11, 0x3d, 0x40, 0x73, 0x11, 0x3d, 0x40, 0x73, 0x11, 0x3d,
  0x40, 0x73, 0x11, 0x3d, 0x40, 0x73, 0x11, 0x3d, 0x40, 0x73, 0x11, 0x3d,
  0x40, 0x73, 0x11, 0x3d, 0x40, 0x73, 0x11, 0x3d, 0x40, 0x73, 0x11, 0x3d,
  0xdf, 0xfe, 0xc0, 0x3e, 0x40, 0x73, 0x11, 0x3d, 0xdf, 0xfe, 0xc0, 0x3e,
  0x40, 0x73, 0x11, 0x3d, 0x40, 0x73, 0x11, 0x3d, 0x40, 0x73, 0x11, 0x3d,
  0x40, 0x73, 0x11, 0x3d, 0xdf, 0xfe, 0xc0, 0x3e, 0xdf, 0xfe, 0xc0, 0x3e,
  0x40, 0x73, 0x11, 0x3d, 0x40, 0x73, 0x11, 0x3d, 0x40, 0x73, 0x11, 0x3d,
  0x40, 0x73, 0x11, 0x3d, 0x40, 0x73, 0x11, 0x3d, 0x40, 0x73, 0x11, 0x3d,
  0x40, 0x73, 0x11, 0x3d, 0x40, 0x73, 0x11, 0x3d, 0x40, 0x73, 0x11, 0x3d,
  0x40, 0x73, 0x11, 0x3d, 0x40, 0x73, 0x11, 0x3d, 0xdf, 0xfe, 0xc0, 0x3e,
  0x40, 0x73, 0x11, 0x3d, 0x40, 0x73, 0x11, 0x3d, 0x40, 0x73, 0x11, 0x3d,
  0xdf, 0xfe, 0xc0, 0x3e, 0xeb, 0xd2, 0xa6, 0xbe, 0xdf, 0xfe, 0xc0, 0x3e,
  0x40, 0x73, 0x11, 0x3d, 0x40, 0x73, 0x11, 0x3d, 0x40, 0x73, 0x11, 0x3d,
  0x40, 0x73, 0x11, 0x3d, 0x40, 0x73, 0x11, 0x3d, 0x40, 0x73, 0x11, 0x3d,
  0x40, 0x73, 0x11, 0x3d, 0xeb, 0xd2, 0xa6, 0xbe, 0x40, 0x73, 0x11, 0x3d,
  0x40, 0x73, 0x11, 0x3d, 0x40, 0x73, 0x11, 0x3d, 0xeb, 0xd2, 0xa6, 0xbe,
  0xdf, 0xfe, 0xc0, 0x3e, 0x40, 0x73, 0x11, 0x3d, 0x40, 0x73, 0x11, 0x3d,
  0x40, 0x73, 0x11, 0x3d, 0x40, 0x73, 0x11, 0x3d, 0xeb, 0xd2, 0xa6, 0xbe,
  0x40, 0x73, 0x11, 0x3d, 0xdf, 0xfe, 0xc0, 0x3e, 0xeb, 0xd2, 0xa6, 0xbe,
  0xdf, 0xfe, 0xc0, 0x3e, 0x40, 0x73, 0x11, 0x3d, 0x40, 0x73, 0x11, 0x3d,
  0x40, 0x73, 0x11, 0x3d, 0x40, 0x73, 0x11, 0x3d, 0x40, 0x73, 0x11, 0x3d,
  0x40, 0x73, 0x11, 0x3d, 0xeb, 0xd2, 0xa6, 0xbe, 0x40, 0x73, 0x11, 0x3d,
  0xdf, 0xfe, 0xc0, 0x3e, 0x40, 0x73, 0x11, 0x3d, 0xdf, 0xfe, 0xc0, 0x3e,
  0x40, 0x73, 0x11, 0x3d, 0x40, 0x73, 0x11, 0x3d, 0xeb, 0xd2, 0xa6, 0xbe,
  0x40, 0x73, 0x11, 0x3d, 0x40, 0x73, 0x11, 0x3d, 0x40, 0x73, 0x11, 0x3d,
  0x40, 0x73, 0x11, 0x3d, 0x40, 0x73, 0x11, 0x3d, 0x40, 0x73, 0x11, 0x3d,
  0x40, 0x73, 0x11, 0x3d, 0x40, 0x73, 0x11, 0x3d, 0xdf, 0xfe, 0xc0, 0x3e,
  0x40, 0x73, 0x11, 0x3d, 0x40, 0x73, 0x11, 0x3d, 0x40, 0x73, 0x11, 0x3d,
  0x40, 0x73, 0x11, 0x3d, 0xdf, 0xfe, 0xc0, 0x3e, 0x40, 0x73, 0x11, 0x3d,
  0x40, 0x73, 0x11, 0x3d, 0xdf, 0xfe, 0xc0, 0x3e, 0xeb, 0xd2, 0xa6, 0xbe,
  0x40, 0x73, 0x11, 0x3d, 0x40, 0x73, 0x11, 0x3d, 0xdf, 0xfe, 0xc0, 0x3e,
  0x40, 0x73, 0x11, 0x3d, 0x40, 0x73, 0x11, 0x3d, 0x40, 0x73, 0x11, 0x3d,
  0xdf, 0xfe, 0xc0, 0x3e, 0x40, 0x73, 0x11, 0x3d, 0x40, 0x73, 0x11, 0x3d,
  0x40, 0x73, 0x11, 0x3d, 0x40, 0x73, 0x11, 0x3d, 0x40, 0x73, 0x11, 0x3d,
  0x40, 0x73, 0x11, 0x3d, 0x40, 0x73, 0x11, 0x3d, 0x40, 0x73, 0x11, 0x3d,
  0x40, 0x73, 0x11, 0x3d, 0x40, 0x73, 0x11, 0x3d, 0x40, 0x73, 0x11, 0x3d,
  0x40, 0x73, 0x11, 0x3d, 0x40, 0x73, 0x11, 0x3d, 0x40, 0x73, 0x11, 0x3d,
  0x40, 0x73, 0x11, 0x3d, 0x40, 0x73, 0x11, 0x3d, 0x40, 0x73, 0x11, 0x3d,
  0x40, 0x73, 0x11, 0x3d, 0x40, 0x73, 0x11, 0x3d, 0x40, 0x73, 0x11, 0x3d,
  0x40, 0x73, 0x11, 0x3d, 0xdf, 0xfe, 0xc0, 0x3e, 0x40, 0x73, 0x11, 0x3d,
  0x40, 0x73, 0x11, 0x3d, 0x40, 0x73, 0x11, 0x3d, 0x40, 0x73, 0x11, 0x3d,
  0x40, 0x73, 0x11, 0x3d, 0x40, 0x73, 0x11, 0x3d, 0x40, 0x73, 0x11, 0x3d,
  0xdf, 0xfe, 0xc0, 0x3e, 0xdf, 0xfe, 0xc0, 0x3e, 0x40, 0x73, 0x11, 0x3d,
  0x40, 0x73, 0x11, 0x3d, 0x40, 0x73, 0x11, 0x3d, 0x40, 0x73, 0x11, 0x3d,
  0x40, 0x73, 0x11, 0x3d, 0x40, 0x73, 0x11, 0x3d, 0x40, 0x73, 0x11, 0x3d,
  0x40, 0x73, 0x11, 0x3d, 0x40, 0x73, 0x11, 0x3d, 0x40, 0x73, 0x11, 0x3d,
  0x40, 0x73, 0x11, 0x3d, 0x40, 0x73, 0x11, 0x3d, 0xeb, 0xd2, 0xa6, 0xbe,
  0x40, 0x73, 0x11, 0x3d, 0x40, 0x73, 0x11, 0x3d, 0x40, 0x73, 0x11, 0x3d,
  0x40, 0x73, 0x11, 0x3d, 0xdf, 0xfe, 0xc0, 0x3e, 0x40, 0x73, 0x11, 0x3d,
  0x40, 0x73, 0x11, 0x3d, 0x40, 0x73, 0x11, 0x3d, 0x40, 0x73, 0x11, 0x3d,
  0xdf, 0xfe, 0xc0, 0x3e, 0xdf, 0xfe, 0xc0, 0x3e, 0xdf, 0xfe, 0xc0, 0x3e,
  0x40, 0x73, 0x11, 0x3d, 0x40, 0x73, 0x11, 0x3d, 0x40, 0x73, 0x11, 0x3d,
  0x40, 0x73, 0x11, 0x3d, 0x40, 0x73, 0x11, 0x3d, 0x40, 0x73, 0x11, 0x3d,
  0x40, 0x73, 0x11, 0x3d, 0x40, 0x73, 0x11, 0x3d, 0x40, 0x73, 0x11, 0x3d,
  0x40, 0x73, 0x11, 0x3d, 0x40, 0x73, 0x11, 0x3d, 0x40, 0x73, 0x11, 0x3d,
  0x40, 0x73, 0x11, 0x3d, 0x40, 0x73, 0x11, 0x3d, 0x40, 0x73, 0x11, 0x3d,
  0x40, 0x73, 0x11, 0x3d, 0x40, 0x73, 0x11, 0x3d, 0x40, 0x73, 0x11, 0x3d,
  0x40, 0x73, 0x11, 0x3d, 0x40, 0x73, 0x11, 0x3d, 0x40, 0x73, 0x11, 0x3d,
  0x40, 0x73, 0x11, 0x3d, 0x40, 0x73, 0x11, 0x3d, 0x40, 0x73, 0x11, 0x3d,
  0x40, 0x73, 0x11, 0x3d, 0x40, 0x73, 0x11, 0x3d, 0x40, 0x73, 0x11, 0x3d,
  0x40, 0x73, 0x11, 0x3d, 0x40, 0x73, 0x11, 0x3d, 0x40, 0x73, 0x11, 0x3d,
  0x40, 0x73, 0x11, 0x3d, 0x40, 0x73, 0x11, 0x3d, 0xdf, 0xfe, 0xc0, 0x3e,
  0x40, 0x73, 0x11, 0x3d, 0x40, 0x73, 0x11, 0x3d, 0x40, 0x73, 0x11, 0x3d,
  0xdf, 0xfe, 0xc0, 0x3e, 0x40, 0x73, 0x11, 0x3d, 0x40, 0x73, 0x11, 0x3d,
  0x40, 0x73, 0x11, 0x3d, 0x40, 0x73, 0x11, 0x3d, 0xdf, 0xfe, 0xc0, 0x3e,
  0x40, 0x73, 0x11, 0x3d, 0x40, 0x73, 0x11, 0x3d, 0x40, 0x73, 0x11, 0x3d,
  0x40, 0x73, 0x11, 0x3d, 0xeb, 0xd2, 0xa6, 0xbe, 0x40, 0x73, 0x11, 0x3d,
  0x40, 0x73, 0x11, 0x3d, 0x40, 0x73, 0x11, 0x3d, 0x40, 0x73, 0x11, 0x3d,
  0x40, 0x73, 0x11, 0x3d, 0x40, 0x73, 0x11, 0x3d, 0x40, 0x73, 0x11, 0x3d,
  0x40, 0x73, 0x11, 0x3d, 0x40, 0x73, 0x11, 0x3d, 0x40, 0x73, 0x11, 0x3d,
  0x40, 0x73, 0x11, 0x3d, 0xdf, 0xfe, 0xc0, 0x3e, 0xdf, 0xfe, 0xc0, 0x3e,
  0x40, 0x73, 0x11, 0x3d, 0x40, 0x73, 0x11, 0x3d, 0x40, 0x73, 0x11, 0x3d,
  0x40, 0x73, 0x11, 0x3d, 0x40, 0x73, 0x11, 0x3d, 0x40, 0x73, 0x11, 0x3d,
  0x40, 0x73, 0x11, 0x3d, 0x40, 0x73, 0x11, 0x3d, 0x40, 0x73, 0x11, 0x3d,
  0x40, 0x73, 0x11, 0x3d, 0x40, 0x73, 0x11, 0x3d, 0x40, 0x73, 0x11, 0x3d,
  0x40, 0x73, 0x11, 0x3d, 0x40, 0x73, 0x11, 0x3d, 0x40, 0x73, 0x11, 0x3d,
  0x40, 0x73, 0x11, 0x3d, 0x40, 0x73, 0x11, 0x3d, 0x40, 0x73, 0x11, 0x3d,
  0x40, 0x73, 0x11, 0x3d, 0x40, 0x73, 0x11, 0x3d, 0x40, 0x73, 0x11, 0x3d,
  0x40, 0x73, 0x11, 0x3d, 0x40, 0x73, 0x11, 0x3d, 0x40, 0x73, 0x11, 0x3d,
  0x40, 0x73, 0x11, 0x3d, 0x40, 0x73, 0x11, 0x3d, 0x40, 0x73, 0x11, 0x3d,
  0x40, 0x73, 0x11, 0x3d, 0xdf, 0xfe, 0xc0, 0x3e, 0x40, 0x73, 0x11, 0x3d,
  0x40, 0x73, 0x11, 0x3d, 0x40, 0x73, 0x11, 0x3d, 0x40, 0x73, 0x11, 0x3d,
  0x40, 0x73, 0x11, 0x3d, 0x40, 0x73, 0x11, 0x3d, 0x40, 0x73, 0x11, 0x3d,
  0x40, 0x73, 0x11, 0x3d, 0x40, 0x73, 0x11, 0x3d, 0x40, 0x73, 0x11, 0x3d,
  0xdf, 0xfe, 0xc0, 0x3e, 0xeb, 0xd2, 0xa6, 0xbe, 0x40, 0x73, 0x11, 0x3d,
  0x40, 0x73, 0x11, 0x3d, 0x40, 0x73, 0x11, 0x3d, 0x40, 0x73, 0x11, 0x3d,
  0x40, 0x73, 0x11, 0x3d, 0x40, 0x73, 0x11, 0x3d, 0x40, 0x73, 0x11, 0x3d,
  0x40, 0x73, 0x11, 0x3d, 0x40, 0x73, 0x11, 0x3d, 0xdf, 0xfe, 0xc0, 0x3e,
  0x40, 0x73, 0x11, 0x3d, 0xeb, 0xd2, 0xa6, 0xbe, 0x40, 0x73, 0x11, 0x3d,
  0xdf, 0xfe, 0xc0, 0x3e, 0x40, 0x73, 0x11, 0x3d, 0xeb, 0xd2, 0xa6, 0xbe,
  0x40, 0x73, 0x11, 0x3d, 0x40, 0x73, 0x11, 0x3d, 0x40, 0x73, 0x11, 0x3d,
  0x40, 0x73, 0x11, 0x3d, 0x40, 0x73, 0x11, 0x3d, 0x40, 0x73, 0x11, 0x3d,
  0xdf, 0xfe, 0xc0, 0x3e, 0xdf, 0xfe, 0xc0, 0x3e, 0xdf, 0xfe, 0xc0, 0x3e,
  0x40, 0x73, 0x11, 0x3d, 0x40, 0x73, 0x11, 0x3d, 0x40, 0x73, 0x11, 0x3d,
  0xeb, 0xd2, 0xa6, 0xbe, 0x40, 0x73, 0x11, 0x3d, 0x40, 0x73, 0x11, 0x3d,
  0x40, 0x73, 0x11, 0x3d, 0x40, 0x73, 0x11, 0x3d, 0x40, 0x73, 0x11, 0x3d,
  0xdf, 0xfe, 0xc0, 0x3e, 0x40, 0x73, 0x11, 0x3d, 0x40, 0x73, 0x11, 0x3d,
  0x40, 0x73, 0x11, 0x3d, 0x40, 0x73, 0x11, 0x3d, 0x40, 0x73, 0x11, 0x3d,
  0x40, 0x73, 0x11, 0x3d, 0x7c, 0x65, 0x32, 0xbf, 0x40, 0x73, 0x11, 0x3d,
  0x40, 0x73, 0x11, 0x3d, 0x40, 0x73, 0x11, 0x3d, 0x40, 0x73, 0x11, 0x3d,
  0xeb, 0xd2, 0xa6, 0xbe, 0xdf, 0xfe, 0xc0, 0x3e, 0x40, 0x73, 0x11, 0x3d,
  0x40, 0x73, 0x11, 0x3d, 0x40, 0x73, 0x11, 0x3d, 0x40, 0x73, 0x11, 0x3d,
  0xdf, 0xfe, 0xc0, 0x3e, 0x40, 0x73, 0x11, 0x3d, 0xdf, 0xfe, 0xc0, 0x3e,
  0x40, 0x73, 0x11, 0x3d, 0xdf, 0xfe, 0xc0, 0x3e, 0x40, 0x73, 0x11, 0x3d,
  0x40, 0x73, 0x11, 0x3d, 0x40, 0x73, 0x11, 0x3d, 0x40, 0x73, 0x11, 0x3d,
  0x40, 0x73, 0x11, 0x3d, 0xeb, 0xd2, 0xa6, 0xbe, 0x40, 0x73, 0x11, 0x3d,
  0x40, 0x73, 0x11, 0x3d, 0x40, 0x73, 0x11, 0x3d, 0x40, 0x73, 0x11, 0x3d,
  0x40, 0x73, 0x11, 0x3d, 0xdf, 0xfe, 0xc0, 0x3e, 0x40, 0x73, 0x11, 0x3d,
  0x40, 0x73, 0x11, 0x3d, 0x40, 0x73, 0x11, 0x3d, 0x40, 0x73, 0x11, 0x3d,
  0x40, 0x73, 0x11, 0x3d, 0xdf, 0xfe, 0xc0, 0x3e, 0x40, 0x73, 0x11, 0x3d,
  0x40, 0x73, 0x11, 0x3d, 0x40, 0x73, 0x11, 0x3d, 0x40, 0x73, 0x11, 0x3d,
  0x40, 0x73, 0x11, 0x3d, 0x40, 0x73, 0x11, 0x3d, 0x40, 0x73, 0x11, 0x3d,
  0x40, 0x73, 0x11, 0x3d, 0x40, 0x73, 0x11, 0x3d, 0x40, 0x73, 0x11, 0x3d,
  0xdf, 0xfe, 0xc0, 0x3e, 0x40, 0x73, 0x11, 0x3d, 0x40, 0x73, 0x11, 0x3d,
  0x40, 0x73, 0x11, 0x3d, 0x40, 0x73, 0x11, 0x3d, 0x40, 0x73, 0x11, 0x3d,
  0x40, 0x73, 0x11, 0x3d, 0x40, 0x73, 0x11, 0x3d, 0x40, 0x73, 0x11, 0x3d,
  0x40, 0x73, 0x11, 0x3d, 0x40, 0x73, 0x11, 0x3d, 0x40, 0x73, 0x11, 0x3d,
  0x40, 0x73, 0x11, 0x3d, 0x40, 0x73, 0x11, 0x3d, 0x40, 0x73, 0x11, 0x3d,
  0x40, 0x73, 0x11, 0x3d, 0x40, 0x73, 0x11, 0x3d, 0x40, 0x73, 0x11, 0x3d,
  0xdf, 0xfe, 0xc0, 0x3e, 0xdf, 0xfe, 0xc0, 0x3e, 0x40, 0x73, 0x11, 0x3d,
  0xeb, 0xd2, 0xa6, 0xbe, 0x40, 0x73, 0x11, 0x3d, 0x40, 0x73, 0x11, 0x3d,
  0x40, 0x73, 0x11, 0x3d, 0xdf, 0xfe, 0xc0, 0x3e, 0x40, 0x73, 0x11, 0x3d,
  0x40, 0x73, 0x11, 0x3d, 0x40, 0x73, 0x11, 0x3d, 0x40, 0x73, 0x11, 0x3d,
  0x40, 0x73, 0x11, 0x3d, 0x40, 0x73, 0x11, 0x3d, 0x40, 0x73, 0x11, 0x3d,
  0x40, 0x73, 0x11, 0x3d, 0x40, 0x73, 0x11, 0x3d, 0x40, 0x73, 0x11, 0x3d,
  0x40, 0x73, 0x11, 0x3d, 0x40, 0x73, 0x11, 0x3d, 0x40, 0x73, 0x11, 0x3d,
  0x40, 0x73, 0x11, 0x3d, 0x40, 0x73, 0x11, 0x3d, 0x40, 0x73, 0x11, 0x3d,
  0x40, 0x73, 0x11, 0x3d, 0x40, 0x73, 0x11, 0x3d, 0x40, 0x73, 0x11, 0x3d,
  0x40, 0x73, 0x11, 0x3d, 0x40, 0x73, 0x11, 0x3d, 0x40, 0x73, 0x11, 0x3d,
  0x40, 0x73, 0x11, 0x3d, 0x40, 0x73, 0x11, 0x3d, 0xdf, 0xfe, 0xc0, 0x3e,
  0x40, 0x73, 0x11, 0x3d, 0x40, 0x73, 0x11, 0x3d, 0xdf, 0xfe, 0xc0, 0x3e,
  0x40, 0x73, 0x11, 0x3d, 0x40, 0x73, 0x11, 0x3d, 0x40, 0x73, 0x11, 0x3d,
  0xeb, 0xd2, 0xa6, 0xbe, 0xdf, 0xfe, 0xc0, 0x3e, 0x40, 0x73, 0x11, 0x3d,
  0x40, 0x73, 0x11, 0x3d, 0x40, 0x73, 0x11, 0x3d, 0x40, 0x73, 0x11, 0x3d,
  0xdf, 0xfe, 0xc0, 0x3e, 0x40, 0x73, 0x11, 0x3d, 0x40, 0x73, 0x11, 0x3d,
  0x40, 0x73, 0x11, 0x3d, 0x40, 0x73, 0x11, 0x3d, 0x40, 0x73, 0x11, 0x3d,
  0x40, 0x73, 0x11, 0x3d, 0x40, 0x73, 0x11, 0x3d, 0x40, 0x73, 0x11, 0x3d,
  0x40, 0x73, 0x11, 0x3d, 0x40, 0x73, 0x11, 0x3d, 0xdf, 0xfe, 0xc0, 0x3e,
  0x40, 0x73, 0x11, 0x3d, 0xeb, 0xd2, 0xa6, 0xbe, 0xdf, 0xfe, 0xc0, 0x3e,
  0x40, 0x73, 0x11, 0x3d, 0x40, 0x73, 0x11, 0x3d, 0xdf, 0xfe, 0xc0, 0x3e,
  0x40, 0x73, 0x11, 0x3d, 0x40, 0x73, 0x11, 0x3d, 0x40, 0x73, 0x11, 0x3d,
  0xeb, 0xd2, 0xa6, 0xbe, 0x40, 0x73, 0x11, 0x3d, 0xdf, 0xfe, 0xc0, 0x3e,
  0x40, 0x73, 0x11, 0x3d, 0x40, 0x73, 0x11, 0x3d, 0x40, 0x73, 0x11, 0x3d,
  0x40, 0x73, 0x11, 0x3d, 0x40, 0x73, 0x11, 0x3d, 0xdf, 0xfe, 0xc0, 0x3e,
  0x40, 0x73, 0x11, 0x3d, 0x7e, 0xe5, 0xff, 0xff, 0x10, 0x00, 0x00, 0x00,
  0x0d, 0x00, 0x00, 0x00, 0x14, 0x00, 0x00, 0x00, 0x34, 0x00, 0x00, 0x00,
  0x02, 0x00, 0x00, 0x00, 0x19, 0x00, 0x00, 0x00, 0x1e, 0x00, 0x00, 0x00,
  0x1c, 0x00, 0x00, 0x00, 0x73, 0x65, 0x71, 0x75, 0x65, 0x6e, 0x74, 0x69,
  0x61, 0x6c, 0x5f, 0x34, 0x2f, 0x64, 0x65, 0x6e, 0x73, 0x65, 0x5f, 0x32,
  0x39, 0x2f, 0x4d, 0x61, 0x74, 0x4d, 0x75, 0x6c, 0x00, 0x00, 0x00, 0x00,
  0x18, 0xe5, 0xff, 0xff, 0x3e, 0xe6, 0xff, 0xff, 0x04, 0x00, 0x00, 0x00,
  0xb0, 0x04, 0x00, 0x00, 0x40, 0x89, 0x79, 0xbe, 0x40, 0x89, 0x79, 0xbe,
  0x40, 0x89, 0x79, 0xbe, 0x40, 0x89, 0x79, 0xbe, 0x40, 0x89, 0x79, 0xbe,
  0x40, 0x89, 0x79, 0xbe, 0x40, 0x89, 0x79, 0xbe, 0x40, 0x89, 0x79, 0xbe,
  0x8d, 0x6e, 0x56, 0xbf, 0x40, 0x89, 0x79, 0xbe, 0x40, 0x89, 0x79, 0xbe,
  0x40, 0x89, 0x79, 0xbe, 0x40, 0x89, 0x79, 0xbe, 0x40, 0x89, 0x79, 0xbe,
  0x40, 0x89, 0x79, 0xbe, 0x40, 0x89, 0x79, 0xbe, 0xb5, 0x90, 0x91, 0x3e,
  0x40, 0x89, 0x79, 0xbe, 0x40, 0x89, 0x79, 0xbe, 0xb5, 0x90, 0x91, 0x3e,
  0x40, 0x89, 0x79, 0xbe, 0xb5, 0x90, 0x91, 0x3e, 0x40, 0x89, 0x79, 0xbe,
  0x40, 0x89, 0x79, 0xbe, 0x40, 0x89, 0x79, 0xbe, 0x40, 0x89, 0x79, 0xbe,
  0xb5, 0x90, 0x91, 0x3e, 0x40, 0x89, 0x79, 0xbe, 0x40, 0x89, 0x79, 0xbe,
  0xb5, 0x90, 0x91, 0x3e, 0x40, 0x89, 0x79, 0xbe, 0x40, 0x89, 0x79, 0xbe,
  0x40, 0x89, 0x79, 0xbe, 0x40, 0x89, 0x79, 0xbe, 0x40, 0x89, 0x79, 0xbe,
  0x40, 0x89, 0x79, 0xbe, 0x40, 0x89, 0x79, 0xbe, 0x8d, 0x6e, 0x56, 0xbf,
  0x40, 0x89, 0x79, 0xbe, 0x40, 0x89, 0x79, 0xbe, 0x40, 0x89, 0x79, 0xbe,
  0x40, 0x89, 0x79, 0xbe, 0x40, 0x89, 0x79, 0xbe, 0x40, 0x89, 0x79, 0xbe,
  0x8d, 0x6e, 0x56, 0xbf, 0x40, 0x89, 0x79, 0xbe, 0x40, 0x89, 0x79, 0xbe,
  0x40, 0x89, 0x79, 0xbe, 0x40, 0x89, 0x79, 0xbe, 0x8d, 0x6e, 0x56, 0xbf,
  0xb5, 0x90, 0x91, 0x3e, 0xb5, 0x90, 0x91, 0x3e, 0x40, 0x89, 0x79, 0xbe,
  0x40, 0x89, 0x79, 0xbe, 0x40, 0x89, 0x79, 0xbe, 0x40, 0x89, 0x79, 0xbe,
  0x40, 0x89, 0x79, 0xbe, 0x40, 0x89, 0x79, 0xbe, 0x40, 0x89, 0x79, 0xbe,
  0xb5, 0x90, 0x91, 0x3e, 0x8d, 0x6e, 0x56, 0xbf, 0x40, 0x89, 0x79, 0xbe,
  0x40, 0x89, 0x79, 0xbe, 0x40, 0x89, 0x79, 0xbe, 0x40, 0x89, 0x79, 0xbe,
  0x40, 0x89, 0x79, 0xbe, 0x40, 0x89, 0x79, 0xbe, 0x40, 0x89, 0x79, 0xbe,
  0x40, 0x89, 0x79, 0xbe, 0x40, 0x89, 0x79, 0xbe, 0x8d, 0x6e, 0x56, 0xbf,
  0x40, 0x89, 0x79, 0xbe, 0x8d, 0x6e, 0x56, 0xbf, 0x40, 0x89, 0x79, 0xbe,
  0x40, 0x89, 0x79, 0xbe, 0x40, 0x89, 0x79, 0xbe, 0x40, 0x89, 0x79, 0xbe,
  0x40, 0x89, 0x79, 0xbe, 0x8d, 0x6e, 0x56, 0xbf, 0x40, 0x89, 0x79, 0xbe,
  0x8d, 0x6e, 0x56, 0xbf, 0x8d, 0x6e, 0x56, 0xbf, 0x40, 0x89, 0x79, 0xbe,
  0x40, 0x89, 0x79, 0xbe, 0x40, 0x89, 0x79, 0xbe, 0x40, 0x89, 0x79, 0xbe,
  0x40, 0x89, 0x79, 0xbe, 0x40, 0x89, 0x79, 0xbe, 0x40, 0x89, 0x79, 0xbe,
  0x40, 0x89, 0x79, 0xbe, 0x40, 0x89, 0x79, 0xbe, 0x40, 0x89, 0x79, 0xbe,
  0x40, 0x89, 0x79, 0xbe, 0x40, 0x89, 0x79, 0xbe, 0x40, 0x89, 0x79, 0xbe,
  0x40, 0x89, 0x79, 0xbe, 0xb5, 0x90, 0x91, 0x3e, 0x40, 0x89, 0x79, 0xbe,
  0x40, 0x89, 0x79, 0xbe, 0xb5, 0x90, 0x91, 0x3e, 0x40, 0x89, 0x79, 0xbe,
  0x40, 0x89, 0x79, 0xbe, 0x8d, 0x6e, 0x56, 0xbf, 0x40, 0x89, 0x79, 0xbe,
  0x8d, 0x6e, 0x56, 0xbf, 0x40, 0x89, 0x79, 0xbe, 0xb5, 0x90, 0x91, 0x3e,
  0x40, 0x89, 0x79, 0xbe, 0x40, 0x89, 0x79, 0xbe, 0x40, 0x89, 0x79, 0xbe,
  0x40, 0x89, 0x79, 0xbe, 0x40, 0x89, 0x79, 0xbe, 0x40, 0x89, 0x79, 0xbe,
  0x40, 0x89, 0x79, 0xbe, 0x40, 0x89, 0x79, 0xbe, 0x40, 0x89, 0x79, 0xbe,
  0x40, 0x89, 0x79, 0xbe, 0x40, 0x89, 0x79, 0xbe, 0x40, 0x89, 0x79, 0xbe,
  0x40, 0x89, 0x79, 0xbe, 0x8d, 0x6e, 0x56, 0xbf, 0x8d, 0x6e, 0x56, 0xbf,
  0xf5, 0xa1, 0x5e, 0x3f, 0xb5, 0x90, 0x91, 0x3e, 0x40, 0x89, 0x79, 0xbe,
  0x40, 0x89, 0x79, 0xbe, 0x40, 0x89, 0x79, 0xbe, 0x40, 0x89, 0x79, 0xbe,
  0x40, 0x89, 0x79, 0xbe, 0x40, 0x89, 0x79, 0xbe, 0x40, 0x89, 0x79, 0xbe,
  0x8d, 0x6e, 0x56, 0xbf, 0x40, 0x89, 0x79, 0xbe, 0x40, 0x89, 0x79, 0xbe,
  0x40, 0x89, 0x79, 0xbe, 0x40, 0x89, 0x79, 0xbe, 0x40, 0x89, 0x79, 0xbe,
  0x40, 0x89, 0x79, 0xbe, 0x40, 0x89, 0x79, 0xbe, 0x40, 0x89, 0x79, 0xbe,
  0x40, 0x89, 0x79, 0xbe, 0x8d, 0x6e, 0x56, 0xbf, 0xb5, 0x90, 0x91, 0x3e,
  0xb5, 0x90, 0x91, 0x3e, 0x40, 0x89, 0x79, 0xbe, 0xb5, 0x90, 0x91, 0x3e,
  0x40, 0x89, 0x79, 0xbe, 0x40, 0x89, 0x79, 0xbe, 0x40, 0x89, 0x79, 0xbe,
  0x40, 0x89, 0x79, 0xbe, 0x40, 0x89, 0x79, 0xbe, 0x40, 0x89, 0x79, 0xbe,
  0x40, 0x89, 0x79, 0xbe, 0x40, 0x89, 0x79, 0xbe, 0x40, 0x89, 0x79, 0xbe,
  0x40, 0x89, 0x79, 0xbe, 0xb5, 0x90, 0x91, 0x3e, 0x40, 0x89, 0x79, 0xbe,
  0x40, 0x89, 0x79, 0xbe, 0x40, 0x89, 0x79, 0xbe, 0x40, 0x89, 0x79, 0xbe,
  0x40, 0x89, 0x79, 0xbe, 0x8d, 0x6e, 0x56, 0xbf, 0x40, 0x89, 0x79, 0xbe,
  0x40, 0x89, 0x79, 0xbe, 0x40, 0x89, 0x79, 0xbe, 0x40, 0x89, 0x79, 0xbe,
  0x40, 0x89, 0x79, 0xbe, 0x40, 0x89, 0x79, 0xbe, 0x40, 0x89, 0x79, 0xbe,
  0x8d, 0x6e, 0x56, 0xbf, 0x40, 0x89, 0x79, 0xbe, 0x40, 0x89, 0x79, 0xbe,
  0x40, 0x89, 0x79, 0xbe, 0x40, 0x89, 0x79, 0xbe, 0x40, 0x89, 0x79, 0xbe,
  0x40, 0x89, 0x79, 0xbe, 0x40, 0x89, 0x79, 0xbe, 0x40, 0x89, 0x79, 0xbe,
  0x40, 0x89, 0x79, 0xbe, 0x40, 0x89, 0x79, 0xbe, 0x40, 0x89, 0x79, 0xbe,
  0x40, 0x89, 0x79, 0xbe, 0x40, 0x89, 0x79, 0xbe, 0x40, 0x89, 0x79, 0xbe,
  0x40, 0x89, 0x79, 0xbe, 0xb5, 0x90, 0x91, 0x3e, 0x40, 0x89, 0x79, 0xbe,
  0x40, 0x89, 0x79, 0xbe, 0xb5, 0x90, 0x91, 0x3e, 0x40, 0x89, 0x79, 0xbe,
  0x40, 0x89, 0x79, 0xbe, 0x40, 0x89, 0x79, 0xbe, 0x40, 0x89, 0x79, 0xbe,
  0x40, 0x89, 0x79, 0xbe, 0x40, 0x89, 0x79, 0xbe, 0x40, 0x89, 0x79, 0xbe,
  0xb5, 0x90, 0x91, 0x3e, 0x40, 0x89, 0x79, 0xbe, 0x40, 0x89, 0x79, 0xbe,
  0x40, 0x89, 0x79, 0xbe, 0x40, 0x89, 0x79, 0xbe, 0x40, 0x89, 0x79, 0xbe,
  0x40, 0x89, 0x79, 0xbe, 0x40, 0x89, 0x79, 0xbe, 0x40, 0x89, 0x79, 0xbe,
  0x40, 0x89, 0x79, 0xbe, 0x40, 0x89, 0x79, 0xbe, 0x40, 0x89, 0x79, 0xbe,
  0x8d, 0x6e, 0x56, 0xbf, 0x40, 0x89, 0x79, 0xbe, 0x40, 0x89, 0x79, 0xbe,
  0x40, 0x89, 0x79, 0xbe, 0x40, 0x89, 0x79, 0xbe, 0x40, 0x89, 0x79, 0xbe,
  0x40, 0x89, 0x79, 0xbe, 0xb5, 0x90, 0x91, 0x3e, 0x40, 0x89, 0x79, 0xbe,
  0x40, 0x89, 0x79, 0xbe, 0x40, 0x89, 0x79, 0xbe, 0x40, 0x89, 0x79, 0xbe,
  0x40, 0x89, 0x79, 0xbe, 0x40, 0x89, 0x79, 0xbe, 0xb5, 0x90, 0x91, 0x3e,
  0x40, 0x89, 0x79, 0xbe, 0x40, 0x89, 0x79, 0xbe, 0xb5, 0x90, 0x91, 0x3e,
  0xb5, 0x90, 0x91, 0x3e, 0x40, 0x89, 0x79, 0xbe, 0x40, 0x89, 0x79, 0xbe,
  0x40, 0x89, 0x79, 0xbe, 0x40, 0x89, 0x79, 0xbe, 0x40, 0x89, 0x79, 0xbe,
  0x40, 0x89, 0x79, 0xbe, 0x40, 0x89, 0x79, 0xbe, 0x40, 0x89, 0x79, 0xbe,
  0x40, 0x89, 0x79, 0xbe, 0x40, 0x89, 0x79, 0xbe, 0x40, 0x89, 0x79, 0xbe,
  0x40, 0x89, 0x79, 0xbe, 0x40, 0x89, 0x79, 0xbe, 0x40, 0x89, 0x79, 0xbe,
  0x40, 0x89, 0x79, 0xbe, 0xb5, 0x90, 0x91, 0x3e, 0x40, 0x89, 0x79, 0xbe,
  0x40, 0x89, 0x79, 0xbe, 0x40, 0x89, 0x79, 0xbe, 0x40, 0x89, 0x79, 0xbe,
  0x40, 0x89, 0x79, 0xbe, 0x40, 0x89, 0x79, 0xbe, 0xb5, 0x90, 0x91, 0x3e,
  0x40, 0x89, 0x79, 0xbe, 0x40, 0x89, 0x79, 0xbe, 0x40, 0x89, 0x79, 0xbe,
  0x40, 0x89, 0x79, 0xbe, 0x40, 0x89, 0x79, 0xbe, 0xb5, 0x90, 0x91, 0x3e,
  0x40, 0x89, 0x79, 0xbe, 0x40, 0x89, 0x79, 0xbe, 0x40, 0x89, 0x79, 0xbe,
  0x40, 0x89, 0x79, 0xbe, 0x40, 0x89, 0x79, 0xbe, 0x40, 0x89, 0x79, 0xbe,
  0x40, 0x89, 0x79, 0xbe, 0x40, 0x89, 0x79, 0xbe, 0x40, 0x89, 0x79, 0xbe,
  0x40, 0x89, 0x79, 0xbe, 0x40, 0x89, 0x79, 0xbe, 0x40, 0x89, 0x79, 0xbe,
  0x40, 0x89, 0x79, 0xbe, 0x40, 0x89, 0x79, 0xbe, 0x40, 0x89, 0x79, 0xbe,
  0x8d, 0x6e, 0x56, 0xbf, 0x40, 0x89, 0x79, 0xbe, 0x40, 0x89, 0x79, 0xbe,
  0x40, 0x89, 0x79, 0xbe, 0x40, 0x89, 0x79, 0xbe, 0x40, 0x89, 0x79, 0xbe,
  0x40, 0x89, 0x79, 0xbe, 0x40, 0x89, 0x79, 0xbe, 0x40, 0x89, 0x79, 0xbe,
  0x40, 0x89, 0x79, 0xbe, 0x40, 0x89, 0x79, 0xbe, 0x40, 0x89, 0x79, 0xbe,
  0x40, 0x89, 0x79, 0xbe, 0x40, 0x89, 0x79, 0xbe, 0x40, 0x89, 0x79, 0xbe,
  0x40, 0x89, 0x79, 0xbe, 0x8d, 0x6e, 0x56, 0xbf, 0x40, 0x89, 0x79, 0xbe,
  0x8d, 0x6e, 0x56, 0xbf, 0x40, 0x89, 0x79, 0xbe, 0x40, 0x89, 0x79, 0xbe,
  0x40, 0x89, 0x79, 0xbe, 0x40, 0x89, 0x79, 0xbe, 0x40, 0x89, 0x79, 0xbe,
  0x8d, 0x6e, 0x56, 0xbf, 0x40, 0x89, 0x79, 0xbe, 0x40, 0x89, 0x79, 0xbe,
  0x40, 0x89, 0x79, 0xbe, 0x82, 0xea, 0xff, 0xff, 0x10, 0x00, 0x00, 0x00,
  0x0c, 0x00, 0x00, 0x00, 0x14, 0x00, 0x00, 0x00, 0x34, 0x00, 0x00, 0x00,
  0x02, 0x00, 0x00, 0x00, 0x1e, 0x00, 0x00, 0x00, 0x0a, 0x00, 0x00, 0x00,
  0x1c, 0x00, 0x00, 0x00, 0x73, 0x65, 0x71, 0x75, 0x65, 0x6e, 0x74, 0x69,
  0x61, 0x6c, 0x5f, 0x34, 0x2f, 0x64, 0x65, 0x6e, 0x73, 0x65, 0x5f, 0x32,
  0x38, 0x2f, 0x4d, 0x61, 0x74, 0x4d, 0x75, 0x6c, 0x00, 0x00, 0x00, 0x00,
  0x1c, 0xea, 0xff, 0xff, 0x42, 0xeb, 0xff, 0xff, 0x04, 0x00, 0x00, 0x00,
  0x50, 0x00, 0x00, 0x00, 0x5a, 0x04, 0x89, 0x3d, 0x16, 0xa7, 0x29, 0x3f,
  0x5a, 0x04, 0x89, 0x3d, 0x5a, 0x04, 0x89, 0x3d, 0x16, 0xa7, 0x29, 0x3f,
  0x5a, 0x04, 0x89, 0x3d, 0x5a, 0x04, 0x89, 0x3d, 0x5a, 0x04, 0x89, 0x3d,
  0x16, 0xa7, 0x29, 0x3f, 0x5a, 0x04, 0x89, 0x3d, 0x5a, 0x04, 0x89, 0x3d,
  0x5a, 0x04, 0x89, 0x3d, 0x5a, 0x04, 0x89, 0x3d, 0x36, 0x1b, 0x51, 0x3e,
  0x5a, 0x04, 0x89, 0x3d, 0x5a, 0x04, 0x89, 0x3d, 0xe3, 0x9c, 0x75, 0x3f,
  0x5a, 0x04, 0x89, 0x3d, 0x5a, 0x04, 0x89, 0x3d, 0x5a, 0x04, 0x89, 0x3d,
  0x26, 0xeb, 0xff, 0xff, 0x10, 0x00, 0x00, 0x00, 0x0b, 0x00, 0x00, 0x00,
  0x14, 0x00, 0x00, 0x00, 0x34, 0x00, 0x00, 0x00, 0x02, 0x00, 0x00, 0x00,
  0x0a, 0x00, 0x00, 0x00, 0x02, 0x00, 0x00, 0x00, 0x1c, 0x00, 0x00, 0x00,
  0x73, 0x65, 0x71, 0x75, 0x65, 0x6e, 0x74, 0x69, 0x61, 0x6c, 0x5f, 0x34,
  0x2f, 0x64, 0x65, 0x6e, 0x73, 0x65, 0x5f, 0x32, 0x37, 0x2f, 0x4d, 0x61,
  0x74, 0x4d, 0x75, 0x6c, 0x00, 0x00, 0x00, 0x00, 0xc0, 0xea, 0xff, 0xff,
  0xe6, 0xeb, 0xff, 0xff, 0x04, 0x00, 0x00, 0x00, 0x50, 0x00, 0x00, 0x00,
  0x21, 0xae, 0x74, 0x3d, 0x21, 0xae, 0x74, 0x3d, 0x21, 0xae, 0x74, 0x3d,
  0x21, 0xae, 0x74, 0x3d, 0x21, 0xae, 0x74, 0x3d, 0x21, 0xae, 0x74, 0x3d,
  0x5b, 0x29, 0x76, 0x3f, 0x21, 0xae, 0x74, 0x3d, 0x21, 0xae, 0x74, 0x3d,
  0x21, 0xae, 0x74, 0x3d, 0x21, 0xae, 0x74, 0x3d, 0x21, 0xae, 0x74, 0x3d,
  0x21, 0xae, 0x74, 0x3d, 0x21, 0xae, 0x74, 0x3d, 0x7d, 0x49, 0x13, 0x3f,
  0x21, 0xae, 0x74, 0x3d, 0x21, 0xae, 0x74, 0x3d, 0x5b, 0x29, 0x76, 0x3f,
  0x5b, 0x29, 0x76, 0x3f, 0x21, 0xae, 0x74, 0x3d, 0xca, 0xeb, 0xff, 0xff,
  0x10, 0x00, 0x00, 0x00, 0x0a, 0x00, 0x00, 0x00, 0x14, 0x00, 0x00, 0x00,
  0x34, 0x00, 0x00, 0x00, 0x02, 0x00, 0x00, 0x00, 0x02, 0x00, 0x00, 0x00,
  0x0a, 0x00, 0x00, 0x00, 0x1c, 0x00, 0x00, 0x00, 0x73, 0x65, 0x71, 0x75,
  0x65, 0x6e, 0x74, 0x69, 0x61, 0x6c, 0x5f, 0x34, 0x2f, 0x64, 0x65, 0x6e,
  0x73, 0x65, 0x5f, 0x32, 0x36, 0x2f, 0x4d, 0x61, 0x74, 0x4d, 0x75, 0x6c,
  0x00, 0x00, 0x00, 0x00, 0x64, 0xeb, 0xff, 0xff, 0x8a, 0xec, 0xff, 0xff,
  0x04, 0x00, 0x00, 0x00, 0xb0, 0x04, 0x00, 0x00, 0xf2, 0xf9, 0x8a, 0x3d,
  0xf2, 0xf9, 0x8a, 0x3d, 0xf2, 0xf9, 0x8a, 0x3d, 0xf2, 0xf9, 0x8a, 0x3d,
  0xf2, 0xf9, 0x8a, 0x3d, 0xf2, 0xf9, 0x8a, 0x3d, 0xf2, 0xf9, 0x8a, 0x3d,
  0xf2, 0xf9, 0x8a, 0x3d, 0xf2, 0xf9, 0x8a, 0x3d, 0xf2, 0xf9, 0x8a, 0x3d,
  0xf2, 0xf9, 0x8a, 0x3d, 0xf2, 0xf9, 0x8a, 0x3d, 0xf2, 0xf9, 0x8a, 0x3d,
  0xf2, 0xf9, 0x8a, 0x3d, 0xf2, 0xf9, 0x8a, 0x3d, 0xf2, 0xf9, 0x8a, 0x3d,
  0xf2, 0xf9, 0x8a, 0x3d, 0xf2, 0xf9, 0x8a, 0x3d, 0x96, 0x5c, 0x9f, 0xbe,
  0xf2, 0xf9, 0x8a, 0x3d, 0xf2, 0xf9, 0x8a, 0x3d, 0xf2, 0xf9, 0x8a, 0x3d,
  0x96, 0x5c, 0x9f, 0xbe, 0xf2, 0xf9, 0x8a, 0x3d, 0xf2, 0xf9, 0x8a, 0x3d,
  0xf2, 0xf9, 0x8a, 0x3d, 0xf2, 0xf9, 0x8a, 0x3d, 0x96, 0x5c, 0x9f, 0xbe,
  0xf2, 0xf9, 0x8a, 0x3d, 0x96, 0x5c, 0x9f, 0xbe, 0xf2, 0xf9, 0x8a, 0x3d,
  0xf2, 0xf9, 0x8a, 0x3d, 0x33, 0x1c, 0x46, 0x3f, 0xf2, 0xf9, 0x8a, 0x3d,
  0xf2, 0xf9, 0x8a, 0x3d, 0xf2, 0xf9, 0x8a, 0x3d, 0xf2, 0xf9, 0x8a, 0x3d,
  0x96, 0x5c, 0x9f, 0xbe, 0xf2, 0xf9, 0x8a, 0x3d, 0xf2, 0xf9, 0x8a, 0x3d,
  0xf2, 0xf9, 0x8a, 0x3d, 0xf2, 0xf9, 0x8a, 0x3d, 0xf2, 0xf9, 0x8a, 0x3d,
  0xf2, 0xf9, 0x8a, 0x3d, 0xf2, 0xf9, 0x8a, 0x3d, 0xf2, 0xf9, 0x8a, 0x3d,
  0xf2, 0xf9, 0x8a, 0x3d, 0xf2, 0xf9, 0x8a, 0x3d, 0x96, 0x5c, 0x9f, 0xbe,
  0xf2, 0xf9, 0x8a, 0x3d, 0xf2, 0xf9, 0x8a, 0x3d, 0xf2, 0xf9, 0x8a, 0x3d,
  0xf2, 0xf9, 0x8a, 0x3d, 0xf2, 0xf9, 0x8a, 0x3d, 0x96, 0x5c, 0x9f, 0xbe,
  0xf2, 0xf9, 0x8a, 0x3d, 0xf2, 0xf9, 0x8a, 0x3d, 0xf2, 0xf9, 0x8a, 0x3d,
  0xf2, 0xf9, 0x8a, 0x3d, 0xf2, 0xf9, 0x8a, 0x3d, 0xf2, 0xf9, 0x8a, 0x3d,
  0xf2, 0xf9, 0x8a, 0x3d, 0xf2, 0xf9, 0x8a, 0x3d, 0xf2, 0xf9, 0x8a, 0x3d,
  0xf2, 0xf9, 0x8a, 0x3d, 0xf2, 0xf9, 0x8a, 0x3d, 0xf2, 0xf9, 0x8a, 0x3d,
  0xf2, 0xf9, 0x8a, 0x3d, 0xf2, 0xf9, 0x8a, 0x3d, 0xf2, 0xf9, 0x8a, 0x3d,
  0xf2, 0xf9, 0x8a, 0x3d, 0xf2, 0xf9, 0x8a, 0x3d, 0xf2, 0xf9, 0x8a, 0x3d,
  0xf2, 0xf9, 0x8a, 0x3d, 0xf2, 0xf9, 0x8a, 0x3d, 0xf2, 0xf9, 0x8a, 0x3d,
  0xf2, 0xf9, 0x8a, 0x3d, 0xf2, 0xf9, 0x8a, 0x3d, 0x96, 0x5c, 0x9f, 0xbe,
  0x96, 0x5c, 0x9f, 0xbe, 0xf2, 0xf9, 0x8a, 0x3d, 0xf2, 0xf9, 0x8a, 0x3d,
  0xf2, 0xf9, 0x8a, 0x3d, 0x96, 0x5c, 0x9f, 0xbe, 0xf2, 0xf9, 0x8a, 0x3d,
  0xf2, 0xf9, 0x8a, 0x3d, 0xf2, 0xf9, 0x8a, 0x3d, 0xf2, 0xf9, 0x8a, 0x3d,
  0xf2, 0xf9, 0x8a, 0x3d, 0x96, 0x5c, 0x9f, 0xbe, 0xf2, 0xf9, 0x8a, 0x3d,
  0xf2, 0xf9, 0x8a, 0x3d, 0xf2, 0xf9, 0x8a, 0x3d, 0xf2, 0xf9, 0x8a, 0x3d,
  0xf2, 0xf9, 0x8a, 0x3d, 0xf2, 0xf9, 0x8a, 0x3d, 0xf2, 0xf9, 0x8a, 0x3d,
  0xf2, 0xf9, 0x8a, 0x3d, 0xf2, 0xf9, 0x8a, 0x3d, 0xf2, 0xf9, 0x8a, 0x3d,
  0xf2, 0xf9, 0x8a, 0x3d, 0xf2, 0xf9, 0x8a, 0x3d, 0xf2, 0xf9, 0x8a, 0x3d,
  0xf2, 0xf9, 0x8a, 0x3d, 0xf2, 0xf9, 0x8a, 0x3d, 0x96, 0x5c, 0x9f, 0xbe,
  0xf2, 0xf9, 0x8a, 0x3d, 0xf2, 0xf9, 0x8a, 0x3d, 0xf2, 0xf9, 0x8a, 0x3d,
  0xf2, 0xf9, 0x8a, 0x3d, 0xf2, 0xf9, 0x8a, 0x3d, 0xf2, 0xf9, 0x8a, 0x3d,
  0xf2, 0xf9, 0x8a, 0x3d, 0xf2, 0xf9, 0x8a, 0x3d, 0x33, 0x1c, 0x46, 0x3f,
  0xf2, 0xf9, 0x8a, 0x3d, 0xf2, 0xf9, 0x8a, 0x3d, 0xf2, 0xf9, 0x8a, 0x3d,
  0xf2, 0xf9, 0x8a, 0x3d, 0xf2, 0xf9, 0x8a, 0x3d, 0xf2, 0xf9, 0x8a, 0x3d,
  0xf2, 0xf9, 0x8a, 0x3d, 0xf2, 0xf9, 0x8a, 0x3d, 0x96, 0x5c, 0x9f, 0xbe,
  0xf2, 0xf9, 0x8a, 0x3d, 0xf2, 0xf9, 0x8a, 0x3d, 0xf2, 0xf9, 0x8a, 0x3d,
  0xf2, 0xf9, 0x8a, 0x3d, 0xf2, 0xf9, 0x8a, 0x3d, 0xf2, 0xf9, 0x8a, 0x3d,
  0xf2, 0xf9, 0x8a, 0x3d, 0xf2, 0xf9, 0x8a, 0x3d, 0xf2, 0xf9, 0x8a, 0x3d,
  0xf2, 0xf9, 0x8a, 0x3d, 0xf2, 0xf9, 0x8a, 0x3d, 0xf2, 0xf9, 0x8a, 0x3d,
  0xf2, 0xf9, 0x8a, 0x3d, 0xf2, 0xf9, 0x8a, 0x3d, 0xf2, 0xf9, 0x8a, 0x3d,
  0xf2, 0xf9, 0x8a, 0x3d, 0xf2, 0xf9, 0x8a, 0x3d, 0xf2, 0xf9, 0x8a, 0x3d,
  0xf2, 0xf9, 0x8a, 0x3d, 0xf2, 0xf9, 0x8a, 0x3d, 0xf2, 0xf9, 0x8a, 0x3d,
  0x96, 0x5c, 0x9f, 0xbe, 0xf2, 0xf9, 0x8a, 0x3d, 0xf2, 0xf9, 0x8a, 0x3d,
  0xf2, 0xf9, 0x8a, 0x3d, 0xf2, 0xf9, 0x8a, 0x3d, 0xf2, 0xf9, 0x8a, 0x3d,
  0xf2, 0xf9, 0x8a, 0x3d, 0xf2, 0xf9, 0x8a, 0x3d, 0xf2, 0xf9, 0x8a, 0x3d,
  0xf2, 0xf9, 0x8a, 0x3d, 0xf2, 0xf9, 0x8a, 0x3d, 0xf2, 0xf9, 0x8a, 0x3d,
  0xf2, 0xf9, 0x8a, 0x3d, 0xf2, 0xf9, 0x8a, 0x3d, 0xf2, 0xf9, 0x8a, 0x3d,
  0xf2, 0xf9, 0x8a, 0x3d, 0xf2, 0xf9, 0x8a, 0x3d, 0xf2, 0xf9, 0x8a, 0x3d,
  0xf2, 0xf9, 0x8a, 0x3d, 0xf2, 0xf9, 0x8a, 0x3d, 0xf2, 0xf9, 0x8a, 0x3d,
  0xf2, 0xf9, 0x8a, 0x3d, 0x96, 0x5c, 0x9f, 0xbe, 0x96, 0x5c, 0x9f, 0xbe,
  0xf2, 0xf9, 0x8a, 0x3d, 0xf2, 0xf9, 0x8a, 0x3d, 0xf2, 0xf9, 0x8a, 0x3d,
  0x96, 0x5c, 0x9f, 0xbe, 0xf2, 0xf9, 0x8a, 0x3d, 0xf2, 0xf9, 0x8a, 0x3d,
  0xf2, 0xf9, 0x8a, 0x3d, 0xf2, 0xf9, 0x8a, 0x3d, 0xf2, 0xf9, 0x8a, 0x3d,
  0xf2, 0xf9, 0x8a, 0x3d, 0xf2, 0xf9, 0x8a, 0x3d, 0xf2, 0xf9, 0x8a, 0x3d,
  0xf2, 0xf9, 0x8a, 0x3d, 0xf2, 0xf9, 0x8a, 0x3d, 0xf2, 0xf9, 0x8a, 0x3d,
  0xf2, 0xf9, 0x8a, 0x3d, 0xf2, 0xf9, 0x8a, 0x3d, 0x33, 0x1c, 0x46, 0x3f,
  0x96, 0x5c, 0x9f, 0xbe, 0x60, 0xb7, 0x74, 0xbf, 0xf2, 0xf9, 0x8a, 0x3d,
  0xf2, 0xf9, 0x8a, 0x3d, 0x96, 0x5c, 0x9f, 0xbe, 0xf2, 0xf9, 0x8a, 0x3d,
  0xf2, 0xf9, 0x8a, 0x3d, 0xf2, 0xf9, 0x8a, 0x3d, 0x33, 0x1c, 0x46, 0x3f,
  0xf2, 0xf9, 0x8a, 0x3d, 0xf2, 0xf9, 0x8a, 0x3d, 0x96, 0x5c, 0x9f, 0xbe,
  0xf2, 0xf9, 0x8a, 0x3d, 0xf2, 0xf9, 0x8a, 0x3d, 0xf2, 0xf9, 0x8a, 0x3d,
  0xf2, 0xf9, 0x8a, 0x3d, 0x96, 0x5c, 0x9f, 0xbe, 0x60, 0xb7, 0x74, 0xbf,
  0xf2, 0xf9, 0x8a, 0x3d, 0x33, 0x1c, 0x46, 0x3f, 0x33, 0x1c, 0x46, 0x3f,
  0xf2, 0xf9, 0x8a, 0x3d, 0xf2, 0xf9, 0x8a, 0x3d, 0x60, 0xb7, 0x74, 0xbf,
  0xf2, 0xf9, 0x8a, 0x3d, 0xf2, 0xf9, 0x8a, 0x3d, 0xf2, 0xf9, 0x8a, 0x3d,
  0x33, 0x1c, 0x46, 0x3f, 0x33, 0x1c, 0x46, 0x3f, 0xf2, 0xf9, 0x8a, 0x3d,
  0x96, 0x5c, 0x9f, 0xbe, 0x33, 0x1c, 0x46, 0x3f, 0xf2, 0xf9, 0x8a, 0x3d,
  0xf2, 0xf9, 0x8a, 0x3d, 0x96, 0x5c, 0x9f, 0xbe, 0xf2, 0xf9, 0x8a, 0x3d,
  0xf2, 0xf9, 0x8a, 0x3d, 0x96, 0x5c, 0x9f, 0xbe, 0x60, 0xb7, 0x74, 0xbf,
  0xf2, 0xf9, 0x8a, 0x3d, 0xf2, 0xf9, 0x8a, 0x3d, 0x33, 0x1c, 0x46, 0x3f,
  0xf2, 0xf9, 0x8a, 0x3d, 0xf2, 0xf9, 0x8a, 0x3d, 0xf2, 0xf9, 0x8a, 0x3d,
  0x33, 0x1c, 0x46, 0x3f, 0xf2, 0xf9, 0x8a, 0x3d, 0xf2, 0xf9, 0x8a, 0x3d,
  0xf2, 0xf9, 0x8a, 0x3d, 0xf2, 0xf9, 0x8a, 0x3d, 0xf2, 0xf9, 0x8a, 0x3d,
  0xf2, 0xf9, 0x8a, 0x3d, 0x33, 0x1c, 0x46, 0x3f, 0x96, 0x5c, 0x9f, 0xbe,
  0xf2, 0xf9, 0x8a, 0x3d, 0xf2, 0xf9, 0x8a, 0x3d, 0xf2, 0xf9, 0x8a, 0x3d,
  0xf2, 0xf9, 0x8a, 0x3d, 0xf2, 0xf9, 0x8a, 0x3d, 0xf2, 0xf9, 0x8a, 0x3d,
  0xf2, 0xf9, 0x8a, 0x3d, 0xf2, 0xf9, 0x8a, 0x3d, 0xf2, 0xf9, 0x8a, 0x3d,
  0xf2, 0xf9, 0x8a, 0x3d, 0xf2, 0xf9, 0x8a, 0x3d, 0xf2, 0xf9, 0x8a, 0x3d,
  0xf2, 0xf9, 0x8a, 0x3d, 0xf2, 0xf9, 0x8a, 0x3d, 0xf2, 0xf9, 0x8a, 0x3d,
  0xf2, 0xf9, 0x8a, 0x3d, 0xf2, 0xf9, 0x8a, 0x3d, 0xf2, 0xf9, 0x8a, 0x3d,
  0xf2, 0xf9, 0x8a, 0x3d, 0xf2, 0xf9, 0x8a, 0x3d, 0xf2, 0xf9, 0x8a, 0x3d,
  0xf2, 0xf9, 0x8a, 0x3d, 0xf2, 0xf9, 0x8a, 0x3d, 0xf2, 0xf9, 0x8a, 0x3d,
  0xf2, 0xf9, 0x8a, 0x3d, 0x33, 0x1c, 0x46, 0x3f, 0xf2, 0xf9, 0x8a, 0x3d,
  0x33, 0x1c, 0x46, 0x3f, 0xf2, 0xf9, 0x8a, 0x3d, 0x33, 0x1c, 0x46, 0x3f,
  0xf2, 0xf9, 0x8a, 0x3d, 0xf2, 0xf9, 0x8a, 0x3d, 0xf2, 0xf9, 0x8a, 0x3d,
  0xf2, 0xf9, 0x8a, 0x3d, 0xf2, 0xf9, 0x8a, 0x3d, 0xf2, 0xf9, 0x8a, 0x3d,
  0xf2, 0xf9, 0x8a, 0x3d, 0xf2, 0xf9, 0x8a, 0x3d, 0xf2, 0xf9, 0x8a, 0x3d,
  0xf2, 0xf9, 0x8a, 0x3d, 0xf2, 0xf9, 0x8a, 0x3d, 0xf2, 0xf9, 0x8a, 0x3d,
  0xf2, 0xf9, 0x8a, 0x3d, 0xf2, 0xf9, 0x8a, 0x3d, 0xf2, 0xf9, 0x8a, 0x3d,
  0xf2, 0xf9, 0x8a, 0x3d, 0xf2, 0xf9, 0x8a, 0x3d, 0x96, 0x5c, 0x9f, 0xbe,
  0xf2, 0xf9, 0x8a, 0x3d, 0xf2, 0xf9, 0x8a, 0x3d, 0xf2, 0xf9, 0x8a, 0x3d,
  0xf2, 0xf9, 0x8a, 0x3d, 0xf2, 0xf9, 0x8a, 0x3d, 0xf2, 0xf9, 0x8a, 0x3d,
  0xf2, 0xf9, 0x8a, 0x3d, 0xf2, 0xf9, 0x8a, 0x3d, 0xf2, 0xf9, 0x8a, 0x3d,
  0xf2, 0xf9, 0x8a, 0x3d, 0xf2, 0xf9, 0x8a, 0x3d, 0xce, 0xf0, 0xff, 0xff,
  0x10, 0x00, 0x00, 0x00, 0x09, 0x00, 0x00, 0x00, 0x14, 0x00, 0x00, 0x00,
  0x34, 0x00, 0x00, 0x00, 0x02, 0x00, 0x00, 0x00, 0x0a, 0x00, 0x00, 0x00,
  0x1e, 0x00, 0x00, 0x00, 0x1c, 0x00, 0x00, 0x00, 0x73, 0x65, 0x71, 0x75,
  0x65, 0x6e, 0x74, 0x69, 0x61, 0x6c, 0x5f, 0x34, 0x2f, 0x64, 0x65, 0x6e,
  0x73, 0x65, 0x5f, 0x32, 0x35, 0x2f, 0x4d, 0x61, 0x74, 0x4d, 0x75, 0x6c,
  0x00, 0x00, 0x00, 0x00, 0x68, 0xf0, 0xff, 0xff, 0x8e, 0xf1, 0xff, 0xff,
  0x04, 0x00, 0x00, 0x00, 0xb8, 0x0b, 0x00, 0x00, 0x23, 0x4c, 0x39, 0xbe,
  0x23, 0x4c, 0x39, 0xbe, 0x23, 0x4c, 0x39, 0xbe, 0x23, 0x4c, 0x39, 0xbe,
  0x23, 0x4c, 0x39, 0xbe, 0x23, 0x4c, 0x39, 0xbe, 0x23, 0x4c, 0x39, 0xbe,
  0xbb, 0xda, 0x9f, 0x3e, 0xbb, 0xda, 0x9f, 0x3e, 0x23, 0x4c, 0x39, 0xbe,
  0x23, 0x4c, 0x39, 0xbe, 0x23, 0x4c, 0x39, 0xbe, 0xbb, 0xda, 0x9f, 0x3e,
  0xbb, 0xda, 0x9f, 0x3e, 0x23, 0x4c, 0x39, 0xbe, 0xbb, 0xda, 0x9f, 0x3e,
  0x23, 0x4c, 0x39, 0xbe, 0x23, 0x4c, 0x39, 0xbe, 0x23, 0x4c, 0x39, 0xbe,
  0x23, 0x4c, 0x39, 0xbe, 0x23, 0x4c, 0x39, 0xbe, 0x23, 0x4c, 0x39, 0xbe,
  0x23, 0x4c, 0x39, 0xbe, 0x23, 0x4c, 0x39, 0xbe, 0x23, 0x4c, 0x39, 0xbe,
  0x23, 0x4c, 0x39, 0xbe, 0x23, 0x4c, 0x39, 0xbe, 0x23, 0x4c, 0x39, 0xbe,
  0x23, 0x4c, 0x39, 0xbe, 0x23, 0x4c, 0x39, 0xbe, 0xbb, 0xda, 0x9f, 0x3e,
  0x23, 0x4c, 0x39, 0xbe, 0x23, 0x4c, 0x39, 0xbe, 0x23, 0x4c, 0x39, 0xbe,
  0x23, 0x4c, 0x39, 0xbe, 0x23, 0x4c, 0x39, 0xbe, 0x23, 0x4c, 0x39, 0xbe,
  0xbb, 0xda, 0x9f, 0x3e, 0x23, 0x4c, 0x39, 0xbe, 0x23, 0x4c, 0x39, 0xbe,
  0x23, 0x4c, 0x39, 0xbe, 0x23, 0x4c, 0x39, 0xbe, 0x23, 0x4c, 0x39, 0xbe,
  0x23, 0x4c, 0x39, 0xbe, 0xbb, 0xda, 0x9f, 0x3e, 0x23, 0x4c, 0x39, 0xbe,
  0x23, 0x4c, 0x39, 0xbe, 0x23, 0x4c, 0x39, 0xbe, 0x23, 0x4c, 0x39, 0xbe,
  0xbb, 0xda, 0x9f, 0x3e, 0xbb, 0xda, 0x9f, 0x3e, 0xbb, 0xda, 0x9f, 0x3e,
  0x23, 0x4c, 0x39, 0xbe, 0x23, 0x4c, 0x39, 0xbe, 0x23, 0x4c, 0x39, 0xbe,
  0xbb, 0xda, 0x9f, 0x3e, 0x23, 0x4c, 0x39, 0xbe, 0x23, 0x4c, 0x39, 0xbe,
  0x23, 0x4c, 0x39, 0xbe, 0x23, 0x4c, 0x39, 0xbe, 0x23, 0x4c, 0x39, 0xbe,
  0x23, 0x4c, 0x39, 0xbe, 0x3a, 0x5a, 0x53, 0x3f, 0x23, 0x4c, 0x39, 0xbe,
  0x23, 0x4c, 0x39, 0xbe, 0xbb, 0xda, 0x9f, 0x3e, 0x23, 0x4c, 0x39, 0xbe,
  0xbb, 0xda, 0x9f, 0x3e, 0x23, 0x4c, 0x39, 0xbe, 0x23, 0x4c, 0x39, 0xbe,
  0x23, 0x4c, 0x39, 0xbe, 0xbb, 0xda, 0x9f, 0x3e, 0x23, 0x4c, 0x39, 0xbe,
  0x23, 0x4c, 0x39, 0xbe, 0x23, 0x4c, 0x39, 0xbe, 0x23, 0x4c, 0x39, 0xbe,
  0xbb, 0xda, 0x9f, 0x3e, 0x23, 0x4c, 0x39, 0xbe, 0x23, 0x4c, 0x39, 0xbe,
  0x23, 0x4c, 0x39, 0xbe, 0x23, 0x4c, 0x39, 0xbe, 0xbb, 0xda, 0x9f, 0x3e,
  0xbb, 0xda, 0x9f, 0x3e, 0x23, 0x4c, 0x39, 0xbe, 0x23, 0x4c, 0x39, 0xbe,
  0x23, 0x4c, 0x39, 0xbe, 0x23, 0x4c, 0x39, 0xbe, 0x23, 0x4c, 0x39, 0xbe,
  0x23, 0x4c, 0x39, 0xbe, 0x23, 0x4c, 0x39, 0xbe, 0x23, 0x4c, 0x39, 0xbe,
  0x23, 0x4c, 0x39, 0xbe, 0x23, 0x4c, 0x39, 0xbe, 0x23, 0x4c, 0x39, 0xbe,
  0xbb, 0xda, 0x9f, 0x3e, 0x23, 0x4c, 0x39, 0xbe, 0x23, 0x4c, 0x39, 0xbe,
  0x23, 0x4c, 0x39, 0xbe, 0x23, 0x4c, 0x39, 0xbe, 0x23, 0x4c, 0x39, 0xbe,
  0x23, 0x4c, 0x39, 0xbe, 0x23, 0x4c, 0x39, 0xbe, 0x23, 0x4c, 0x39, 0xbe,
  0x23, 0x4c, 0x39, 0xbe, 0x23, 0x4c, 0x39, 0xbe, 0x23, 0x4c, 0x39, 0xbe,
  0x23, 0x4c, 0x39, 0xbe, 0x23, 0x4c, 0x39, 0xbe, 0x23, 0x4c, 0x39, 0xbe,
  0x23, 0x4c, 0x39, 0xbe, 0x23, 0x4c, 0x39, 0xbe, 0x23, 0x4c, 0x39, 0xbe,
  0x23, 0x4c, 0x39, 0xbe, 0x23, 0x4c, 0x39, 0xbe, 0x23, 0x4c, 0x39, 0xbe,
  0x23, 0x4c, 0x39, 0xbe, 0x23, 0x4c, 0x39, 0xbe, 0x23, 0x4c, 0x39, 0xbe,
  0x23, 0x4c, 0x39, 0xbe, 0xbb, 0xda, 0x9f, 0x3e, 0xbb, 0xda, 0x9f, 0x3e,
  0x23, 0x4c, 0x39, 0xbe, 0x23, 0x4c, 0x39, 0xbe, 0x23, 0x4c, 0x39, 0xbe,
  0x23, 0x4c, 0x39, 0xbe, 0x23, 0x4c, 0x39, 0xbe, 0x23, 0x4c, 0x39, 0xbe,
  0x23, 0x4c, 0x39, 0xbe, 0x23, 0x4c, 0x39, 0xbe, 0x23, 0x4c, 0x39, 0xbe,
  0x23, 0x4c, 0x39, 0xbe, 0x23, 0x4c, 0x39, 0xbe, 0x23, 0x4c, 0x39, 0xbe,
  0x23, 0x4c, 0x39, 0xbe, 0x23, 0x4c, 0x39, 0xbe, 0x23, 0x4c, 0x39, 0xbe,
  0x23, 0x4c, 0x39, 0xbe, 0x23, 0x4c, 0x39, 0xbe, 0x23, 0x4c, 0x39, 0xbe,
  0x23, 0x4c, 0x39, 0xbe, 0x23, 0x4c, 0x39, 0xbe, 0x23, 0x4c, 0x39, 0xbe,
  0x23, 0x4c, 0x39, 0xbe, 0x23, 0x4c, 0x39, 0xbe, 0xbb, 0xda, 0x9f, 0x3e,
  0x23, 0x4c, 0x39, 0xbe, 0x23, 0x4c, 0x39, 0xbe, 0x23, 0x4c, 0x39, 0xbe,
  0x23, 0x4c, 0x39, 0xbe, 0x23, 0x4c, 0x39, 0xbe, 0x23, 0x4c, 0x39, 0xbe,
  0x23, 0x4c, 0x39, 0xbe, 0x23, 0x4c, 0x39, 0xbe, 0xbb, 0xda, 0x9f, 0x3e,
  0x23, 0x4c, 0x39, 0xbe, 0x23, 0x4c, 0x39, 0xbe, 0x23, 0x4c, 0x39, 0xbe,
  0x23, 0x4c, 0x39, 0xbe, 0xbb, 0xda, 0x9f, 0x3e, 0x23, 0x4c, 0x39, 0xbe,
  0x23, 0x4c, 0x39, 0xbe, 0x23, 0x4c, 0x39, 0xbe, 0xbb, 0xda, 0x9f, 0x3e,
  0x23, 0x4c, 0x39, 0xbe, 0x23, 0x4c, 0x39, 0xbe, 0xbb, 0xda, 0x9f, 0x3e,
  0x23, 0x4c, 0x39, 0xbe, 0x23, 0x4c, 0x39, 0xbe, 0x23, 0x4c, 0x39, 0xbe,
  0x23, 0x4c, 0x39, 0xbe, 0x23, 0x4c, 0x39, 0xbe, 0x23, 0x4c, 0x39, 0xbe,
  0x23, 0x4c, 0x39, 0xbe, 0xbb, 0xda, 0x9f, 0x3e, 0x23, 0x4c, 0x39, 0xbe,
  0x23, 0x4c, 0x39, 0xbe, 0x23, 0x4c, 0x39, 0xbe, 0x23, 0x4c, 0x39, 0xbe,
  0x23, 0x4c, 0x39, 0xbe, 0x23, 0x4c, 0x39, 0xbe, 0xe2, 0x04, 0x4d, 0xbf,
  0x23, 0x4c, 0x39, 0xbe, 0xbb, 0xda, 0x9f, 0x3e, 0xbb, 0xda, 0x9f, 0x3e,
  0x23, 0x4c, 0x39, 0xbe, 0x23, 0x4c, 0x39, 0xbe, 0x23, 0x4c, 0x39, 0xbe,
  0x23, 0x4c, 0x39, 0xbe, 0x23, 0x4c, 0x39, 0xbe, 0x23, 0x4c, 0x39, 0xbe,
  0x23, 0x4c, 0x39, 0xbe, 0x23, 0x4c, 0x39, 0xbe, 0xbb, 0xda, 0x9f, 0x3e,
  0x23, 0x4c, 0x39, 0xbe, 0x23, 0x4c, 0x39, 0xbe, 0x23, 0x4c, 0x39, 0xbe,
  0x23, 0x4c, 0x39, 0xbe, 0x23, 0x4c, 0x39, 0xbe, 0xbb, 0xda, 0x9f, 0x3e,
  0xbb, 0xda, 0x9f, 0x3e, 0x23, 0x4c, 0x39, 0xbe, 0x23, 0x4c, 0x39, 0xbe,
  0xbb, 0xda, 0x9f, 0x3e, 0xbb, 0xda, 0x9f, 0x3e, 0x23, 0x4c, 0x39, 0xbe,
  0x23, 0x4c, 0x39, 0xbe, 0x23, 0x4c, 0x39, 0xbe, 0x23, 0x4c, 0x39, 0xbe,
  0x23, 0x4c, 0x39, 0xbe, 0x23, 0x4c, 0x39, 0xbe, 0x23, 0x4c, 0x39, 0xbe,
  0x23, 0x4c, 0x39, 0xbe, 0x23, 0x4c, 0x39, 0xbe, 0x23, 0x4c, 0x39, 0xbe,
  0x23, 0x4c, 0x39, 0xbe, 0x23, 0x4c, 0x39, 0xbe, 0x23, 0x4c, 0x39, 0xbe,
  0xbb, 0xda, 0x9f, 0x3e, 0x23, 0x4c, 0x39, 0xbe, 0x23, 0x4c, 0x39, 0xbe,
  0x23, 0x4c, 0x39, 0xbe, 0x23, 0x4c, 0x39, 0xbe, 0x23, 0x4c, 0x39, 0xbe,
  0x23, 0x4c, 0x39, 0xbe, 0xbb, 0xda, 0x9f, 0x3e, 0x23, 0x4c, 0x39, 0xbe,
  0x23, 0x4c, 0x39, 0xbe, 0x23, 0x4c, 0x39, 0xbe, 0x23, 0x4c, 0x39, 0xbe,
  0x23, 0x4c, 0x39, 0xbe, 0x23, 0x4c, 0x39, 0xbe, 0x23, 0x4c, 0x39, 0xbe,
  0xbb, 0xda, 0x9f, 0x3e, 0x23, 0x4c, 0x39, 0xbe, 0x23, 0x4c, 0x39, 0xbe,
  0x23, 0x4c, 0x39, 0xbe, 0x23, 0x4c, 0x39, 0xbe, 0x23, 0x4c, 0x39, 0xbe,
  0xbb, 0xda, 0x9f, 0x3e, 0x23, 0x4c, 0x39, 0xbe, 0x23, 0x4c, 0x39, 0xbe,
  0x23, 0x4c, 0x39, 0xbe, 0xbb, 0xda, 0x9f, 0x3e, 0x23, 0x4c, 0x39, 0xbe,
  0x23, 0x4c, 0x39, 0xbe, 0x23, 0x4c, 0x39, 0xbe, 0x23, 0x4c, 0x39, 0xbe,
  0x23, 0x4c, 0x39, 0xbe, 0x23, 0x4c, 0x39, 0xbe, 0xbb, 0xda, 0x9f, 0x3e,
  0x23, 0x4c, 0x39, 0xbe, 0x23, 0x4c, 0x39, 0xbe, 0x23, 0x4c, 0x39, 0xbe,
  0x23, 0x4c, 0x39, 0xbe, 0x23, 0x4c, 0x39, 0xbe, 0x23, 0x4c, 0x39, 0xbe,
  0x23, 0x4c, 0x39, 0xbe, 0x23, 0x4c, 0x39, 0xbe, 0x23, 0x4c, 0x39, 0xbe,
  0x23, 0x4c, 0x39, 0xbe, 0xbb, 0xda, 0x9f, 0x3e, 0x23, 0x4c, 0x39, 0xbe,
  0x23, 0x4c, 0x39, 0xbe, 0x23, 0x4c, 0x39, 0xbe, 0x23, 0x4c, 0x39, 0xbe,
  0x23, 0x4c, 0x39, 0xbe, 0x23, 0x4c, 0x39, 0xbe, 0x23, 0x4c, 0x39, 0xbe,
  0x23, 0x4c, 0x39, 0xbe, 0x23, 0x4c, 0x39, 0xbe, 0x23, 0x4c, 0x39, 0xbe,
  0x23, 0x4c, 0x39, 0xbe, 0x23, 0x4c, 0x39, 0xbe, 0x23, 0x4c, 0x39, 0xbe,
  0x23, 0x4c, 0x39, 0xbe, 0x23, 0x4c, 0x39, 0xbe, 0x23, 0x4c, 0x39, 0xbe,
  0x23, 0x4c, 0x39, 0xbe, 0x23, 0x4c, 0x39, 0xbe, 0x23, 0x4c, 0x39, 0xbe,
  0x23, 0x4c, 0x39, 0xbe, 0x23, 0x4c, 0x39, 0xbe, 0x23, 0x4c, 0x39, 0xbe,
  0x23, 0x4c, 0x39, 0xbe, 0x23, 0x4c, 0x39, 0xbe, 0x23, 0x4c, 0x39, 0xbe,
  0xbb, 0xda, 0x9f, 0x3e, 0x23, 0x4c, 0x39, 0xbe, 0x23, 0x4c, 0x39, 0xbe,
  0x23, 0x4c, 0x39, 0xbe, 0x23, 0x4c, 0x39, 0xbe, 0xbb, 0xda, 0x9f, 0x3e,
  0x23, 0x4c, 0x39, 0xbe, 0x23, 0x4c, 0x39, 0xbe, 0x23, 0x4c, 0x39, 0xbe,
  0x23, 0x4c, 0x39, 0xbe, 0x23, 0x4c, 0x39, 0xbe, 0x23, 0x4c, 0x39, 0xbe,
  0x23, 0x4c, 0x39, 0xbe, 0x23, 0x4c, 0x39, 0xbe, 0x23, 0x4c, 0x39, 0xbe,
  0x23, 0x4c, 0x39, 0xbe, 0x23, 0x4c, 0x39, 0xbe, 0x23, 0x4c, 0x39, 0xbe,
  0x23, 0x4c, 0x39, 0xbe, 0x23, 0x4c, 0x39, 0xbe, 0x23, 0x4c, 0x39, 0xbe,
  0x23, 0x4c, 0x39, 0xbe, 0xbb, 0xda, 0x9f, 0x3e, 0x23, 0x4c, 0x39, 0xbe,
  0x23, 0x4c, 0x39, 0xbe, 0x23, 0x4c, 0x39, 0xbe, 0x23, 0x4c, 0x39, 0xbe,
  0x23, 0x4c, 0x39, 0xbe, 0x23, 0x4c, 0x39, 0xbe, 0x23, 0x4c, 0x39, 0xbe,
  0x23, 0x4c, 0x39, 0xbe, 0x23, 0x4c, 0x39, 0xbe, 0x23, 0x4c, 0x39, 0xbe,
  0x23, 0x4c, 0x39, 0xbe, 0x23, 0x4c, 0x39, 0xbe, 0x23, 0x4c, 0x39, 0xbe,
  0x23, 0x4c, 0x39, 0xbe, 0x23, 0x4c, 0x39, 0xbe, 0x23, 0x4c, 0x39, 0xbe,
  0x23, 0x4c, 0x39, 0xbe, 0x23, 0x4c, 0x39, 0xbe, 0x23, 0x4c, 0x39, 0xbe,
  0x23, 0x4c, 0x39, 0xbe, 0x23, 0x4c, 0x39, 0xbe, 0x23, 0x4c, 0x39, 0xbe,
  0x23, 0x4c, 0x39, 0xbe, 0x23, 0x4c, 0x39, 0xbe, 0x23, 0x4c, 0x39, 0xbe,
  0x23, 0x4c, 0x39, 0xbe, 0x23, 0x4c, 0x39, 0xbe, 0x23, 0x4c, 0x39, 0xbe,
  0x23, 0x4c, 0x39, 0xbe, 0x23, 0x4c, 0x39, 0xbe, 0x23, 0x4c, 0x39, 0xbe,
  0x23, 0x4c, 0x39, 0xbe, 0x23, 0x4c, 0x39, 0xbe, 0x23, 0x4c, 0x39, 0xbe,
  0x23, 0x4c, 0x39, 0xbe, 0x23, 0x4c, 0x39, 0xbe, 0x23, 0x4c, 0x39, 0xbe,
  0x23, 0x4c, 0x39, 0xbe, 0x23, 0x4c, 0x39, 0xbe, 0x23, 0x4c, 0x39, 0xbe,
  0x23, 0x4c, 0x39, 0xbe, 0x23, 0x4c, 0x39, 0xbe, 0x23, 0x4c, 0x39, 0xbe,
  0x23, 0x4c, 0x39, 0xbe, 0x23, 0x4c, 0x39, 0xbe, 0x23, 0x4c, 0x39, 0xbe,
  0x23, 0x4c, 0x39, 0xbe, 0x23, 0x4c, 0x39, 0xbe, 0x23, 0x4c, 0x39, 0xbe,
  0xbb, 0xda, 0x9f, 0x3e, 0x23, 0x4c, 0x39, 0xbe, 0xbb, 0xda, 0x9f, 0x3e,
  0x23, 0x4c, 0x39, 0xbe, 0x23, 0x4c, 0x39, 0xbe, 0x23, 0x4c, 0x39, 0xbe,
  0x23, 0x4c, 0x39, 0xbe, 0x23, 0x4c, 0x39, 0xbe, 0xbb, 0xda, 0x9f, 0x3e,
  0x23, 0x4c, 0x39, 0xbe, 0x23, 0x4c, 0x39, 0xbe, 0x23, 0x4c, 0x39, 0xbe,
  0x23, 0x4c, 0x39, 0xbe, 0x23, 0x4c, 0x39, 0xbe, 0x23, 0x4c, 0x39, 0xbe,
  0x23, 0x4c, 0x39, 0xbe, 0x23, 0x4c, 0x39, 0xbe, 0x23, 0x4c, 0x39, 0xbe,
  0xbb, 0xda, 0x9f, 0x3e, 0x23, 0x4c, 0x39, 0xbe, 0x23, 0x4c, 0x39, 0xbe,
  0x23, 0x4c, 0x39, 0xbe, 0x23, 0x4c, 0x39, 0xbe, 0x23, 0x4c, 0x39, 0xbe,
  0x23, 0x4c, 0x39, 0xbe, 0xbb, 0xda, 0x9f, 0x3e, 0x23, 0x4c, 0x39, 0xbe,
  0x23, 0x4c, 0x39, 0xbe, 0x23, 0x4c, 0x39, 0xbe, 0xbb, 0xda, 0x9f, 0x3e,
  0x23, 0x4c, 0x39, 0xbe, 0x23, 0x4c, 0x39, 0xbe, 0xbb, 0xda, 0x9f, 0x3e,
  0xbb, 0xda, 0x9f, 0x3e, 0x23, 0x4c, 0x39, 0xbe, 0x23, 0x4c, 0x39, 0xbe,
  0x23, 0x4c, 0x39, 0xbe, 0x23, 0x4c, 0x39, 0xbe, 0x23, 0x4c, 0x39, 0xbe,
  0x23, 0x4c, 0x39, 0xbe, 0x23, 0x4c, 0x39, 0xbe, 0x23, 0x4c, 0x39, 0xbe,
  0xbb, 0xda, 0x9f, 0x3e, 0x23, 0x4c, 0x39, 0xbe, 0x23, 0x4c, 0x39, 0xbe,
  0x23, 0x4c, 0x39, 0xbe, 0x23, 0x4c, 0x39, 0xbe, 0x23, 0x4c, 0x39, 0xbe,
  0x23, 0x4c, 0x39, 0xbe, 0x23, 0x4c, 0x39, 0xbe, 0x23, 0x4c, 0x39, 0xbe,
  0x23, 0x4c, 0x39, 0xbe, 0x23, 0x4c, 0x39, 0xbe, 0xbb, 0xda, 0x9f, 0x3e,
  0xbb, 0xda, 0x9f, 0x3e, 0x23, 0x4c, 0x39, 0xbe, 0x23, 0x4c, 0x39, 0xbe,
  0xbb, 0xda, 0x9f, 0x3e, 0x23, 0x4c, 0x39, 0xbe, 0x23, 0x4c, 0x39, 0xbe,
  0x23, 0x4c, 0x39, 0xbe, 0x23, 0x4c, 0x39, 0xbe, 0x23, 0x4c, 0x39, 0xbe,
  0xbb, 0xda, 0x9f, 0x3e, 0x23, 0x4c, 0x39, 0xbe, 0xbb, 0xda, 0x9f, 0x3e,
  0x23, 0x4c, 0x39, 0xbe, 0x23, 0x4c, 0x39, 0xbe, 0xbb, 0xda, 0x9f, 0x3e,
  0x23, 0x4c, 0x39, 0xbe, 0x23, 0x4c, 0x39, 0xbe, 0x23, 0x4c, 0x39, 0xbe,
  0x23, 0x4c, 0x39, 0xbe, 0x23, 0x4c, 0x39, 0xbe, 0x23, 0x4c, 0x39, 0xbe,
  0x23, 0x4c, 0x39, 0xbe, 0x23, 0x4c, 0x39, 0xbe, 0x23, 0x4c, 0x39, 0xbe,
  0x23, 0x4c, 0x39, 0xbe, 0x23, 0x4c, 0x39, 0xbe, 0x23, 0x4c, 0x39, 0xbe,
  0x23, 0x4c, 0x39, 0xbe, 0x23, 0x4c, 0x39, 0xbe, 0x23, 0x4c, 0x39, 0xbe,
  0x23, 0x4c, 0x39, 0xbe, 0x23, 0x4c, 0x39, 0xbe, 0x23, 0x4c, 0x39, 0xbe,
  0xbb, 0xda, 0x9f, 0x3e, 0x23, 0x4c, 0x39, 0xbe, 0x23, 0x4c, 0x39, 0xbe,
  0x23, 0x4c, 0x39, 0xbe, 0x23, 0x4c, 0x39, 0xbe, 0x23, 0x4c, 0x39, 0xbe,
  0x23, 0x4c, 0x39, 0xbe, 0xbb, 0xda, 0x9f, 0x3e, 0xbb, 0xda, 0x9f, 0x3e,
  0x23, 0x4c, 0x39, 0xbe, 0x3a, 0x5a, 0x53, 0x3f, 0x23, 0x4c, 0x39, 0xbe,
  0xbb, 0xda, 0x9f, 0x3e, 0x23, 0x4c, 0x39, 0xbe, 0x23, 0x4c, 0x39, 0xbe,
  0x23, 0x4c, 0x39, 0xbe, 0x23, 0x4c, 0x39, 0xbe, 0x23, 0x4c, 0x39, 0xbe,
  0x23, 0x4c, 0x39, 0xbe, 0x23, 0x4c, 0x39, 0xbe, 0x23, 0x4c, 0x39, 0xbe,
  0x23, 0x4c, 0x39, 0xbe, 0xbb, 0xda, 0x9f, 0x3e, 0x23, 0x4c, 0x39, 0xbe,
  0xbb, 0xda, 0x9f, 0x3e, 0x3a, 0x5a, 0x53, 0x3f, 0x23, 0x4c, 0x39, 0xbe,
  0xbb, 0xda, 0x9f, 0x3e, 0x23, 0x4c, 0x39, 0xbe, 0xbb, 0xda, 0x9f, 0x3e,
  0x23, 0x4c, 0x39, 0xbe, 0x23, 0x4c, 0x39, 0xbe, 0x23, 0x4c, 0x39, 0xbe,
  0x23, 0x4c, 0x39, 0xbe, 0x23, 0x4c, 0x39, 0xbe, 0x23, 0x4c, 0x39, 0xbe,
  0x23, 0x4c, 0x39, 0xbe, 0x23, 0x4c, 0x39, 0xbe, 0x23, 0x4c, 0x39, 0xbe,
  0x23, 0x4c, 0x39, 0xbe, 0x23, 0x4c, 0x39, 0xbe, 0x23, 0x4c, 0x39, 0xbe,
  0x23, 0x4c, 0x39, 0xbe, 0x23, 0x4c, 0x39, 0xbe, 0x23, 0x4c, 0x39, 0xbe,
  0x23, 0x4c, 0x39, 0xbe, 0x23, 0x4c, 0x39, 0xbe, 0x23, 0x4c, 0x39, 0xbe,
  0x23, 0x4c, 0x39, 0xbe, 0x23, 0x4c, 0x39, 0xbe, 0x23, 0x4c, 0x39, 0xbe,
  0x23, 0x4c, 0x39, 0xbe, 0x23, 0x4c, 0x39, 0xbe, 0x23, 0x4c, 0x39, 0xbe,
  0x23, 0x4c, 0x39, 0xbe, 0x23, 0x4c, 0x39, 0xbe, 0x23, 0x4c, 0x39, 0xbe,
  0x23, 0x4c, 0x39, 0xbe, 0x23, 0x4c, 0x39, 0xbe, 0x23, 0x4c, 0x39, 0xbe,
  0x23, 0x4c, 0x39, 0xbe, 0x23, 0x4c, 0x39, 0xbe, 0x23, 0x4c, 0x39, 0xbe,
  0x23, 0x4c, 0x39, 0xbe, 0x23, 0x4c, 0x39, 0xbe, 0xbb, 0xda, 0x9f, 0x3e,
  0x23, 0x4c, 0x39, 0xbe, 0x23, 0x4c, 0x39, 0xbe, 0x23, 0x4c, 0x39, 0xbe,
  0x23, 0x4c, 0x39, 0xbe, 0x23, 0x4c, 0x39, 0xbe, 0x23, 0x4c, 0x39, 0xbe,
  0x23, 0x4c, 0x39, 0xbe, 0x23, 0x4c, 0x39, 0xbe, 0x23, 0x4c, 0x39, 0xbe,
  0x23, 0x4c, 0x39, 0xbe, 0x23, 0x4c, 0x39, 0xbe, 0x23, 0x4c, 0x39, 0xbe,
  0x23, 0x4c, 0x39, 0xbe, 0x23, 0x4c, 0x39, 0xbe, 0x23, 0x4c, 0x39, 0xbe,
  0x23, 0x4c, 0x39, 0xbe, 0x23, 0x4c, 0x39, 0xbe, 0x23, 0x4c, 0x39, 0xbe,
  0x23, 0x4c, 0x39, 0xbe, 0x23, 0x4c, 0x39, 0xbe, 0x23, 0x4c, 0x39, 0xbe,
  0x23, 0x4c, 0x39, 0xbe, 0x23, 0x4c, 0x39, 0xbe, 0x23, 0x4c, 0x39, 0xbe,
  0x23, 0x4c, 0x39, 0xbe, 0x23, 0x4c, 0x39, 0xbe, 0x23, 0x4c, 0x39, 0xbe,
  0xbb, 0xda, 0x9f, 0x3e, 0x23, 0x4c, 0x39, 0xbe, 0x23, 0x4c, 0x39, 0xbe,
  0x23, 0x4c, 0x39, 0xbe, 0x23, 0x4c, 0x39, 0xbe, 0x23, 0x4c, 0x39, 0xbe,
  0x23, 0x4c, 0x39, 0xbe, 0x23, 0x4c, 0x39, 0xbe, 0x23, 0x4c, 0x39, 0xbe,
  0x23, 0x4c, 0x39, 0xbe, 0x23, 0x4c, 0x39, 0xbe, 0x23, 0x4c, 0x39, 0xbe,
  0x23, 0x4c, 0x39, 0xbe, 0x23, 0x4c, 0x39, 0xbe, 0x23, 0x4c, 0x39, 0xbe,
  0xbb, 0xda, 0x9f, 0x3e, 0xbb, 0xda, 0x9f, 0x3e, 0x3a, 0x5a, 0x53, 0x3f,
  0xbb, 0xda, 0x9f, 0x3e, 0x23, 0x4c, 0x39, 0xbe, 0x23, 0x4c, 0x39, 0xbe,
  0xbb, 0xda, 0x9f, 0x3e, 0x23, 0x4c, 0x39, 0xbe, 0x23, 0x4c, 0x39, 0xbe,
  0xbb, 0xda, 0x9f, 0x3e, 0x23, 0x4c, 0x39, 0xbe, 0x23, 0x4c, 0x39, 0xbe,
  0x23, 0x4c, 0x39, 0xbe, 0x23, 0x4c, 0x39, 0xbe, 0x23, 0x4c, 0x39, 0xbe,
  0x23, 0x4c, 0x39, 0xbe, 0x23, 0x4c, 0x39, 0xbe, 0x23, 0x4c, 0x39, 0xbe,
  0x23, 0x4c, 0x39, 0xbe, 0x23, 0x4c, 0x39, 0xbe, 0x23, 0x4c, 0x39, 0xbe,
  0x23, 0x4c, 0x39, 0xbe, 0x23, 0x4c, 0x39, 0xbe, 0x23, 0x4c, 0x39, 0xbe,
  0xbb, 0xda, 0x9f, 0x3e, 0x23, 0x4c, 0x39, 0xbe, 0x23, 0x4c, 0x39, 0xbe,
  0x23, 0x4c, 0x39, 0xbe, 0x23, 0x4c, 0x39, 0xbe, 0x23, 0x4c, 0x39, 0xbe,
  0x23, 0x4c, 0x39, 0xbe, 0x23, 0x4c, 0x39, 0xbe, 0x23, 0x4c, 0x39, 0xbe,
  0x23, 0x4c, 0x39, 0xbe, 0x23, 0x4c, 0x39, 0xbe, 0x23, 0x4c, 0x39, 0xbe,
  0x23, 0x4c, 0x39, 0xbe, 0x23, 0x4c, 0x39, 0xbe, 0x23, 0x4c, 0x39, 0xbe,
  0x23, 0x4c, 0x39, 0xbe, 0x23, 0x4c, 0x39, 0xbe, 0x23, 0x4c, 0x39, 0xbe,
  0xbb, 0xda, 0x9f, 0x3e, 0x23, 0x4c, 0x39, 0xbe, 0x23, 0x4c, 0x39, 0xbe,
  0x23, 0x4c, 0x39, 0xbe, 0x23, 0x4c, 0x39, 0xbe, 0x23, 0x4c, 0x39, 0xbe,
  0x23, 0x4c, 0x39, 0xbe, 0x23, 0x4c, 0x39, 0xbe, 0x23, 0x4c, 0x39, 0xbe,
  0x23, 0x4c, 0x39, 0xbe, 0x23, 0x4c, 0x39, 0xbe, 0x23, 0x4c, 0x39, 0xbe,
  0xbb, 0xda, 0x9f, 0x3e, 0x23, 0x4c, 0x39, 0xbe, 0x23, 0x4c, 0x39, 0xbe,
  0x23, 0x4c, 0x39, 0xbe, 0x23, 0x4c, 0x39, 0xbe, 0x23, 0x4c, 0x39, 0xbe,
  0x23, 0x4c, 0x39, 0xbe, 0x23, 0x4c, 0x39, 0xbe, 0x23, 0x4c, 0x39, 0xbe,
  0x23, 0x4c, 0x39, 0xbe, 0x23, 0x4c, 0x39, 0xbe, 0x23, 0x4c, 0x39, 0xbe,
  0x23, 0x4c, 0x39, 0xbe, 0xbb, 0xda, 0x9f, 0x3e, 0x23, 0x4c, 0x39, 0xbe,
  0x23, 0x4c, 0x39, 0xbe, 0xbb, 0xda, 0x9f, 0x3e, 0x23, 0x4c, 0x39, 0xbe,
  0x23, 0x4c, 0x39, 0xbe, 0x23, 0x4c, 0x39, 0xbe, 0x23, 0x4c, 0x39, 0xbe,
  0x23, 0x4c, 0x39, 0xbe, 0x23, 0x4c, 0x39, 0xbe, 0x23, 0x4c, 0x39, 0xbe,
  0x23, 0x4c, 0x39, 0xbe, 0x23, 0x4c, 0x39, 0xbe, 0x23, 0x4c, 0x39, 0xbe,
  0xbb, 0xda, 0x9f, 0x3e, 0x23, 0x4c, 0x39, 0xbe, 0x23, 0x4c, 0x39, 0xbe,
  0x23, 0x4c, 0x39, 0xbe, 0x23, 0x4c, 0x39, 0xbe, 0x23, 0x4c, 0x39, 0xbe,
  0x23, 0x4c, 0x39, 0xbe, 0x23, 0x4c, 0x39, 0xbe, 0x23, 0x4c, 0x39, 0xbe,
  0x23, 0x4c, 0x39, 0xbe, 0x23, 0x4c, 0x39, 0xbe, 0x23, 0x4c, 0x39, 0xbe,
  0x23, 0x4c, 0x39, 0xbe, 0x23, 0x4c, 0x39, 0xbe, 0x23, 0x4c, 0x39, 0xbe,
  0x23, 0x4c, 0x39, 0xbe, 0x23, 0x4c, 0x39, 0xbe, 0x23, 0x4c, 0x39, 0xbe,
  0x23, 0x4c, 0x39, 0xbe, 0x23, 0x4c, 0x39, 0xbe, 0x23, 0x4c, 0x39, 0xbe,
  0x3a, 0x5a, 0x53, 0x3f, 0x23, 0x4c, 0x39, 0xbe, 0x23, 0x4c, 0x39, 0xbe,
  0xe2, 0x04, 0x4d, 0xbf, 0x23, 0x4c, 0x39, 0xbe, 0x23, 0x4c, 0x39, 0xbe,
  0x23, 0x4c, 0x39, 0xbe, 0x3a, 0x5a, 0x53, 0x3f, 0x23, 0x4c, 0x39, 0xbe,
  0x23, 0x4c, 0x39, 0xbe, 0x23, 0x4c, 0x39, 0xbe, 0x23, 0x4c, 0x39, 0xbe,
  0x23, 0x4c, 0x39, 0xbe, 0x23, 0x4c, 0x39, 0xbe, 0x3a, 0x5a, 0x53, 0x3f,
  0x23, 0x4c, 0x39, 0xbe, 0x23, 0x4c, 0x39, 0xbe, 0x23, 0x4c, 0x39, 0xbe,
  0x23, 0x4c, 0x39, 0xbe, 0xe2, 0x04, 0x4d, 0xbf, 0x23, 0x4c, 0x39, 0xbe,
  0x23, 0x4c, 0x39, 0xbe, 0x23, 0x4c, 0x39, 0xbe, 0x23, 0x4c, 0x39, 0xbe,
  0x23, 0x4c, 0x39, 0xbe, 0xbb, 0xda, 0x9f, 0x3e, 0x23, 0x4c, 0x39, 0xbe,
  0x23, 0x4c, 0x39, 0xbe, 0x23, 0x4c, 0x39, 0xbe, 0x23, 0x4c, 0x39, 0xbe,
  0x23, 0x4c, 0x39, 0xbe, 0x23, 0x4c, 0x39, 0xbe, 0x23, 0x4c, 0x39, 0xbe,
  0x23, 0x4c, 0x39, 0xbe, 0xbb, 0xda, 0x9f, 0x3e, 0x23, 0x4c, 0x39, 0xbe,
  0x23, 0x4c, 0x39, 0xbe, 0x23, 0x4c, 0x39, 0xbe, 0x23, 0x4c, 0x39, 0xbe,
  0x23, 0x4c, 0x39, 0xbe, 0x23, 0x4c, 0x39, 0xbe, 0x23, 0x4c, 0x39, 0xbe,
  0xbb, 0xda, 0x9f, 0x3e, 0x23, 0x4c, 0x39, 0xbe, 0xe2, 0x04, 0x4d, 0xbf,
  0x23, 0x4c, 0x39, 0xbe, 0x23, 0x4c, 0x39, 0xbe, 0x23, 0x4c, 0x39, 0xbe,
  0x23, 0x4c, 0x39, 0xbe, 0x23, 0x4c, 0x39, 0xbe, 0x3a, 0x5a, 0x53, 0x3f,
  0x23, 0x4c, 0x39, 0xbe, 0x23, 0x4c, 0x39, 0xbe, 0x23, 0x4c, 0x39, 0xbe,
  0xbb, 0xda, 0x9f, 0x3e, 0x23, 0x4c, 0x39, 0xbe, 0x23, 0x4c, 0x39, 0xbe,
  0xbb, 0xda, 0x9f, 0x3e, 0x23, 0x4c, 0x39, 0xbe, 0x23, 0x4c, 0x39, 0xbe,
  0x23, 0x4c, 0x39, 0xbe, 0x23, 0x4c, 0x39, 0xbe, 0x23, 0x4c, 0x39, 0xbe,
  0x23, 0x4c, 0x39, 0xbe, 0xbb, 0xda, 0x9f, 0x3e, 0x23, 0x4c, 0x39, 0xbe,
  0xbb, 0xda, 0x9f, 0x3e, 0xbb, 0xda, 0x9f, 0x3e, 0x23, 0x4c, 0x39, 0xbe,
  0x23, 0x4c, 0x39, 0xbe, 0x23, 0x4c, 0x39, 0xbe, 0x23, 0x4c, 0x39, 0xbe,
  0x23, 0x4c, 0x39, 0xbe, 0x23, 0x4c, 0x39, 0xbe, 0x23, 0x4c, 0x39, 0xbe,
  0x3a, 0x5a, 0x53, 0x3f, 0x23, 0x4c, 0x39, 0xbe, 0x23, 0x4c, 0x39, 0xbe,
  0xe2, 0x04, 0x4d, 0xbf, 0x23, 0x4c, 0x39, 0xbe, 0x23, 0x4c, 0x39, 0xbe,
  0xbb, 0xda, 0x9f, 0x3e, 0x23, 0x4c, 0x39, 0xbe, 0x23, 0x4c, 0x39, 0xbe,
  0x23, 0x4c, 0x39, 0xbe, 0x23, 0x4c, 0x39, 0xbe, 0x23, 0x4c, 0x39, 0xbe,
  0xbb, 0xda, 0x9f, 0x3e, 0x23, 0x4c, 0x39, 0xbe, 0x23, 0x4c, 0x39, 0xbe,
  0xbb, 0xda, 0x9f, 0x3e, 0x23, 0x4c, 0x39, 0xbe, 0x23, 0x4c, 0x39, 0xbe,
  0x23, 0x4c, 0x39, 0xbe, 0x23, 0x4c, 0x39, 0xbe, 0xda, 0xfc, 0xff, 0xff,
  0x10, 0x00, 0x00, 0x00, 0x08, 0x00, 0x00, 0x00, 0x14, 0x00, 0x00, 0x00,
  0x34, 0x00, 0x00, 0x00, 0x02, 0x00, 0x00, 0x00, 0x1e, 0x00, 0x00, 0x00,
  0x19, 0x00, 0x00, 0x00, 0x1c, 0x00, 0x00, 0x00, 0x73, 0x65, 0x71, 0x75,
  0x65, 0x6e, 0x74, 0x69, 0x61, 0x6c, 0x5f, 0x34, 0x2f, 0x64, 0x65, 0x6e,
  0x73, 0x65, 0x5f, 0x32, 0x34, 0x2f, 0x4d, 0x61, 0x74, 0x4d, 0x75, 0x6c,
  0x00, 0x00, 0x00, 0x00, 0x74, 0xfc, 0xff, 0xff, 0x9a, 0xfd, 0xff, 0xff,
  0x04, 0x00, 0x00, 0x00, 0x78, 0x00, 0x00, 0x00, 0x50, 0x74, 0xe6, 0x3c,
  0xff, 0xeb, 0xb3, 0x3d, 0xd2, 0x7b, 0x97, 0x3e, 0x4b, 0xb3, 0xd9, 0x3d,
  0x54, 0x64, 0x04, 0xbc, 0xb7, 0x14, 0x61, 0xbd, 0xe2, 0x3f, 0x64, 0x3e,
  0x32, 0xa4, 0xaa, 0xbd, 0xfd, 0x39, 0xe5, 0xbd, 0xe9, 0x1f, 0x9e, 0x3d,
  0xe3, 0x93, 0xd1, 0xbc, 0x40, 0xd9, 0x27, 0xbd, 0x79, 0xa3, 0x23, 0xbd,
  0xd2, 0xea, 0xa0, 0xbd, 0xbe, 0x92, 0x07, 0x3e, 0x31, 0x32, 0x5e, 0x3d,
  0xa1, 0x9c, 0x56, 0x3e, 0x1d, 0x3b, 0xba, 0xbc, 0x8b, 0xf2, 0x21, 0x3e,
  0x53, 0x1d, 0x24, 0x3e, 0x0c, 0x2f, 0x04, 0xbd, 0x4a, 0x64, 0xec, 0xbc,
  0xf5, 0x03, 0x02, 0x3e, 0x64, 0x03, 0x7c, 0x3c, 0xb9, 0x3d, 0xbf, 0xbd,
  0xed, 0xd5, 0x70, 0xbd, 0x72, 0xc7, 0x31, 0x3e, 0x2b, 0xbc, 0x8e, 0x3e,
  0xf6, 0x5a, 0x30, 0x3e, 0x33, 0x77, 0x89, 0x3d, 0xa6, 0xfd, 0xff, 0xff,
  0x10, 0x00, 0x00, 0x00, 0x07, 0x00, 0x00, 0x00, 0x10, 0x00, 0x00, 0x00,
  0x18, 0x00, 0x00, 0x00, 0x01, 0x00, 0x00, 0x00, 0x1e, 0x00, 0x00, 0x00,
  0x04, 0x00, 0x00, 0x00, 0x62, 0x69, 0x61, 0x73, 0x00, 0x00, 0x00, 0x00,
  0x24, 0xfd, 0xff, 0xff, 0x4a, 0xfe, 0xff, 0xff, 0x04, 0x00, 0x00, 0x00,
  0x28, 0x00, 0x00, 0x00, 0xd8, 0x64, 0x1f, 0x3e, 0xbc, 0x53, 0x92, 0x3e,
  0x5b, 0xce, 0x07, 0x3e, 0xb3, 0xfe, 0x37, 0x3e, 0x4b, 0x82, 0x21, 0x3e,
  0x1b, 0x51, 0x16, 0x3e, 0xc0, 0x0c, 0xa5, 0x3e, 0xb7, 0xc3, 0x68, 0x3e,
  0xf2, 0x91, 0x3c, 0x3e, 0x2c, 0x8e, 0x50, 0x3e, 0x06, 0xfe, 0xff, 0xff,
  0x10, 0x00, 0x00, 0x00, 0x06, 0x00, 0x00, 0x00, 0x10, 0x00, 0x00, 0x00,
  0x18, 0x00, 0x00, 0x00, 0x01, 0x00, 0x00, 0x00, 0x0a, 0x00, 0x00, 0x00,
  0x06, 0x00, 0x00, 0x00, 0x62, 0x69, 0x61, 0x73, 0x5f, 0x31, 0x00, 0x00,
  0x84, 0xfd, 0xff, 0xff, 0xaa, 0xfe, 0xff, 0xff, 0x04, 0x00, 0x00, 0x00,
  0x08, 0x00, 0x00, 0x00, 0xa4, 0x3a, 0x80, 0x3e, 0x64, 0x66, 0x18, 0x3e,
  0x46, 0xfe, 0xff, 0xff, 0x10, 0x00, 0x00, 0x00, 0x05, 0x00, 0x00, 0x00,
  0x10, 0x00, 0x00, 0x00, 0x18, 0x00, 0x00, 0x00, 0x01, 0x00, 0x00, 0x00,
  0x02, 0x00, 0x00, 0x00, 0x06, 0x00, 0x00, 0x00, 0x62, 0x69, 0x61, 0x73,
  0x5f, 0x32, 0x00, 0x00, 0xc4, 0xfd, 0xff, 0xff, 0xea, 0xfe, 0xff, 0xff,
  0x04, 0x00, 0x00, 0x00, 0x28, 0x00, 0x00, 0x00, 0xda, 0xde, 0x3e, 0x3e,
  0x21, 0x26, 0x7e, 0x3d, 0xac, 0xde, 0x27, 0x3e, 0x8c, 0x9e, 0x5a, 0xbe,
  0xfb, 0xd6, 0x4a, 0x3e, 0x53, 0xd8, 0xee, 0x3d, 0xfa, 0x8d, 0xc6, 0x3d,
  0x1f, 0xf9, 0x37, 0x3e, 0xe2, 0x01, 0x48, 0x3e, 0xcd, 0xe4, 0x45, 0x3d,
  0xa6, 0xfe, 0xff, 0xff, 0x10, 0x00, 0x00, 0x00, 0x04, 0x00, 0x00, 0x00,
  0x10, 0x00, 0x00, 0x00, 0x18, 0x00, 0x00, 0x00, 0x01, 0x00, 0x00, 0x00,
  0x0a, 0x00, 0x00, 0x00, 0x06, 0x00, 0x00, 0x00, 0x62, 0x69, 0x61, 0x73,
  0x5f, 0x33, 0x00, 0x00, 0x24, 0xfe, 0xff, 0xff, 0x4a, 0xff, 0xff, 0xff,
  0x04, 0x00, 0x00, 0x00, 0x78, 0x00, 0x00, 0x00, 0x3c, 0xfc, 0x22, 0xbe,
  0xfb, 0xbd, 0x6e, 0xbe, 0x2b, 0xe3, 0xd3, 0xbd, 0x60, 0x9b, 0x5c, 0xbe,
  0x2b, 0xdd, 0x53, 0xbe, 0xf1, 0xad, 0x20, 0xbe, 0xdc, 0xad, 0x16, 0xbe,
  0xb5, 0x70, 0x56, 0xbe, 0xc9, 0x49, 0x3a, 0xbd, 0x38, 0x14, 0xc8, 0x3c,
  0x2a, 0x6e, 0x44, 0xbe, 0x38, 0x48, 0x61, 0xbe, 0x44, 0xf1, 0x31, 0xbe,
  0x3c, 0xe5, 0x5b, 0xbe, 0xe5, 0x77, 0x89, 0xbd, 0x0f, 0x34, 0xe1, 0xbc,
  0x06, 0x56, 0x3e, 0xbd, 0x6d, 0xfa, 0x2e, 0xbe, 0x3c, 0xe6, 0xae, 0xbd,
  0xbd, 0x88, 0xb7, 0xbc, 0xfd, 0xd4, 0x2a, 0xbe, 0x4c, 0x9c, 0x65, 0xbe,
  0xbd, 0x5f, 0x71, 0xbc, 0x50, 0x05, 0x67, 0xbe, 0x8e, 0x17, 0xd2, 0xbd,
  0x40, 0xe5, 0x82, 0xbd, 0xda, 0x67, 0x06, 0xbd, 0xfc, 0x9c, 0xd8, 0xbd,
  0xbf, 0x00, 0xfb, 0xbd, 0x06, 0x40, 0xcd, 0xbd, 0x56, 0xff, 0xff, 0xff,
  0x10, 0x00, 0x00, 0x00, 0x03, 0x00, 0x00, 0x00, 0x10, 0x00, 0x00, 0x00,
  0x1c, 0x00, 0x00, 0x00, 0x01, 0x00, 0x00, 0x00, 0x1e, 0x00, 0x00, 0x00,
  0x06, 0x00, 0x00, 0x00, 0x62, 0x69, 0x61, 0x73, 0x5f, 0x34, 0x00, 0x00,
  0x04, 0x00, 0x06, 0x00, 0x04, 0x00, 0x00, 0x00, 0x00, 0x00, 0x06, 0x00,
  0x08, 0x00, 0x04, 0x00, 0x06, 0x00, 0x00, 0x00, 0x04, 0x00, 0x00, 0x00,
  0x64, 0x00, 0x00, 0x00, 0x65, 0xae, 0x35, 0x3d, 0xec, 0x38, 0x54, 0xbc,
  0xdd, 0x42, 0xb9, 0xbc, 0x00, 0x64, 0x61, 0x3b, 0x58, 0xbd, 0x33, 0xbd,
  0x7d, 0x60, 0x07, 0x3e, 0xf4, 0x7f, 0xce, 0x3b, 0x49, 0x65, 0x78, 0xbc,
  0xc9, 0x15, 0xd9, 0xbc, 0x6d, 0x97, 0xb5, 0x3c, 0x9f, 0x00, 0xc3, 0xbb,
  0x57, 0xca, 0xbb, 0xbc, 0x85, 0x77, 0xf6, 0x3d, 0xe0, 0xc9, 0x23, 0x3d,
  0x16, 0x22, 0x21, 0xbc, 0x40, 0x7e, 0xf8, 0xbb, 0xf2, 0x3f, 0x1c, 0xbc,
  0xd4, 0xce, 0x5f, 0x3c, 0x22, 0x64, 0x1e, 0xbc, 0x79, 0xa9, 0x29, 0x3d,
  0x98, 0xca, 0xf9, 0xbc, 0x43, 0x10, 0xa9, 0x3d, 0x10, 0x9c, 0xb6, 0x3c,
  0xf5, 0x2b, 0x31, 0xbd, 0x00, 0xa2, 0xb1, 0x3c, 0x00, 0x00, 0x0e, 0x00,
  0x14, 0x00, 0x04, 0x00, 0x00, 0x00, 0x08, 0x00, 0x0c, 0x00, 0x10, 0x00,
  0x0e, 0x00, 0x00, 0x00, 0x10, 0x00, 0x00, 0x00, 0x02, 0x00, 0x00, 0x00,
  0x10, 0x00, 0x00, 0x00, 0x18, 0x00, 0x00, 0x00, 0x01, 0x00, 0x00, 0x00,
  0x19, 0x00, 0x00, 0x00, 0x06, 0x00, 0x00, 0x00, 0x62, 0x69, 0x61, 0x73,
  0x5f, 0x35, 0x00, 0x00, 0x8c, 0xff, 0xff, 0xff, 0x14, 0x00, 0x18, 0x00,
  0x04, 0x00, 0x00, 0x00, 0x08, 0x00, 0x0c, 0x00, 0x10, 0x00, 0x00, 0x00,
  0x00, 0x00, 0x14, 0x00, 0x14, 0x00, 0x00, 0x00, 0x14, 0x00, 0x00, 0x00,
  0x01, 0x00, 0x00, 0x00, 0x18, 0x00, 0x00, 0x00, 0x48, 0x00, 0x00, 0x00,
  0x38, 0x00, 0x00, 0x00, 0x02, 0x00, 0x00, 0x00, 0x01, 0x00, 0x00, 0x00,
  0x19, 0x00, 0x00, 0x00, 0x20, 0x00, 0x00, 0x00, 0x73, 0x65, 0x72, 0x76,
  0x69, 0x6e, 0x67, 0x5f, 0x64, 0x65, 0x66, 0x61, 0x75, 0x6c, 0x74, 0x5f,
  0x64, 0x65, 0x6e, 0x73, 0x65, 0x5f, 0x32, 0x34, 0x5f, 0x69, 0x6e, 0x70,
  0x75, 0x74, 0x3a, 0x30, 0x00, 0x00, 0x00, 0x00, 0x02, 0x00, 0x00, 0x00,
  0xff, 0xff, 0xff, 0xff, 0x19, 0x00, 0x00, 0x00, 0xfc, 0xff, 0xff, 0xff,
  0x04, 0x00, 0x04, 0x00, 0x04, 0x00, 0x00, 0x00
};
const int g_model_len = 11864;
