alignas(8) const unsigned char g_model[] = {
  0x1c, 0x00, 0x00, 0x00, 0x54, 0x46, 0x4c, 0x33, 0x14, 0x00, 0x20, 0x00,
  0x04, 0x00, 0x08, 0x00, 0x0c, 0x00, 0x10, 0x00, 0x14, 0x00, 0x00, 0x00,
  0x18, 0x00, 0x1c, 0x00, 0x14, 0x00, 0x00, 0x00, 0x03, 0x00, 0x00, 0x00,
  0x18, 0x00, 0x00, 0x00, 0x20, 0x00, 0x00, 0x00, 0x58, 0x01, 0x00, 0x00,
  0x20, 0x00, 0x00, 0x00, 0x00, 0x01, 0x00, 0x00, 0x74, 0x00, 0x00, 0x00,
  0x02, 0x00, 0x00, 0x00, 0x80, 0x06, 0x00, 0x00, 0xbc, 0x02, 0x00, 0x00,
  0x01, 0x00, 0x00, 0x00, 0x5c, 0x01, 0x00, 0x00, 0x16, 0x00, 0x00, 0x00,
  0xf0, 0x1a, 0x00, 0x00, 0xec, 0x1a, 0x00, 0x00, 0x18, 0x1a, 0x00, 0x00,
  0x58, 0x19, 0x00, 0x00, 0xf4, 0x18, 0x00, 0x00, 0xb0, 0x18, 0x00, 0x00,
  0x4c, 0x18, 0x00, 0x00, 0x98, 0x17, 0x00, 0x00, 0xe8, 0x14, 0x00, 0x00,
  0xe0, 0x0f, 0x00, 0x00, 0x38, 0x0f, 0x00, 0x00, 0x90, 0x0e, 0x00, 0x00,
  0x88, 0x09, 0x00, 0x00, 0xd8, 0x06, 0x00, 0x00, 0xb8, 0x1a, 0x00, 0x00,
  0xb4, 0x1a, 0x00, 0x00, 0xb0, 0x1a, 0x00, 0x00, 0xac, 0x1a, 0x00, 0x00,
  0xa8, 0x1a, 0x00, 0x00, 0xa4, 0x1a, 0x00, 0x00, 0xa0, 0x1a, 0x00, 0x00,
  0xc0, 0x00, 0x00, 0x00, 0x01, 0x00, 0x00, 0x00, 0x10, 0x00, 0x00, 0x00,
  0x00, 0x00, 0x0a, 0x00, 0x10, 0x00, 0x0c, 0x00, 0x08, 0x00, 0x04, 0x00,
  0x0a, 0x00, 0x00, 0x00, 0x0c, 0x00, 0x00, 0x00, 0x1c, 0x00, 0x00, 0x00,
  0x20, 0x00, 0x00, 0x00, 0x0f, 0x00, 0x00, 0x00, 0x73, 0x65, 0x72, 0x76,
  0x69, 0x6e, 0x67, 0x5f, 0x64, 0x65, 0x66, 0x61, 0x75, 0x6c, 0x74, 0x00,
  0x01, 0x00, 0x00, 0x00, 0x14, 0x00, 0x00, 0x00, 0x01, 0x00, 0x00, 0x00,
  0x28, 0x00, 0x00, 0x00, 0x08, 0x00, 0x0c, 0x00, 0x08, 0x00, 0x04, 0x00,
  0x08, 0x00, 0x00, 0x00, 0x13, 0x00, 0x00, 0x00, 0x04, 0x00, 0x00, 0x00,
  0x08, 0x00, 0x00, 0x00, 0x64, 0x65, 0x6e, 0x73, 0x65, 0x5f, 0x33, 0x35,
  0x00, 0x00, 0x00, 0x00, 0xaa, 0xe6, 0xff, 0xff, 0x04, 0x00, 0x00, 0x00,
  0x0e, 0x00, 0x00, 0x00, 0x64, 0x65, 0x6e, 0x73, 0x65, 0x5f, 0x33, 0x30,
  0x5f, 0x69, 0x6e, 0x70, 0x75, 0x74, 0x00, 0x00, 0x01, 0x00, 0x00, 0x00,
  0x0c, 0x00, 0x00, 0x00, 0x08, 0x00, 0x0c, 0x00, 0x04, 0x00, 0x08, 0x00,
  0x08, 0x00, 0x00, 0x00, 0x08, 0x00, 0x00, 0x00, 0x15, 0x00, 0x00, 0x00,
  0x13, 0x00, 0x00, 0x00, 0x6d, 0x69, 0x6e, 0x5f, 0x72, 0x75, 0x6e, 0x74,
  0x69, 0x6d, 0x65, 0x5f, 0x76, 0x65, 0x72, 0x73, 0x69, 0x6f, 0x6e, 0x00,
  0xfa, 0xe6, 0xff, 0xff, 0x04, 0x00, 0x00, 0x00, 0x10, 0x00, 0x00, 0x00,
  0x31, 0x2e, 0x31, 0x34, 0x2e, 0x30, 0x00, 0x00, 0x00, 0x00, 0x00, 0x00,
  0x00, 0x00, 0x00, 0x00, 0x0f, 0x00, 0x00, 0x00, 0x4d, 0x4c, 0x49, 0x52,
  0x20, 0x43, 0x6f, 0x6e, 0x76, 0x65, 0x72, 0x74, 0x65, 0x64, 0x2e, 0x00,
  0x00, 0x00, 0x0e, 0x00, 0x18, 0x00, 0x04, 0x00, 0x08, 0x00, 0x0c, 0x00,
  0x10, 0x00, 0x14, 0x00, 0x0e, 0x00, 0x00, 0x00, 0x14, 0x00, 0x00, 0x00,
  0x64, 0x00, 0x00, 0x00, 0x68, 0x00, 0x00, 0x00, 0x6c, 0x00, 0x00, 0x00,
  0x88, 0x00, 0x00, 0x00, 0x14, 0x00, 0x00, 0x00, 0x20, 0x19, 0x00, 0x00,
  0xdc, 0x18, 0x00, 0x00, 0x70, 0x18, 0x00, 0x00, 0xbc, 0x17, 0x00, 0x00,
  0x58, 0x17, 0x00, 0x00, 0x14, 0x17, 0x00, 0x00, 0xb0, 0x16, 0x00, 0x00,
  0xe0, 0x15, 0x00, 0x00, 0x30, 0x13, 0x00, 0x00, 0x28, 0x0e, 0x00, 0x00,
  0x80, 0x0d, 0x00, 0x00, 0xd8, 0x0c, 0x00, 0x00, 0xd0, 0x07, 0x00, 0x00,
  0xd8, 0x04, 0x00, 0x00, 0xdc, 0x03, 0x00, 0x00, 0x04, 0x03, 0x00, 0x00,
  0x3c, 0x02, 0x00, 0x00, 0x90, 0x01, 0x00, 0x00, 0x04, 0x01, 0x00, 0x00,
  0x70, 0x00, 0x00, 0x00, 0x01, 0x00, 0x00, 0x00, 0x00, 0x00, 0x00, 0x00,
  0x01, 0x00, 0x00, 0x00, 0x13, 0x00, 0x00, 0x00, 0x07, 0x00, 0x00, 0x00,
  0x50, 0x04, 0x00, 0x00, 0x78, 0x03, 0x00, 0x00, 0xa0, 0x02, 0x00, 0x00,
  0xd8, 0x01, 0x00, 0x00, 0x30, 0x01, 0x00, 0x00, 0xa4, 0x00, 0x00, 0x00,
  0x10, 0x00, 0x00, 0x00, 0x04, 0x00, 0x00, 0x00, 0x6d, 0x61, 0x69, 0x6e,
  0x00, 0x00, 0x00, 0x00, 0xba, 0xfc, 0xff, 0xff, 0x00, 0x00, 0x00, 0x08,
  0x18, 0x00, 0x00, 0x00, 0x0c, 0x00, 0x00, 0x00, 0x04, 0x00, 0x00, 0x00,
  0x24, 0xe7, 0xff, 0xff, 0x01, 0x00, 0x00, 0x00, 0x13, 0x00, 0x00, 0x00,
  0x03, 0x00, 0x00, 0x00, 0x12, 0x00, 0x00, 0x00, 0x0c, 0x00, 0x00, 0x00,
  0x01, 0x00, 0x00, 0x00, 0xb0, 0xe7, 0xff, 0xff, 0x14, 0x00, 0x00, 0x00,
  0x14, 0x00, 0x00, 0x00, 0x18, 0x00, 0x00, 0x00, 0x40, 0x00, 0x00, 0x00,
  0x30, 0x00, 0x00, 0x00, 0x02, 0x00, 0x00, 0x00, 0x01, 0x00, 0x00, 0x00,
  0x05, 0x00, 0x00, 0x00, 0x19, 0x00, 0x00, 0x00, 0x53, 0x74, 0x61, 0x74,
  0x65, 0x66, 0x75, 0x6c, 0x50, 0x61, 0x72, 0x74, 0x69, 0x74, 0x69, 0x6f,
  0x6e, 0x65, 0x64, 0x43, 0x61, 0x6c, 0x6c, 0x3a, 0x30, 0x00, 0x00, 0x00,
  0x02, 0x00, 0x00, 0x00, 0xff, 0xff, 0xff, 0xff, 0x05, 0x00, 0x00, 0x00,
  0x6c, 0xe8, 0xff, 0xff, 0x00, 0x00, 0x0a, 0x00, 0x10, 0x00, 0x04, 0x00,
  0x08, 0x00, 0x0c, 0x00, 0x0a, 0x00, 0x00, 0x00, 0x01, 0x00, 0x00, 0x00,
  0x10, 0x00, 0x00, 0x00, 0x04, 0x00, 0x00, 0x00, 0x01, 0x00, 0x00, 0x00,
  0x12, 0x00, 0x00, 0x00, 0x01, 0x00, 0x00, 0x00, 0x11, 0x00, 0x00, 0x00,
  0x4c, 0xfc, 0xff, 0xff, 0x0e, 0x00, 0x00, 0x00, 0x00, 0x00, 0x00, 0x0e,
  0x01, 0x00, 0x00, 0x00, 0x40, 0xe8, 0xff, 0xff, 0x14, 0x00, 0x00, 0x00,
  0x13, 0x00, 0x00, 0x00, 0x18, 0x00, 0x00, 0x00, 0x44, 0x00, 0x00, 0x00,
  0x34, 0x00, 0x00, 0x00, 0x02, 0x00, 0x00, 0x00, 0x01, 0x00, 0x00, 0x00,
  0x1e, 0x00, 0x00, 0x00, 0x1d, 0x00, 0x00, 0x00, 0x73, 0x65, 0x71, 0x75,
  0x65, 0x6e, 0x74, 0x69, 0x61, 0x6c, 0x5f, 0x35, 0x2f, 0x64, 0x65, 0x6e,
  0x73, 0x65, 0x5f, 0x33, 0x34, 0x2f, 0x53, 0x69, 0x67, 0x6d, 0x6f, 0x69,
  0x64, 0x00, 0x00, 0x00, 0x02, 0x00, 0x00, 0x00, 0xff, 0xff, 0xff, 0xff,
  0x1e, 0x00, 0x00, 0x00, 0x24, 0xe8, 0xff, 0xff, 0xd2, 0xfd, 0xff, 0xff,
  0x00, 0x00, 0x00, 0x08, 0x18, 0x00, 0x00, 0x00, 0x0c, 0x00, 0x00, 0x00,
  0x04, 0x00, 0x00, 0x00, 0x3c, 0xe8, 0xff, 0xff, 0x01, 0x00, 0x00, 0x00,
  0x11, 0x00, 0x00, 0x00, 0x03, 0x00, 0x00, 0x00, 0x10, 0x00, 0x00, 0x00,
  0x0b, 0x00, 0x00, 0x00, 0x02, 0x00, 0x00, 0x00, 0xc8, 0xe8, 0xff, 0xff,
  0x14, 0x00, 0x00, 0x00, 0x12, 0x00, 0x00, 0x00, 0x18, 0x00, 0x00, 0x00,
  0x60, 0x00, 0x00, 0x00, 0x50, 0x00, 0x00, 0x00, 0x02, 0x00, 0x00, 0x00,
  0x01, 0x00, 0x00, 0x00, 0x1e, 0x00, 0x00, 0x00, 0x3a, 0x00, 0x00, 0x00,
  0x73, 0x65, 0x71, 0x75, 0x65, 0x6e, 0x74, 0x69, 0x61, 0x6c, 0x5f, 0x35,
  0x2f, 0x64, 0x65, 0x6e, 0x73, 0x65, 0x5f, 0x33, 0x34, 0x2f, 0x4d, 0x61,
  0x74, 0x4d, 0x75, 0x6c, 0x3b, 0x73, 0x65, 0x71, 0x75, 0x65, 0x6e, 0x74,
  0x69, 0x61, 0x6c, 0x5f, 0x35, 0x2f, 0x64, 0x65, 0x6e, 0x73, 0x65, 0x5f,
  0x33, 0x34, 0x2f, 0x42, 0x69, 0x61, 0x73, 0x41, 0x64, 0x64, 0x00, 0x00,
  0x02, 0x00, 0x00, 0x00, 0xff, 0xff, 0xff, 0xff, 0x1e, 0x00, 0x00, 0x00,
  0xc8, 0xe8, 0xff, 0xff, 0x76, 0xfe, 0xff, 0xff, 0x00, 0x00, 0x00, 0x08,
  0x1c, 0x00, 0x00, 0x00, 0x10, 0x00, 0x00, 0x00, 0x04, 0x00, 0x00, 0x00,
  0x92, 0xfd, 0xff, 0xff, 0x00, 0x00, 0x00, 0x01, 0x01, 0x00, 0x00, 0x00,
  0x10, 0x00, 0x00, 0x00, 0x03, 0x00, 0x00, 0x00, 0x0f, 0x00, 0x00, 0x00,
  0x0a, 0x00, 0x00, 0x00, 0x03, 0x00, 0x00, 0x00, 0x70, 0xe9, 0xff, 0xff,
  0x14, 0x00, 0x00, 0x00, 0x11, 0x00, 0x00, 0x00, 0x18, 0x00, 0x00, 0x00,
  0x7c, 0x00, 0x00, 0x00, 0x6c, 0x00, 0x00, 0x00, 0x02, 0x00, 0x00, 0x00,
  0x01, 0x00, 0x00, 0x00, 0x0a, 0x00, 0x00, 0x00, 0x55, 0x00, 0x00, 0x00,
  0x73, 0x65, 0x71, 0x75, 0x65, 0x6e, 0x74, 0x69, 0x61, 0x6c, 0x5f, 0x35,
  0x2f, 0x64, 0x65, 0x6e, 0x73, 0x65, 0x5f, 0x33, 0x33, 0x2f, 0x4d, 0x61,
  0x74, 0x4d, 0x75, 0x6c, 0x3b, 0x73, 0x65, 0x71, 0x75, 0x65, 0x6e, 0x74,
  0x69, 0x61, 0x6c, 0x5f, 0x35, 0x2f, 0x64, 0x65, 0x6e, 0x73, 0x65, 0x5f,
  0x33, 0x33, 0x2f, 0x52, 0x65, 0x6c, 0x75, 0x3b, 0x73, 0x65, 0x71, 0x75,
  0x65, 0x6e, 0x74, 0x69, 0x61, 0x6c, 0x5f, 0x35, 0x2f, 0x64, 0x65, 0x6e,
  0x73, 0x65, 0x5f, 0x33, 0x33, 0x2f, 0x42, 0x69, 0x61, 0x73, 0x41, 0x64,
  0x64, 0x00, 0x00, 0x00, 0x02, 0x00, 0x00, 0x00, 0xff, 0xff, 0xff, 0xff,
  0x0a, 0x00, 0x00, 0x00, 0x8c, 0xe9, 0xff, 0xff, 0x3a, 0xff, 0xff, 0xff,
  0x00, 0x00, 0x00, 0x08, 0x1c, 0x00, 0x00, 0x00, 0x10, 0x00, 0x00, 0x00,
  0x04, 0x00, 0x00, 0x00, 0x56, 0xfe, 0xff, 0xff, 0x00, 0x00, 0x00, 0x01,
  0x01, 0x00, 0x00, 0x00, 0x0f, 0x00, 0x00, 0x00, 0x03, 0x00, 0x00, 0x00,
  0x0e, 0x00, 0x00, 0x00, 0x09, 0x00, 0x00, 0x00, 0x04, 0x00, 0x00, 0x00,
  0x34, 0xea, 0xff, 0xff, 0x14, 0x00, 0x00, 0x00, 0x10, 0x00, 0x00, 0x00,
  0x18, 0x00, 0x00, 0x00, 0x7c, 0x00, 0x00, 0x00, 0x6c, 0x00, 0x00, 0x00,
  0x02, 0x00, 0x00, 0x00, 0x01, 0x00, 0x00, 0x00, 0x02, 0x00, 0x00, 0x00,
  0x55, 0x00, 0x00, 0x00, 0x73, 0x65, 0x71, 0x75, 0x65, 0x6e, 0x74, 0x69,
  0x61, 0x6c, 0x5f, 0x35, 0x2f, 0x64, 0x65, 0x6e, 0x73, 0x65, 0x5f, 0x33,
  0x32, 0x2f, 0x4d, 0x61, 0x74, 0x4d, 0x75, 0x6c, 0x3b, 0x73, 0x65, 0x71,
  0x75, 0x65, 0x6e, 0x74, 0x69, 0x61, 0x6c, 0x5f, 0x35, 0x2f, 0x64, 0x65,
  0x6e, 0x73, 0x65, 0x5f, 0x33, 0x32, 0x2f, 0x52, 0x65, 0x6c, 0x75, 0x3b,
  0x73, 0x65, 0x71, 0x75, 0x65, 0x6e, 0x74, 0x69, 0x61, 0x6c, 0x5f, 0x35,
  0x2f, 0x64, 0x65, 0x6e, 0x73, 0x65, 0x5f, 0x33, 0x32, 0x2f, 0x42, 0x69,
  0x61, 0x73, 0x41, 0x64, 0x64, 0x00, 0x00, 0x00, 0x02, 0x00, 0x00, 0x00,
  0xff, 0xff, 0xff, 0xff, 0x02, 0x00, 0x00, 0x00, 0x2c, 0xeb, 0xff, 0xff,
  0x00, 0x00, 0x0e, 0x00, 0x14, 0x00, 0x00, 0x00, 0x08, 0x00, 0x0c, 0x00,
  0x07, 0x00, 0x10, 0x00, 0x0e, 0x00, 0x00, 0x00, 0x00, 0x00, 0x00, 0x08,
  0x1c, 0x00, 0x00, 0x00, 0x10, 0x00, 0x00, 0x00, 0x04, 0x00, 0x00, 0x00,
  0x2a, 0xff, 0xff, 0xff, 0x00, 0x00, 0x00, 0x01, 0x01, 0x00, 0x00, 0x00,
  0x0e, 0x00, 0x00, 0x00, 0x03, 0x00, 0x00, 0x00, 0x0d, 0x00, 0x00, 0x00,
  0x08, 0x00, 0x00, 0x00, 0x05, 0x00, 0x00, 0x00, 0x08, 0xeb, 0xff, 0xff,
  0x14, 0x00, 0x00, 0x00, 0x0f, 0x00, 0x00, 0x00, 0x18, 0x00, 0x00, 0x00,
  0x7c, 0x00, 0x00, 0x00, 0x6c, 0x00, 0x00, 0x00, 0x02, 0x00, 0x00, 0x00,
  0x01, 0x00, 0x00, 0x00, 0x0a, 0x00, 0x00, 0x00, 0x55, 0x00, 0x00, 0x00,
  0x73, 0x65, 0x71, 0x75, 0x65, 0x6e, 0x74, 0x69, 0x61, 0x6c, 0x5f, 0x35,
  0x2f, 0x64, 0x65, 0x6e, 0x73, 0x65, 0x5f, 0x33, 0x31, 0x2f, 0x4d, 0x61,
  0x74, 0x4d, 0x75, 0x6c, 0x3b, 0x73, 0x65, 0x71, 0x75, 0x65, 0x6e, 0x74,
  0x69, 0x61, 0x6c, 0x5f, 0x35, 0x2f, 0x64, 0x65, 0x6e, 0x73, 0x65, 0x5f,
  0x33, 0x31, 0x2f, 0x52, 0x65, 0x6c, 0x75, 0x3b, 0x73, 0x65, 0x71, 0x75,
  0x65, 0x6e, 0x74, 0x69, 0x61, 0x6c, 0x5f, 0x35, 0x2f, 0x64, 0x65, 0x6e,
  0x73, 0x65, 0x5f, 0x33, 0x31, 0x2f, 0x42, 0x69, 0x61, 0x73, 0x41, 0x64,
  0x64, 0x00, 0x00, 0x00, 0x02, 0x00, 0x00, 0x00, 0xff, 0xff, 0xff, 0xff,
  0x0a, 0x00, 0x00, 0x00, 0x00, 0xec, 0xff, 0xff, 0x00, 0x00, 0x0e, 0x00,
  0x16, 0x00, 0x00, 0x00, 0x08, 0x00, 0x0c, 0x00, 0x07, 0x00, 0x10, 0x00,
  0x0e, 0x00, 0x00, 0x00, 0x00, 0x00, 0x00, 0x08, 0x24, 0x00, 0x00, 0x00,
  0x18, 0x00, 0x00, 0x00, 0x0c, 0x00, 0x00, 0x00, 0x00, 0x00, 0x06, 0x00,
  0x08, 0x00, 0x07, 0x00, 0x06, 0x00, 0x00, 0x00, 0x00, 0x00, 0x00, 0x01,
  0x01, 0x00, 0x00, 0x00, 0x0d, 0x00, 0x00, 0x00, 0x03, 0x00, 0x00, 0x00,
  0x00, 0x00, 0x00, 0x00, 0x07, 0x00, 0x00, 0x00, 0x06, 0x00, 0x00, 0x00,
  0x0c, 0x00, 0x10, 0x00, 0x0b, 0x00, 0x00, 0x00, 0x0c, 0x00, 0x04, 0x00,
  0x0c, 0x00, 0x00, 0x00, 0x09, 0x00, 0x00, 0x00, 0x00, 0x00, 0x00, 0x09,
  0x01, 0x00, 0x00, 0x00, 0x00, 0xec, 0xff, 0xff, 0x14, 0x00, 0x00, 0x00,
  0x0e, 0x00, 0x00, 0x00, 0x18, 0x00, 0x00, 0x00, 0x7c, 0x00, 0x00, 0x00,
  0x6c, 0x00, 0x00, 0x00, 0x02, 0x00, 0x00, 0x00, 0x01, 0x00, 0x00, 0x00,
  0x1e, 0x00, 0x00, 0x00, 0x55, 0x00, 0x00, 0x00, 0x73, 0x65, 0x71, 0x75,
  0x65, 0x6e, 0x74, 0x69, 0x61, 0x6c, 0x5f, 0x35, 0x2f, 0x64, 0x65, 0x6e,
  0x73, 0x65, 0x5f, 0x33, 0x30, 0x2f, 0x4d, 0x61, 0x74, 0x4d, 0x75, 0x6c,
  0x3b, 0x73, 0x65, 0x71, 0x75, 0x65, 0x6e, 0x74, 0x69, 0x61, 0x6c, 0x5f,
  0x35, 0x2f, 0x64, 0x65, 0x6e, 0x73, 0x65, 0x5f, 0x33, 0x30, 0x2f, 0x52,
  0x65, 0x6c, 0x75, 0x3b, 0x73, 0x65, 0x71, 0x75, 0x65, 0x6e, 0x74, 0x69,
  0x61, 0x6c, 0x5f, 0x35, 0x2f, 0x64, 0x65, 0x6e, 0x73, 0x65, 0x5f, 0x33,
  0x30, 0x2f, 0x42, 0x69, 0x61, 0x73, 0x41, 0x64, 0x64, 0x00, 0x00, 0x00,
  0x02, 0x00, 0x00, 0x00, 0xff, 0xff, 0xff, 0xff, 0x1e, 0x00, 0x00, 0x00,
  0x1c, 0xec, 0xff, 0xff, 0xf2, 0xec, 0xff, 0xff, 0x04, 0x00, 0x00, 0x00,
  0x58, 0x02, 0x00, 0x00, 0x9f, 0xd1, 0xb9, 0xbd, 0xd4, 0x42, 0xf3, 0x3e,
  0x26, 0x5b, 0x5b, 0x3d, 0xd4, 0x42, 0xf3, 0x3e, 0x04, 0xb6, 0xf8, 0xbe,
  0x9f, 0xd1, 0xb9, 0xbd, 0x26, 0x5b, 0x5b, 0x3d, 0x26, 0x5b, 0x5b, 0x3d,
  0x26, 0x5b, 0x5b, 0x3d, 0x26, 0x5b, 0x5b, 0x3d, 0x9f, 0xd1, 0xb9, 0xbd,
  0x26, 0x5b, 0x5b, 0x3d, 0xd4, 0x42, 0xf3, 0x3e, 0x04, 0xb6, 0xf8, 0xbe,
  0x26, 0x5b, 0x5b, 0x3d, 0x9f, 0xd1, 0xb9, 0xbd, 0xd4, 0x42, 0xf3, 0x3e,
  0x26, 0x5b, 0x5b, 0x3d, 0x26, 0x5b, 0x5b, 0x3d, 0x9f, 0xd1, 0xb9, 0xbd,
  0x9f, 0xd1, 0xb9, 0xbd, 0x26, 0x5b, 0x5b, 0x3d, 0xd4, 0x42, 0xf3, 0x3e,
  0x26, 0x5b, 0x5b, 0x3d, 0x26, 0x5b, 0x5b, 0x3d, 0x04, 0xb6, 0xf8, 0xbe,
  0x26, 0x5b, 0x5b, 0x3d, 0x26, 0x5b, 0x5b, 0x3d, 0x26, 0x5b, 0x5b, 0x3d,
  0xd4, 0x42, 0xf3, 0x3e, 0x26, 0x5b, 0x5b, 0x3d, 0x26, 0x5b, 0x5b, 0x3d,
  0x26, 0x5b, 0x5b, 0x3d, 0x26, 0x5b, 0x5b, 0x3d, 0x26, 0x5b, 0x5b, 0x3d,
  0x26, 0x5b, 0x5b, 0x3d, 0x26, 0x5b, 0x5b, 0x3d, 0x26, 0x5b, 0x5b, 0x3d,
  0x04, 0xb6, 0xf8, 0xbe, 0x26, 0x5b, 0x5b, 0x3d, 0xd4, 0x42, 0xf3, 0x3e,
  0x26, 0x5b, 0x5b, 0x3d, 0x9f, 0xd1, 0xb9, 0xbd, 0x26, 0x5b, 0x5b, 0x3d,
  0x26, 0x5b, 0x5b, 0x3d, 0x9f, 0xd1, 0xb9, 0xbd, 0x26, 0x5b, 0x5b, 0x3d,
  0xd4, 0x42, 0xf3, 0x3e, 0x26, 0x5b, 0x5b, 0x3d, 0x04, 0xb6, 0xf8, 0xbe,
  0x04, 0xb6, 0xf8, 0xbe, 0x26, 0x5b, 0x5b, 0x3d, 0xd4, 0x42, 0xf3, 0x3e,
  0x04, 0xb6, 0xf8, 0xbe, 0x26, 0x5b, 0x5b, 0x3d, 0xd4, 0x42, 0xf3, 0x3e,
  0x9f, 0xd1, 0xb9, 0xbd, 0x26, 0x5b, 0x5b, 0x3d, 0x26, 0x5b, 0x5b, 0x3d,
  0x9f, 0xd1, 0xb9, 0xbd, 0x9f, 0xd1, 0xb9, 0xbd, 0x26, 0x5b, 0x5b, 0x3d,
  0x26, 0x5b, 0x5b, 0x3d, 0x26, 0x5b, 0x5b, 0x3d, 0x9f, 0xd1, 0xb9, 0xbd,
  0x9f, 0xd1, 0xb9, 0xbd, 0x26, 0x5b, 0x5b, 0x3d, 0xd4, 0x42, 0xf3, 0x3e,
  0xd4, 0x42, 0xf3, 0x3e, 0x26, 0x5b, 0x5b, 0x3d, 0x9f, 0xd1, 0xb9, 0xbd,
  0x26, 0x5b, 0x5b, 0x3d, 0x26, 0x5b, 0x5b, 0x3d, 0x9f, 0xd1, 0xb9, 0xbd,
  0x26, 0x5b, 0x5b, 0x3d, 0x9f, 0xd1, 0xb9, 0xbd, 0x26, 0x5b, 0x5b, 0x3d,
  0x26, 0x5b, 0x5b, 0x3d, 0x26, 0x5b, 0x5b, 0x3d, 0x9f, 0xd1, 0xb9, 0xbd,
  0x9f, 0xd1, 0xb9, 0xbd, 0x26, 0x5b, 0x5b, 0x3d, 0x26, 0x5b, 0x5b, 0x3d,
  0x9f, 0xd1, 0xb9, 0xbd, 0x26, 0x5b, 0x5b, 0x3d, 0x26, 0x5b, 0x5b, 0x3d,
  0x9f, 0xd1, 0xb9, 0xbd, 0xd4, 0x42, 0xf3, 0x3e, 0x9f, 0xd1, 0xb9, 0xbd,
  0x9f, 0xd1, 0xb9, 0xbd, 0x9f, 0xd1, 0xb9, 0xbd, 0x26, 0x5b, 0x5b, 0x3d,
  0x26, 0x5b, 0x5b, 0x3d, 0xd4, 0x42, 0xf3, 0x3e, 0x9f, 0xd1, 0xb9, 0xbd,
  0x9f, 0xd1, 0xb9, 0xbd, 0x26, 0x5b, 0x5b, 0x3d, 0x9f, 0xd1, 0xb9, 0xbd,
  0x26, 0x5b, 0x5b, 0x3d, 0x26, 0x5b, 0x5b, 0x3d, 0x9f, 0xd1, 0xb9, 0xbd,
  0x26, 0x5b, 0x5b, 0x3d, 0x26, 0x5b, 0x5b, 0x3d, 0x9f, 0xd1, 0xb9, 0xbd,
  0x26, 0x5b, 0x5b, 0x3d, 0x9f, 0xd1, 0xb9, 0xbd, 0x26, 0x5b, 0x5b, 0x3d,
  0x26, 0x5b, 0x5b, 0x3d, 0x26, 0x5b, 0x5b, 0x3d, 0x9f, 0xd1, 0xb9, 0xbd,
  0x9f, 0xd1, 0xb9, 0xbd, 0x26, 0x5b, 0x5b, 0x3d, 0x26, 0x5b, 0x5b, 0x3d,
  0x9f, 0xd1, 0xb9, 0xbd, 0x26, 0x5b, 0x5b, 0x3d, 0xd4, 0x42, 0xf3, 0x3e,
  0x9f, 0xd1, 0xb9, 0xbd, 0x26, 0x5b, 0x5b, 0x3d, 0x26, 0x5b, 0x5b, 0x3d,
  0x9f, 0xd1, 0xb9, 0xbd, 0x04, 0xb6, 0xf8, 0xbe, 0x26, 0x5b, 0x5b, 0x3d,
  0xd4, 0x42, 0xf3, 0x3e, 0x26, 0x5b, 0x5b, 0x3d, 0x9f, 0xd1, 0xb9, 0xbd,
  0x9f, 0xd1, 0xb9, 0xbd, 0xd4, 0x42, 0xf3, 0x3e, 0x04, 0xb6, 0xf8, 0xbe,
  0x26, 0x5b, 0x5b, 0x3d, 0x26, 0x5b, 0x5b, 0x3d, 0x9f, 0xd1, 0xb9, 0xbd,
  0xd4, 0x42, 0xf3, 0x3e, 0x26, 0x5b, 0x5b, 0x3d, 0x9f, 0xd1, 0xb9, 0xbd,
  0xd4, 0x42, 0xf3, 0x3e, 0x9f, 0xd1, 0xb9, 0xbd, 0x26, 0x5b, 0x5b, 0x3d,
  0xd4, 0x42, 0xf3, 0x3e, 0x26, 0x5b, 0x5b, 0x3d, 0x9f, 0xd1, 0xb9, 0xbd,
  0x04, 0xb6, 0xf8, 0xbe, 0x26, 0x5b, 0x5b, 0x3d, 0x26, 0x5b, 0x5b, 0x3d,
  0x9f, 0xd1, 0xb9, 0xbd, 0x26, 0x5b, 0x5b, 0x3d, 0x26, 0x5b, 0x5b, 0x3d,
  0x9f, 0xd1, 0xb9, 0xbd, 0x26, 0x5b, 0x5b, 0x3d, 0x26, 0x5b, 0x5b, 0x3d,
  0x9f, 0xd1, 0xb9, 0xbd, 0x2e, 0xef, 0xff, 0xff, 0x10, 0x00, 0x00, 0x00,
  0x0d, 0x00, 0x00, 0x00, 0x14, 0x00, 0x00, 0x00, 0x34, 0x00, 0x00, 0x00,
  0x02, 0x00, 0x00, 0x00, 0x05, 0x00, 0x00, 0x00, 0x1e, 0x00, 0x00, 0x00,
  0x1c, 0x00, 0x00, 0x00, 0x73, 0x65, 0x71, 0x75, 0x65, 0x6e, 0x74, 0x69,
  0x61, 0x6c, 0x5f, 0x35, 0x2f, 0x64, 0x65, 0x6e, 0x73, 0x65, 0x5f, 0x33,
  0x35, 0x2f, 0x4d, 0x61, 0x74, 0x4d, 0x75, 0x6c, 0x00, 0x00, 0x00, 0x00,
  0xc8, 0xee, 0xff, 0xff, 0x9e, 0xef, 0xff, 0xff, 0x04, 0x00, 0x00, 0x00,
  0xb0, 0x04, 0x00, 0x00, 0x41, 0xea, 0x30, 0xbd, 0x41, 0xea, 0x30, 0xbd,
  0xfe, 0x68, 0xf1, 0xbe, 0x41, 0xea, 0x30, 0xbd, 0xfe, 0x68, 0xf1, 0xbe,
  0x41, 0xea, 0x30, 0xbd, 0x41, 0xea, 0x30, 0xbd, 0x41, 0xea, 0x30, 0xbd,
  0xfe, 0x68, 0xf1, 0xbe, 0x41, 0xea, 0x30, 0xbd, 0x41, 0xea, 0x30, 0xbd,
  0xfe, 0x68, 0xf1, 0xbe, 0x41, 0xea, 0x30, 0xbd, 0x41, 0xea, 0x30, 0xbd,
  0x41, 0xea, 0x30, 0xbd, 0x41, 0xea, 0x30, 0xbd, 0x41, 0xea, 0x30, 0xbd,
  0x41, 0xea, 0x30, 0xbd, 0x41, 0xea, 0x30, 0xbd, 0x41, 0xea, 0x30, 0xbd,
  0x41, 0xea, 0x30, 0xbd, 0xf6, 0xdf, 0x69, 0xbf, 0x41, 0xea, 0x30, 0xbd,
  0x41, 0xea, 0x30, 0xbd, 0x62, 0x59, 0x0a, 0x3f, 0x41, 0xea, 0x30, 0xbd,
  0x41, 0xea, 0x30, 0xbd, 0x41, 0xea, 0x30, 0xbd, 0x41, 0xea, 0x30, 0xbd,
  0x41, 0xea, 0x30, 0xbd, 0x41, 0xea, 0x30, 0xbd, 0xfe, 0x68, 0xf1, 0xbe,
  0x41, 0xea, 0x30, 0xbd, 0x41, 0xea, 0x30, 0xbd, 0x41, 0xea, 0x30, 0xbd,
  0x41, 0xea, 0x30, 0xbd, 0x41, 0xea, 0x30, 0xbd, 0xfe, 0x68, 0xf1, 0xbe,
  0x41, 0xea, 0x30, 0xbd, 0x41, 0xea, 0x30, 0xbd, 0x41, 0xea, 0x30, 0xbd,
  0x62, 0x59, 0x0a, 0x3f, 0x41, 0xea, 0x30, 0xbd, 0x41, 0xea, 0x30, 0xbd,
  0xf6, 0xdf, 0x69, 0xbf, 0x41, 0xea, 0x30, 0xbd, 0x41, 0xea, 0x30, 0xbd,
  0x41, 0xea, 0x30, 0xbd, 0xfe, 0x68, 0xf1, 0xbe, 0x41, 0xea, 0x30, 0xbd,
  0x41, 0xea, 0x30, 0xbd, 0x41, 0xea, 0x30, 0xbd, 0xfe, 0x68, 0xf1, 0xbe,
  0x41, 0xea, 0x30, 0xbd, 0x41, 0xea, 0x30, 0xbd, 0x41, 0xea, 0x30, 0xbd,
  0xfe, 0x68, 0xf1, 0xbe, 0x41, 0xea, 0x30, 0xbd, 0x41, 0xea, 0x30, 0xbd,
  0x41, 0xea, 0x30, 0xbd, 0x41, 0xea, 0x30, 0xbd, 0x41, 0xea, 0x30, 0xbd,
  0x41, 0xea, 0x30, 0xbd, 0x62, 0x59, 0x0a, 0x3f, 0x41, 0xea, 0x30, 0xbd,
  0x41, 0xea, 0x30, 0xbd, 0x41, 0xea, 0x30, 0xbd, 0x41, 0xea, 0x30, 0xbd,
  0x41, 0xea, 0x30, 0xbd, 0x41, 0xea, 0x30, 0xbd, 0x41, 0xea, 0x30, 0xbd,
  0x41, 0xea, 0x30, 0xbd, 0xfe, 0x68, 0xf1, 0xbe, 0x41, 0xea, 0x30, 0xbd,
  0x41, 0xea, 0x30, 0xbd, 0x41, 0xea, 0x30, 0xbd, 0x41, 0xea, 0x30, 0xbd,
  0x41, 0xea, 0x30, 0xbd, 0xfe, 0x68, 0xf1, 0xbe, 0x41, 0xea, 0x30, 0xbd,
  0x41, 0xea, 0x30, 0xbd, 0x41, 0xea, 0x30, 0xbd, 0x41, 0xea, 0x30, 0xbd,
  0x41, 0xea, 0x30, 0xbd, 0x41, 0xea, 0x30, 0xbd, 0x41, 0xea, 0x30, 0xbd,
  0x41, 0xea, 0x30, 0xbd, 0x41, 0xea, 0x30, 0xbd, 0x41, 0xea, 0x30, 0xbd,
  0x41, 0xea, 0x30, 0xbd, 0x41, 0xea, 0x30, 0xbd, 0xfe, 0x68, 0xf1, 0xbe,
  0x41, 0xea, 0x30, 0xbd, 0x41, 0xea, 0x30, 0xbd, 0x62, 0x59, 0x0a, 0x3f,
  0x41, 0xea, 0x30, 0xbd, 0x41, 0xea, 0x30, 0xbd, 0x41, 0xea, 0x30, 0xbd,
  0x62, 0x59, 0x0a, 0x3f, 0x41, 0xea, 0x30, 0xbd, 0x41, 0xea, 0x30, 0xbd,
  0x62, 0x59, 0x0a, 0x3f, 0xfe, 0x68, 0xf1, 0xbe, 0x41, 0xea, 0x30, 0xbd,
  0xfe, 0x68, 0xf1, 0xbe, 0x41, 0xea, 0x30, 0xbd, 0x41, 0xea, 0x30, 0xbd,
  0x41, 0xea, 0x30, 0xbd, 0x41, 0xea, 0x30, 0xbd, 0x41, 0xea, 0x30, 0xbd,
  0x41, 0xea, 0x30, 0xbd, 0xf6, 0xdf, 0x69, 0xbf, 0x41, 0xea, 0x30, 0xbd,
  0x41, 0xea, 0x30, 0xbd, 0x41, 0xea, 0x30, 0xbd, 0x41, 0xea, 0x30, 0xbd,
  0x41, 0xea, 0x30, 0xbd, 0x41, 0xea, 0x30, 0xbd, 0x41, 0xea, 0x30, 0xbd,
  0x41, 0xea, 0x30, 0xbd, 0xf6, 0xdf, 0x69, 0xbf, 0xf6, 0xdf, 0x69, 0xbf,
  0x62, 0x59, 0x0a, 0x3f, 0x62, 0x59, 0x0a, 0x3f, 0x41, 0xea, 0x30, 0xbd,
  0x41, 0xea, 0x30, 0xbd, 0x41, 0xea, 0x30, 0xbd, 0x41, 0xea, 0x30, 0xbd,
  0x41, 0xea, 0x30, 0xbd, 0x41, 0xea, 0x30, 0xbd, 0x41, 0xea, 0x30, 0xbd,
  0x41, 0xea, 0x30, 0xbd, 0xfe, 0x68, 0xf1, 0xbe, 0x41, 0xea, 0x30, 0xbd,
  0xfe, 0x68, 0xf1, 0xbe, 0x41, 0xea, 0x30, 0xbd, 0x41, 0xea, 0x30, 0xbd,
  0x41, 0xea, 0x30, 0xbd, 0xfe, 0x68, 0xf1, 0xbe, 0x41, 0xea, 0x30, 0xbd,
  0x41, 0xea, 0x30, 0xbd, 0xf6, 0xdf, 0x69, 0xbf, 0x62, 0x59, 0x0a, 0x3f,
  0x62, 0x59, 0x0a, 0x3f, 0x41, 0xea, 0x30, 0xbd, 0x62, 0x59, 0x0a, 0x3f,
  0x41, 0xea, 0x30, 0xbd, 0x41, 0xea, 0x30, 0xbd, 0x41, 0xea, 0x30, 0xbd,
  0x41, 0xea, 0x30, 0xbd, 0x41, 0xea, 0x30, 0xbd, 0x62, 0x59, 0x0a, 0x3f,
  0xfe, 0x68, 0xf1, 0xbe, 0xfe, 0x68, 0xf1, 0xbe, 0xfe, 0x68, 0xf1, 0xbe,
  0x41, 0xea, 0x30, 0xbd, 0x41, 0xea, 0x30, 0xbd, 0x41, 0xea, 0x30, 0xbd,
  0x41, 0xea, 0x30, 0xbd, 0x41, 0xea, 0x30, 0xbd, 0x41, 0xea, 0x30, 0xbd,
  0x41, 0xea, 0x30, 0xbd, 0x41, 0xea, 0x30, 0xbd, 0x41, 0xea, 0x30, 0xbd,
  0x41, 0xea, 0x30, 0xbd, 0x41, 0xea, 0x30, 0xbd, 0x41, 0xea, 0x30, 0xbd,
  0xfe, 0x68, 0xf1, 0xbe, 0x41, 0xea, 0x30, 0xbd, 0x41, 0xea, 0x30, 0xbd,
  0x41, 0xea, 0x30, 0xbd, 0x62, 0x59, 0x0a, 0x3f, 0x41, 0xea, 0x30, 0xbd,
  0x62, 0x59, 0x0a, 0x3f, 0x41, 0xea, 0x30, 0xbd, 0x41, 0xea, 0x30, 0xbd,
  0x62, 0x59, 0x0a, 0x3f, 0x41, 0xea, 0x30, 0xbd, 0x41, 0xea, 0x30, 0xbd,
  0x41, 0xea, 0x30, 0xbd, 0x41, 0xea, 0x30, 0xbd, 0x41, 0xea, 0x30, 0xbd,
  0x41, 0xea, 0x30, 0xbd, 0x41, 0xea, 0x30, 0xbd, 0x41, 0xea, 0x30, 0xbd,
  0x41, 0xea, 0x30, 0xbd, 0x41, 0xea, 0x30, 0xbd, 0x41, 0xea, 0x30, 0xbd,
  0x41, 0xea, 0x30, 0xbd, 0x41, 0xea, 0x30, 0xbd, 0xfe, 0x68, 0xf1, 0xbe,
  0xf6, 0xdf, 0x69, 0xbf, 0x41, 0xea, 0x30, 0xbd, 0x41, 0xea, 0x30, 0xbd,
  0x41, 0xea, 0x30, 0xbd, 0x41, 0xea, 0x30, 0xbd, 0x41, 0xea, 0x30, 0xbd,
  0x41, 0xea, 0x30, 0xbd, 0x41, 0xea, 0x30, 0xbd, 0x41, 0xea, 0x30, 0xbd,
  0xfe, 0x68, 0xf1, 0xbe, 0x41, 0xea, 0x30, 0xbd, 0x41, 0xea, 0x30, 0xbd,
  0x41, 0xea, 0x30, 0xbd, 0x41, 0xea, 0x30, 0xbd, 0x41, 0xea, 0x30, 0xbd,
  0x41, 0xea, 0x30, 0xbd, 0xfe, 0x68, 0xf1, 0xbe, 0x41, 0xea, 0x30, 0xbd,
  0x41, 0xea, 0x30, 0xbd, 0x41, 0xea, 0x30, 0xbd, 0x41, 0xea, 0x30, 0xbd,
  0x41, 0xea, 0x30, 0xbd, 0x41, 0xea, 0x30, 0xbd, 0x41, 0xea, 0x30, 0xbd,
  0x41, 0xea, 0x30, 0xbd, 0x41, 0xea, 0x30, 0xbd, 0x41, 0xea, 0x30, 0xbd,
  0x41, 0xea, 0x30, 0xbd, 0x41, 0xea, 0x30, 0xbd, 0x41, 0xea, 0x30, 0xbd,
  0xfe, 0x68, 0xf1, 0xbe, 0x41, 0xea, 0x30, 0xbd, 0x62, 0x59, 0x0a, 0x3f,
  0x41, 0xea, 0x30, 0xbd, 0x41, 0xea, 0x30, 0xbd, 0x41, 0xea, 0x30, 0xbd,
  0x41, 0xea, 0x30, 0xbd, 0x41, 0xea, 0x30, 0xbd, 0x41, 0xea, 0x30, 0xbd,
  0x41, 0xea, 0x30, 0xbd, 0x41, 0xea, 0x30, 0xbd, 0xfe, 0x68, 0xf1, 0xbe,
  0x41, 0xea, 0x30, 0xbd, 0x41, 0xea, 0x30, 0xbd, 0x41, 0xea, 0x30, 0xbd,
  0x41, 0xea, 0x30, 0xbd, 0x41, 0xea, 0x30, 0xbd, 0x41, 0xea, 0x30, 0xbd,
  0x41, 0xea, 0x30, 0xbd, 0x41, 0xea, 0x30, 0xbd, 0x41, 0xea, 0x30, 0xbd,
  0x41, 0xea, 0x30, 0xbd, 0x62, 0x59, 0x0a, 0x3f, 0x41, 0xea, 0x30, 0xbd,
  0x41, 0xea, 0x30, 0xbd, 0x41, 0xea, 0x30, 0xbd, 0x41, 0xea, 0x30, 0xbd,
  0x41, 0xea, 0x30, 0xbd, 0x41, 0xea, 0x30, 0xbd, 0x62, 0x59, 0x0a, 0x3f,
  0x41, 0xea, 0x30, 0xbd, 0x41, 0xea, 0x30, 0xbd, 0x41, 0xea, 0x30, 0xbd,
  0xfe, 0x68, 0xf1, 0xbe, 0x41, 0xea, 0x30, 0xbd, 0x41, 0xea, 0x30, 0xbd,
  0x41, 0xea, 0x30, 0xbd, 0x41, 0xea, 0x30, 0xbd, 0x41, 0xea, 0x30, 0xbd,
  0xfe, 0x68, 0xf1, 0xbe, 0x41, 0xea, 0x30, 0xbd, 0x41, 0xea, 0x30, 0xbd,
  0xfe, 0x68, 0xf1, 0xbe, 0x41, 0xea, 0x30, 0xbd, 0x41, 0xea, 0x30, 0xbd,
  0xfe, 0x68, 0xf1, 0xbe, 0x41, 0xea, 0x30, 0xbd, 0x41, 0xea, 0x30, 0xbd,
  0x41, 0xea, 0x30, 0xbd, 0x41, 0xea, 0x30, 0xbd, 0x41, 0xea, 0x30, 0xbd,
  0x41, 0xea, 0x30, 0xbd, 0x41, 0xea, 0x30, 0xbd, 0x41, 0xea, 0x30, 0xbd,
  0x41, 0xea, 0x30, 0xbd, 0x41, 0xea, 0x30, 0xbd, 0x41, 0xea, 0x30, 0xbd,
  0x41, 0xea, 0x30, 0xbd, 0x41, 0xea, 0x30, 0xbd, 0x41, 0xea, 0x30, 0xbd,
  0x62, 0x59, 0x0a, 0x3f, 0x41, 0xea, 0x30, 0xbd, 0x41, 0xea, 0x30, 0xbd,
  0x41, 0xea, 0x30, 0xbd, 0x41, 0xea, 0x30, 0xbd, 0x41, 0xea, 0x30, 0xbd,
  0x41, 0xea, 0x30, 0xbd, 0xfe, 0x68, 0xf1, 0xbe, 0x41, 0xea, 0x30, 0xbd,
  0xf6, 0xdf, 0x69, 0xbf, 0xfe, 0x68, 0xf1, 0xbe, 0x41, 0xea, 0x30, 0xbd,
  0x41, 0xea, 0x30, 0xbd, 0x41, 0xea, 0x30, 0xbd, 0x41, 0xea, 0x30, 0xbd,
  0xfe, 0x68, 0xf1, 0xbe, 0x41, 0xea, 0x30, 0xbd, 0x41, 0xea, 0x30, 0xbd,
  0x41, 0xea, 0x30, 0xbd, 0x32, 0xf4, 0xff, 0xff, 0x10, 0x00, 0x00, 0x00,
  0x0c, 0x00, 0x00, 0x00, 0x14, 0x00, 0x00, 0x00, 0x34, 0x00, 0x00, 0x00,
  0x02, 0x00, 0x00, 0x00, 0x1e, 0x00, 0x00, 0x00, 0x0a, 0x00, 0x00, 0x00,
  0x1c, 0x00, 0x00, 0x00, 0x73, 0x65, 0x71, 0x75, 0x65, 0x6e, 0x74, 0x69,
  0x61, 0x6c, 0x5f, 0x35, 0x2f, 0x64, 0x65, 0x6e, 0x73, 0x65, 0x5f, 0x33,
  0x34, 0x2f, 0x4d, 0x61, 0x74, 0x4d, 0x75, 0x6c, 0x00, 0x00, 0x00, 0x00,
  0xcc, 0xf3, 0xff, 0xff, 0xa2, 0xf4, 0xff, 0xff, 0x04, 0x00, 0x00, 0x00,
  0x50, 0x00, 0x00, 0x00, 0x91, 0xa9, 0xf3, 0x3c, 0x90, 0xcd, 0x21, 0x3f,
  0x91, 0xa9, 0xf3, 0x3c, 0x91, 0xa9, 0xf3, 0x3c, 0x58, 0x19, 0x73, 0x3f,
  0x91, 0xa9, 0xf3, 0x3c, 0x90, 0xcd, 0x21, 0x3f, 0x91, 0xa9, 0xf3, 0x3c,
  0x91, 0xa9, 0xf3, 0x3c, 0x91, 0xa9, 0xf3, 0x3c, 0x91, 0xa9, 0xf3, 0x3c,
  0x91, 0xa9, 0xf3, 0x3c, 0x91, 0xa9, 0xf3, 0x3c, 0x91, 0xa9, 0xf3, 0x3c,
  0x91, 0xa9, 0xf3, 0x3c, 0x91, 0xa9, 0xf3, 0x3c, 0x90, 0xcd, 0x21, 0x3f,
  0x91, 0xa9, 0xf3, 0x3c, 0x91, 0xa9, 0xf3, 0x3c, 0x91, 0xa9, 0xf3, 0x3c,
  0xd6, 0xf4, 0xff, 0xff, 0x10, 0x00, 0x00, 0x00, 0x0b, 0x00, 0x00, 0x00,
  0x14, 0x00, 0x00, 0x00, 0x34, 0x00, 0x00, 0x00, 0x02, 0x00, 0x00, 0x00,
  0x0a, 0x00, 0x00, 0x00, 0x02, 0x00, 0x00, 0x00, 0x1c, 0x00, 0x00, 0x00,
  0x73, 0x65, 0x71, 0x75, 0x65, 0x6e, 0x74, 0x69, 0x61, 0x6c, 0x5f, 0x35,
  0x2f, 0x64, 0x65, 0x6e, 0x73, 0x65, 0x5f, 0x33, 0x33, 0x2f, 0x4d, 0x61,
  0x74, 0x4d, 0x75, 0x6c, 0x00, 0x00, 0x00, 0x00, 0x70, 0xf4, 0xff, 0xff,
  0x46, 0xf5, 0xff, 0xff, 0x04, 0x00, 0x00, 0x00, 0x50, 0x00, 0x00, 0x00,
  0xef, 0xce, 0x1a, 0x3d, 0x4e, 0x09, 0xd5, 0x3e, 0xef, 0xce, 0x1a, 0x3d,
  0xef, 0xce, 0x1a, 0x3d, 0xef, 0xce, 0x1a, 0x3d, 0xef, 0xce, 0x1a, 0x3d,
  0xef, 0xce, 0x1a, 0x3d, 0xef, 0xce, 0x1a, 0x3d, 0xef, 0xce, 0x1a, 0x3d,
  0xef, 0xce, 0x1a, 0x3d, 0xef, 0xce, 0x1a, 0x3d, 0xef, 0xce, 0x1a, 0x3d,
  0xef, 0xce, 0x1a, 0x3d, 0x61, 0xc1, 0x86, 0x3f, 0x33, 0x4c, 0x30, 0x3f,
  0x61, 0xc1, 0x86, 0x3f, 0xef, 0xce, 0x1a, 0x3d, 0xef, 0xce, 0x1a, 0x3d,
  0x33, 0x4c, 0x30, 0x3f, 0xef, 0xce, 0x1a, 0x3d, 0x7a, 0xf5, 0xff, 0xff,
  0x10, 0x00, 0x00, 0x00, 0x0a, 0x00, 0x00, 0x00, 0x14, 0x00, 0x00, 0x00,
  0x34, 0x00, 0x00, 0x00, 0x02, 0x00, 0x00, 0x00, 0x02, 0x00, 0x00, 0x00,
  0x0a, 0x00, 0x00, 0x00, 0x1c, 0x00, 0x00, 0x00, 0x73, 0x65, 0x71, 0x75,
  0x65, 0x6e, 0x74, 0x69, 0x61, 0x6c, 0x5f, 0x35, 0x2f, 0x64, 0x65, 0x6e,
  0x73, 0x65, 0x5f, 0x33, 0x32, 0x2f, 0x4d, 0x61, 0x74, 0x4d, 0x75, 0x6c,
  0x00, 0x00, 0x00, 0x00, 0x14, 0xf5, 0xff, 0xff, 0xea, 0xf5, 0xff, 0xff,
  0x04, 0x00, 0x00, 0x00, 0xb0, 0x04, 0x00, 0x00, 0x7d, 0x47, 0x4c, 0xbe,
  0x7d, 0x47, 0x4c, 0xbe, 0x7d, 0x47, 0x4c, 0xbe, 0x7d, 0x47, 0x4c, 0xbe,
  0x7d, 0x47, 0x4c, 0xbe, 0x7d, 0x47, 0x4c, 0xbe, 0x7d, 0x47, 0x4c, 0xbe,
  0x7d, 0x47, 0x4c, 0xbe, 0x7d, 0x47, 0x4c, 0xbe, 0x46, 0x43, 0x2f, 0x3f,
  0x7d, 0x47, 0x4c, 0xbe, 0x7d, 0x47, 0x4c, 0xbe, 0x7d, 0x47, 0x4c, 0xbe,
  0x7d, 0x47, 0x4c, 0xbe, 0x7d, 0x47, 0x4c, 0xbe, 0x7d, 0x47, 0x4c, 0xbe,
  0x7d, 0x47, 0x4c, 0xbe, 0x7d, 0x47, 0x4c, 0xbe, 0x7d, 0x47, 0x4c, 0xbe,
  0x7d, 0x47, 0x4c, 0xbe, 0x7d, 0x47, 0x4c, 0xbe, 0x7d, 0x47, 0x4c, 0xbe,
  0x7d, 0x47, 0x4c, 0xbe, 0x7d, 0x47, 0x4c, 0xbe, 0x7d, 0x47, 0x4c, 0xbe,
  0x7d, 0x47, 0x4c, 0xbe, 0x7d, 0x47, 0x4c, 0xbe, 0x7d, 0x47, 0x4c, 0xbe,
  0x7d, 0x47, 0x4c, 0xbe, 0x7d, 0x47, 0x4c, 0xbe, 0x7d, 0x47, 0x4c, 0xbe,
  0x7d, 0x47, 0x4c, 0xbe, 0x46, 0x43, 0x2f, 0x3f, 0x7d, 0x47, 0x4c, 0xbe,
  0x7d, 0x47, 0x4c, 0xbe, 0x7d, 0x47, 0x4c, 0xbe, 0x26, 0xd1, 0x8f, 0xbf,
  0x7d, 0x47, 0x4c, 0xbe, 0x7d, 0x47, 0x4c, 0xbe, 0x7d, 0x47, 0x4c, 0xbe,
  0x7d, 0x47, 0x4c, 0xbe, 0x7d, 0x47, 0x4c, 0xbe, 0x7d, 0x47, 0x4c, 0xbe,
  0x26, 0xd1, 0x8f, 0xbf, 0x46, 0x43, 0x2f, 0x3f, 0x7d, 0x47, 0x4c, 0xbe,
  0x46, 0x43, 0x2f, 0x3f, 0x7d, 0x47, 0x4c, 0xbe, 0x7d, 0x47, 0x4c, 0xbe,
  0x46, 0x43, 0x2f, 0x3f, 0x7d, 0x47, 0x4c, 0xbe, 0x46, 0x43, 0x2f, 0x3f,
  0x46, 0x43, 0x2f, 0x3f, 0x7d, 0x47, 0x4c, 0xbe, 0x7d, 0x47, 0x4c, 0xbe,
  0x7d, 0x47, 0x4c, 0xbe, 0x7d, 0x47, 0x4c, 0xbe, 0x7d, 0x47, 0x4c, 0xbe,
  0x46, 0x43, 0x2f, 0x3f, 0x7d, 0x47, 0x4c, 0xbe, 0x7d, 0x47, 0x4c, 0xbe,
  0x7d, 0x47, 0x4c, 0xbe, 0x7d, 0x47, 0x4c, 0xbe, 0x7d, 0x47, 0x4c, 0xbe,
  0x7d, 0x47, 0x4c, 0xbe, 0x7d, 0x47, 0x4c, 0xbe, 0x7d, 0x47, 0x4c, 0xbe,
  0x7d, 0x47, 0x4c, 0xbe, 0x7d, 0x47, 0x4c, 0xbe, 0x7d, 0x47, 0x4c, 0xbe,
  0x7d, 0x47, 0x4c, 0xbe, 0x7d, 0x47, 0x4c, 0xbe, 0x46, 0x43, 0x2f, 0x3f,
  0x7d, 0x47, 0x4c, 0xbe, 0x7d, 0x47, 0x4c, 0xbe, 0x7d, 0x47, 0x4c, 0xbe,
  0x7d, 0x47, 0x4c, 0xbe, 0x7d, 0x47, 0x4c, 0xbe, 0x7d, 0x47, 0x4c, 0xbe,
  0x7d, 0x47, 0x4c, 0xbe, 0x7d, 0x47, 0x4c, 0xbe, 0x7d, 0x47, 0x4c, 0xbe,
  0x7d, 0x47, 0x4c, 0xbe, 0x7d, 0x47, 0x4c, 0xbe, 0x7d, 0x47, 0x4c, 0xbe,
  0x7d, 0x47, 0x4c, 0xbe, 0x7d, 0x47, 0x4c, 0xbe, 0x7d, 0x47, 0x4c, 0xbe,
  0x7d, 0x47, 0x4c, 0xbe, 0x7d, 0x47, 0x4c, 0xbe, 0x7d, 0x47, 0x4c, 0xbe,
  0x46, 0x43, 0x2f, 0x3f, 0x7d, 0x47, 0x4c, 0xbe, 0x7d, 0x47, 0x4c, 0xbe,
  0x7d, 0x47, 0x4c, 0xbe, 0x7d, 0x47, 0x4c, 0xbe, 0x7d, 0x47, 0x4c, 0xbe,
  0x7d, 0x47, 0x4c, 0xbe, 0x7d, 0x47, 0x4c, 0xbe, 0x46, 0x43, 0x2f, 0x3f,
  0x7d, 0x47, 0x4c, 0xbe, 0x7d, 0x47, 0x4c, 0xbe, 0x7d, 0x47, 0x4c, 0xbe,
  0x7d, 0x47, 0x4c, 0xbe, 0x7d, 0x47, 0x4c, 0xbe, 0x7d, 0x47, 0x4c, 0xbe,
  0x26, 0xd1, 0x8f, 0xbf, 0x0d, 0xf9, 0xc7, 0x3f, 0x7d, 0x47, 0x4c, 0xbe,
  0x7d, 0x47, 0x4c, 0xbe, 0x7d, 0x47, 0x4c, 0xbe, 0x7d, 0x47, 0x4c, 0xbe,
  0x46, 0x43, 0x2f, 0x3f, 0x7d, 0x47, 0x4c, 0xbe, 0x7d, 0x47, 0x4c, 0xbe,
  0x7d, 0x47, 0x4c, 0xbe, 0x7d, 0x47, 0x4c, 0xbe, 0x7d, 0x47, 0x4c, 0xbe,
  0x7d, 0x47, 0x4c, 0xbe, 0x46, 0x43, 0x2f, 0x3f, 0x7d, 0x47, 0x4c, 0xbe,
  0x7d, 0x47, 0x4c, 0xbe, 0x7d, 0x47, 0x4c, 0xbe, 0x7d, 0x47, 0x4c, 0xbe,
  0x7d, 0x47, 0x4c, 0xbe, 0x7d, 0x47, 0x4c, 0xbe, 0x7d, 0x47, 0x4c, 0xbe,
  0x7d, 0x47, 0x4c, 0xbe, 0x7d, 0x47, 0x4c, 0xbe, 0x7d, 0x47, 0x4c, 0xbe,
  0x46, 0x43, 0x2f, 0x3f, 0x7d, 0x47, 0x4c, 0xbe, 0x7d, 0x47, 0x4c, 0xbe,
  0x7d, 0x47, 0x4c, 0xbe, 0x46, 0x43, 0x2f, 0x3f, 0x7d, 0x47, 0x4c, 0xbe,
  0x7d, 0x47, 0x4c, 0xbe, 0x7d, 0x47, 0x4c, 0xbe, 0x7d, 0x47, 0x4c, 0xbe,
  0x7d, 0x47, 0x4c, 0xbe, 0x7d, 0x47, 0x4c, 0xbe, 0x7d, 0x47, 0x4c, 0xbe,
  0x7d, 0x47, 0x4c, 0xbe, 0x7d, 0x47, 0x4c, 0xbe, 0x7d, 0x47, 0x4c, 0xbe,
  0x7d, 0x47, 0x4c, 0xbe, 0x7d, 0x47, 0x4c, 0xbe, 0x7d, 0x47, 0x4c, 0xbe,
  0x7d, 0x47, 0x4c, 0xbe, 0x7d, 0x47, 0x4c, 0xbe, 0x7d, 0x47, 0x4c, 0xbe,
  0x46, 0x43, 0x2f, 0x3f, 0x7d, 0x47, 0x4c, 0xbe, 0x7d, 0x47, 0x4c, 0xbe,
  0x7d, 0x47, 0x4c, 0xbe, 0x7d, 0x47, 0x4c, 0xbe, 0x7d, 0x47, 0x4c, 0xbe,
  0x7d, 0x47, 0x4c, 0xbe, 0x7d, 0x47, 0x4c, 0xbe, 0x7d, 0x47, 0x4c, 0xbe,
  0x7d, 0x47, 0x4c, 0xbe, 0x7d, 0x47, 0x4c, 0xbe, 0x7d, 0x47, 0x4c, 0xbe,
  0x7d, 0x47, 0x4c, 0xbe, 0x46, 0x43, 0x2f, 0x3f, 0x7d, 0x47, 0x4c, 0xbe,
  0x26, 0xd1, 0x8f, 0xbf, 0x7d, 0x47, 0x4c, 0xbe, 0x7d, 0x47, 0x4c, 0xbe,
  0x7d, 0x47, 0x4c, 0xbe, 0x7d, 0x47, 0x4c, 0xbe, 0x7d, 0x47, 0x4c, 0xbe,
  0x7d, 0x47, 0x4c, 0xbe, 0x7d, 0x47, 0x4c, 0xbe, 0x7d, 0x47, 0x4c, 0xbe,
  0x7d, 0x47, 0x4c, 0xbe, 0x7d, 0x47, 0x4c, 0xbe, 0x7d, 0x47, 0x4c, 0xbe,
  0x7d, 0x47, 0x4c, 0xbe, 0x7d, 0x47, 0x4c, 0xbe, 0x7d, 0x47, 0x4c, 0xbe,
  0x7d, 0x47, 0x4c, 0xbe, 0x7d, 0x47, 0x4c, 0xbe, 0x7d, 0x47, 0x4c, 0xbe,
  0x7d, 0x47, 0x4c, 0xbe, 0x7d, 0x47, 0x4c, 0xbe, 0x7d, 0x47, 0x4c, 0xbe,
  0x7d, 0x47, 0x4c, 0xbe, 0x7d, 0x47, 0x4c, 0xbe, 0x7d, 0x47, 0x4c, 0xbe,
  0x7d, 0x47, 0x4c, 0xbe, 0x7d, 0x47, 0x4c, 0xbe, 0x7d, 0x47, 0x4c, 0xbe,
  0x7d, 0x47, 0x4c, 0xbe, 0x7d, 0x47, 0x4c, 0xbe, 0x7d, 0x47, 0x4c, 0xbe,
  0x7d, 0x47, 0x4c, 0xbe, 0x7d, 0x47, 0x4c, 0xbe, 0x7d, 0x47, 0x4c, 0xbe,
  0x7d, 0x47, 0x4c, 0xbe, 0x7d, 0x47, 0x4c, 0xbe, 0x7d, 0x47, 0x4c, 0xbe,
  0x7d, 0x47, 0x4c, 0xbe, 0x7d, 0x47, 0x4c, 0xbe, 0x7d, 0x47, 0x4c, 0xbe,
  0x7d, 0x47, 0x4c, 0xbe, 0x7d, 0x47, 0x4c, 0xbe, 0x7d, 0x47, 0x4c, 0xbe,
  0x7d, 0x47, 0x4c, 0xbe, 0x7d, 0x47, 0x4c, 0xbe, 0x7d, 0x47, 0x4c, 0xbe,
  0x7d, 0x47, 0x4c, 0xbe, 0x7d, 0x47, 0x4c, 0xbe, 0x7d, 0x47, 0x4c, 0xbe,
  0x7d, 0x47, 0x4c, 0xbe, 0x7d, 0x47, 0x4c, 0xbe, 0x7d, 0x47, 0x4c, 0xbe,
  0x7d, 0x47, 0x4c, 0xbe, 0x46, 0x43, 0x2f, 0x3f, 0x7d, 0x47, 0x4c, 0xbe,
  0x7d, 0x47, 0x4c, 0xbe, 0x7d, 0x47, 0x4c, 0xbe, 0x7d, 0x47, 0x4c, 0xbe,
  0x7d, 0x47, 0x4c, 0xbe, 0x7d, 0x47, 0x4c, 0xbe, 0x7d, 0x47, 0x4c, 0xbe,
  0x7d, 0x47, 0x4c, 0xbe, 0x46, 0x43, 0x2f, 0x3f, 0x46, 0x43, 0x2f, 0x3f,
  0x7d, 0x47, 0x4c, 0xbe, 0x7d, 0x47, 0x4c, 0xbe, 0x7d, 0x47, 0x4c, 0xbe,
  0x46, 0x43, 0x2f, 0x3f, 0x7d, 0x47, 0x4c, 0xbe, 0x7d, 0x47, 0x4c, 0xbe,
  0x7d, 0x47, 0x4c, 0xbe, 0x7d, 0x47, 0x4c, 0xbe, 0x7d, 0x47, 0x4c, 0xbe,
  0x7d, 0x47, 0x4c, 0xbe, 0x46, 0x43, 0x2f, 0x3f, 0x7d, 0x47, 0x4c, 0xbe,
  0x7d, 0x47, 0x4c, 0xbe, 0x7d, 0x47, 0x4c, 0xbe, 0x46, 0x43, 0x2f, 0x3f,
  0x7d, 0x47, 0x4c, 0xbe, 0x7d, 0x47, 0x4c, 0xbe, 0x7d, 0x47, 0x4c, 0xbe,
  0x7d, 0x47, 0x4c, 0xbe, 0x7d, 0x47, 0x4c, 0xbe, 0x46, 0x43, 0x2f, 0x3f,
  0x7d, 0x47, 0x4c, 0xbe, 0x7d, 0x47, 0x4c, 0xbe, 0x7d, 0x47, 0x4c, 0xbe,
  0x7d, 0x47, 0x4c, 0xbe, 0x7d, 0x47, 0x4c, 0xbe, 0x7d, 0x47, 0x4c, 0xbe,
  0x7d, 0x47, 0x4c, 0xbe, 0x7d, 0x47, 0x4c, 0xbe, 0x7d, 0x47, 0x4c, 0xbe,
  0x7d, 0x47, 0x4c, 0xbe, 0x7d, 0x47, 0x4c, 0xbe, 0x7d, 0x47, 0x4c, 0xbe,
  0x46, 0x43, 0x2f, 0x3f, 0x7d, 0x47, 0x4c, 0xbe, 0x7d, 0x47, 0x4c, 0xbe,
  0x7d, 0x47, 0x4c, 0xbe, 0x7d, 0x47, 0x4c, 0xbe, 0x7d, 0x47, 0x4c, 0xbe,
  0x46, 0x43, 0x2f, 0x3f, 0x46, 0x43, 0x2f, 0x3f, 0x7d, 0x47, 0x4c, 0xbe,
  0x46, 0x43, 0x2f, 0x3f, 0x7d, 0x47, 0x4c, 0xbe, 0x7d, 0x47, 0x4c, 0xbe,
  0x7d, 0x47, 0x4c, 0xbe, 0x7d, 0x47, 0x4c, 0xbe, 0x26, 0xd1, 0x8f, 0xbf,
  0x7d, 0x47, 0x4c, 0xbe, 0x7d, 0x47, 0x4c, 0xbe, 0x7d, 0x47, 0x4c, 0xbe,
  0x7d, 0x47, 0x4c, 0xbe, 0x7d, 0x47, 0x4c, 0xbe, 0x7d, 0x47, 0x4c, 0xbe,
  0x26, 0xd1, 0x8f, 0xbf, 0x7d, 0x47, 0x4c, 0xbe, 0x7d, 0x47, 0x4c, 0xbe,
  0x46, 0x43, 0x2f, 0x3f, 0x7d, 0x47, 0x4c, 0xbe, 0x7d, 0x47, 0x4c, 0xbe,
  0x7d, 0x47, 0x4c, 0xbe, 0x7d, 0x47, 0x4c, 0xbe, 0x7d, 0x47, 0x4c, 0xbe,
  0x7d, 0x47, 0x4c, 0xbe, 0x7d, 0x47, 0x4c, 0xbe, 0x7d, 0x47, 0x4c, 0xbe,
  0x7d, 0x47, 0x4c, 0xbe, 0x46, 0x43, 0x2f, 0x3f, 0x7d, 0x47, 0x4c, 0xbe,
  0x46, 0x43, 0x2f, 0x3f, 0x7d, 0x47, 0x4c, 0xbe, 0x7e, 0xfa, 0xff, 0xff,
  0x10, 0x00, 0x00, 0x00, 0x09, 0x00, 0x00, 0x00, 0x14, 0x00, 0x00, 0x00,
  0x34, 0x00, 0x00, 0x00, 0x02, 0x00, 0x00, 0x00, 0x0a, 0x00, 0x00, 0x00,
  0x1e, 0x00, 0x00, 0x00, 0x1c, 0x00, 0x00, 0x00, 0x73, 0x65, 0x71, 0x75,
  0x65, 0x6e, 0x74, 0x69, 0x61, 0x6c, 0x5f, 0x35, 0x2f, 0x64, 0x65, 0x6e,
  0x73, 0x65, 0x5f, 0x33, 0x31, 0x2f, 0x4d, 0x61, 0x74, 0x4d, 0x75, 0x6c,
  0x00, 0x00, 0x00, 0x00, 0x18, 0xfa, 0xff, 0xff, 0xee, 0xfa, 0xff, 0xff,
  0x04, 0x00, 0x00, 0x00, 0x58, 0x02, 0x00, 0x00, 0x91, 0x52, 0x09, 0xbd,
  0x91, 0x52, 0x09, 0xbd, 0x91, 0x52, 0x09, 0xbd, 0x91, 0x52, 0x09, 0xbd,
  0x91, 0x52, 0x09, 0xbd, 0x91, 0x52, 0x09, 0xbd, 0x63, 0xb3, 0x1b, 0x3f,
  0x91, 0x52, 0x09, 0xbd, 0x91, 0x52, 0x09, 0xbd, 0x91, 0x52, 0x09, 0xbd,
  0x63, 0xb3, 0x1b, 0x3f, 0x63, 0xb3, 0x1b, 0x3f, 0x91, 0x52, 0x09, 0xbd,
  0x91, 0x52, 0x09, 0xbd, 0x91, 0x52, 0x09, 0xbd, 0x91, 0x52, 0x09, 0xbd,
  0x63, 0xb3, 0x1b, 0x3f, 0x91, 0x52, 0x09, 0xbd, 0x91, 0x52, 0x09, 0xbd,
  0x63, 0xb3, 0x1b, 0x3f, 0x91, 0x52, 0x09, 0xbd, 0x91, 0x52, 0x09, 0xbd,
  0x91, 0x52, 0x09, 0xbd, 0x91, 0x52, 0x09, 0xbd, 0x91, 0x52, 0x09, 0xbd,
  0x34, 0xcf, 0x70, 0x3f, 0x91, 0x52, 0x09, 0xbd, 0x91, 0x52, 0x09, 0xbd,
  0x91, 0x52, 0x09, 0xbd, 0x35, 0xfd, 0x1e, 0xbf, 0x35, 0xfd, 0x1e, 0xbf,
  0x91, 0x52, 0x09, 0xbd, 0x91, 0x52, 0x09, 0xbd, 0x63, 0xb3, 0x1b, 0x3f,
  0x91, 0x52, 0x09, 0xbd, 0x35, 0xfd, 0x1e, 0xbf, 0x91, 0x52, 0x09, 0xbd,
  0x91, 0x52, 0x09, 0xbd, 0x91, 0x52, 0x09, 0xbd, 0x91, 0x52, 0x09, 0xbd,
  0x91, 0x52, 0x09, 0xbd, 0x91, 0x52, 0x09, 0xbd, 0x91, 0x52, 0x09, 0xbd,
  0x91, 0x52, 0x09, 0xbd, 0x91, 0x52, 0x09, 0xbd, 0x91, 0x52, 0x09, 0xbd,
  0x63, 0xb3, 0x1b, 0x3f, 0x91, 0x52, 0x09, 0xbd, 0x91, 0x52, 0x09, 0xbd,
  0x91, 0x52, 0x09, 0xbd, 0x91, 0x52, 0x09, 0xbd, 0x91, 0x52, 0x09, 0xbd,
  0x91, 0x52, 0x09, 0xbd, 0x91, 0x52, 0x09, 0xbd, 0x91, 0x52, 0x09, 0xbd,
  0x91, 0x52, 0x09, 0xbd, 0x91, 0x52, 0x09, 0xbd, 0x91, 0x52, 0x09, 0xbd,
  0x91, 0x52, 0x09, 0xbd, 0x91, 0x52, 0x09, 0xbd, 0x91, 0x52, 0x09, 0xbd,
  0x91, 0x52, 0x09, 0xbd, 0x91, 0x52, 0x09, 0xbd, 0x91, 0x52, 0x09, 0xbd,
  0x91, 0x52, 0x09, 0xbd, 0x91, 0x52, 0x09, 0xbd, 0x91, 0x52, 0x09, 0xbd,
  0x63, 0xb3, 0x1b, 0x3f, 0x91, 0x52, 0x09, 0xbd, 0x35, 0xfd, 0x1e, 0xbf,
  0x91, 0x52, 0x09, 0xbd, 0x91, 0x52, 0x09, 0xbd, 0x91, 0x52, 0x09, 0xbd,
  0x91, 0x52, 0x09, 0xbd, 0x63, 0xb3, 0x1b, 0x3f, 0x91, 0x52, 0x09, 0xbd,
  0x91, 0x52, 0x09, 0xbd, 0x91, 0x52, 0x09, 0xbd, 0x91, 0x52, 0x09, 0xbd,
  0x91, 0x52, 0x09, 0xbd, 0x34, 0xcf, 0x70, 0x3f, 0x35, 0xfd, 0x1e, 0xbf,
  0x91, 0x52, 0x09, 0xbd, 0x91, 0x52, 0x09, 0xbd, 0x91, 0x52, 0x09, 0xbd,
  0x35, 0xfd, 0x1e, 0xbf, 0x63, 0xb3, 0x1b, 0x3f, 0x91, 0x52, 0x09, 0xbd,
  0x91, 0x52, 0x09, 0xbd, 0x91, 0x52, 0x09, 0xbd, 0x91, 0x52, 0x09, 0xbd,
  0x63, 0xb3, 0x1b, 0x3f, 0x91, 0x52, 0x09, 0xbd, 0x63, 0xb3, 0x1b, 0x3f,
  0x35, 0xfd, 0x1e, 0xbf, 0x63, 0xb3, 0x1b, 0x3f, 0x91, 0x52, 0x09, 0xbd,
  0x91, 0x52, 0x09, 0xbd, 0x91, 0x52, 0x09, 0xbd, 0x91, 0x52, 0x09, 0xbd,
  0x91, 0x52, 0x09, 0xbd, 0x91, 0x52, 0x09, 0xbd, 0x91, 0x52, 0x09, 0xbd,
  0x91, 0x52, 0x09, 0xbd, 0x91, 0x52, 0x09, 0xbd, 0x63, 0xb3, 0x1b, 0x3f,
  0x91, 0x52, 0x09, 0xbd, 0x91, 0x52, 0x09, 0xbd, 0x91, 0x52, 0x09, 0xbd,
  0x91, 0x52, 0x09, 0xbd, 0x91, 0x52, 0x09, 0xbd, 0x91, 0x52, 0x09, 0xbd,
  0x91, 0x52, 0x09, 0xbd, 0x63, 0xb3, 0x1b, 0x3f, 0x63, 0xb3, 0x1b, 0x3f,
  0x91, 0x52, 0x09, 0xbd, 0x91, 0x52, 0x09, 0xbd, 0x63, 0xb3, 0x1b, 0x3f,
  0x91, 0x52, 0x09, 0xbd, 0x91, 0x52, 0x09, 0xbd, 0x91, 0x52, 0x09, 0xbd,
  0x91, 0x52, 0x09, 0xbd, 0x91, 0x52, 0x09, 0xbd, 0x91, 0x52, 0x09, 0xbd,
  0x91, 0x52, 0x09, 0xbd, 0x91, 0x52, 0x09, 0xbd, 0x63, 0xb3, 0x1b, 0x3f,
  0x91, 0x52, 0x09, 0xbd, 0x91, 0x52, 0x09, 0xbd, 0x91, 0x52, 0x09, 0xbd,
  0x63, 0xb3, 0x1b, 0x3f, 0x91, 0x52, 0x09, 0xbd, 0x91, 0x52, 0x09, 0xbd,
  0x91, 0x52, 0x09, 0xbd, 0x91, 0x52, 0x09, 0xbd, 0x91, 0x52, 0x09, 0xbd,
  0x91, 0x52, 0x09, 0xbd, 0x91, 0x52, 0x09, 0xbd, 0x91, 0x52, 0x09, 0xbd,
  0x91, 0x52, 0x09, 0xbd, 0x91, 0x52, 0x09, 0xbd, 0x91, 0x52, 0x09, 0xbd,
  0x91, 0x52, 0x09, 0xbd, 0x91, 0x52, 0x09, 0xbd, 0x63, 0xb3, 0x1b, 0x3f,
  0x91, 0x52, 0x09, 0xbd, 0x63, 0xb3, 0x1b, 0x3f, 0x91, 0x52, 0x09, 0xbd,
  0x91, 0x52, 0x09, 0xbd, 0x91, 0x52, 0x09, 0xbd, 0x2a, 0xfd, 0xff, 0xff,
  0x10, 0x00, 0x00, 0x00, 0x08, 0x00, 0x00, 0x00, 0x14, 0x00, 0x00, 0x00,
  0x34, 0x00, 0x00, 0x00, 0x02, 0x00, 0x00, 0x00, 0x1e, 0x00, 0x00, 0x00,
  0x05, 0x00, 0x00, 0x00, 0x1c, 0x00, 0x00, 0x00, 0x73, 0x65, 0x71, 0x75,
  0x65, 0x6e, 0x74, 0x69, 0x61, 0x6c, 0x5f, 0x35, 0x2f, 0x64, 0x65, 0x6e,
  0x73, 0x65, 0x5f, 0x33, 0x30, 0x2f, 0x4d, 0x61, 0x74, 0x4d, 0x75, 0x6c,
  0x00, 0x00, 0x00, 0x00, 0xc4, 0xfc, 0xff, 0xff, 0x9a, 0xfd, 0xff, 0xff,
  0x04, 0x00, 0x00, 0x00, 0x78, 0x00, 0x00, 0x00, 0xa8, 0xea, 0xbb, 0xbc,
  0x53, 0xe2, 0x6f, 0x3e, 0x36, 0xe1, 0x43, 0x3c, 0x25, 0x2e, 0xe9, 0x3c,
  0x5f, 0x7e, 0xc7, 0xbc, 0x6c, 0x1e, 0x55, 0x3d, 0xbb, 0x14, 0x51, 0x3e,
  0x2e, 0x21, 0xc8, 0xbc, 0xd7, 0x78, 0x95, 0xbd, 0xed, 0x17, 0x2d, 0x3e,
  0x5f, 0x7e, 0xc7, 0xbc, 0xb3, 0x31, 0xd5, 0xbc, 0x5f, 0x7e, 0xc7, 0xbc,
  0xe6, 0x6a, 0x5c, 0x3e, 0xdd, 0xbb, 0x17, 0x3d, 0x56, 0x1e, 0x2a, 0xbd,
  0xfc, 0x6c, 0x04, 0x3e, 0x55, 0x42, 0x8e, 0x3e, 0x89, 0x39, 0xa2, 0x3d,
  0x14, 0xf8, 0xdc, 0x3c, 0x5f, 0x7e, 0xc7, 0xbc, 0x84, 0x88, 0xad, 0x3c,
  0x7a, 0xce, 0xb8, 0x3d, 0x08, 0x11, 0x1a, 0x3e, 0x5f, 0x7e, 0xc7, 0xbc,
  0x91, 0xde, 0x87, 0x3d, 0x0e, 0xda, 0xcc, 0xbc, 0xe8, 0x3c, 0x05, 0x3e,
  0x65, 0x06, 0x20, 0x3d, 0xf6, 0xe6, 0x3b, 0x3e, 0xf6, 0xfd, 0xff, 0xff,
  0x10, 0x00, 0x00, 0x00, 0x07, 0x00, 0x00, 0x00, 0x10, 0x00, 0x00, 0x00,
  0x18, 0x00, 0x00, 0x00, 0x01, 0x00, 0x00, 0x00, 0x1e, 0x00, 0x00, 0x00,
  0x04, 0x00, 0x00, 0x00, 0x62, 0x69, 0x61, 0x73, 0x00, 0x00, 0x00, 0x00,
  0x74, 0xfd, 0xff, 0xff, 0x4a, 0xfe, 0xff, 0xff, 0x04, 0x00, 0x00, 0x00,
  0x28, 0x00, 0x00, 0x00, 0x00, 0x00, 0x00, 0x00, 0xaa, 0xf0, 0x9f, 0x3d,
  0x00, 0x00, 0x00, 0x00, 0x93, 0xd5, 0x9b, 0x3e, 0x40, 0xfc, 0xca, 0xbc,
  0x3c, 0x64, 0x82, 0x3e, 0x78, 0x51, 0xa9, 0xbc, 0xc1, 0x7a, 0xc7, 0x3d,
  0xdc, 0x02, 0x67, 0x3d, 0x0f, 0x53, 0x07, 0x3e, 0x56, 0xfe, 0xff, 0xff,
  0x10, 0x00, 0x00, 0x00, 0x06, 0x00, 0x00, 0x00, 0x10, 0x00, 0x00, 0x00,
  0x18, 0x00, 0x00, 0x00, 0x01, 0x00, 0x00, 0x00, 0x0a, 0x00, 0x00, 0x00,
  0x06, 0x00, 0x00, 0x00, 0x62, 0x69, 0x61, 0x73, 0x5f, 0x31, 0x00, 0x00,
  0xd4, 0xfd, 0xff, 0xff, 0xaa, 0xfe, 0xff, 0xff, 0x04, 0x00, 0x00, 0x00,
  0x08, 0x00, 0x00, 0x00, 0x8a, 0x8e, 0x78, 0x3b, 0xf0, 0x4c, 0xce, 0x3a,
  0x96, 0xfe, 0xff, 0xff, 0x10, 0x00, 0x00, 0x00, 0x05, 0x00, 0x00, 0x00,
  0x10, 0x00, 0x00, 0x00, 0x18, 0x00, 0x00, 0x00, 0x01, 0x00, 0x00, 0x00,
  0x02, 0x00, 0x00, 0x00, 0x06, 0x00, 0x00, 0x00, 0x62, 0x69, 0x61, 0x73,
  0x5f, 0x32, 0x00, 0x00, 0x14, 0xfe, 0xff, 0xff, 0xea, 0xfe, 0xff, 0xff,
  0x04, 0x00, 0x00, 0x00, 0x28, 0x00, 0x00, 0x00, 0x3f, 0x14, 0xd9, 0xbc,
  0x91, 0x58, 0x99, 0x3e, 0xbe, 0xb3, 0x45, 0x3d, 0x9c, 0x5e, 0x80, 0xbd,
  0x41, 0x62, 0xb5, 0xbd, 0xb2, 0xbe, 0xcf, 0xbd, 0x42, 0xa9, 0x31, 0x3a,
  0x5c, 0x9f, 0xc9, 0xbb, 0x32, 0x2f, 0x05, 0xbd, 0x11, 0x7a, 0xa3, 0xbd,
  0xf6, 0xfe, 0xff, 0xff, 0x10, 0x00, 0x00, 0x00, 0x04, 0x00, 0x00, 0x00,
  0x10, 0x00, 0x00, 0x00, 0x18, 0x00, 0x00, 0x00, 0x01, 0x00, 0x00, 0x00,
  0x0a, 0x00, 0x00, 0x00, 0x06, 0x00, 0x00, 0x00, 0x62, 0x69, 0x61, 0x73,
  0x5f, 0x33, 0x00, 0x00, 0x74, 0xfe, 0xff, 0xff, 0x4a, 0xff, 0xff, 0xff,
  0x04, 0x00, 0x00, 0x00, 0x78, 0x00, 0x00, 0x00, 0x34, 0x9e, 0xfb, 0xbc,
  0x68, 0x24, 0x2d, 0xbe, 0x72, 0xac, 0x6e, 0xbe, 0x39, 0x1d, 0x13, 0xbd,
  0x4f, 0x51, 0x44, 0xbe, 0x98, 0xbe, 0x08, 0xbe, 0x11, 0x37, 0x69, 0xbe,
  0xd1, 0xd2, 0x35, 0xbe, 0x0b, 0x84, 0xce, 0xbd, 0xb6, 0xe2, 0xe3, 0xbd,
  0xca, 0x4d, 0x23, 0xbe, 0x89, 0x1e, 0x65, 0xbe, 0x38, 0x3f, 0x3f, 0xbe,
  0xa4, 0x9d, 0x76, 0xbd, 0x83, 0xa8, 0x4f, 0xbe, 0x8b, 0xb6, 0xf4, 0xbd,
  0x55, 0xb6, 0x25, 0xbe, 0xcd, 0x7b, 0xf9, 0xbc, 0x24, 0xa3, 0x6a, 0xbe,
  0xe7, 0xfe, 0xf2, 0xbb, 0x75, 0x3c, 0x99, 0xba, 0xf2, 0x21, 0x80, 0xbe,
  0x81, 0x02, 0xe7, 0xbd, 0x5d, 0x55, 0x37, 0xbe, 0x7e, 0x3d, 0x09, 0xbe,
  0x9a, 0x76, 0x47, 0xbd, 0x1d, 0x55, 0xec, 0xbd, 0xcd, 0x89, 0x43, 0xbe,
  0x26, 0xdf, 0x45, 0xbe, 0x46, 0x3e, 0x78, 0xbd, 0xa6, 0xff, 0xff, 0xff,
  0x10, 0x00, 0x00, 0x00, 0x03, 0x00, 0x00, 0x00, 0x10, 0x00, 0x00, 0x00,
  0x1c, 0x00, 0x00, 0x00, 0x01, 0x00, 0x00, 0x00, 0x1e, 0x00, 0x00, 0x00,
  0x06, 0x00, 0x00, 0x00, 0x62, 0x69, 0x61, 0x73, 0x5f, 0x34, 0x00, 0x00,
  0x04, 0x00, 0x06, 0x00, 0x04, 0x00, 0x00, 0x00, 0x00, 0x00, 0x06, 0x00,
  0x08, 0x00, 0x04, 0x00, 0x06, 0x00, 0x00, 0x00, 0x04, 0x00, 0x00, 0x00,
  0x14, 0x00, 0x00, 0x00, 0xc6, 0xe6, 0x1d, 0x3d, 0x86, 0x6d, 0xe7, 0x3c,
  0x5c, 0x9a, 0x0f, 0xbd, 0xd5, 0x26, 0x4a, 0x3d, 0xa0, 0x24, 0x25, 0x3d,
  0x00, 0x00, 0x0e, 0x00, 0x14, 0x00, 0x04, 0x00, 0x00, 0x00, 0x08, 0x00,
  0x0c, 0x00, 0x10, 0x00, 0x0e, 0x00, 0x00, 0x00, 0x10, 0x00, 0x00, 0x00,
  0x02, 0x00, 0x00, 0x00, 0x10, 0x00, 0x00, 0x00, 0x18, 0x00, 0x00, 0x00,
  0x01, 0x00, 0x00, 0x00, 0x05, 0x00, 0x00, 0x00, 0x06, 0x00, 0x00, 0x00,
  0x62, 0x69, 0x61, 0x73, 0x5f, 0x35, 0x00, 0x00, 0x8c, 0xff, 0xff, 0xff,
  0x14, 0x00, 0x18, 0x00, 0x04, 0x00, 0x00, 0x00, 0x08, 0x00, 0x0c, 0x00,
  0x10, 0x00, 0x00, 0x00, 0x00, 0x00, 0x14, 0x00, 0x14, 0x00, 0x00, 0x00,
  0x14, 0x00, 0x00, 0x00, 0x01, 0x00, 0x00, 0x00, 0x18, 0x00, 0x00, 0x00,
  0x48, 0x00, 0x00, 0x00, 0x38, 0x00, 0x00, 0x00, 0x02, 0x00, 0x00, 0x00,
  0x01, 0x00, 0x00, 0x00, 0x05, 0x00, 0x00, 0x00, 0x20, 0x00, 0x00, 0x00,
  0x73, 0x65, 0x72, 0x76, 0x69, 0x6e, 0x67, 0x5f, 0x64, 0x65, 0x66, 0x61,
  0x75, 0x6c, 0x74, 0x5f, 0x64, 0x65, 0x6e, 0x73, 0x65, 0x5f, 0x33, 0x30,
  0x5f, 0x69, 0x6e, 0x70, 0x75, 0x74, 0x3a, 0x30, 0x00, 0x00, 0x00, 0x00,
  0x02, 0x00, 0x00, 0x00, 0xff, 0xff, 0xff, 0xff, 0x05, 0x00, 0x00, 0x00,
  0xfc, 0xff, 0xff, 0xff, 0x04, 0x00, 0x04, 0x00, 0x04, 0x00, 0x00, 0x00
};
const int g_model_len = 6984;
